{
  "version": "1.0",
  "truncation": null,
  "padding": null,
  "added_tokens": [
    {
      "id": 0,
      "content": "<unk>",
      "single_word": false,
      "lstrip": false,
      "rstrip": false,
      "normalized": false,
      "special": true
    },
    {
      "id": 1,
      "content": "<s>",
      "single_word": false,
      "lstrip": false,
      "rstrip": false,
      "normalized": false,
      "special": true
    },
    {
      "id": 2,
      "content": "</s>",
      "single_word": false,
      "lstrip": false,
      "rstrip": false,
      "normalized": false,
      "special": true
    },
    {
      "id": 3,
      "content": "<|im_start|>",
      "single_word": false,
      "lstrip": false,
      "rstrip": false,
      "normalized": false,
      "special": true
    },
    {
      "id": 4,
      "content": "<|im_end|>",
      "single_word": false,
      "lstrip": false,
      "rstrip": false,
      "normalized": false,
      "special": true
    },
    {
      "id": 5,
      "content": "<pad>",
      "single_word": false,
      "lstrip": false,
      "rstrip": false,
      "normalized": false,
      "special": true
    }
  ],
  "normalizer": {
    "type": "NFKC"
  },
  "pre_tokenizer": {
    "type": "ByteLevel",
    "add_prefix_space": false,
    "trim_offsets": true,
    "use_regex": true
  },
  "post_processor": null,
  "decoder": {
    "type": "ByteLevel",
    "add_prefix_space": true,
    "trim_offsets": true,
    "use_regex": true
  },
  "model": {
    "type": "BPE",
    "dropout": null,
    "unk_token": "<unk>",
    "continuing_subword_prefix": null,
    "end_of_word_suffix": null,
    "fuse_unk": false,
    "byte_fallback": false,
    "ignore_merges": false,
    "vocab": {
      "<unk>": 0,
      "<s>": 1,
      "</s>": 2,
      "<|im_start|>": 3,
      "<|im_end|>": 4,
      "<pad>": 5,
      "!": 6,
      "\"": 7,
      "#": 8,
      "$": 9,
      "%": 10,
      "&": 11,
      "'": 12,
      "(": 13,
      ")": 14,
      "*": 15,
      "+": 16,
      ",": 17,
      "-": 18,
      ".": 19,
      "/": 20,
      "0": 21,
      "1": 22,
      "2": 23,
      "3": 24,
      "4": 25,
      "5": 26,
      "6": 27,
      "7": 28,
      "8": 29,
      "9": 30,
      ":": 31,
      ";": 32,
      "<": 33,
      "=": 34,
      ">": 35,
      "?": 36,
      "@": 37,
      "A": 38,
      "B": 39,
      "C": 40,
      "D": 41,
      "E": 42,
      "F": 43,
      "G": 44,
      "H": 45,
      "I": 46,
      "J": 47,
      "K": 48,
      "L": 49,
      "M": 50,
      "N": 51,
      "O": 52,
      "P": 53,
      "Q": 54,
      "R": 55,
      "S": 56,
      "T": 57,
      "U": 58,
      "V": 59,
      "W": 60,
      "X": 61,
      "Y": 62,
      "Z": 63,
      "[": 64,
      "\\": 65,
      "]": 66,
      "^": 67,
      "_": 68,
      "`": 69,
      "a": 70,
      "b": 71,
      "c": 72,
      "d": 73,
      "e": 74,
      "f": 75,
      "g": 76,
      "h": 77,
      "i": 78,
      "j": 79,
      "k": 80,
      "l": 81,
      "m": 82,
      "n": 83,
      "o": 84,
      "p": 85,
      "q": 86,
      "r": 87,
      "s": 88,
      "t": 89,
      "u": 90,
      "v": 91,
      "w": 92,
      "x": 93,
      "y": 94,
      "z": 95,
      "{": 96,
      "|": 97,
      "}": 98,
      "~": 99,
      "¡": 100,
      "¢": 101,
      "£": 102,
      "¤": 103,
      "¥": 104,
      "¦": 105,
      "§": 106,
      "¨": 107,
      "©": 108,
      "ª": 109,
      "«": 110,
      "¬": 111,
      "®": 112,
      "¯": 113,
      "°": 114,
      "±": 115,
      "²": 116,
      "³": 117,
      "´": 118,
      "µ": 119,
      "¶": 120,
      "·": 121,
      "¸": 122,
      "¹": 123,
      "º": 124,
      "»": 125,
      "¼": 126,
      "½": 127,
      "¾": 128,
      "¿": 129,
      "À": 130,
      "Á": 131,
      "Â": 132,
      "Ã": 133,
      "Ä": 134,
      "Å": 135,
      "Æ": 136,
      "Ç": 137,
      "È": 138,
      "É": 139,
      "Ê": 140,
      "Ë": 141,
      "Ì": 142,
      "Í": 143,
      "Î": 144,
      "Ï": 145,
      "Ð": 146,
      "Ñ": 147,
      "Ò": 148,
      "Ó": 149,
      "Ô": 150,
      "Õ": 151,
      "Ö": 152,
      "×": 153,
      "Ø": 154,
      "Ù": 155,
      "Ú": 156,
      "Û": 157,
      "Ü": 158,
      "Ý": 159,
      "Þ": 160,
      "ß": 161,
      "à": 162,
      "á": 163,
      "â": 164,
      "ã": 165,
      "ä": 166,
      "å": 167,
      "æ": 168,
      "ç": 169,
      "è": 170,
      "é": 171,
      "ê": 172,
      "ë": 173,
      "ì": 174,
      "í": 175,
      "î": 176,
      "ï": 177,
      "ð": 178,
      "ñ": 179,
      "ò": 180,
      "ó": 181,
      "ô": 182,
      "õ": 183,
      "ö": 184,
      "÷": 185,
      "ø": 186,
      "ù": 187,
      "ú": 188,
      "û": 189,
      "ü": 190,
      "ý": 191,
      "þ": 192,
      "ÿ": 193,
      "Ā": 194,
      "ā": 195,
      "Ă": 196,
      "ă": 197,
      "Ą": 198,
      "ą": 199,
      "Ć": 200,
      "ć": 201,
      "Ĉ": 202,
      "ĉ": 203,
      "Ċ": 204,
      "ċ": 205,
      "Č": 206,
      "č": 207,
      "Ď": 208,
      "ď": 209,
      "Đ": 210,
      "đ": 211,
      "Ē": 212,
      "ē": 213,
      "Ĕ": 214,
      "ĕ": 215,
      "Ė": 216,
      "ė": 217,
      "Ę": 218,
      "ę": 219,
      "Ě": 220,
      "ě": 221,
      "Ĝ": 222,
      "ĝ": 223,
      "Ğ": 224,
      "ğ": 225,
      "Ġ": 226,
      "ġ": 227,
      "Ģ": 228,
      "ģ": 229,
      "Ĥ": 230,
      "ĥ": 231,
      "Ħ": 232,
      "ħ": 233,
      "Ĩ": 234,
      "ĩ": 235,
      "Ī": 236,
      "ī": 237,
      "Ĭ": 238,
      "ĭ": 239,
      "Į": 240,
      "į": 241,
      "İ": 242,
      "ı": 243,
      "Ĳ": 244,
      "ĳ": 245,
      "Ĵ": 246,
      "ĵ": 247,
      "Ķ": 248,
      "ķ": 249,
      "ĸ": 250,
      "Ĺ": 251,
      "ĺ": 252,
      "Ļ": 253,
      "ļ": 254,
      "Ľ": 255,
      "ľ": 256,
      "Ŀ": 257,
      "ŀ": 258,
      "Ł": 259,
      "ł": 260,
      "Ń": 261,
      "ä¸": 262,
      "ãĢ": 263,
      "çļ": 264,
      "çļĦ": 265,
      "äº": 266,
      "ãĢĤ": 267,
      "æľ": 268,
      "åı": 269,
      "åħ": 270,
      "ä»": 271,
      "å¤": 272,
      "ãĢģ": 273,
      "å®": 274,
      "åĪ": 275,
      "ä½": 276,
      "è¿": 277,
      "çĶ": 278,
      "åľ": 279,
      "åĲ": 280,
      "åĬ": 281,
      "æĺ": 282,
      "ç»": 283,
      "åĽ": 284,
      "æĪ": 285,
      "æĸ": 286,
      "ä¹": 287,
      "ä¼": 288,
      "ä¸Ģ": 289,
      "å¹": 290,
      "å°": 291,
      "æĺ¯": 292,
      "åŃ": 293,
      "è®": 294,
      "æĹ": 295,
      "âĢ": 296,
      "åį": 297,
      "å·": 298,
      "æľī": 299,
      "è¯": 300,
      "åľ¨": 301,
      "éĩ": 302,
      "æĿ": 303,
      "äºº": 304,
      "åĮ": 305,
      "ä¸į": 306,
      "å¸": 307,
      "åº": 308,
      "ä¸Ń": 309,
      "å¼": 310,
      "æī": 311,
      "éĢ": 312,
      "åĴ": 313,
      "è¡": 314,
      "å¾": 315,
      "åĨ": 316,
      "èĢ": 317,
      "å¯": 318,
      "åĴĮ": 319,
      "åĩ": 320,
      "äºĨ": 321,
      "å±": 322,
      "æķ": 323,
      "ĥ½": 324,
      "æĢ": 325,
      "å¤§": 326,
      "çĽ": 327,
      "æĬ": 328,
      "æ°": 329,
      "è´": 330,
      "ä¸º": 331,
      "ç§": 332,
      "æł": 333,
      "åĽ½": 334,
      "è§": 335,
      "çĶŁ": 336,
      "çİ": 337,
      "è¦": 338,
      "ä¸ļ": 339,
      "çī": 340,
      "ä»¥": 341,
      "èµ": 342,
      "å¥": 343,
      "æĶ": 344,
      "å¿": 345,
      "è¦ģ": 346,
      "éĻ": 347,
      "åŃ¦": 348,
      "éĿ": 349,
      "åıĳ": 350,
      "èĩ": 351,
      "å¹´": 352,
      "ä¼ļ": 353,
      "åİ": 354,
      "çĶ¨": 355,
      "æŃ": 356,
      "æ³": 357,
      "çŃ": 358,
      "çĲ": 359,
      "ä¿": 360,
      "å½": 361,
      "èĥ½": 362,
      "éĹ": 363,
      "çº": 364,
      "æ²": 365,
      "å·¥": 366,
      "ä¸Ĭ": 367,
      "ä½ľ": 368,
      "åĳ": 369,
      "æİ": 370,
      "æµ": 371,
      "æŀ": 372,
      "æĹ¶": 373,
      "ä¸ª": 374,
      "âĢľ": 375,
      "âĢĿ": 376,
      "æĪĲ": 377,
      "è¡Į": 378,
      "è¿Ļ": 379,
      "åĵ": 380,
      "åı¯": 381,
      "é¢": 382,
      "æĪĳ": 383,
      "åĪ°": 384,
      "æ¯": 385,
      "å¯¹": 386,
      "æĮ": 387,
      "åĩº": 388,
      "åŁ": 389,
      "æĥ": 390,
      "è¾": 391,
      "éĺ": 392,
      "é«": 393,
      "å®¶": 394,
      "äºİ": 395,
      "çĲĨ": 396,
      "çľ": 397,
      "åī": 398,
      "é«ĺ": 399,
      "èĤ": 400,
      "äº§": 401,
      "æĿ¥": 402,
      "æ±": 403,
      "çŃī": 404,
      "åľ°": 405,
      "å¤ļ": 406,
      "æĦ": 407,
      "åĮĸ": 408,
      "æĭ": 409,
      "æĸ¹": 410,
      "åħ¨": 411,
      "åĪĨ": 412,
      "åĬĽ": 413,
      "è¿Ľ": 414,
      "è½": 415,
      "éģ": 416,
      "èĩª": 417,
      "ä½ĵ": 418,
      "æĸ°": 419,
      "å»": 420,
      "ç®": 421,
      "æĢ§": 422,
      "ä¾": 423,
      "æ´": 424,
      "åĬ¨": 425,
      "ç«": 426,
      "å®ŀ": 427,
      "ç»ı": 428,
      "åħ¬": 429,
      "æ¸": 430,
      "è¿ĩ": 431,
      "ä¹Ł": 432,
      "çİ°": 433,
      "éĥ": 434,
      "ä»¬": 435,
      "ç¨": 436,
      "å¦": 437,
      "å°±": 438,
      "å±ķ": 439,
      "åĲİ": 440,
      "åĲĪ": 441,
      "éķ": 442,
      "ä¸»": 443,
      "çĻ": 444,
      "çĤ": 445,
      "åģ": 446,
      "ä¸ĭ": 447,
      "éĿ¢": 448,
      "æı": 449,
      "éĩį": 450,
      "é£": 451,
      "æ¬": 452,
      "ç½": 453,
      "æĽ": 454,
      "å»º": 455,
      "å®ļ": 456,
      "ä»ĸ": 457,
      "æľº": 458,
      "åĵģ": 459,
      "éĥ¨": 460,
      "åĲĮ": 461,
      "å¥½": 462,
      "é¡": 463,
      "ä¸İ": 464,
      "è®¾": 465,
      "èī": 466,
      "æ³ķ": 467,
      "å¿ĥ": 468,
      "åĬł": 469,
      "å¸Ĥ": 470,
      "ä¹ĭ": 471,
      "åº¦": 472,
      "èģ": 473,
      "ç¤": 474,
      "æ°´": 475,
      "èĢĮ": 476,
      "å¼Ģ": 477,
      "çĹ": 478,
      "éĽ": 479,
      "åŃĲ": 480,
      "å¢": 481,
      "æĻ": 482,
      "åħ¶": 483,
      "åĪ¶": 484,
      "æľ¬": 485,
      "å¾Ĺ": 486,
      "20": 487,
      "åĢ": 488,
      "èĢħ": 489,
      "éĩı": 490,
      "è¶": 491,
      "çĸ": 492,
      "è·": 493,
      "éķ¿": 494,
      "ç¬": 495,
      "çŁ": 496,
      "çī©": 497,
      "æıĲ": 498,
      "è°": 499,
      "å¦Ĥ": 500,
      "åĿ": 501,
      "åĬ¡": 502,
      "åħ³": 503,
      "ä¿Ŀ": 504,
      "æīĢ": 505,
      "äºĭ": 506,
      "ç®¡": 507,
      "åıĬ": 508,
      "ç¾": 509,
      "åīį": 510,
      "æĹ¥": 511,
      "åºĶ": 512,
      "éļ": 513,
      "æ¶": 514,
      "éĢļ": 515,
      "æį": 516,
      "çĿ": 517,
      "åĨħ": 518,
      "éĥ½": 519,
      "ç³": 520,
      "çĶµ": 521,
      "æķĻ": 522,
      "å§": 523,
      "çł": 524,
      "åľº": 525,
      "ç©": 526,
      "æĥħ": 527,
      "ç§į": 528,
      "èĬ": 529,
      "çķ": 530,
      "åĽł": 531,
      "å°ı": 532,
      "ç²": 533,
      "æľĪ": 534,
      "æĸĩ": 535,
      "æŁ": 536,
      "çĦ": 537,
      "å¤ĸ": 538,
      "ç´": 539,
      "ç¨ĭ": 540,
      "åĮº": 541,
      "æ°ĳ": 542,
      "åıĳå±ķ": 543,
      "å¹³": 544,
      "èĲ": 545,
      "æľĢ": 546,
      "æĬĢ": 547,
      "çĥ": 548,
      "éľ": 549,
      "èµĦ": 550,
      "éħ": 551,
      "ç§ĳ": 552,
      "æĽ´": 553,
      "çĽ®": 554,
      "éĹ´": 555,
      "ä½į": 556,
      "çĽ¸": 557,
      "åĳĺ": 558,
      "è´¨": 559,
      "å·¥ä½ľ": 560,
      "å¤©": 561,
      "æĦı": 562,
      "ä¸ŃåĽ½": 563,
      "å°Ĩ": 564,
      "åħ¥": 565,
      "æ¯Ķ": 566,
      "æľ¯": 567,
      "å¸¸": 568,
      "ç¡": 569,
      "æľŁ": 570,
      "ç³»": 571,
      "å®ī": 572,
      "çĤ¹": 573,
      "ä»£": 574,
      "ä½¿": 575,
      "ç¬¬": 576,
      "è¡¨": 577,
      "ç±": 578,
      "æĶ¿": 579,
      "éĶ": 580,
      "Ĥ£": 581,
      "è¯´": 582,
      "å¼º": 583,
      "å¾Ī": 584,
      "ä¸ī": 585,
      "æ·": 586,
      "èĥ": 587,
      "å½ĵ": 588,
      "åı¸": 589,
      "æ´»": 590,
      "è¿ĺ": 591,
      "éģĵ": 592,
      "çī¹": 593,
      "æŀľ": 594,
      "ä¼ģ": 595,
      "æ²»": 596,
      "éĩĳ": 597,
      "èµ·": 598,
      "ä»İ": 599,
      "å¹¶": 600,
      "åı¯ä»¥": 601,
      "èį": 602,
      "æģ": 603,
      "æĺİ": 604,
      "åĪ©": 605,
      "ç¥": 606,
      "æ¬¡": 607,
      "çĦ¶": 608,
      "æŃ¤": 609,
      "èĪ": 610,
      "çĿĢ": 611,
      "ä¿¡": 612,
      "åŁº": 613,
      "ãĢĭ": 614,
      "ãĢĬ": 615,
      "ä½Ĩ": 616,
      "ä¸ĵ": 617,
      "æĪĳä»¬": 618,
      "åĲĦ": 619,
      "éĴ": 620,
      "æĪĸ": 621,
      "åħ¬åı¸": 622,
      "è®¡": 623,
      "é£İ": 624,
      "éĻ¢": 625,
      "ä¼ģä¸ļ": 626,
      "æĮģ": 627,
      "åĲį": 628,
      "æľį": 629,
      "æķ°": 630,
      "éĵ": 631,
      "æĹł": 632,
      "åħļ": 633,
      "ç¾İ": 634,
      "çĹħ": 635,
      "äºĽ": 636,
      "è§Ħ": 637,
      "ä¸Ģä¸ª": 638,
      "å¼ı": 639,
      "çģ": 640,
      "èĭ": 641,
      "ä½ł": 642,
      "è§£": 643,
      "æŃ£": 644,
      "ç»ĵ": 645,
      "èĤ²": 646,
      "é¦": 647,
      "ç¼": 648,
      "è¢": 649,
      "éĢł": 650,
      "å¯¼": 651,
      "è£": 652,
      "éľĢ": 653,
      "èº": 654,
      "åķ": 655,
      "å£": 656,
      "ç¤¾": 657,
      "æº": 658,
      "äºĮ": 659,
      "èī²": 660,
      "åŀ": 661,
      "åĸ": 662,
      "æ¡": 663,
      "ä»»": 664,
      "ç»Ł": 665,
      "çĪ": 666,
      "æ±Ĥ": 667,
      "æ°Ķ": 668,
      "é¢ĺ": 669,
      "åħ·": 670,
      "èĦ": 671,
      "åģļ": 672,
      "åįģ": 673,
      "åĮ»": 674,
      "é¡¹": 675,
      "åĪĽ": 676,
      "çłĶ": 677,
      "00": 678,
      "çľĭ": 679,
      "åħĥ": 680,
      "éĩĮ": 681,
      "ç«ĭ": 682,
      "èº«": 683,
      "æłĩ": 684,
      "ç¦": 685,
      "å¢ŀ": 686,
      "æĦŁ": 687,
      "å¤Ħ": 688,
      "æĥ³": 689,
      "æķĪ": 690,
      "ç½ĳ": 691,
      "æµģ": 692,
      "æį®": 693,
      "æİ¥": 694,
      "è¿Ĳ": 695,
      "çĶ±": 696,
      "ç²¾": 697,
      "éĹ®": 698,
      "æīĭ": 699,
      "ç»Ħ": 700,
      "ä¹Ī": 701,
      "ä»¶": 702,
      "åİ»": 703,
      "æł·": 704,
      "éĹ¨": 705,
      "æł¡": 706,
      "è¢«": 707,
      "èĮ": 708,
      "å·±": 709,
      "è½¦": 710,
      "æĸĻ": 711,
      "åĲĳ": 712,
      "ä¼ł": 713,
      "æ»": 714,
      "çĲĥ": 715,
      "çĻ½": 716,
      "éª": 717,
      "åİŁ": 718,
      "æĬĢæľ¯": 719,
      "æĢ»": 720,
      "é¢Ĩ": 721,
      "åıĹ": 722,
      "è¥": 723,
      "å¤ĩ": 724,
      "æ²¡": 725,
      "å·²": 726,
      "åħ±": 727,
      "è·¯": 728,
      "èĩªå·±": 729,
      "çº§": 730,
      "äº¤": 731,
      "è¥¿": 732,
      "åķĨ": 733,
      "å½¢": 734,
      "çİ¯": 735,
      "æµ·": 736,
      "æł¼": 737,
      "åŀĭ": 738,
      "å½±": 739,
      "ä¸¤": 740,
      "ç®¡çĲĨ": 741,
      "çŁ¥": 742,
      "é©": 743,
      "æ£": 744,
      "éĺ²": 745,
      "æľįåĬ¡": 746,
      "åįķ": 747,
      "çľģ": 748,
      "åħĪ": 749,
      "ç±»": 750,
      "åĽ½å®¶": 751,
      "è¿Ľè¡Į": 752,
      "åıĺ": 753,
      "é»": 754,
      "è°ĥ": 755,
      "æİ¨": 756,
      "å°ĳ": 757,
      "ä¼ĺ": 758,
      "ä¸ĩ": 759,
      "éĽĨ": 760,
      "æĶ¹": 761,
      "åĻ": 762,
      "éĺŁ": 763,
      "èģĶ": 764,
      "èİ": 765,
      "æ·±": 766,
      "èĩ³": 767,
      "æ¢": 768,
      "å¹¿": 769,
      "èĻ": 770,
      "ä¹ł": 771,
      "ä¸ĸ": 772,
      "ç¤º": 773,
      "æĶ¶": 774,
      "éĤ£": 775,
      "è¾ĥ": 776,
      "å¸Ī": 777,
      "äº§åĵģ": 778,
      "æ®": 779,
      "åıª": 780,
      "å»ºè®¾": 781,
      "æĮĩ": 782,
      "æŀĦ": 783,
      "çĸĹ": 784,
      "æĬ¥": 785,
      "ç¤¾ä¼ļ": 786,
      "æīį": 787,
      "åŁİ": 788,
      "é£Ł": 789,
      "æĸ½": 790,
      "æºĲ": 791,
      "æĶ¾": 792,
      "å®Į": 793,
      "åįĹ": 794,
      "ä¹¦": 795,
      "å±±": 796,
      "ä¸ľ": 797,
      "åıĸ": 798,
      "åı£": 799,
      "ä¾Ľ": 800,
      "éĢī": 801,
      "çĥŃ": 802,
      "èµĽ": 803,
      "è®¤": 804,
      "çº¿": 805,
      "åĻ¨": 806,
      "è¾¾": 807,
      "èĬĤ": 808,
      "æ¨": 809,
      "æ³¨": 810,
      "èĲ¥": 811,
      "èĢģ": 812,
      "è®°": 813,
      "è®©": 814,
      "åĽĽ": 815,
      "å¸¦": 816,
      "ä»·": 817,
      "ç¥ŀ": 818,
      "è¿ĳ": 819,
      "æ¼": 820,
      "å®¹": 821,
      "çĬ": 822,
      "èĢĥ": 823,
      "è£ħ": 824,
      "ç¡®": 825,
      "éĿŀ": 826,
      "æĪĺ": 827,
      "åĮĹ": 828,
      "çķĮ": 829,
      "éĹ®é¢ĺ": 830,
      "åĩĨ": 831,
      "æĿ¡": 832,
      "åĪ«": 833,
      "æĬ¤": 834,
      "å§Ķ": 835,
      "åħī": 836,
      "åı°": 837,
      "æķĻèĤ²": 838,
      "èħ": 839,
      "è¯ģ": 840,
      "å²": 841,
      "åĽ¢": 842,
      "çħ": 843,
      "åĨ³": 844,
      "æ¯ı": 845,
      "æµİ": 846,
      "ç´ł": 847,
      "å¢ĥ": 848,
      "çĽ´": 849,
      "åĬŁ": 850,
      "æĢĿ": 851,
      "æķ´": 852,
      "æ²¡æľī": 853,
      "æīĵ": 854,
      "æĺĵ": 855,
      "è±": 856,
      "å¥³": 857,
      "æŃ¥": 858,
      "æĶ¯": 859,
      "ä½İ": 860,
      "äºĶ": 861,
      "ä¹ī": 862,
      "æĬĬ": 863,
      "åĶ": 864,
      "201": 865,
      "ç©º": 866,
      "æ¸ħ": 867,
      "åĽŀ": 868,
      "ç©¶": 869,
      "åħ»": 870,
      "æĿĲ": 871,
      "å±Ģ": 872,
      "èģĮ": 873,
      "çľŁ": 874,
      "åĮħ": 875,
      "è§Ĥ": 876,
      "ä½¿çĶ¨": 877,
      "ç»Ļ": 878,
      "çĶŁäº§": 879,
      "åĭ": 880,
      "è´¹": 881,
      "æ¶Ī": 882,
      "è§Ĩ": 883,
      "æĬķ": 884,
      "å®ĥ": 885,
      "åĬŀ": 886,
      "å¼ķ": 887,
      "æĪ·": 888,
      "éĻħ": 889,
      "éľĢè¦ģ": 890,
      "å¤´": 891,
      "ç»ıæµİ": 892,
      "é¥": 893,
      "æģ¯": 894,
      "Ġ,": 895,
      "èį¯": 896,
      "å¿«": 897,
      "å¸Ĥåľº": 898,
      "å¤į": 899,
      "è¯¥": 900,
      "åĬ©": 901,
      "ç§¯": 902,
      "æł¹": 903,
      "çİĩ": 904,
      "è¨": 905,
      "æŁ¥": 906,
      "ç»´": 907,
      "éĢļè¿ĩ": 908,
      "å°±æĺ¯": 909,
      "åıĤ": 910,
      "è®®": 911,
      "éĢŁ": 912,
      "ä»Ĭ": 913,
      "è¯Ĩ": 914,
      "è´£": 915,
      "èĩ´": 916,
      "è§ģ": 917,
      "åįĩ": 918,
      "å¿ħ": 919,
      "è®º": 920,
      "åĿļ": 921,
      "éĩįè¦ģ": 922,
      "å¹²": 923,
      "åĨį": 924,
      "çĶŁæ´»": 925,
      "æĢģ": 926,
      "åįİ": 927,
      "å¸ĥ": 928,
      "å®¢": 929,
      "æĤ£": 930,
      "çłĶç©¶": 931,
      "å®īåħ¨": 932,
      "èı": 933,
      "çı": 934,
      "æĤ": 935,
      "è½¬": 936,
      "åĨµ": 937,
      "éªĮ": 938,
      "æĸŃ": 939,
      "æŀģ": 940,
      "åĦ": 941,
      "åıį": 942,
      "åİĨ": 943,
      "ä¸ĵä¸ļ": 944,
      "ç»Ń": 945,
      "æĸ¯": 946,
      "ä¸»è¦ģ": 947,
      "è¶Ĭ": 948,
      "æİ§": 949,
      "èĬ±": 950,
      "è¶³": 951,
      "æ¸©": 952,
      "åĳ½": 953,
      "æħ": 954,
      "éĻĲ": 955,
      "å¦Ĥæŀľ": 956,
      "åĵį": 957,
      "éŁ": 958,
      "åģ¥": 959,
      "è¯Ŀ": 960,
      "10": 961,
      "æĹ¶éĹ´": 962,
      "çĪ±": 963,
      "å¾·": 964,
      "å¡": 965,
      "æ¹": 966,
      "èĳ": 967,
      "æ£Ģ": 968,
      "æĿĥ": 969,
      "ä½ķ": 970,
      "ä¸Ķ": 971,
      "æ¸¸": 972,
      "çĭ": 973,
      "éĢĤ": 974,
      "è¯ķ": 975,
      "å·ŀ": 976,
      "èĮĥ": 977,
      "é¡¹çĽ®": 978,
      "æ¨¡": 979,
      "ç¢": 980,
      "åİĭ": 981,
      "ä»ĸä»¬": 982,
      "åĢ¼": 983,
      "çļĦäºº": 984,
      "åĨľ": 985,
      "èİ·": 986,
      "éĩĩ": 987,
      "æİĴ": 988,
      "éļ¾": 989,
      "çª": 990,
      "ä»Ģ": 991,
      "è¶ħ": 992,
      "æ¡Ī": 993,
      "åŁŁ": 994,
      "åĪĻ": 995,
      "æľª": 996,
      "å·¥ç¨ĭ": 997,
      "æĸ¹éĿ¢": 998,
      "é¦ĸ": 999,
      "åĳĬ": 1000,
      "åº·": 1001,
      "åĬ¿": 1002,
      "åı²": 1003,
      "çĬ¶": 1004,
      "æĸĩåĮĸ": 1005,
      "å§ĭ": 1006,
      "åĨĽ": 1007,
      "è¡Ģ": 1008,
      "äººæ°ĳ": 1009,
      "åŃĺ": 1010,
      "ç§°": 1011,
      "åħĭ": 1012,
      "ç»ĩ": 1013,
      "ä¸¥": 1014,
      "âĢĿ,": 1015,
      "èŀ": 1016,
      "åĳ¨": 1017,
      "æ²¹": 1018,
      "åıĪ": 1019,
      "ç³»ç»Ł": 1020,
      "æ²»çĸĹ": 1021,
      "æĺ¾": 1022,
      "åĦ¿": 1023,
      "é©¬": 1024,
      "ä¼Ĺ": 1025,
      "è¦ģæ±Ĥ": 1026,
      "ä¸ĸçķĮ": 1027,
      "æµĭ": 1028,
      "éĻ¤": 1029,
      "åħ·æľī": 1030,
      "åĪĴ": 1031,
      "éħį": 1032,
      "çļ®": 1033,
      "ä¾¿": 1034,
      "æıĲä¾Ľ": 1035,
      "åŃĹ": 1036,
      "å¥¹": 1037,
      "å½±åĵį": 1038,
      "åı¯èĥ½": 1039,
      "æ±Ł": 1040,
      "çİ¯å¢ĥ": 1041,
      "19": 1042,
      "åŃ¦çĶŁ": 1043,
      "è¿Ļä¸ª": 1044,
      "æĥħåĨµ": 1045,
      "æĪ¿": 1046,
      "ä»Ģä¹Ī": 1047,
      "åŁ¹": 1048,
      "è¡Įä¸ļ": 1049,
      "ä¹Ĳ": 1050,
      "åĢĻ": 1051,
      "åĪĩ": 1052,
      "è´¨éĩı": 1053,
      "åįı": 1054,
      "çĽĳ": 1055,
      "éĿĴ": 1056,
      "âĢĶ": 1057,
      "ç»Ĩ": 1058,
      "èīº": 1059,
      "èĲ½": 1060,
      "åŃ¦ä¹ł": 1061,
      "å¥½çļĦ": 1062,
      "åĲĮæĹ¶": 1063,
      "çħ§": 1064,
      "ç«Ļ": 1065,
      "ç±³": 1066,
      "çĮ": 1067,
      "è®¾è®¡": 1068,
      "åľŁ": 1069,
      "åĽłä¸º": 1070,
      "çīĩ": 1071,
      "è®¾å¤ĩ": 1072,
      "å¼ł": 1073,
      "çģ«": 1074,
      "æľĽ": 1075,
      "çº¦": 1076,
      "çİĭ": 1077,
      "é¾": 1078,
      "äº§ä¸ļ": 1079,
      "å±Ĥ": 1080,
      "äº¬": 1081,
      "èĥ½åĬĽ": 1082,
      "ãĢĤâĢĿ": 1083,
      "çŁ³": 1084,
      "å±ŀ": 1085,
      "å£«": 1086,
      "æĴ": 1087,
      "æļ": 1088,
      "æ´»åĬ¨": 1089,
      "æīĢä»¥": 1090,
      "é¢Ħ": 1091,
      "å¤±": 1092,
      "å¤ª": 1093,
      "å°Ķ": 1094,
      "æ¥": 1095,
      "æĳ": 1096,
      "è±¡": 1097,
      "æī¿": 1098,
      "åĩł": 1099,
      "åį³": 1100,
      "éĻį": 1101,
      "éĶĢ": 1102,
      "åĪĽæĸ°": 1103,
      "åºľ": 1104,
      "æĺ¯ä¸Ģ": 1105,
      "åĸĦ": 1106,
      "çº¢": 1107,
      "èµ°": 1108,
      "ä»¥åıĬ": 1109,
      "æ®µ": 1110,
      "çĽĬ": 1111,
      "ç»Ħç»ĩ": 1112,
      "éļı": 1113,
      "ä¾Ŀ": 1114,
      "æĿ¿": 1115,
      "æıĲé«ĺ": 1116,
      "ç¦»": 1117,
      "æ»¡": 1118,
      "åħħ": 1119,
      "ç½®": 1120,
      "æĤ£èĢħ": 1121,
      "æ¼Ķ": 1122,
      "çĻ¾": 1123,
      "æĿĳ": 1124,
      "æł¸": 1125,
      "åħį": 1126,
      "èŀį": 1127,
      "ä¿¡æģ¯": 1128,
      "ä»ħ": 1129,
      "åĥ": 1130,
      "èī¯": 1131,
      "åĪĹ": 1132,
      "æĵ": 1133,
      "å®¤": 1134,
      "çļĦä¸Ģ": 1135,
      "å¨": 1136,
      "ä½ľä¸º": 1137,
      "çīĮ": 1138,
      "åł": 1139,
      "å¯Į": 1140,
      "æŀĹ": 1141,
      "ä¸įåĲĮ": 1142,
      "éĿ©": 1143,
      "å¤§çļĦ": 1144,
      "åĩı": 1145,
      "æĻº": 1146,
      "éĤ": 1147,
      "å¤Ł": 1148,
      "ç²¾ç¥ŀ": 1149,
      "è´Ł": 1150,
      "å¾Ģ": 1151,
      "éĻ©": 1152,
      "æĻ¯": 1153,
      "è¯Ħ": 1154,
      "æ¿": 1155,
      "äººåĳĺ": 1156,
      "äºī": 1157,
      "ä¾ĭ": 1158,
      "ä¸Ńå¿ĥ": 1159,
      "äº¿": 1160,
      "çŃĸ": 1161,
      "è¿Ļæł·": 1162,
      "äººçļĦ": 1163,
      "ä½ľçĶ¨": 1164,
      "æĪĲä¸º": 1165,
      "ä¸ŃçļĦ": 1166,
      "è¨Ģ": 1167,
      "åŃ¦æł¡": 1168,
      "åŃ©": 1169,
      "äºļ": 1170,
      "åĽ´": 1171,
      "éĺ³": 1172,
      "å¾Īå¤ļ": 1173,
      "ä¿®": 1174,
      "åİ¿": 1175,
      "å¾ĭ": 1176,
      "å¿µ": 1177,
      "ç¾¤": 1178,
      "åı·": 1179,
      "æĶ¿åºľ": 1180,
      "è®¸": 1181,
      "åĩºçİ°": 1182,
      "æĮī": 1183,
      "æĲ": 1184,
      "åĽ½éĻħ": 1185,
      "å¿Ĺ": 1186,
      "ä½ı": 1187,
      "æĭ©": 1188,
      "ä¹Łæĺ¯": 1189,
      "åĽ¾": 1190,
      "åĲ«": 1191,
      "åıĭ": 1192,
      "å¤§åŃ¦": 1193,
      "è¿ŀ": 1194,
      "éĿŀå¸¸": 1195,
      "å®ŀçİ°": 1196,
      "åĽŃ": 1197,
      "åĲĥ": 1198,
      "ç®Ĺ": 1199,
      "ç»Ī": 1200,
      "æĹ©": 1201,
      "å®³": 1202,
      "çĹĩ": 1203,
      "æĿĲæĸĻ": 1204,
      "ä»½": 1205,
      "ç¬¬ä¸Ģ": 1206,
      "âĢĿãĢĤ": 1207,
      "æ²³": 1208,
      "è¿ĻäºĽ": 1209,
      "ä¸Ģå®ļ": 1210,
      "æĭī": 1211,
      "ä¸ĢäºĽ": 1212,
      "éĢīæĭ©": 1213,
      "å·²ç»ı": 1214,
      "çĽ¸åħ³": 1215,
      "åıĮ": 1216,
      "ç§ĳåŃ¦": 1217,
      "å¯Ĩ": 1218,
      "èª": 1219,
      "è¯Ń": 1220,
      "å¯¹äºİ": 1221,
      "è¿ľ": 1222,
      "åĿĩ": 1223,
      "åģ¥åº·": 1224,
      "èĩªå·±çļĦ": 1225,
      "åħ¨åĽ½": 1226,
      "èĤ¡": 1227,
      "èĪ¬": 1228,
      "ç§ĳæĬĢ": 1229,
      "äºĴ": 1230,
      "è§Ĵ": 1231,
      "æŁĵ": 1232,
      "éħĴ": 1233,
      "è§ī": 1234,
      "æ¿Ģ": 1235,
      "æĻ®": 1236,
      "è¿ĩç¨ĭ": 1237,
      "åĲĪä½ľ": 1238,
      "åħ¶ä»ĸ": 1239,
      "é»Ħ": 1240,
      "åĤ": 1241,
      "ä¸įæĸŃ": 1242,
      "åħ´": 1243,
      "æł¹æį®": 1244,
      "æĹ¶åĢĻ": 1245,
      "é¡»": 1246,
      "åĽłæŃ¤": 1247,
      "è´¢": 1248,
      "åĶ®": 1249,
      "è®²": 1250,
      "éĴ¢": 1251,
      "å¤ĦçĲĨ": 1252,
      "æĹı": 1253,
      "ĠãĢĤ": 1254,
      "ä½Ĩæĺ¯": 1255,
      "çĽ®åīį": 1256,
      "çŃĳ": 1257,
      "å¾®": 1258,
      "ä¸įæĺ¯": 1259,
      "è¯·": 1260,
      "å©": 1261,
      "åŁİå¸Ĥ": 1262,
      "ä»¥ä¸Ĭ": 1263,
      "çĨ": 1264,
      "åı¤": 1265,
      "ä¸įèĥ½": 1266,
      "æĬķèµĦ": 1267,
      "åĲ¸": 1268,
      "æłĩåĩĨ": 1269,
      "åıĳçĶŁ": 1270,
      "æķħ": 1271,
      "åĪ°äºĨ": 1272,
      "èĭ±": 1273,
      "åįķä½į": 1274,
      "è½»": 1275,
      "èŃ": 1276,
      "éĥ¨éĹ¨": 1277,
      "12": 1278,
      "åĥı": 1279,
      "åŁºç¡": 1280,
      "ç¦ı": 1281,
      "çľ¼": 1282,
      "éħ¸": 1283,
      "ç¨³": 1284,
      "åŁºç¡Ģ": 1285,
      "ä¸¾": 1286,
      "æĸ¹å¼ı": 1287,
      "èĨ": 1288,
      "æī¹": 1289,
      "éŁ³": 1290,
      "åŃ©åŃĲ": 1291,
      "åĪĿ": 1292,
      "çĸ«": 1293,
      "å±ħ": 1294,
      "æĿİ": 1295,
      "è¯¾": 1296,
      "éĥ¨åĪĨ": 1297,
      "è®Ń": 1298,
      "æŃ¢": 1299,
      "æ¤": 1300,
      "å¤§å®¶": 1301,
      "åºĶçĶ¨": 1302,
      "çĵ": 1303,
      "è¾¹": 1304,
      "éĵ¶": 1305,
      "é¦Ļ": 1306,
      "åŃ£": 1307,
      "éĵģ": 1308,
      "ä¸»ä¹ī": 1309,
      "è¡¨ç¤º": 1310,
      "åĮ»éĻ¢": 1311,
      "æĬĹ": 1312,
      "åī¯": 1313,
      "ä¼¤": 1314,
      "åħ¶ä¸Ń": 1315,
      "200": 1316,
      "æ¬¾": 1317,
      "çĩ": 1318,
      "åĳ³": 1319,
      "çºª": 1320,
      "æľ¨": 1321,
      "åİĤ": 1322,
      "çĶ·": 1323,
      "èĥ½å¤Ł": 1324,
      "æĭ¬": 1325,
      "ä¸ĢèĪ¬": 1326,
      "å°½": 1327,
      "æķ°æį®": 1328,
      "åİĨåı²": 1329,
      "èģļ": 1330,
      "éļľ": 1331,
      "çªģ": 1332,
      "éĥ½æĺ¯": 1333,
      "å£°": 1334,
      "åºķ": 1335,
      "çļĦæĺ¯": 1336,
      "å»ºçŃĳ": 1337,
      "åį«": 1338,
      "å®¡": 1339,
      "ç®Ģ": 1340,
      "è¾ĵ": 1341,
      "å¥ĸ": 1342,
      "å·¥ä¸ļ": 1343,
      "çķ¥": 1344,
      "æĭħ": 1345,
      "åħ«": 1346,
      "11": 1347,
      "æĸ¹æ³ķ": 1348,
      "åīĤ": 1349,
      "çł´": 1350,
      "å¼Ģå§ĭ": 1351,
      "æľīéĻĲ": 1352,
      "åħ¨éĿ¢": 1353,
      "åįĬ": 1354,
      "ç£": 1355,
      "ä»ĭ": 1356,
      "çĻ½çĻ": 1357,
      "çıŃ": 1358,
      "è¿Ļç§į": 1359,
      "ľé£İ": 1360,
      "å®Ŀ": 1361,
      "æ½": 1362,
      "å®ĺ": 1363,
      "é²": 1364,
      ":âĢľ": 1365,
      "çĻ½çĻľé£İ": 1366,
      "å¼Ģå±ķ": 1367,
      "æ¶²": 1368,
      "ä¿ĥ": 1369,
      "åĮħæĭ¬": 1370,
      "åĬŁèĥ½": 1371,
      "ĠãĢģ": 1372,
      "äº²": 1373,
      "æĺŁ": 1374,
      "æ±½": 1375,
      "èµĦæºĲ": 1376,
      "è¡¥": 1377,
      "é¾Ļ": 1378,
      "å¸Į": 1379,
      "åĿļæĮģ": 1380,
      "éĽĨåĽ¢": 1381,
      "å®£": 1382,
      "éĨ": 1383,
      "æĪĸèĢħ": 1384,
      "å¿ħé¡»": 1385,
      "åĸľ": 1386,
      "æ±¡": 1387,
      "è§Ħå®ļ": 1388,
      "èİ·å¾Ĺ": 1389,
      "æĹħ": 1390,
      "æ¯Ĵ": 1391,
      "åį°": 1392,
      "æĪĳåĽ½": 1393,
      "ç§¯æŀģ": 1394,
      "ç¼º": 1395,
      "æĺ¥": 1396,
      "çĶ±äºİ": 1397,
      "åľ°åĮº": 1398,
      "æ°´å¹³": 1399,
      "èĴ": 1400,
      "æĽ¾": 1401,
      "ç½Ĺ": 1402,
      "ç¿": 1403,
      "åį´": 1404,
      "åįļ": 1405,
      "ä¿ĿæĬ¤": 1406,
      "ä»£è¡¨": 1407,
      "åĨ·": 1408,
      "èĹ": 1409,
      "ä¸´": 1410,
      "åħŃ": 1411,
      "ç»ĵæŀĦ": 1412,
      "çİ°åľ¨": 1413,
      "é¢ĨåŁŁ": 1414,
      "é¢Ĩå¯¼": 1415,
      "æľºæŀĦ": 1416,
      "çķĻ": 1417,
      "æī§": 1418,
      "åī§": 1419,
      "ç¾İåĽ½": 1420,
      "æıĲåįĩ": 1421,
      "å¢ŀéķ¿": 1422,
      "çĶ»": 1423,
      "åĮĹäº¬": 1424,
      "æ¯Ķè¾ĥ": 1425,
      "åĬłå¼º": 1426,
      "ç»§": 1427,
      "çĭ¬": 1428,
      "æ³¨æĦı": 1429,
      "ç¯": 1430,
      "30": 1431,
      "æŀĲ": 1432,
      "å·®": 1433,
      "ä½Ļ": 1434,
      "ä¸ĢæŃ¥": 1435,
      "éĢģ": 1436,
      "202": 1437,
      "çĸ¾": 1438,
      "åı¦": 1439,
      "å¸®": 1440,
      "åįł": 1441,
      "åĬ³": 1442,
      "æĹ¶ä»£": 1443,
      "ç´§": 1444,
      "å·´": 1445,
      "è´Ń": 1446,
      "ç¨İ": 1447,
      "éº": 1448,
      "äºĳ": 1449,
      "åĽº": 1450,
      "äºĨè§£": 1451,
      "å¾ģ": 1452,
      "15": 1453,
      "æİ§åĪ¶": 1454,
      "å¢ŀåĬł": 1455,
      "å¤®": 1456,
      "èĳĹ": 1457,
      "ç»¼": 1458,
      "ä¸ªäºº": 1459,
      "è´£ä»»": 1460,
      "ä¸°": 1461,
      "ä¹¡": 1462,
      "æįŁ": 1463,
      "ç»ľ": 1464,
      "å¹³åı°": 1465,
      "å®¢æĪ·": 1466,
      "å½¢æĪĲ": 1467,
      "åŁºæľ¬": 1468,
      "çĤİ": 1469,
      "ç¬¬äºĮ": 1470,
      "åįĥ": 1471,
      "é»ĳ": 1472,
      "æŃ¦": 1473,
      "æ¦": 1474,
      "å¾ħ": 1475,
      "è¿ĺæĺ¯": 1476,
      "æĢĿæĥ³": 1477,
      "ç»¿": 1478,
      "åŃ¦éĻ¢": 1479,
      "å®ĮæĪĲ": 1480,
      "åĪ»": 1481,
      "çİ°ä»£": 1482,
      "åħ³ç³»": 1483,
      "å¼Ĥ": 1484,
      "æ¹ĸ": 1485,
      "åĵģçīĮ": 1486,
      "æŁĲ": 1487,
      "å¹´çļĦ": 1488,
      "æĶ¹éĿ©": 1489,
      "æķĻåŃ¦": 1490,
      "çĤº": 1491,
      "æ¬¢": 1492,
      "ä¸įä¼ļ": 1493,
      "åĨħå®¹": 1494,
      "é¥®": 1495,
      "æ¸¯": 1496,
      "èĢĮä¸Ķ": 1497,
      "å¯¼èĩ´": 1498,
      "çº³": 1499,
      "çŁŃ": 1500,
      "é¼": 1501,
      "è§£åĨ³": 1502,
      "å¯Ł": 1503,
      "éľĢæ±Ĥ": 1504,
      "é¸": 1505,
      "æľīéĻĲåħ¬åı¸": 1506,
      "æĶ¿çŃĸ": 1507,
      "æľīæķĪ": 1508,
      "äººæīį": 1509,
      "åºĹ": 1510,
      "ç«ŀ": 1511,
      "åĽ½åĨħ": 1512,
      "éķĩ": 1513,
      "éĤ£ä¹Ī": 1514,
      "åĪ¶éĢł": 1515,
      "åıĳçİ°": 1516,
      "æłĳ": 1517,
      "æĶ¿æ²»": 1518,
      "åĩ»": 1519,
      "æ¯į": 1520,
      "è®¤ä¸º": 1521,
      "é¢Ŀ": 1522,
      "åĪĨæŀĲ": 1523,
      "èĮ¶": 1524,
      "èĢĲ": 1525,
      "æī¾": 1526,
      "åı¥": 1527,
      "æİ¨è¿Ľ": 1528,
      "è´§": 1529,
      "ä½ĵç³»": 1530,
      "æĸ°çļĦ": 1531,
      "èĥľ": 1532,
      "åĲĦç§į": 1533,
      "ä¸ĬçļĦ": 1534,
      "æŃ»": 1535,
      "éģ¿": 1536,
      "çĶ³": 1537,
      "åĲ¦": 1538,
      "äº§çĶŁ": 1539,
      "åį¡": 1540,
      "ç»ıèĲ¥": 1541,
      "åĨł": 1542,
      "èĻ½": 1543,
      "å¸ĮæľĽ": 1544,
      "åĪ©çĶ¨": 1545,
      "å°Ħ": 1546,
      "æĮ¥": 1547,
      "æĽ´åĬł": 1548,
      "æ¢¦": 1549,
      "æ³¢": 1550,
      "ä¸ºäºĨ": 1551,
      "éĩįçĤ¹": 1552,
      "åĨĻ": 1553,
      "è¿Ļä¸Ģ": 1554,
      "ç»¼åĲĪ": 1555,
      "èĩªçĦ¶": 1556,
      "æľīåħ³": 1557,
      "çĹĽ": 1558,
      "),": 1559,
      "ä¼ļè®®": 1560,
      "åĪ¶åº¦": 1561,
      "å²ģ": 1562,
      "æĿ¥çļĦ": 1563,
      "ç½ĳç»ľ": 1564,
      ",âĢľ": 1565,
      "ç¼ĸ": 1566,
      "çĽ®æłĩ": 1567,
      "ç§»": 1568,
      "åŃĺåľ¨": 1569,
      "å®ŀæĸ½": 1570,
      "å¼Ģåıĳ": 1571,
      "åħļçļĦ": 1572,
      "ç«¯": 1573,
      "éĢłæĪĲ": 1574,
      "èĪª": 1575,
      "æľĥ": 1576,
      "çĶ¨äºİ": 1577,
      "æİ¨åĬ¨": 1578,
      "ç»Ŀ": 1579,
      "éģĩ": 1580,
      "åħ°": 1581,
      "åį±": 1582,
      "ä»¤": 1583,
      "éĩĩçĶ¨": 1584,
      "æį¢": 1585,
      "å®¹æĺĵ": 1586,
      "æ±ī": 1587,
      "éĴŁ": 1588,
      "æĶ¯æĮģ": 1589,
      "æĭ¥": 1590,
      "éĺ¿": 1591,
      "ä¼łç»Ł": 1592,
      "çīĽ": 1593,
      "å½ķ": 1594,
      "ä¸Ńå¤®": 1595,
      "ä¹¦è®°": 1596,
      "æ°§": 1597,
      "æĸĹ": 1598,
      "çī¹èī²": 1599,
      "æ¶Īè´¹": 1600,
      "ä¹ĭåĲİ": 1601,
      "çŁ¥éģĵ": 1602,
      "åĲ¬": 1603,
      "åº§": 1604,
      "æīĢæľī": 1605,
      "èĭı": 1606,
      "ç§Ģ": 1607,
      "æĦ¿": 1608,
      "çļĦæĹ¶åĢĻ": 1609,
      "äºĨä¸Ģ": 1610,
      "çĸ¾çĹħ": 1611,
      "çŁ¥è¯Ĩ": 1612,
      "èıľ": 1613,
      "æĴŃ": 1614,
      "ä¸įä»ħ": 1615,
      "ç«ł": 1616,
      "æķĪæŀľ": 1617,
      "è¯»": 1618,
      "å¦Ĥä½ķ": 1619,
      "æ±½è½¦": 1620,
      "æĭĽ": 1621,
      "ä¹Ŀ": 1622,
      "æĤ¨": 1623,
      "çī¹åĪ«": 1624,
      "æ¬§": 1625,
      "æĿ¡ä»¶": 1626,
      "åĵª": 1627,
      "æ¤į": 1628,
      "ä¸ļåĬ¡": 1629,
      "åºŃ": 1630,
      "å®Ī": 1631,
      "ä¿ĿæĮģ": 1632,
      "æ´Ĺ": 1633,
      "åºĶè¯¥": 1634,
      "èĽ": 1635,
      "è¾¾åĪ°": 1636,
      "éĸ": 1637,
      "çĮ®": 1638,
      "æĩ": 1639,
      "å»ºç«ĭ": 1640,
      "åľ°æĸ¹": 1641,
      "çīĪ": 1642,
      "åĬª": 1643,
      "Â·": 1644,
      "ç»ĵåĲĪ": 1645,
      "æĢ¥": 1646,
      "éĢĲ": 1647,
      "å±Ĭ": 1648,
      "è¿Ľä¸ĢæŃ¥": 1649,
      "å®ŀéĻħ": 1650,
      "èŃ¦": 1651,
      "èĤī": 1652,
      "æĪı": 1653,
      "åĽ°": 1654,
      "çĶļ": 1655,
      "èįī": 1656,
      "äº¿åħĥ": 1657,
      "è´Łè´£": 1658,
      "èģĮä¸ļ": 1659,
      "æĢİ": 1660,
      "å¤«": 1661,
      "ç²ī": 1662,
      "ä»·æł¼": 1663,
      "é¢ĳ": 1664,
      "åºı": 1665,
      "æĵį": 1666,
      "å³": 1667,
      "100": 1668,
      "èº«ä½ĵ": 1669,
      "è¿°": 1670,
      "âĢĶâĢĶ": 1671,
      "ä»į": 1672,
      "åºĬ": 1673,
      "æĿ¥è¯´": 1674,
      "å·¦": 1675,
      "çĿ£": 1676,
      "åĩĢ": 1677,
      "å½©": 1678,
      "è¿ĺæľī": 1679,
      "åĬªåĬĽ": 1680,
      "è¿Ļæĺ¯": 1681,
      "åĳ¢": 1682,
      "è·µ": 1683,
      "%,": 1684,
      "æıĲåĩº": 1685,
      "æĮģç»Ń": 1686,
      "èīºæľ¯": 1687,
      "åıĸå¾Ĺ": 1688,
      "50": 1689,
      "ä¹ħ": 1690,
      "è²": 1691,
      "ä¸Ģèµ·": 1692,
      "ä¸įè¦ģ": 1693,
      "æİĪ": 1694,
      "è½®": 1695,
      "åı³": 1696,
      "ä»·åĢ¼": 1697,
      "ä»ª": 1698,
      "ä¹°": 1699,
      "æĻĤ": 1700,
      "åŁ¹åħ»": 1701,
      "ç»į": 1702,
      "åħ¨çĲĥ": 1703,
      "éĻĪ": 1704,
      "é£ŀ": 1705,
      "åİŁåĽł": 1706,
      "çĶ²": 1707,
      "åª": 1708,
      "çµ": 1709,
      "æİª": 1710,
      "ä¹ĭä¸Ģ": 1711,
      "è¿½": 1712,
      "ä¼ĺåĬ¿": 1713,
      "ãĢĮ": 1714,
      "æ´²": 1715,
      "è½¯": 1716,
      "ä¸ĥ": 1717,
      "ä¿ĥè¿Ľ": 1718,
      "éĿł": 1719,
      "éĺ¶": 1720,
      "æ¯ĶèµĽ": 1721,
      "é½": 1722,
      "æĶ»": 1723,
      "é¤": 1724,
      "éĶĢåĶ®": 1725,
      "æĻºèĥ½": 1726,
      "ãĢį": 1727,
      "éĴĪ": 1728,
      "åģľ": 1729,
      "æĪĺçķ¥": 1730,
      "ç¨³å®ļ": 1731,
      "æ¢°": 1732,
      "å¡ĳ": 1733,
      "èĻ½çĦ¶": 1734,
      "ä¸Ĭæµ·": 1735,
      "çĽ´æİ¥": 1736,
      "ç»©": 1737,
      "ä¿Ŀéļľ": 1738,
      "é¡º": 1739,
      "å¸®åĬ©": 1740,
      "èĤ¤": 1741,
      "äººä»¬": 1742,
      "18": 1743,
      "è®¡åĪĴ": 1744,
      "äºĭä¸ļ": 1745,
      "æĪĲåĬŁ": 1746,
      "æĽ´å¤ļ": 1747,
      "è¿ĲåĬ¨": 1748,
      "è´µ": 1749,
      "é£Łåĵģ": 1750,
      "ç´¢": 1751,
      "èĸ": 1752,
      "å¥ĭ": 1753,
      "æ£ĢæŁ¥": 1754,
      "å¸Ń": 1755,
      "åıªæľī": 1756,
      "å®ģ": 1757,
      "æ©": 1758,
      "éĴ±": 1759,
      "äºĪ": 1760,
      "æĭ¥æľī": 1761,
      "è·Ł": 1762,
      "å°¼": 1763,
      "çĻ»": 1764,
      "è¿Ľåħ¥": 1765,
      "éĶ®": 1766,
      "åħ¸": 1767,
      "è¯Ĭ": 1768,
      "æķ£": 1769,
      "å¥ĩ": 1770,
      "åĨ²": 1771,
      "åıĤåĬł": 1772,
      "å¥Ĺ": 1773,
      "éļıçĿĢ": 1774,
      "åħ±åĲĮ": 1775,
      "çĪ¶": 1776,
      "èĦĳ": 1777,
      "ç»ĥ": 1778,
      "åĪĺ": 1779,
      "è¡Įä¸º": 1780,
      "æħ¢": 1781,
      "èıĮ": 1782,
      "éĢı": 1783,
      "æķĻå¸Ī": 1784,
      "èĦ±": 1785,
      "çĶŁæĢģ": 1786,
      "é¦Ĩ": 1787,
      "è¯ī": 1788,
      "è½½": 1789,
      "ä¼¼": 1790,
      "å§Ķåĳĺ": 1791,
      "è§ĦåĪĴ": 1792,
      "éĢĻ": 1793,
      "èĵ": 1794,
      "ä¹ĭéĹ´": 1795,
      "éĢĢ": 1796,
      "ç¶": 1797,
      "æĻļ": 1798,
      "æ°ĳæĹı": 1799,
      "èį£": 1800,
      "è¿ĩç¨ĭä¸Ń": 1801,
      "çĶļèĩ³": 1802,
      "æ³Ľ": 1803,
      "åıĬæĹ¶": 1804,
      "æī©": 1805,
      "çĶ¨æĪ·": 1806,
      "åħħåĪĨ": 1807,
      "èĲ½å®ŀ": 1808,
      "èĭ¦": 1809,
      "ä»ĺ": 1810,
      "ä»ĭç»į": 1811,
      "éĩĳèŀį": 1812,
      "äº¤éĢļ": 1813,
      "æ³ķå¾ĭ": 1814,
      "éŃ": 1815,
      "æĮīçħ§": 1816,
      "ä¸¥éĩį": 1817,
      "åģĩ": 1818,
      "èĨľ": 1819,
      "åıĳå±ķçļĦ": 1820,
      "æİ¢": 1821,
      "æĿ¾": 1822,
      "çĶµåŃĲ": 1823,
      "çļĦåıĳå±ķ": 1824,
      "åĮ»çĸĹ": 1825,
      "éĶĻ": 1826,
      "æīĺ": 1827,
      "ç½ª": 1828,
      "æĢ§èĥ½": 1829,
      "æ¯ķ": 1830,
      "åı¶": 1831,
      "ç¥¨": 1832,
      "åĬłå·¥": 1833,
      "å¥¥": 1834,
      "ç¬¬ä¸ī": 1835,
      "åŁ¹è®Ń": 1836,
      "åĺ": 1837,
      "å¨ģ": 1838,
      "æĹħæ¸¸": 1839,
      "æĢ§çļĦ": 1840,
      "åŃķ": 1841,
      "å®«": 1842,
      "è´¯": 1843,
      "å¾ĹåĪ°": 1844,
      "æł¸å¿ĥ": 1845,
      "ç»§ç»Ń": 1846,
      "ä»Ĭå¹´": 1847,
      "å»¶": 1848,
      "è³": 1849,
      "åħ³äºİ": 1850,
      "16": 1851,
      "æ°¸": 1852,
      "ä»»ä½ķ": 1853,
      "æĬĵ": 1854,
      "ä¼Ł": 1855,
      "æľĿ": 1856,
      "æīįèĥ½": 1857,
      "ä¸ĢçĽ´": 1858,
      "å½»": 1859,
      "åĩıå°ĳ": 1860,
      "å©ļ": 1861,
      "æĬ¥åĳĬ": 1862,
      "çĽĸ": 1863,
      "ä¸¤ä¸ª": 1864,
      "åıĳæĮ¥": 1865,
      "èĥ½æºĲ": 1866,
      "èĥĮ": 1867,
      "è¶ħè¿ĩ": 1868,
      "äº«": 1869,
      "åĢĭ": 1870,
      "åºĨ": 1871,
      "å®ĮåĸĦ": 1872,
      "çģµ": 1873,
      "ä¹İ": 1874,
      "æĿĤ": 1875,
      "çĴ": 1876,
      "ä¸°å¯Į": 1877,
      "åİļ": 1878,
      "æķĳ": 1879,
      "éĽ¨": 1880,
      "ä½³": 1881,
      "è°Ī": 1882,
      "åĪĨéĴŁ": 1883,
      "ä»ĸçļĦ": 1884,
      "é²ľ": 1885,
      "ç¤¾ä¼ļä¸»ä¹ī": 1886,
      "éģ¿åħį": 1887,
      "èĥ¶": 1888,
      "è¯ļ": 1889,
      "æĸ¹æ¡Ī": 1890,
      "çĨŁ": 1891,
      "å®ŀè·µ": 1892,
      "åĪ¤": 1893,
      "æ²Ļ": 1894,
      "æľĭ": 1895,
      "ä½Ľ": 1896,
      "ç¦ģ": 1897,
      "ä¸ĵå®¶": 1898,
      "æ¾": 1899,
      "çĺ": 1900,
      "èĮĥåĽ´": 1901,
      "è¿İ": 1902,
      "å¼ķèµ·": 1903,
      "è§Ħæ¨¡": 1904,
      "%ãĢĤ": 1905,
      "èħĲ": 1906,
      "èĭ¥": 1907,
      "éĻĦ": 1908,
      "14": 1909,
      "ç»ıè¿ĩ": 1910,
      "æĢĢ": 1911,
      "æľªæĿ¥": 1912,
      "æĸ½å·¥": 1913,
      "æĮĩå¯¼": 1914,
      "çļĦå¤§": 1915,
      "éª¨": 1916,
      "æŃĮ": 1917,
      "èĹı": 1918,
      "éĩįå¤§": 1919,
      "ä¸ĩåħĥ": 1920,
      "åħ³éĶ®": 1921,
      "æ¨¡å¼ı": 1922,
      "ç³»åĪĹ": 1923,
      "åªĴ": 1924,
      "èĻĳ": 1925,
      "æ¯Ľ": 1926,
      "13": 1927,
      "ä¸Ńåįİ": 1928,
      "éł": 1929,
      "çĲĨè®º": 1930,
      "å°¤": 1931,
      "åıĹåĪ°": 1932,
      "æĪĲæľ¬": 1933,
      "å°ģ": 1934,
      "æľºæ¢°": 1935,
      "äº®": 1936,
      "å®Ĺ": 1937,
      "åıĺåĮĸ": 1938,
      "åĲ¯": 1939,
      "åºŁ": 1940,
      "ä¸įåı¯": 1941,
      "å®¶åºŃ": 1942,
      "è¡¨çİ°": 1943,
      "åĬĽéĩı": 1944,
      "ä¸Ģæ¬¡": 1945,
      "æľĢåĲİ": 1946,
      "åºĵ": 1947,
      "æĹ¢": 1948,
      "è®¸å¤ļ": 1949,
      "çĶŁçī©": 1950,
      "ç³ĸ": 1951,
      "ä¿Ŀè¯ģ": 1952,
      "å¹´æĿ¥": 1953,
      "ç»ıéªĮ": 1954,
      "ç«¥": 1955,
      "éķ¿æľŁ": 1956,
      "çļ®èĤ¤": 1957,
      "ä»¥ä¸ĭ": 1958,
      "åıĤä¸İ": 1959,
      "æĽ²": 1960,
      "å¤ı": 1961,
      "åģļå¥½": 1962,
      "ä¾Ĩ": 1963,
      "ç¡¬": 1964,
      "åĽłç´ł": 1965,
      "æĭ¿": 1966,
      "è¿Ŀ": 1967,
      "æĪĲç«ĭ": 1968,
      "ä»¥æĿ¥": 1969,
      "æı¡": 1970,
      "ä½ĵèĤ²": 1971,
      "åĿĹ": 1972,
      "çŃĶ": 1973,
      "èµ·æĿ¥": 1974,
      "æľĭåıĭ": 1975,
      "éĿĻ": 1976,
      "åĪļ": 1977,
      "çĥĪ": 1978,
      "çĳ": 1979,
      "çļĦéĩįè¦ģ": 1980,
      "éĽ¶": 1981,
      "éģĹ": 1982,
      "é£İéĻ©": 1983,
      "æ¥¼": 1984,
      "èģĶç½ĳ": 1985,
      "æĿ¯": 1986,
      "çĬ¯": 1987,
      "ä¸Ģç§į": 1988,
      "äº¤æµģ": 1989,
      "ä»»åĬ¡": 1990,
      "çłĶåıĳ": 1991,
      "ç¾¤ä¼Ĺ": 1992,
      "æ£Ģæµĭ": 1993,
      "æĪĳçļĦ": 1994,
      "è¡ĮæĶ¿": 1995,
      "é±": 1996,
      "æ¶¦": 1997,
      "æĺ¯ä¸Ģç§į": 1998,
      "æľīçļĦ": 1999,
      "åºĶå½ĵ": 2000,
      "éĹ»": 2001,
      "èĥŀ": 2002,
      "æİªæĸ½": 2003,
      "æ´ģ": 2004,
      "çĸĳ": 2005,
      "ç©ºéĹ´": 2006,
      "éĵ¾": 2007,
      "ä¸½": 2008,
      "ç«ŀäºī": 2009,
      "å®ľ": 2010,
      "ç¹": 2011,
      "åħĪè¿Ľ": 2012,
      "å¦ĩ": 2013,
      "è´¸": 2014,
      "ä¸Ģæł·": 2015,
      "è¿ĳå¹³": 2016,
      "é±¼": 2017,
      "éĻįä½İ": 2018,
      "æ¶Ĥ": 2019,
      "çī¹çĤ¹": 2020,
      "æ¶ī": 2021,
      "å·Ŀ": 2022,
      "ç¬¦": 2023,
      "çŁ¿": 2024,
      "å¹¿æ³Ľ": 2025,
      "ä¹łè¿ĳå¹³": 2026,
      "æŀ¶": 2027,
      "åĨ³å®ļ": 2028,
      "èĦĤ": 2029,
      "æĵįä½ľ": 2030,
      "åħ·ä½ĵ": 2031,
      "é¡¾": 2032,
      "èĶ": 2033,
      ")ãĢģ": 2034,
      "çĸ«æĥħ": 2035,
      "åĬ³åĬ¨": 2036,
      "å¹²éĥ¨": 2037,
      "æĢİä¹Ī": 2038,
      "éĺ¶æ®µ": 2039,
      "å¹¸": 2040,
      "åį«çĶŁ": 2041,
      "åĢŁ": 2042,
      "æ±¡æŁĵ": 2043,
      "æĺ¯åľ¨": 2044,
      "åĨĮ": 2045,
      "æĺ¾ç¤º": 2046,
      "æŃ£å¸¸": 2047,
      "çĥŁ": 2048,
      ")ãĢĤ": 2049,
      "åĪº": 2050,
      "æľŁéĹ´": 2051,
      "å·¨": 2052,
      "çĩĥ": 2053,
      "æ¹¿": 2054,
      "ä¸Ŀ": 2055,
      "å®£ä¼ł": 2056,
      "æ´¾": 2057,
      "å¢ŀå¼º": 2058,
      "æ·±åħ¥": 2059,
      "ä¼ĺç§Ģ": 2060,
      "åĬ±": 2061,
      "èĩªåĬ¨": 2062,
      "éĿ¢ç§¯": 2063,
      "æİ¥åıĹ": 2064,
      "é¤Ĳ": 2065,
      "æ¸Ĳ": 2066,
      "âĢĿãĢģ": 2067,
      "éĵ¶è¡Į": 2068,
      "çİ©": 2069,
      "æ··": 2070,
      "è°¢": 2071,
      "åĨľä¸ļ": 2072,
      "éĺ´": 2073,
      "çī©è´¨": 2074,
      "è´«": 2075,
      "ç»ĵæŀľ": 2076,
      "ä½łçļĦ": 2077,
      "é¥°": 2078,
      "çĹĩçĬ¶": 2079,
      "ç´¯": 2080,
      "å»ºè®®": 2081,
      "æĦıè¯Ĩ": 2082,
      "ç¤¼": 2083,
      "ãĢĭ,": 2084,
      "çļĦé«ĺ": 2085,
      "çŃ¾": 2086,
      "éļĶ": 2087,
      "å¤ľ": 2088,
      "èĽĭ": 2089,
      "ä¼ĳ": 2090,
      "ç»´æĬ¤": 2091,
      "æĹłæ³ķ": 2092,
      "æĸ¹åĲĳ": 2093,
      "å·¥èīº": 2094,
      "åıĳå¸ĥ": 2095,
      "å°±ä¼ļ": 2096,
      "ä»İèĢĮ": 2097,
      "æĶ¶åħ¥": 2098,
      "é¹": 2099,
      "æĦıä¹ī": 2100,
      "ä¸įè¿ĩ": 2101,
      "è®¾æĸ½": 2102,
      "17": 2103,
      "æ±ł": 2104,
      "000": 2105,
      "çļĦäºĭ": 2106,
      "æĮĩåĩº": 2107,
      "åĲī": 2108,
      "åĤ¨": 2109,
      "25": 2110,
      "æĺ¯åĲ¦": 2111,
      "ç¢³": 2112,
      "åİĭåĬĽ": 2113,
      "è´¥": 2114,
      "ä¹Łæľī": 2115,
      "èļ": 2116,
      "å¹¶ä¸Ķ": 2117,
      "æĪĳä»¬çļĦ": 2118,
      "åłĤ": 2119,
      "åĳĺå·¥": 2120,
      "å½¢å¼ı": 2121,
      "çĲĨå¿µ": 2122,
      "é£Łçī©": 2123,
      "æ¡¥": 2124,
      "æī¬": 2125,
      "çĶ³è¯·": 2126,
      "åĮºåŁŁ": 2127,
      "çĽŁ": 2128,
      "å¿«éĢŁ": 2129,
      "å®ŀéªĮ": 2130,
      "ç®±": 2131,
      "å¿ĥçĲĨ": 2132,
      "éľ²": 2133,
      "æĺİç¡®": 2134,
      "çļĩ": 2135,
      "è®°èĢħ": 2136,
      "ç©¿": 2137,
      "çĶ°": 2138,
      "è®¿": 2139,
      "åİħ": 2140,
      "åĽ¢éĺŁ": 2141,
      "çİ°åľº": 2142,
      "å¼±": 2143,
      "èľ": 2144,
      "40": 2145,
      "èµĦéĩĳ": 2146,
      "åĩĿ": 2147,
      "è¡£": 2148,
      "æİĮ": 2149,
      "çº¸": 2150,
      "åľĭ": 2151,
      "æĿĢ": 2152,
      "ç£¨": 2153,
      "çĽĽ": 2154,
      "è·Ŀ": 2155,
      "åĲĹ": 2156,
      "è§¦": 2157,
      "è¸": 2158,
      "å®Įåħ¨": 2159,
      "é«ĺçļĦ": 2160,
      "çİī": 2161,
      "æ»ĳ": 2162,
      "çĶµå½±": 2163,
      "ä¼´": 2164,
      "èĤ¥": 2165,
      "çľĭåĪ°": 2166,
      "å°ļ": 2167,
      "æĺİæĺ¾": 2168,
      "èĪŀ": 2169,
      "è®¡ç®Ĺ": 2170,
      "åħļåĳĺ": 2171,
      "æĹ¥æľ¬": 2172,
      "ç®Ģåįķ": 2173,
      "ç¨ĭåº¦": 2174,
      "çĽĳçĿ£": 2175,
      "ç¡®ä¿Ŀ": 2176,
      "æĪĲæŀľ": 2177,
      "ä½ľåĵģ": 2178,
      "çĽĺ": 2179,
      "æ¸¸æĪı": 2180,
      "ãĢĤâĢľ": 2181,
      "å¤§éĩı": 2182,
      "åĪĽéĢł": 2183,
      "çĶŁåĳ½": 2184,
      "è§ĦèĮĥ": 2185,
      "åħ¶å®ŀ": 2186,
      "æ¸©åº¦": 2187,
      "é½Ĳ": 2188,
      "å¸Ŀ": 2189,
      "éĩĬ": 2190,
      "å´": 2191,
      "ç½ĳç«Ļ": 2192,
      "å°į": 2193,
      "æ»¡è¶³": 2194,
      "å¼ĢæĶ¾": 2195,
      "çİ¯ä¿Ŀ": 2196,
      "çĦ¶åĲİ": 2197,
      "ä¸įå¾Ĺ": 2198,
      "åĨ¬": 2199,
      "è¯¢": 2200,
      "æľºåĪ¶": 2201,
      "åĲĪçĲĨ": 2202,
      "è©": 2203,
      "ç¼©": 2204,
      "æī§è¡Į": 2205,
      "å¸ģ": 2206,
      "çļĦå·¥ä½ľ": 2207,
      "å½Ĵ": 2208,
      "å¹ħ": 2209,
      "èĩªèº«": 2210,
      "çļĦæĥħåĨµ": 2211,
      "åįģåĪĨ": 2212,
      "èģĶåĲĪ": 2213,
      "éĺ»": 2214,
      "éĽ·": 2215,
      "äººç±»": 2216,
      "åŃ¸": 2217,
      "èĦļ": 2218,
      "æļĸ": 2219,
      "åħµ": 2220,
      "éĻ¤äºĨ": 2221,
      "æĳĦ": 2222,
      "è¯Ĺ": 2223,
      "èī¯å¥½çļĦ": 2224,
      "å²Ĺ": 2225,
      "åĩºäºĨ": 2226,
      "åĭĩ": 2227,
      "ç»Ĩèĥŀ": 2228,
      "éģİ": 2229,
      "åĢĳ": 2230,
      "60": 2231,
      "è°ĥæķ´": 2232,
      "è´¡": 2233,
      "åĿı": 2234,
      "é¡¶": 2235,
      "çĻ¼": 2236,
      "éĽĦ": 2237,
      "çļĦè¯Ŀ": 2238,
      "å·¦åı³": 2239,
      "è¡ĮåĬ¨": 2240,
      "åĳ¼": 2241,
      "éĢĶ": 2242,
      "åŁºåľ°": 2243,
      "åĮĸçļĦ": 2244,
      "å¥³æĢ§": 2245,
      "åĪĨåĪ«": 2246,
      "è´¯å½»": 2247,
      "2020": 2248,
      "å³°": 2249,
      "æĿ¨": 2250,
      "å®īè£ħ": 2251,
      "è®¨": 2252,
      "åĸľæ¬¢": 2253,
      "--": 2254,
      "ç¼ĵ": 2255,
      "é¼ĵ": 2256,
      "éĩįè¦ģçļĦ": 2257,
      "æ¯Ķå¦Ĥ": 2258,
      "è¿Ĳè¡Į": 2259,
      "çĬ¶æĢģ": 2260,
      "äº¤æĺĵ": 2261,
      "åħ³æ³¨": 2262,
      "çīĻ": 2263,
      "è¡¨éĿ¢": 2264,
      "æĮĳ": 2265,
      "çļĦæĸ°": 2266,
      "èªī": 2267,
      "ç»Łä¸Ģ": 2268,
      "ç©ºæ°Ķ": 2269,
      "æīĵéĢł": 2270,
      "å²Ľ": 2271,
      "è¯į": 2272,
      "åģı": 2273,
      "å¦Ī": 2274,
      "ä¸»ä»»": 2275,
      "èĢĥèĻĳ": 2276,
      "ç»¿èī²": 2277,
      "æĺ¯ä¸Ģä¸ª": 2278,
      "è¿ĻéĩĮ": 2279,
      "ä¹³": 2280,
      "ä¸¥æł¼": 2281,
      "ä½ĵçļĦ": 2282,
      "ç¬ĳ": 2283,
      "çłģ": 2284,
      "åĢĴ": 2285,
      "åįĪ": 2286,
      "å§Ķåĳĺä¼ļ": 2287,
      "æ³¡": 2288,
      "åı«": 2289,
      "æ¯ķä¸ļ": 2290,
      "çļĦéĹ®é¢ĺ": 2291,
      "æĸĩæĺİ": 2292,
      "åĮĸåŃ¦": 2293,
      "èį¯çī©": 2294,
      "ç¬¦åĲĪ": 2295,
      "èĻļ": 2296,
      "æ¦Ĥ": 2297,
      "å°¤åħ¶": 2298,
      "ç»ıå¸¸": 2299,
      "æľºåħ³": 2300,
      "åħ¬åħ±": 2301,
      "çģ¾": 2302,
      "æħ§": 2303,
      "éĽª": 2304,
      "å¸¦æĿ¥": 2305,
      "å¡Ķ": 2306,
      "è¯¯": 2307,
      "éĥ½æľī": 2308,
      "ç½²": 2309,
      "èĢģå¸Ī": 2310,
      "ä¹Łä¸į": 2311,
      "24": 2312,
      "æ±ĩ": 2313,
      "è¡Ĺ": 2314,
      "çģ¯": 2315,
      "æĸĳ": 2316,
      "ä»Ĭå¤©": 2317,
      "è¶ĬæĿ¥": 2318,
      "ç§ĳçłĶ": 2319,
      "çĥ§": 2320,
      "æŃ¤å¤ĸ": 2321,
      "æ´ĭ": 2322,
      "ä¿ĿéĻ©": 2323,
      "è¶ĬæĿ¥è¶Ĭ": 2324,
      "åģļåĪ°": 2325,
      "ç¬Ķ": 2326,
      "åŁºéĩĳ": 2327,
      "å¾ª": 2328,
      "åĬłå¿«": 2329,
      "åĲ§": 2330,
      "å±ŀäºİ": 2331,
      "ç»ĦæĪĲ": 2332,
      "ä¸įåĲĮçļĦ": 2333,
      "æĦŁæŁĵ": 2334,
      "æĿŁ": 2335,
      "å°ıæĹ¶": 2336,
      "æģ¶": 2337,
      "å°¿": 2338,
      "æĮ¯": 2339,
      "åı¥è¯Ŀ": 2340,
      "åĪ¶ä½ľ": 2341,
      "æ³¨åĨĮ": 2342,
      "æĻ®éĢļ": 2343,
      "éĩĳå±ŀ": 2344,
      "åĿĲ": 2345,
      "åľĨ": 2346,
      "ç½ļ": 2347,
      "æķı": 2348,
      "æķ°åŃĹ": 2349,
      "è®¢": 2350,
      "éĿĴå¹´": 2351,
      "èĪĩ": 2352,
      "æ²ī": 2353,
      "2021": 2354,
      "ç§ģ": 2355,
      "çĶŁçļĦ": 2356,
      "æŃ£åľ¨": 2357,
      "199": 2358,
      "åıªæĺ¯": 2359,
      "æ³°": 2360,
      "ç§ĭ": 2361,
      "æ½®": 2362,
      "äºĴèģĶç½ĳ": 2363,
      "æĭį": 2364,
      "ä¸ĭéĻį": 2365,
      "è´¡çĮ®": 2366,
      "æĿ¥çľĭ": 2367,
      "è¿Ĳè¾ĵ": 2368,
      "è¶£": 2369,
      "æ®Ĭ": 2370,
      "é¦ĸåħĪ": 2371,
      "çº·": 2372,
      "çĻĮ": 2373,
      "è°ĥæŁ¥": 2374,
      "èĲ¥åħ»": 2375,
      "å¡ŀ": 2376,
      "æķĪçİĩ": 2377,
      "å¢Ļ": 2378,
      "åĳĪ": 2379,
      "ç¹ģ": 2380,
      "è®¤çľŁ": 2381,
      "æľīäºĽ": 2382,
      "éĻĨ": 2383,
      "æĪĲç»©": 2384,
      "ä¸ºä¸»": 2385,
      "è¾Ĩ": 2386,
      "äºĶè¡Į": 2387,
      "æ¥Ń": 2388,
      "åĦ¿ç«¥": 2389,
      "å«": 2390,
      "çĽ®çļĦ": 2391,
      "æĹ¶æľŁ": 2392,
      "åĨ°": 2393,
      "æľ«": 2394,
      "æ£®": 2395,
      "è±Ĩ": 2396,
      "è¡¡": 2397,
      "æ°§åĮĸ": 2398,
      "å®½": 2399,
      "æĸ°æĹ¶ä»£": 2400,
      "åħļå§Ķ": 2401,
      "åİŁåĪĻ": 2402,
      "æľºä¼ļ": 2403,
      "ä¹ĭåīį": 2404,
      "æļ´": 2405,
      "åªĴä½ĵ": 2406,
      "åĵĪ": 2407,
      "çľŁæŃ£": 2408,
      "åĨľæĿĳ": 2409,
      "æĺł": 2410,
      "æĦıè§ģ": 2411,
      "æľĢç»Ī": 2412,
      "èĥĥ": 2413,
      "éĴĪå¯¹": 2414,
      "åĪĳ": 2415,
      "è´´": 2416,
      "æ´¥": 2417,
      "ç¡®å®ļ": 2418,
      "æĶ¹åıĺ": 2419,
      "çħ¤": 2420,
      "çĪĨ": 2421,
      "å¾Ħ": 2422,
      "çİ»": 2423,
      "åĬŀåħ¬": 2424,
      "åŃĶ": 2425,
      "an": 2426,
      "é¢ľ": 2427,
      "è®¤è¯Ĩ": 2428,
      "ä¼į": 2429,
      "éĩİ": 2430,
      "åįµ": 2431,
      "åĶĲ": 2432,
      "ç¥ĸ": 2433,
      "æ¾³": 2434,
      "åŃ¦ç§ĳ": 2435,
      "æ¢ħ": 2436,
      "å¯¿": 2437,
      "__": 2438,
      "80": 2439,
      "çĿ¡": 2440,
      "åı¦å¤ĸ": 2441,
      "æķħäºĭ": 2442,
      "æķ´ä¸ª": 2443,
      "2019": 2444,
      "ä¹Ļ": 2445,
      "åĪ¶å®ļ": 2446,
      "ç§ĺ": 2447,
      "å°±ä¸ļ": 2448,
      "éĢŁåº¦": 2449,
      "çº¯": 2450,
      "è·¨": 2451,
      "æĭĵ": 2452,
      "ä¹Łä¼ļ": 2453,
      "éļĲ": 2454,
      "è¼": 2455,
      "å¹¿å¤§": 2456,
      "æķ´ä½ĵ": 2457,
      "ä¸Ģä¸ĭ": 2458,
      "çĴĥ": 2459,
      "æµĵ": 2460,
      "å¯»": 2461,
      "æ¢ģ": 2462,
      "æĥł": 2463,
      "åĬĽçļĦ": 2464,
      "çĦ¦": 2465,
      "é¾Ħ": 2466,
      "éĿ¢å¯¹": 2467,
      "èĪ¹": 2468,
      "23": 2469,
      "èĢĹ": 2470,
      "åıªè¦ģ": 2471,
      "äºĮåįģ": 2472,
      "èµĦäº§": 2473,
      "çĽĲ": 2474,
      "è¯¾ç¨ĭ": 2475,
      "èĢĥè¯ķ": 2476,
      "åĢį": 2477,
      "æĶ¹åĸĦ": 2478,
      "æĢķ": 2479,
      "éĽĨä¸Ń": 2480,
      "å¯Ĵ": 2481,
      "ç¶ĵ": 2482,
      "çī©æµģ": 2483,
      "åı¬": 2484,
      "éŁ©": 2485,
      "åįıä¼ļ": 2486,
      "æ³¥": 2487,
      "æĸ¼": 2488,
      "åįĸ": 2489,
      "ä¼°": 2490,
      "æ²»çĲĨ": 2491,
      "ä»İäºĭ": 2492,
      "å¹ķ": 2493,
      "çī¢": 2494,
      "åĩºçļĦ": 2495,
      "åĸĿ": 2496,
      "éº»": 2497,
      "åħ±äº§": 2498,
      "æ¶Īè´¹èĢħ": 2499,
      "æĸ¹ä¾¿": 2500,
      "åĲİçļĦ": 2501,
      "ä¾Ŀæ³ķ": 2502,
      "å¹¶ä¸į": 2503,
      "åķĨä¸ļ": 2504,
      "2018": 2505,
      "æľīä¸Ģ": 2506,
      "ç¯ĩ": 2507,
      "ç»ķ": 2508,
      "æī¶": 2509,
      "èĳ£": 2510,
      "ä¾§": 2511,
      "æł¹æľ¬": 2512,
      "æĬĺ": 2513,
      "å¦ĤæŃ¤": 2514,
      "ç§Ł": 2515,
      "è¿Ļæł·çļĦ": 2516,
      "âĢĿãĢģâĢľ": 2517,
      "21": 2518,
      "ä¹±": 2519,
      "çİ»çĴĥ": 2520,
      "åĽ°éļ¾": 2521,
      "é¦Ļæ¸¯": 2522,
      "åĪĽä¸ļ": 2523,
      "æİī": 2524,
      "éĢĤåĲĪ": 2525,
      "å±ĭ": 2526,
      "åħ¨éĥ¨": 2527,
      "å°Ĭ": 2528,
      "éģĵè·¯": 2529,
      "åĭķ": 2530,
      "æģ¢": 2531,
      "æ¥ļ": 2532,
      "è¿ĩåİ»": 2533,
      "éģį": 2534,
      "èĤ¿": 2535,
      "å¾Į": 2536,
      "èµ¢": 2537,
      "ä¿Ħ": 2538,
      "å¼ºè°ĥ": 2539,
      "éĵĿ": 2540,
      "å¤ļçļĦ": 2541,
      "çı¾": 2542,
      "æĹĹ": 2543,
      "å¥¶": 2544,
      "èĢ³": 2545,
      "å·¥ä½ľçļĦ": 2546,
      "éĿ©åĳ½": 2547,
      "éĩįè§Ĩ": 2548,
      "åıįåºĶ": 2549,
      "æĹ§": 2550,
      "äº¡": 2551,
      "åĬŀæ³ķ": 2552,
      "ä¸įå°ĳ": 2553,
      "å½ĵæĹ¶": 2554,
      "ãĢģãĢĬ": 2555,
      "æĥ¯": 2556,
      "éĹŃ": 2557,
      "éĺµ": 2558,
      "æĬĢèĥ½": 2559,
      "æĹ¥å¸¸": 2560,
      "æº¶": 2561,
      "èĴĻ": 2562,
      "åľĪ": 2563,
      "å¤ļç§į": 2564,
      "ä¸Ģå®ļè¦ģ": 2565,
      "å½ĵåľ°": 2566,
      "22": 2567,
      "æ²Ł": 2568,
      "2022": 2569,
      "å§ĭç»Ī": 2570,
      "çĶµè§Ĩ": 2571,
      "ç¾İåħĥ": 2572,
      "ä¼Ĭ": 2573,
      "æĦŁè§ī": 2574,
      "åĲ¨": 2575,
      "æŃ£ç¡®": 2576,
      "è¿ĲèĲ¥": 2577,
      "çī¹æ®Ĭ": 2578,
      "èĥİ": 2579,
      "æĿ¥èĩª": 2580,
      "ä¸ªæľĪ": 2581,
      "è·ĳ": 2582,
      "è´¹çĶ¨": 2583,
      "è¯º": 2584,
      "é«ĺè´¨éĩı": 2585,
      "æ¡£": 2586,
      "æ²¿": 2587,
      "çĲĨè§£": 2588,
      "æģ©": 2589,
      "éī": 2590,
      "ä¸Ģå®ļçļĦ": 2591,
      "æµª": 2592,
      "çĽ¸å¯¹": 2593,
      "éĥ½ä¼ļ": 2594,
      "è¯¦": 2595,
      "éĩĩåıĸ": 2596,
      "éĢļå¸¸": 2597,
      "è¦Ĩ": 2598,
      "èĥ¡": 2599,
      "èĤº": 2600,
      "çĲĥéĺŁ": 2601,
      "æĻºæħ§": 2602,
      "ä¼ģä¸ļçļĦ": 2603,
      "è¿·": 2604,
      "èĤ¯": 2605,
      "åĩĨå¤ĩ": 2606,
      "èĤĿ": 2607,
      "èĤł": 2608,
      "èħ¹": 2609,
      "æĪª": 2610,
      "ä¾µ": 2611,
      "ç²Ĵ": 2612,
      "çĽ¸ä¿¡": 2613,
      "å¼ºåĮĸ": 2614,
      "è¶ĭ": 2615,
      "åĲĦç±»": 2616,
      "ç¯®": 2617,
      "çŃ¹": 2618,
      "åĮħè£ħ": 2619,
      "ç¼ĺ": 2620,
      "çĽĳç®¡": 2621,
      "é¥®é£Ł": 2622,
      "è½¯ä»¶": 2623,
      "èĲ¨": 2624,
      "çªĹ": 2625,
      "é¸¡": 2626,
      "éľĩ": 2627,
      "èģĶç³»": 2628,
      "ä¸ŃåĮ»": 2629,
      "æģ¢å¤į": 2630,
      "é«ĺåº¦": 2631,
      "çİ°è±¡": 2632,
      "±ä¹Ĳ": 2633,
      "æķĻæİĪ": 2634,
      "å®ĥçļĦ": 2635,
      "å¼¹": 2636,
      "è¿ħ": 2637,
      "å¤§ä¼ļ": 2638,
      "70": 2639,
      "å®īæİĴ": 2640,
      "éĨĴ": 2641,
      "é«ĺæł¡": 2642,
      "çĵ¦": 2643,
      "åŃĻ": 2644,
      "é¢Ħéĺ²": 2645,
      "è´¨çļĦ": 2646,
      "æŃ¤æ¬¡": 2647,
      "åĩºåı£": 2648,
      "åĲĦé¡¹": 2649,
      "å¿ĺ": 2650,
      "å±±ä¸ľ": 2651,
      "æŃ£å¼ı": 2652,
      "æ¯ıå¤©": 2653,
      "å¥ĭæĸĹ": 2654,
      "èĤĮ": 2655,
      "ç²ĺ": 2656,
      "æ³½": 2657,
      "é«Ķ": 2658,
      "å¹¼": 2659,
      "èµĦæľ¬": 2660,
      "éī´": 2661,
      "åħ·å¤ĩ": 2662,
      "«çĹ": 2663,
      "è¾ħ": 2664,
      "èĩªçĶ±": 2665,
      "åĪ·": 2666,
      "çŀ": 2667,
      "çİ°ä»£åĮĸ": 2668,
      "æı´": 2669,
      "ä¸ľè¥¿": 2670,
      "æ¯«": 2671,
      "åĮ»çĶŁ": 2672,
      "èŀįåĲĪ": 2673,
      "ãĢĲ": 2674,
      "åħ¼": 2675,
      "åĪ¸": 2676,
      "ãĢĳ": 2677,
      "ä¸»é¢ĺ": 2678,
      "ä»ģ": 2679,
      "åıĮæĸ¹": 2680,
      "åĲĮå¿Ĺ": 2681,
      "28": 2682,
      "è§īå¾Ĺ": 2683,
      "éķľ": 2684,
      "æ®ĸ": 2685,
      "æ½ľ": 2686,
      "æīİ": 2687,
      "ä¾ĽåºĶ": 2688,
      "å°ĺ": 2689,
      "ç«Ł": 2690,
      "èµµ": 2691,
      "å¤§å¤ļ": 2692,
      "æ´Ľ": 2693,
      "èĢĮæĺ¯": 2694,
      "éŁ³ä¹Ĳ": 2695,
      "ä¸įè¶³": 2696,
      "æĬķåħ¥": 2697,
      "åĴ¨": 2698,
      "æ¤įçī©": 2699,
      "è¯¸": 2700,
      "åĢº": 2701,
      "åķĨåĵģ": 2702,
      "åĲĪåĲĮ": 2703,
      "ç¿»": 2704,
      "éĽħ": 2705,
      "åĪĨä¸º": 2706,
      "ä¸ŃåĽ½çī¹èī²": 2707,
      "çĶĺ": 2708,
      "åį·": 2709,
      "ä¸ĭæĿ¥": 2710,
      "åĪ©çĽĬ": 2711,
      "å¹³æĸ¹": 2712,
      "æķ¬": 2713,
      "éĶħ": 2714,
      "èªª": 2715,
      "çĤ¼": 2716,
      "in": 2717,
      "å¹¸ç¦ı": 2718,
      "éĺ²æŃ¢": 2719,
      "æ¹¾": 2720,
      "æĽ¾ç»ı": 2721,
      "åĬ¨åĬĽ": 2722,
      "èĭĹ": 2723,
      "èĵĿ": 2724,
      "åħ¬éĩĮ": 2725,
      "æĹłè®º": 2726,
      "æ©Ł": 2727,
      "åľ³": 2728,
      "æīĭæľ¯": 2729,
      "åĶ¯": 2730,
      "è°ĵ": 2731,
      "è£ģ": 2732,
      "åĲĮæ¯Ķ": 2733,
      "äººä½ĵ": 2734,
      "çĪ¶æ¯į": 2735,
      "åĩºæĿ¥": 2736,
      "è§Ĩé¢ĳ": 2737,
      "«çĹ«": 2738,
      "çĻ«çĹ«": 2739,
      "æĲŃ": 2740,
      "ä¸įåĪ°": 2741,
      "æ·¡": 2742,
      "åĲ´": 2743,
      "æ·±åľ³": 2744,
      "èģĮå·¥": 2745,
      "éķ·": 2746,
      "ä½įäºİ": 2747,
      "èĦī": 2748,
      "ä¸ĢåĪĩ": 2749,
      "éĺŁä¼į": 2750,
      "çº¤": 2751,
      "åĬłåħ¥": 2752,
      "æĳ©": 2753,
      "é²ģ": 2754,
      "åĨħçļĦ": 2755,
      "è¯´è¿ĩ": 2756,
      "ä¹Į": 2757,
      "å¹¿ä¸ľ": 2758,
      "èµĦæĸĻ": 2759,
      "ç¤¾åĮº": 2760,
      "å¿ħè¦ģ": 2761,
      "26": 2762,
      "åĭ¤": 2763,
      "åĨįæ¬¡": 2764,
      "æł·çļĦ": 2765,
      "æµĻ": 2766,
      "åĴ¨è¯¢": 2767,
      "è´·": 2768,
      "æĢ§åĴĮ": 2769,
      "æĸ°éĹ»": 2770,
      "æķ¢": 2771,
      "ä¹łæĥ¯": 2772,
      "ä¸´åºĬ": 2773,
      "è¾Ľ": 2774,
      "åĮ»åŃ¦": 2775,
      "è¿ª": 2776,
      "æ¶¨": 2777,
      "å½ĵçĦ¶": 2778,
      "è°ģ": 2779,
      "è´¸æĺĵ": 2780,
      "ä»¥åĲİ": 2781,
      "åĵªäºĽ": 2782,
      "æķ°éĩı": 2783,
      "ç·": 2784,
      "æĢ»ä¹¦è®°": 2785,
      "æľīæīĢ": 2786,
      "é¥Ń": 2787,
      "ä¹ı": 2788,
      "ä½ĵçİ°": 2789,
      "ä½įç½®": 2790,
      "2017": 2791,
      "çĶŁç´ł": 2792,
      "å®ĥä»¬": 2793,
      "çĻ£": 2794,
      "è½´": 2795,
      "èħº": 2796,
      "æī©å¤§": 2797,
      "Â°": 2798,
      "çļĦå°ı": 2799,
      "å¢¨": 2800,
      "æľīæľº": 2801,
      "äº¦": 2802,
      "ä¼Łå¤§": 2803,
      "çĦ¶èĢĮ": 2804,
      "æŀĦå»º": 2805,
      "çŃīæĸ¹éĿ¢": 2806,
      "æīĭæľº": 2807,
      "æĽ¿": 2808,
      "ä¸ģ": 2809,
      "ãĢĭãĢģãĢĬ": 2810,
      "ç¬¬åįģ": 2811,
      "æľĹ": 2812,
      "çĹħæ¯Ĵ": 2813,
      "åĩ¡": 2814,
      "è¯Ħä»·": 2815,
      "æĽ´å¥½": 2816,
      "çĳŀ": 2817,
      "ä¹ĺ": 2818,
      "éģµ": 2819,
      "æĤī": 2820,
      "ç¨ĭåºı": 2821,
      "èĸĦ": 2822,
      "ä¸»åĬ¨": 2823,
      "å©´": 2824,
      "éĢĲæ¸Ĳ": 2825,
      "åĵ¥": 2826,
      "å®ĭ": 2827,
      "è§Ī": 2828,
      "æĪĲéķ¿": 2829,
      "äº§åĵģçļĦ": 2830,
      "è¿Ľè¡ĮäºĨ": 2831,
      "èļĢ": 2832,
      "è£Ĥ": 2833,
      "ä¿Ĺ": 2834,
      "åĶ±": 2835,
      "è«": 2836,
      "å½¢è±¡": 2837,
      "åľŁåľ°": 2838,
      "å£®": 2839,
      "å¤ļä¸ª": 2840,
      "åı¦ä¸Ģ": 2841,
      "çīĽçļ®": 2842,
      "çļĦä¸»è¦ģ": 2843,
      "ä¹Łåı¯ä»¥": 2844,
      "ç´«": 2845,
      "è¿ŀç»Ń": 2846,
      "èģĺ": 2847,
      "é¡¿": 2848,
      "åĪºæ¿Ģ": 2849,
      "åĸ·": 2850,
      "å¤§åŀĭ": 2851,
      "éĢĤåºĶ": 2852,
      "æ®ĭ": 2853,
      "èµĽåŃ£": 2854,
      "å¤º": 2855,
      "çļĦä½ľçĶ¨": 2856,
      "çªģçł´": 2857,
      "æĬµ": 2858,
      "ç»ª": 2859,
      "èĩªæĪĳ": 2860,
      "èµĦæł¼": 2861,
      "27": 2862,
      "æ·»": 2863,
      "åºĦ": 2864,
      "æĽ¼": 2865,
      "çıł": 2866,
      "æľĢå¤§çļĦ": 2867,
      "ä¸»å¸Ń": 2868,
      "èĪĴ": 2869,
      "å¾Ģå¾Ģ": 2870,
      "è°·": 2871,
      "æ¯ıä¸ª": 2872,
      "æ¶µ": 2873,
      "ç¬¬åĽĽ": 2874,
      "è¿Ļåı¥è¯Ŀ": 2875,
      "å¼ĥ": 2876,
      "èĽĭçĻ½": 2877,
      "è¿¹": 2878,
      "åĲĮåŃ¦": 2879,
      "æĥĬ": 2880,
      "ç¤ºèĮĥ": 2881,
      "å¼ºåº¦": 2882,
      "æľĢå¤§": 2883,
      "åľ£": 2884,
      "å¤Ħäºİ": 2885,
      "ä¼ĺåĮĸ": 2886,
      "ç¥Ŀ": 2887,
      "å¦»": 2888,
      "åĵģè´¨": 2889,
      "æĭŁ": 2890,
      "ä¸ĸçºª": 2891,
      "å¼Ł": 2892,
      "åİĤå®¶": 2893,
      "å¼ķå¯¼": 2894,
      "æ°ı": 2895,
      "èĦı": 2896,
      "åįĩçº§": 2897,
      "å¤įæĿĤ": 2898,
      "éĥĳ": 2899,
      "æĥ³è¦ģ": 2900,
      "ä»įçĦ¶": 2901,
      "çĹħæĥħ": 2902,
      "è¯´æĺİ": 2903,
      "æİĮæı¡": 2904,
      "çĬ¯ç½ª": 2905,
      "æī¿æĭħ": 2906,
      "æĬ¥éģĵ": 2907,
      "åĿļå®ļ": 2908,
      "çĺ¤": 2909,
      "çļĦå½±åĵį": 2910,
      "500": 2911,
      "æĹ¦": 2912,
      "ä¸ºä»Ģä¹Ī": 2913,
      "ä¸ĭçļĦ": 2914,
      "ä¾ĭå¦Ĥ": 2915,
      "æĬ½": 2916,
      "è¿ĺè¦ģ": 2917,
      "åĳĬè¯ī": 2918,
      "äººåı£": 2919,
      "æģĴ": 2920,
      "ä»ĸä»¬çļĦ": 2921,
      "åģ¿": 2922,
      "åħįçĸ«": 2923,
      "æľīäºĨ": 2924,
      "éĵľ": 2925,
      "çªģåĩº": 2926,
      "é©¾": 2927,
      "ä¼¦": 2928,
      "éĸĵ": 2929,
      "å¹¿å·ŀ": 2930,
      "å®ŀåĬĽ": 2931,
      "ä¼Ļ": 2932,
      "æ¶īåıĬ": 2933,
      "æĺ¯ä»Ģä¹Ī": 2934,
      "è´Ńä¹°": 2935,
      "æĿ°": 2936,
      "æµ®": 2937,
      "æ·±åĪ»": 2938,
      "åı¯èĥ½ä¼ļ": 2939,
      "æ§": 2940,
      "ç»Łè®¡": 2941,
      "éĤ£äºĽ": 2942,
      "å®ĩ": 2943,
      "çīĽçļ®çĻ£": 2944,
      "ä½ĵéªĮ": 2945,
      "æ¼«": 2946,
      "æĪĲåĳĺ": 2947,
      "èİ«": 2948,
      "çĲĨæĥ³": 2949,
      "æľīäºº": 2950,
      "åĨħéĥ¨": 2951,
      "åĩŃ": 2952,
      "çĦ¡": 2953,
      "å¡ĳæĸĻ": 2954,
      "å»ī": 2955,
      "èĬĤèĥ½": 2956,
      "åĮĸå·¥": 2957,
      "å¹´åº¦": 2958,
      "ä¸ŃåĽ½çī¹èī²ç¤¾ä¼ļä¸»ä¹ī": 2959,
      "åįıè°ĥ": 2960,
      "è¯ģæĺİ": 2961,
      "èĦ¸": 2962,
      "å±ķç¤º": 2963,
      "åıªèĥ½": 2964,
      "æĪĲäºĨ": 2965,
      "éĶĭ": 2966,
      "ä¸Ĭå¸Ĥ": 2967,
      "åĪ©äºİ": 2968,
      "åħ¬å¼Ģ": 2969,
      "è®¯": 2970,
      "çĶ¨çļĦ": 2971,
      "çĮª": 2972,
      "åĪĢ": 2973,
      "æľ¬æ¬¡": 2974,
      "å±¥": 2975,
      "å±ħæ°ĳ": 2976,
      "çķ¶": 2977,
      "çī¹åĪ«æĺ¯": 2978,
      "å¸¸è§ģ": 2979,
      "æľĢé«ĺ": 2980,
      "å¯¦": 2981,
      "å£ģ": 2982,
      "èĻ«": 2983,
      "å¿ł": 2984,
      "å§ĵ": 2985,
      "éĢ²": 2986,
      "çĽ¸æ¯Ķ": 2987,
      "å¾Ĳ": 2988,
      "è°ĭ": 2989,
      "é«ĺéĢŁ": 2990,
      "æĮĳæĪĺ": 2991,
      "90": 2992,
      "éĩıçļĦ": 2993,
      "æĸĩä»¶": 2994,
      "åĲ«æľī": 2995,
      "æľ±": 2996,
      "æĻ¶": 2997,
      "ä¸Ģä½ĵ": 2998,
      "è´¢æĶ¿": 2999,
      "ç§°ä¸º": 3000,
      "é¢ĨåħĪ": 3001,
      "æµĻæ±Ł": 3002,
      "æ±¤": 3003,
      "æ»¤": 3004,
      "ä¸īä¸ª": 3005,
      "ç´łè´¨": 3006,
      "çģ°": 3007,
      "å²Ĺä½į": 3008,
      "çİ°å®ŀ": 3009,
      "éĹľ": 3010,
      "çıį": 3011,
      "èĴ¸": 3012,
      "ä¸¹": 3013,
      "éĥ¨ç½²": 3014,
      "35": 3015,
      "æľīçĿĢ": 3016,
      "åİ»å¹´": 3017,
      "å±ı": 3018,
      "æľºåĻ¨": 3019,
      "å¹´è½»": 3020,
      "éģŃ": 3021,
      "äºĭä»¶": 3022,
      "è¿ĽæŃ¥": 3023,
      "è¿½æ±Ĥ": 3024,
      "èĩªä¸»": 3025,
      "æ°¨": 3026,
      "æ³ī": 3027,
      "æĢĿèĢĥ": 3028,
      "å·§": 3029,
      "åħ§": 3030,
      "èī¯å¥½": 3031,
      "æĪ´": 3032,
      "å®¶éķ¿": 3033,
      "è´Łè´£äºº": 3034,
      "èĳ£äºĭ": 3035,
      "æİ¢ç´¢": 3036,
      "ç¢į": 3037,
      "çģŃ": 3038,
      "æİ¥è§¦": 3039,
      "èħĶ": 3040,
      "ä¸Ģå¹´": 3041,
      "æ·±åĮĸ": 3042,
      "æĭľ": 3043,
      "è§Ĵåº¦": 3044,
      "åĪĨåŃĲ": 3045,
      "éĸĭ": 3046,
      "ä¸¾åĬŀ": 3047,
      ")(": 3048,
      "åĽ½åĬ¡": 3049,
      "æĶ¯ä»ĺ": 3050,
      "åĬ¨çī©": 3051,
      "å½ĵåīį": 3052,
      "æĺĮ": 3053,
      "ç£ģ": 3054,
      "åľ°ä½į": 3055,
      "æĮĤ": 3056,
      "å¼ºçļĦ": 3057,
      "è¿ħéĢŁ": 3058,
      "åħĪçĶŁ": 3059,
      "æİ¨å¹¿": 3060,
      "çĩ¥": 3061,
      "çŃīçŃī": 3062,
      "å¾ªçİ¯": 3063,
      "ç¾Ĭ": 3064,
      "çĶµæ±ł": 3065,
      "è»": 3066,
      "ä½¿åĳ½": 3067,
      "èĤ¡ä»½": 3068,
      "åŃ¦æľ¯": 3069,
      "å¦Ĥä»Ĭ": 3070,
      "ç¨®": 3071,
      "2016": 3072,
      "çĶŁæ´»ä¸Ń": 3073,
      "ç»ıçĲĨ": 3074,
      "çļĦæĹ¶éĹ´": 3075,
      "çļĦåŁºç¡Ģ": 3076,
      "ä¼łæĴŃ": 3077,
      "èĤ¾": 3078,
      "ç±»åŀĭ": 3079,
      "åħ±äº§åħļ": 3080,
      "èį·": 3081,
      "åĺī": 3082,
      "å±ĳ": 3083,
      "æ³ķéĻ¢": 3084,
      "æĢ»ç»ĵ": 3085,
      "å²¸": 3086,
      "æ¬²": 3087,
      "åħ¨ä½ĵ": 3088,
      "æĩī": 3089,
      "è¯ķéªĮ": 3090,
      "29": 3091,
      "è¿ĲçĶ¨": 3092,
      "ç²®": 3093,
      "å¤§åĬĽ": 3094,
      "åĩºçĶŁ": 3095,
      "æĬĳ": 3096,
      "ç»ıåİĨ": 3097,
      "å¹³åĿĩ": 3098,
      "æ¯ıå¹´": 3099,
      "åıĬåħ¶": 3100,
      "åĨłåĨĽ": 3101,
      "åħ¬åı¸çļĦ": 3102,
      "å°¤åħ¶æĺ¯": 3103,
      "åĽĽå·Ŀ": 3104,
      "çĲĥåĳĺ": 3105,
      "çĶŁéķ¿": 3106,
      "è´Ŀ": 3107,
      "æĴĳ": 3108,
      "éĽ»": 3109,
      "çļĦæ²»çĸĹ": 3110,
      "æĹº": 3111,
      "ç»ĵæĿŁ": 3112,
      "è¯Ńè¨Ģ": 3113,
      "é»ĺ": 3114,
      "ä¸¾è¡Į": 3115,
      "æ²³åįĹ": 3116,
      "è´¦": 3117,
      "éĤĦ": 3118,
      "ç»´çĶŁç´ł": 3119,
      "å§Ĩ": 3120,
      "éĿ¢ä¸´": 3121,
      "çĭ¬ç«ĭ": 3122,
      "è®Ńç»ĥ": 3123,
      "èĢĮè¨Ģ": 3124,
      "ä¹ĭéĹ´çļĦ": 3125,
      "è¿Ļä¸ªéĹ®é¢ĺ": 3126,
      "éĺħ": 3127,
      "äººå·¥": 3128,
      "äºĭæķħ": 3129,
      "æĦĪ": 3130,
      "åĽ½åĬ¡éĻ¢": 3131,
      "åĲĦåľ°": 3132,
      "åĿĢ": 3133,
      "çĽ¸å½ĵ": 3134,
      "è®¾ç½®": 3135,
      "åį±å®³": 3136,
      "å°±åı¯ä»¥": 3137,
      "çĥ¯": 3138,
      "éĻ¶": 3139,
      "æħİ": 3140,
      "èĢħçļĦ": 3141,
      "ä¸»ä½ĵ": 3142,
      "è½¨": 3143,
      "ç§¦": 3144,
      "äºĭæĥħ": 3145,
      "çĶ¢": 3146,
      "åĲĽ": 3147,
      "åĲ¸å¼ķ": 3148,
      "äººå£«": 3149,
      "æĭĴ": 3150,
      "è§Ĥä¼Ĺ": 3151,
      "å¤ªéĺ³": 3152,
      "åį³ä½¿": 3153,
      "éĿ¢çļĦ": 3154,
      "å®ı": 3155,
      "æĥħç»ª": 3156,
      "æĺ¯æĮĩ": 3157,
      "çĽ¸åºĶ": 3158,
      "éħįåĲĪ": 3159,
      "åĽ´ç»ķ": 3160,
      "åŁºå±Ĥ": 3161,
      "ä¼¯": 3162,
      "åĢ¼å¾Ĺ": 3163,
      "èµŀ": 3164,
      "çŁ¥åĲį": 3165,
      "è¿ĳå¹´æĿ¥": 3166,
      "on": 3167,
      "éĩįåºĨ": 3168,
      "æŁĶ": 3169,
      "æ¡ĥ": 3170,
      "è±ª": 3171,
      "ä¸Ńå°ı": 3172,
      "é¢Ĺ": 3173,
      "ä¿Ŀæ¸©": 3174,
      "è·³": 3175,
      "çĬ¶åĨµ": 3176,
      "å¤ļå°ĳ": 3177,
      "æ¦ľ": 3178,
      "è¾ĳ": 3179,
      "è®²è¯Ŀ": 3180,
      "äºĭå®ŀ": 3181,
      "æĿĨ": 3182,
      "åķĨæłĩ": 3183,
      "2015": 3184,
      "æĹ¨": 3185,
      "æµĭè¯ķ": 3186,
      "æ¬¢è¿İ": 3187,
      "åĲ¸æĶ¶": 3188,
      "æ±Łèĭı": 3189,
      "è¡Ģç®¡": 3190,
      "éĵģè·¯": 3191,
      "éĢĴ": 3192,
      "æľ¬èº«": 3193,
      "åĭĴ": 3194,
      "æ¬§æ´²": 3195,
      "ç±į": 3196,
      "æľºçļĦ": 3197,
      "èİ±": 3198,
      "çļĦå¿ĥ": 3199,
      "éŀ": 3200,
      "ä»¤äºº": 3201,
      "å±ķå¼Ģ": 3202,
      "çĵľ": 3203,
      "æĪĲå°±": 3204,
      "âĢĿâĢľ": 3205,
      "æ°ĳä¸»": 3206,
      "åħĥç´ł": 3207,
      "ç½Ĺæĸ¯": 3208,
      "æĩĤ": 3209,
      "èĢģå¹´": 3210,
      "åĩĨç¡®": 3211,
      "æį·": 3212,
      "èĲ¥éĶĢ": 3213,
      "è¿«": 3214,
      "å¹¿åĳĬ": 3215,
      "æĬ¢": 3216,
      "ç»ĻäºĪ": 3217,
      "å¡«": 3218,
      "èķ": 3219,
      "å¥ī": 3220,
      "çº¤ç»´": 3221,
      "æıı": 3222,
      "èĤ¯å®ļ": 3223,
      "éĶĪ": 3224,
      "åħĪåĲİ": 3225,
      "å¾Īå¤§": 3226,
      "è¾ī": 3227,
      "er": 3228,
      "æĳĨ": 3229,
      "é¼ĵåĬ±": 3230,
      "åŃĲçļĦ": 3231,
      "å¾·åĽ½": 3232,
      "ç¥ŀç»ı": 3233,
      "æİĴåĲį": 3234,
      "ä¸°å¯ĮçļĦ": 3235,
      "å®ŀè¡Į": 3236,
      "è¶ĭåĬ¿": 3237,
      "ä¸»æĮģ": 3238,
      "æ³µ": 3239,
      "éĽķ": 3240,
      "éĻ·": 3241,
      "é«ĺæķĪ": 3242,
      "æŁ±": 3243,
      ",ãĢĬ": 3244,
      "äººçĶŁ": 3245,
      "æļĹ": 3246,
      "æŃ¦æ±ī": 3247,
      "æĹĭ": 3248,
      "è¦ĨçĽĸ": 3249,
      "æ±¡æ°´": 3250,
      "æī¾åĪ°": 3251,
      "æ³Į": 3252,
      "èģĶèµĽ": 3253,
      "åħ¬è·¯": 3254,
      "æ´ŀ": 3255,
      "é£ŁçĶ¨": 3256,
      "å¤©çĦ¶": 3257,
      "åĿ¦": 3258,
      "é©¬åħĭ": 3259,
      "æ¯ıä¸Ģ": 3260,
      "èĭ±åĽ½": 3261,
      "çº¹": 3262,
      "æīĭæ®µ": 3263,
      "å°ĳå¹´": 3264,
      "éħĴåºĹ": 3265,
      "198": 3266,
      "çĤī": 3267,
      "åįļå£«": 3268,
      "åĽ¢ç»ĵ": 3269,
      "å·¥åħ·": 3270,
      "çĽ¸äºĴ": 3271,
      "åįıè®®": 3272,
      "çļĦæĸ¹å¼ı": 3273,
      "çļĦä¸į": 3274,
      "æĻĵ": 3275,
      "çļĦäº§åĵģ": 3276,
      "æľ¬ç§ĳ": 3277,
      "åį±éĻ©": 3278,
      "ä¼ı": 3279,
      "å¹³æĸ¹ç±³": 3280,
      "è¹": 3281,
      "æĭĶ": 3282,
      "æ¨ª": 3283,
      "å¸ĥå±Ģ": 3284,
      "ä¹łè¿ĳå¹³æĢ»ä¹¦è®°": 3285,
      "éĢļçŁ¥": 3286,
      "åı¬å¼Ģ": 3287,
      "è¿Ķ": 3288,
      "åĬłå¤§": 3289,
      "èĩªæ²»": 3290,
      "é¡ºåĪ©": 3291,
      "åĿĽ": 3292,
      "é©¶": 3293,
      "çļĦåľ°æĸ¹": 3294,
      "åĲ«éĩı": 3295,
      "ä¹¡æĿĳ": 3296,
      "èµı": 3297,
      "æ¯Ķä¾ĭ": 3298,
      "é©±": 3299,
      "å¯¿åĳ½": 3300,
      "è½¦è¾Ĩ": 3301,
      "å¤ļå¹´": 3302,
      "çį": 3303,
      "èįĲ": 3304,
      "æ¸ł": 3305,
      "åĪ«äºº": 3306,
      "è£ħå¤ĩ": 3307,
      "åŀĥ": 3308,
      "åľ¾": 3309,
      "å®ŀéªĮå®¤": 3310,
      "éº¦": 3311,
      "å±ķçİ°": 3312,
      "åŀĥåľ¾": 3313,
      "æī£": 3314,
      "èĻİ": 3315,
      "æĽ´æĺ¯": 3316,
      "è¯¦ç»Ĩ": 3317,
      "åŃ¦ä¼ļ": 3318,
      "é¢ľèī²": 3319,
      "å¿½": 3320,
      "åĪĩå®ŀ": 3321,
      "æĸ°åŀĭ": 3322,
      "å°ĩ": 3323,
      "ãĢĤ(": 3324,
      "ç¡ķ": 3325,
      "çİ¯èĬĤ": 3326,
      "åĵ²": 3327,
      "æ³ķè§Ħ": 3328,
      "çĽĳæµĭ": 3329,
      "æĪĳåĢĳ": 3330,
      "ä¼¸": 3331,
      "åıĺå¾Ĺ": 3332,
      "çĶµåĬĽ": 3333,
      "ä¸ĢçĤ¹": 3334,
      "ä¸Ĭåįĩ": 3335,
      "åĹ": 3336,
      "ç§»åĬ¨": 3337,
      "ä¸Ģæĺ¯": 3338,
      "äººåľ¨": 3339,
      "èĶ¬": 3340,
      "èĳĹåĲį": 3341,
      "æ³¨éĩį": 3342,
      "çĵ¶": 3343,
      "åķĨåĬ¡": 3344,
      "æĽ´å¤ļçļĦ": 3345,
      "ä¼ĺè´¨": 3346,
      "è¿Ļä¹Ī": 3347,
      "31": 3348,
      "å©´åĦ¿": 3349,
      "æĸ¹éĿ¢çļĦ": 3350,
      "çº¢èī²": 3351,
      "æĶ¯æĴĳ": 3352,
      "å®¤åĨħ": 3353,
      "åı¯éĿł": 3354,
      "è½¬åŀĭ": 3355,
      "å¤ļæ¬¡": 3356,
      "ä¸»ç®¡": 3357,
      "å¤§å¤§": 3358,
      "æĶ¾åľ¨": 3359,
      "éĩįæĸ°": 3360,
      "æĬ¤çĲĨ": 3361,
      "ä¼¼ä¹İ": 3362,
      "æļĤ": 3363,
      "çĶľ": 3364,
      "èĪªç©º": 3365,
      "çķħ": 3366,
      "é£İæł¼": 3367,
      "ä¸ĭéĿ¢": 3368,
      "å¿Ĩ": 3369,
      "æĬĬæı¡": 3370,
      "ç«¹": 3371,
      "çļĦä¼ģä¸ļ": 3372,
      "èħĲèļĢ": 3373,
      "å¹´é¾Ħ": 3374,
      "éĺ²æİ§": 3375,
      "è¶³çĲĥ": 3376,
      "çĻ½æĸĳ": 3377,
      "çľł": 3378,
      "æ¼ı": 3379,
      "æľĢä½³": 3380,
      "çľŁçļĦ": 3381,
      "å·ŀå¸Ĥ": 3382,
      "æ²Ĵ": 3383,
      "æıĲä¾ĽäºĨ": 3384,
      "æĭ¼": 3385,
      "åĩī": 3386,
      "çĵ·": 3387,
      "åıĳçĹħ": 3388,
      "è·Ŀç¦»": 3389,
      "æĿľ": 3390,
      "èī°": 3391,
      "éĻĲåĪ¶": 3392,
      "ä¸ĵåĪ©": 3393,
      "æĶ¹éĢł": 3394,
      "çļĦçĶŁæ´»": 3395,
      "åĪ¶åĵģ": 3396,
      "çĻ»è®°": 3397,
      "å®¾": 3398,
      "åıįæĺł": 3399,
      "è¯ģä¹¦": 3400,
      "ä¸Ńåįİæ°ĳæĹı": 3401,
      "æŀĦæĪĲ": 3402,
      "èº«ä»½": 3403,
      "çĸ¼": 3404,
      "ä½ľåĩº": 3405,
      "è¿Ļæ¬¡": 3406,
      "éĩĮçļĦ": 3407,
      "æģĲ": 3408,
      "é«ĺçŃī": 3409,
      "éļĨ": 3410,
      "éģĵå¾·": 3411,
      "æ´ª": 3412,
      "çļĦåĲĮæĹ¶": 3413,
      "çĻ¾å¹´": 3414,
      "è®¤è¯ģ": 3415,
      "è£ħé¥°": 3416,
      "åĽĽä¸ª": 3417,
      "âĢĻ": 3418,
      "æ¶Īæģ¯": 3419,
      "åľ¨ä¸ŃåĽ½": 3420,
      "æĺ¯ä¸į": 3421,
      "åĩłä¹İ": 3422,
      "æĪĲéĥ½": 3423,
      "ä¸ĵä¸ļçļĦ": 3424,
      "åĿ¡": 3425,
      "æ¶Īéĺ²": 3426,
      "è¿ģ": 3427,
      "åĲĦçº§": 3428,
      "è¯Ħä¼°": 3429,
      "æľĪä»½": 3430,
      "æ¸ħæ¥ļ": 3431,
      "èŀº": 3432,
      "éĻ¢æł¡": 3433,
      "ä¹ĭå¤ĸ": 3434,
      "æĪĲåĪĨ": 3435,
      "ä¸Ĭè¿°": 3436,
      "èĳ¡": 3437,
      "å²©": 3438,
      "è¿ŀæİ¥": 3439,
      "çļĦå¥½": 3440,
      "ä¿Ħç½Ĺæĸ¯": 3441,
      "çļĦè¦ģæ±Ĥ": 3442,
      "æľĢå¥½": 3443,
      "å»ºæĪĲ": 3444,
      "æ²ŁéĢļ": 3445,
      "å§Ķä¼ļ": 3446,
      "è®°å½ķ": 3447,
      "é¢Ī": 3448,
      "çĦĬ": 3449,
      "æĪĲçĨŁ": 3450,
      "æī¹åĩĨ": 3451,
      "æģĭ": 3452,
      "en": 3453,
      "å°º": 3454,
      "ä¼ļæľī": 3455,
      "ä¼ļä¸Ĭ": 3456,
      "é©»": 3457,
      "åĵ¡": 3458,
      "ç¸": 3459,
      "è®©äºº": 3460,
      "äºķ": 3461,
      "åĨ³çŃĸ": 3462,
      "å¿ĥçļĦ": 3463,
      "æĻĭ": 3464,
      "è¯ķç®¡": 3465,
      "è¡¨è¾¾": 3466,
      "å¼ķé¢Ĩ": 3467,
      "ç¢İ": 3468,
      "ç¼ºä¹ı": 3469,
      "ä»ĸäºº": 3470,
      "æ¸ħæ´ģ": 3471,
      "çļĦä¸Ģç§į": 3472,
      "2000": 3473,
      "è¡°": 3474,
      "äºĮæĺ¯": 3475,
      "éĢĲæŃ¥": 3476,
      "ä¸»è¦ģæĺ¯": 3477,
      "çĶµåĬ¨": 3478,
      "åľ¨äºİ": 3479,
      "åĩºçīĪ": 3480,
      "ç¼´": 3481,
      "é¼»": 3482,
      "äº«åıĹ": 3483,
      "éļ¾ä»¥": 3484,
      "åĢ¾": 3485,
      "æĢģåº¦": 3486,
      "è²Į": 3487,
      "è°±": 3488,
      "æŃ»äº¡": 3489,
      "æĢ»ä½ĵ": 3490,
      "æ°Ľ": 3491,
      "45": 3492,
      "æĸĩç«ł": 3493,
      "ä¸įèī¯": 3494,
      "é©¬åħĭæĢĿ": 3495,
      "èĥĨ": 3496,
      "æĤ£èĢħçļĦ": 3497,
      "å®¿": 3498,
      "å§Ĳ": 3499,
      "åĽºå®ļ": 3500,
      "å¼ķåıĳ": 3501,
      "éĥ½ä¸į": 3502,
      "âĢĺ": 3503,
      "åĨĴ": 3504,
      "èµĸ": 3505,
      "çľģçº§": 3506,
      "åľ°äº§": 3507,
      "ä¸ĢæĹ¦": 3508,
      "çī©çļĦ": 3509,
      "çĭĹ": 3510,
      "å¤§åĪ©": 3511,
      "åĲĦä¸ª": 3512,
      "æĮĩæłĩ": 3513,
      "éĹ²": 3514,
      "ä½¿å¾Ĺ": 3515,
      "è¿Ŀæ³ķ": 3516,
      "çĤŃ": 3517,
      "äºİæĺ¯": 3518,
      "çī¹å¾ģ": 3519,
      "çĪ±æĥħ": 3520,
      "é«ĺçº§": 3521,
      "åİŁæĸĻ": 3522,
      "çŁ³æ²¹": 3523,
      "è·ĥ": 3524,
      "ä¹ĥ": 3525,
      "éĨĩ": 3526,
      "éģĩåĪ°": 3527,
      "36": 3528,
      "åħ¬å®ī": 3529,
      "å°¾": 3530,
      "è®¡ç®Ĺæľº": 3531,
      "å¾½": 3532,
      "èĪį": 3533,
      "å·¡": 3534,
      "è°Ĳ": 3535,
      "å¤©æ´¥": 3536,
      "ä¾Ŀæį®": 3537,
      "æĦŁåĪ°": 3538,
      "åı¯æĺ¯": 3539,
      "æĨ": 3540,
      "çļĦäºĭæĥħ": 3541,
      "çĸĨ": 3542,
      "æ°£": 3543,
      "ä¸Ģä¸ªäºº": 3544,
      "ä¸ŃåĽ½åħ±äº§åħļ": 3545,
      "åĬ²": 3546,
      "å¹²çĩ¥": 3547,
      "è´¢åĬ¡": 3548,
      "å¾Ĵ": 3549,
      "æĦıåĳ³": 3550,
      "åĪĽä½ľ": 3551,
      "è¾£": 3552,
      "åĬŀçĲĨ": 3553,
      "çĪ¸": 3554,
      "å¤§å¤ļæķ°": 3555,
      "åĪĨæ³Į": 3556,
      "åħ¬å¸ĥ": 3557,
      "è£ħç½®": 3558,
      "æķĪçĽĬ": 3559,
      "çļĦåİŁåĽł": 3560,
      "æ¡Īä»¶": 3561,
      "åĳ¼åĲ¸": 3562,
      "èµ¶": 3563,
      "åŃĲå®«": 3564,
      "å¹´ä»£": 3565,
      "æ¶ĤæĸĻ": 3566,
      "äººæ°ĳæĶ¿åºľ": 3567,
      "åįģä¹Ŀ": 3568,
      "åĪ©æ¶¦": 3569,
      "çĭ¬çī¹": 3570,
      "åĪĬ": 3571,
      "æ»´": 3572,
      "ç¡ħ": 3573,
      "é»ŀ": 3574,
      "å¨±ä¹Ĳ": 3575,
      "ãĢĭãĢĤ": 3576,
      "å¤§éĥ¨åĪĨ": 3577,
      "èĲĦ": 3578,
      "åįģäºĮ": 3579,
      "åĲİæĿ¥": 3580,
      "åģļåĩº": 3581,
      "åĩłä¸ª": 3582,
      "åº¦çļĦ": 3583,
      "åĨľæ°ĳ": 3584,
      "çĹħäºº": 3585,
      "åĭĻ": 3586,
      "èĥĮæĻ¯": 3587,
      "æĦŁæĥħ": 3588,
      "æĬ±": 3589,
      "åħ±äº«": 3590,
      "æľŁçļĦ": 3591,
      "è®¾ç«ĭ": 3592,
      "åıĳçĶµ": 3593,
      "300": 3594,
      "è¡¨æĺİ": 3595,
      "æµģç¨ĭ": 3596,
      "åĵģç§į": 3597,
      "åľºæīĢ": 3598,
      "ä¹Łå°±æĺ¯": 3599,
      "æ¸ħæ´Ĺ": 3600,
      "è¿Ľåı£": 3601,
      "åł´": 3602,
      "åºĶæĢ¥": 3603,
      "å°½ç®¡": 3604,
      "åĲ¯åĬ¨": 3605,
      "çłĤ": 3606,
      "åĽ½æľī": 3607,
      "è¯±": 3608,
      "å¾Īå¤ļäºº": 3609,
      "å¯¹å¤ĸ": 3610,
      "æ¼Ĩ": 3611,
      "æ¹ĸåįĹ": 3612,
      "ä¸ĸçķĮæĿ¯": 3613,
      "ä»ĵ": 3614,
      "åĲĪæł¼": 3615,
      "ä¸ĩäºº": 3616,
      "éĵ¸": 3617,
      "æīĢè°ĵ": 3618,
      "ç»ĺ": 3619,
      "èĤĥ": 3620,
      "ä¸Ģå®¶": 3621,
      "åĨ³èµĽ": 3622,
      "åĲĮæł·": 3623,
      "æĺ¾èĳĹ": 3624,
      "ä¸Ģæµģ": 3625,
      "åĬĽåº¦": 3626,
      "çłĸ": 3627,
      "ä¼¤å®³": 3628,
      "åıĳè¡¨": 3629,
      "æłı": 3630,
      "èĳ¡èĲĦ": 3631,
      "åŃ¦çĶŁçļĦ": 3632,
      "å°½éĩı": 3633,
      "è§Ĥå¯Ł": 3634,
      "åįĵ": 3635,
      "å°ıç»Ħ": 3636,
      "çĻ¾åĪĨ": 3637,
      "åĽĬ": 3638,
      "è¦ģæ³¨æĦı": 3639,
      "è¯ģåĪ¸": 3640,
      "æİ¨èįĲ": 3641,
      "éĶ»": 3642,
      "éĤĢ": 3643,
      "åģ¶": 3644,
      "æīĢåľ¨": 3645,
      "åħħæ»¡": 3646,
      "ç®¡éģĵ": 3647,
      "2014": 3648,
      "å¿§": 3649,
      "å¥¹çļĦ": 3650,
      "éĢĤå½ĵ": 3651,
      "æĶ¯éĥ¨": 3652,
      "ä¿¡å¿ĥ": 3653,
      "å¿ĹæĦ¿": 3654,
      "è½¬åĮĸ": 3655,
      "æĸ°æĬĢæľ¯": 3656,
      "çļĦæ°´": 3657,
      "çľŁå®ŀ": 3658,
      "å¿Ļ": 3659,
      "åħ«åŃĹ": 3660,
      "åŁ¹èĤ²": 3661,
      "éħ¯": 3662,
      "è³ĩ": 3663,
      "çļĦæĸ¹æ³ķ": 3664,
      "çļĦä¸Ģä¸ª": 3665,
      "è§Ĵèī²": 3666,
      "ä»ªåĻ¨": 3667,
      "åĬŀåħ¬å®¤": 3668,
      "ä»£çĲĨ": 3669,
      "çĽ¾": 3670,
      "èĥ¸": 3671,
      "éĢĨ": 3672,
      "åĴĮåĽ½": 3673,
      "å¯¹æĸ¹": 3674,
      "æįŁå¤±": 3675,
      "è®ĵ": 3676,
      "ä¸Ģè·¯": 3677,
      "è°ĥèĬĤ": 3678,
      "å°ĸ": 3679,
      "å¹³è¡¡": 3680,
      "å£¤": 3681,
      "èģĮè´£": 3682,
      "çĽ¸åĲĮ": 3683,
      "é«ĺæ¸©": 3684,
      "æ³Ħ": 3685,
      "å½¢åĬ¿": 3686,
      "æİĴæĶ¾": 3687,
      "æĲº": 3688,
      "çĥ¦": 3689,
      "èĶ¬èıľ": 3690,
      "èħ¾": 3691,
      "å¾Īå¤§çļĦ": 3692,
      "æķĮ": 3693,
      "å®Įæķ´": 3694,
      "ä¿¡çĶ¨": 3695,
      "æł¡åĽŃ": 3696,
      "éĽĨä½ĵ": 3697,
      "ç¢±": 3698,
      "æĽ´å¥½çļĦ": 3699,
      "ç»´ä¿®": 3700,
      "å±Ĥæ¬¡": 3701,
      "å¦Ĥæŀľä½ł": 3702,
      "åŃ¦ä½į": 3703,
      "è¢ĭ": 3704,
      "æµĭéĩı": 3705,
      "ä»¿": 3706,
      "?âĢĿ": 3707,
      "æĵ¦": 3708,
      "æ¸Ĺ": 3709,
      "çļĦæĬĢæľ¯": 3710,
      "æŃ£æĺ¯": 3711,
      "è¨Ń": 3712,
      "ä½©": 3713,
      "ç¡«": 3714,
      "éĻķ": 3715,
      "é¦ĸæ¬¡": 3716,
      "åĿļåĨ³": 3717,
      "æĸĩåŃ¦": 3718,
      "èĩ´åĬĽ": 3719,
      "æĸ°åĨł": 3720,
      "å°±èĥ½": 3721,
      "æıĲåĪ°": 3722,
      "æ´»æĢ§": 3723,
      "åĬŀåŃ¦": 3724,
      "å¸¦çĿĢ": 3725,
      "æī°": 3726,
      "æłĩå¿Ĺ": 3727,
      "è¡¥åħħ": 3728,
      "èĥľåĪ©": 3729,
      "æ°Ķä½ĵ": 3730,
      "ä¸īå¹´": 3731,
      "å®ħ": 3732,
      "éħįå¥Ĺ": 3733,
      "èĿ": 3734,
      "äºĨä¸Ģä¸ª": 3735,
      "åıĳä½ľ": 3736,
      "è·Į": 3737,
      "æ¢¦è§ģ": 3738,
      "ä½łä»¬": 3739,
      "è§Ħå¾ĭ": 3740,
      "ä»Ļ": 3741,
      "æĹ¶çļĦ": 3742,
      "åľ¨ä¸Ģèµ·": 3743,
      "æ¸łéģĵ": 3744,
      "å¾Īå¥½çļĦ": 3745,
      "éĶģ": 3746,
      "å¿Į": 3747,
      "æĻ¨": 3748,
      "åĶ¯ä¸Ģ": 3749,
      "å½¼": 3750,
      "ä½ĵåĪ¶": 3751,
      "èį¯åĵģ": 3752,
      "çļĦçĥŃ": 3753,
      "æ±Ĺ": 3754,
      "åįĢ": 3755,
      "èı²": 3756,
      "ç¥¥": 3757,
      "æĢĿç»´": 3758,
      "åį³åı¯": 3759,
      "çŃīå¥ĸ": 3760,
      "çīµ": 3761,
      "è¯ĬæĸŃ": 3762,
      "ç¾İä¸½": 3763,
      "æĦŁåıĹ": 3764,
      "éĥŃ": 3765,
      "è®¨è®º": 3766,
      "çļĦåīį": 3767,
      "æĻ®éģį": 3768,
      "ä¹Łèĥ½": 3769,
      "å®ĺæĸ¹": 3770,
      "èµ·åĪ°": 3771,
      "åħļä¸Ńå¤®": 3772,
      "è´·æ¬¾": 3773,
      "æĢ»æĺ¯": 3774,
      "åħ¬åĽŃ": 3775,
      "å®Ŀå®Ŀ": 3776,
      "å´ĩ": 3777,
      "ä¸ĵéĹ¨": 3778,
      "æ»ĭ": 3779,
      "åľ¨çº¿": 3780,
      "æĤ²": 3781,
      "åĬŁæķĪ": 3782,
      "éĥģ": 3783,
      "åįĹäº¬": 3784,
      "æª": 3785,
      "å¯¹è±¡": 3786,
      "åĪ°åºķ": 3787,
      "å¾ŀ": 3788,
      "éĵº": 3789,
      "å¿«ä¹Ĳ": 3790,
      "åĲĪéĩĳ": 3791,
      "ä½ľä¸ļ": 3792,
      "ä¸¤ç§į": 3793,
      "éĤ®": 3794,
      "åħ¨çľģ": 3795,
      "æ»¡æĦı": 3796,
      "åĩĢåĮĸ": 3797,
      "æľĢè¿ĳ": 3798,
      "çłĶç©¶çĶŁ": 3799,
      "å¯¸": 3800,
      "æ¨£": 3801,
      "çºł": 3802,
      "ä¼ļè®¡": 3803,
      "ä¸Ģèĩ´": 3804,
      "äº§æĿĥ": 3805,
      "åĳĪçİ°": 3806,
      "ä¾ĿçĦ¶": 3807,
      "éĩįçļĦ": 3808,
      "æĭĴç»Ŀ": 3809,
      "æĤŁ": 3810,
      "æĭħä»»": 3811,
      "çĸı": 3812,
      "çļĦæĥħåĨµä¸ĭ": 3813,
      "æ²³åĮĹ": 3814,
      "ä¼Ĺå¤ļ": 3815,
      "éĶ¦": 3816,
      "çļĨ": 3817,
      "ç²Ĺ": 3818,
      "éĥ½åľ¨": 3819,
      "éĢĥ": 3820,
      "ç§Ĵ": 3821,
      "é¢Ħè®¡": 3822,
      "éĵ¶å±ĳ": 3823,
      "è¯ļä¿¡": 3824,
      "çī©çĲĨ": 3825,
      "ç¾İçļĦ": 3826,
      "è³ª": 3827,
      "å¦Īå¦Ī": 3828,
      "éĺĢ": 3829,
      "ä¸¦": 3830,
      "çĤ¸": 3831,
      "åľ¨è¿Ļ": 3832,
      "åºĶå¯¹": 3833,
      "æĮĸ": 3834,
      "è¾½": 3835,
      "åħ»èĢģ": 3836,
      "åĪ¶éĢłä¸ļ": 3837,
      "å®ļä½į": 3838,
      "äººå¤§": 3839,
      "æĪªèĩ³": 3840,
      "éĵ¶å±ĳçĹħ": 3841,
      "èĤª": 3842,
      "æ©¡": 3843,
      "é«ĺè´¨éĩıåıĳå±ķ": 3844,
      "åĩ¯": 3845,
      "ä¿Ŀåģ¥": 3846,
      "èĦĤèĤª": 3847,
      "å®¶çļĦ": 3848,
      "åĪĽå»º": 3849,
      "è¯´éģĵ": 3850,
      "æĲľ": 3851,
      "éļľç¢į": 3852,
      "åī²": 3853,
      "ä¸ĢåĲį": 3854,
      "å°±è¦ģ": 3855,
      "æ£ĢéªĮ": 3856,
      "éĥ¨ä½į": 3857,
      "èĩ³ä»Ĭ": 3858,
      "åŃ¦åİĨ": 3859,
      "æĸ°èĥ½æºĲ": 3860,
      "å¸ĤåľºçļĦ": 3861,
      "éĢĤçĶ¨äºİ": 3862,
      "éĹ®é¢ĺçļĦ": 3863,
      "å¹¶ä¸įæĺ¯": 3864,
      "ç¬¬äºĶ": 3865,
      "éĺĶ": 3866,
      "å®ļæľŁ": 3867,
      "è¿ĺåı¯ä»¥": 3868,
      "ä¸Ĭä¸ĭ": 3869,
      "å¼ĺ": 3870,
      "æľīå¾Īå¤ļ": 3871,
      "äº©": 3872,
      "çģĮ": 3873,
      "å¾Īéļ¾": 3874,
      "æĥħåĨµä¸ĭ": 3875,
      "æ¬£": 3876,
      "äºĭé¡¹": 3877,
      "1000": 3878,
      "æ°¸è¿ľ": 3879,
      "æ²Ī": 3880,
      "èĥĢ": 3881,
      "ä¹ĭä¸Ń": 3882,
      "å¥³äºº": 3883,
      "åİŁçĲĨ": 3884,
      "çĶµè¯Ŀ": 3885,
      "è¯ĳ": 3886,
      "ä¸ĢæĿ¡": 3887,
      "èī¾": 3888,
      "æī«": 3889,
      "åħ´è¶£": 3890,
      "è¾ŀ": 3891,
      "ä»¥åīį": 3892,
      "æ·»åĬł": 3893,
      "å±¥è¡Į": 3894,
      "æľīåĪ©äºİ": 3895,
      "çł´åĿı": 3896,
      "æľīåı¯èĥ½": 3897,
      "åĪĨå¸ĥ": 3898,
      "å½¹": 3899,
      "è§£éĩĬ": 3900,
      "è¸ı": 3901,
      "æ¹ĸåĮĹ": 3902,
      "çĿĽ": 3903,
      "æ°¯": 3904,
      "è¡Įä¸ļçļĦ": 3905,
      "éĴĻ": 3906,
      "å¹¼åĦ¿": 3907,
      "é»ĳèī²": 3908,
      "åĨ»": 3909,
      "ãĢĭãĢĬ": 3910,
      "çºµ": 3911,
      "ç¼Ŀ": 3912,
      "ä¸Ļ": 3913,
      "çĶ·æĢ§": 3914,
      "äººçī©": 3915,
      "ä¸įç®¡": 3916,
      "ä¼ĺçĤ¹": 3917,
      "äº¿ç¾İåħĥ": 3918,
      "åķĬ": 3919,
      "è¿Ī": 3920,
      "ä¼łæī¿": 3921,
      "èµĭ": 3922,
      "ä¸ĵé¡¹": 3923,
      "çļĦåİĨåı²": 3924,
      "ä¸Ģåı¥": 3925,
      "éŁ©åĽ½": 3926,
      "èĻķ": 3927,
      "ä¹Łè¦ģ": 3928,
      "é¬": 3929,
      "çĪ¶äº²": 3930,
      "Ġ(": 3931,
      "äººæ°ĳå¸ģ": 3932,
      "åŁĥ": 3933,
      "æĥľ": 3934,
      "æĻ¯åĮº": 3935,
      "åºĶçĶ¨äºİ": 3936,
      "å°ıçļĦ": 3937,
      "ãĢĤãĢĬ": 3938,
      "çħ®": 3939,
      "ç¦»å¼Ģ": 3940,
      "å¯º": 3941,
      "éĿĴæĺ¥": 3942,
      "éļıåĲİ": 3943,
      "èĬĤçĽ®": 3944,
      "é½¿": 3945,
      "ä¸ĬäºĨ": 3946,
      "å°±åĥı": 3947,
      "è¡Ģæ¶²": 3948,
      "èĩªè§ī": 3949,
      "èŀįèµĦ": 3950,
      "å¼Ĥå¸¸": 3951,
      "38": 3952,
      "å¤±åİ»": 3953,
      "éĤ¦": 3954,
      "ä¿¡æģ¯åĮĸ": 3955,
      "èħ°": 3956,
      "æĿŃ": 3957,
      "çĻ½çĻľé£İçļĦ": 3958,
      "åĪĨç±»": 3959,
      "æĦıæĢĿ": 3960,
      "åĴĮè°Ĳ": 3961,
      "åįģå¹´": 3962,
      "2013": 3963,
      "åĲĬ": 3964,
      "åĬłä¸Ĭ": 3965,
      "ç³»ç»ŁçļĦ": 3966,
      "å·¥åķĨ": 3967,
      "è§ĦåĪĻ": 3968,
      "åľ¨æŃ¤": 3969,
      "äºĳåįĹ": 3970,
      "ä¸ŃåĽ½çļĦ": 3971,
      "åģ¥åħ¨": 3972,
      "å°Ŀ": 3973,
      "èħ¿": 3974,
      "ç§įæ¤į": 3975,
      "è½¬åıĺ": 3976,
      "èĥ½éĩı": 3977,
      "æĹ¶åĪ»": 3978,
      "å®ĺç½ĳ": 3979,
      "æľºåľº": 3980,
      "æĪĺäºī": 3981,
      "éĺ³åħī": 3982,
      "æĺ¯çĶ±": 3983,
      "æĹģ": 3984,
      "è¾ĸ": 3985,
      "æŀĿ": 3986,
      "å¸¦é¢Ĩ": 3987,
      "%;": 3988,
      "åĢ¡": 3989,
      "èĢģäºº": 3990,
      "èĢĥæł¸": 3991,
      "åĴĮç¤¾ä¼ļ": 3992,
      "éĺ²æ²»": 3993,
      "æµĨ": 3994,
      "åľŁå£¤": 3995,
      "ä¸įå¥½": 3996,
      "å¥ı": 3997,
      "åıĳèĤ²": 3998,
      "è¡ĮçļĦ": 3999,
      "å·¥åİĤ": 4000,
      "å¾Īå¥½": 4001,
      "å·¥èµĦ": 4002,
      "æĦıåĳ³çĿĢ": 4003,
      "åĽ½å®¶çº§": 4004,
      "æĭĨ": 4005,
      "å¤Ħç½ļ": 4006,
      "åĽŀåºĶ": 4007,
      "èĩŃ": 4008,
      "é³": 4009,
      "ç´¯è®¡": 4010,
      "ä¸Ńåħ±": 4011,
      "åħħåĪĨåıĳæĮ¥": 4012,
      "ä½ıæĪ¿": 4013,
      "ä¸įåĨį": 4014,
      "æ³ķåĽ½": 4015,
      "éĢļä¿¡": 4016,
      "åĳ¨æľŁ": 4017,
      "æ¶ĪåĮĸ": 4018,
      "æ·±åº¦": 4019,
      "é«ĺç«¯": 4020,
      "åĽŀæĶ¶": 4021,
      "ä¼ĺèī¯": 4022,
      "è¾ĥå¤§": 4023,
      "æ··åĲĪ": 4024,
      "çİ°æľī": 4025,
      "æĲ¬": 4026,
      "åħ¨ä¼ļ": 4027,
      "åįĬå¹´": 4028,
      "åľºæ¯ĶèµĽ": 4029,
      "æ¿Ģç´ł": 4030,
      "æĭĽçĶŁ": 4031,
      "åĮĢ": 4032,
      "æ¯įäº²": 4033,
      "æĽ´ä¸º": 4034,
      "åħ±åĴĮåĽ½": 4035,
      "ç«ĭåį³": 4036,
      "33": 4037,
      "éĶĮ": 4038,
      "åĽ½åĨħå¤ĸ": 4039,
      "å¼ķè¿Ľ": 4040,
      "åħįè´¹": 4041,
      "è¾ĥä¸º": 4042,
      "è¿ĺä¼ļ": 4043,
      "çĿĢåĬĽ": 4044,
      "å¹³æĹ¶": 4045,
      "mm": 4046,
      "å¤©ä¸ĭ": 4047,
      "åį°åĪ·": 4048,
      "èĩ´åĬĽäºİ": 4049,
      "æľĢå¥½çļĦ": 4050,
      "è®¤åı¯": 4051,
      "æıĴ": 4052,
      "ç¢ĳ": 4053,
      "çĻ½èī²": 4054,
      "éĩĩè´Ń": 4055,
      "éĥ¨ä»¶": 4056,
      "å®ļçļĦ": 4057,
      "!âĢĿ": 4058,
      "æłĳç«ĭ": 4059,
      "èĸª": 4060,
      "å°Ĩåľ¨": 4061,
      "ä¸ĩåĲ¨": 4062,
      "åŁºäºİ": 4063,
      "çļĦç²¾ç¥ŀ": 4064,
      "æĢª": 4065,
      "æµ·å¤ĸ": 4066,
      "è®¾å¤ĩçļĦ": 4067,
      "èĩªä¿¡": 4068,
      "çĽĨ": 4069,
      "æĭħå½ĵ": 4070,
      "åħ©": 4071,
      "è¾°": 4072,
      "æ¼Ķåĳĺ": 4073,
      "æĺĨ": 4074,
      "é©¬åħĭæĢĿä¸»ä¹ī": 4075,
      "é¸Ł": 4076,
      "è¨Ī": 4077,
      "éº¼": 4078,
      "è°¨": 4079,
      "çŁĽ": 4080,
      "æĺ¯ä¸ŃåĽ½": 4081,
      "å¿į": 4082,
      "å·¥ä½ľäººåĳĺ": 4083,
      "çªģçĦ¶": 4084,
      "åĮ»èį¯": 4085,
      "åĳ¨åĽ´": 4086,
      "ç¾İæľ¯": 4087,
      "èĭ±è¯Ń": 4088,
      "åħ¨å¸Ĥ": 4089,
      "å®īåħ¨çĶŁäº§": 4090,
      "çľ¼çĿĽ": 4091,
      "éĽ¾": 4092,
      "æĭĵå±ķ": 4093,
      "çº½": 4094,
      "å¤©çļĦ": 4095,
      "éĥ½è¦ģ": 4096,
      "å§ľ": 4097,
      "æįŁå®³": 4098,
      "è®ºæĸĩ": 4099,
      "ç¦»åŃĲ": 4100,
      "çºº": 4101,
      "éªĹ": 4102,
      "åįģåĽĽ": 4103,
      "èĢĮä¸į": 4104,
      "åĽ½å¤ĸ": 4105,
      "ç¾İå¥½": 4106,
      "åĻ¨çļĦ": 4107,
      "2012": 4108,
      "èį£èªī": 4109,
      "ä¿¡åı·": 4110,
      "èĩªæ²»åĮº": 4111,
      "æ¯ķä¸ļçĶŁ": 4112,
      "æĿĥåĪ©": 4113,
      "éĿ¢åĲĳ": 4114,
      "ç¡ķå£«": 4115,
      "èĬ¯": 4116,
      "åįģåħ«": 4117,
      "å¤įåĲĪ": 4118,
      "æķ¸": 4119,
      "æ¢¯": 4120,
      "èĩ³å°ĳ": 4121,
      "åĪĿå¿ĥ": 4122,
      "å¦Ļ": 4123,
      "å§»": 4124,
      "ä¹Łåľ¨": 4125,
      "è¡Ģåİĭ": 4126,
      "åĬłçĥŃ": 4127,
      "å½°": 4128,
      "åŁºåĽł": 4129,
      "è¾Ī": 4130,
      "å«Į": 4131,
      "äºļæ´²": 4132,
      "çĮ«": 4133,
      "åĪ¤æĸŃ": 4134,
      "å®£å¸ĥ": 4135,
      "æĥĳ": 4136,
      "é¢ĨåŁŁçļĦ": 4137,
      "æµģåĬ¨": 4138,
      "åħģ": 4139,
      "é¡µ": 4140,
      "ç§ī": 4141,
      "åħ¨åĬĽ": 4142,
      "æİĺ": 4143,
      "æł¼å±Ģ": 4144,
      "é¥±": 4145,
      "çµĲ": 4146,
      "éħįç½®": 4147,
      "å²ģçļĦ": 4148,
      "å®¶åħ·": 4149,
      "éķ¿æĹ¶éĹ´": 4150,
      "èĲ¥ä¸ļ": 4151,
      "ä¸įçŁ¥éģĵ": 4152,
      "çĤĴ": 4153,
      "å¤įåħ´": 4154,
      "å½ĵä¸Ń": 4155,
      "æĹ©æľŁ": 4156,
      "åŃ©åŃĲçļĦ": 4157,
      "èĴĤ": 4158,
      "å¾Īå®¹æĺĵ": 4159,
      "åıĤèĢĥ": 4160,
      "æĸĩåŃĹ": 4161,
      "ç»ıæµİåıĳå±ķ": 4162,
      "å®¡æŁ¥": 4163,
      "æľŁå¾ħ": 4164,
      "åı¯ä»¥åľ¨": 4165,
      "åħļå»º": 4166,
      "ç¬¬ä¸Ģæ¬¡": 4167,
      "çļĦæľįåĬ¡": 4168,
      "åŃ¤": 4169,
      "å¥ĳ": 4170,
      "æľºéģĩ": 4171,
      "ä¸Ģæ®µ": 4172,
      "èĤ¿çĺ¤": 4173,
      "ä¸Ńèį¯": 4174,
      "åĨ²åĩ»": 4175,
      "åıĸå¾ĹäºĨ": 4176,
      "æ¦Ĥå¿µ": 4177,
      "ä¸įéĶĻ": 4178,
      "è¯ķç®¡å©´åĦ¿": 4179,
      "ç¨Ģ": 4180,
      "ä½ĵä¼ļ": 4181,
      "æĤ¬": 4182,
      "åĲĲ": 4183,
      "ç»ıåħ¸": 4184,
      "ç»ŁçŃ¹": 4185,
      "åĩºå¸Ń": 4186,
      "æ¿Ģåħī": 4187,
      "è¯´çļĦ": 4188,
      "åī©": 4189,
      "åı¸æ³ķ": 4190,
      "è§£åĨ³æĸ¹æ¡Ī": 4191,
      "37": 4192,
      "éĻµ": 4193,
      "çĸ²": 4194,
      "åħ¸åŀĭ": 4195,
      "çĥĪçļĦ": 4196,
      "çŁĽçĽ¾": 4197,
      "è»Ĭ": 4198,
      "æıĲåīį": 4199,
      "ä¹īåĬ¡": 4200,
      "è´¯å½»èĲ½å®ŀ": 4201,
      "æĹ©å·²": 4202,
      "å¾Īå¿«": 4203,
      "éĻķè¥¿": 4204,
      "æĥħæĦŁ": 4205,
      "æĢ»ç»ıçĲĨ": 4206,
      "æĪĴ": 4207,
      "èĩªåĬ¨åĮĸ": 4208,
      "èľľ": 4209,
      "å·¥ä½ľä¸Ń": 4210,
      "æĪ¿åľ°äº§": 4211,
      "æ¡Ĥ": 4212,
      "æĥ³åĪ°": 4213,
      "çī§": 4214,
      "ä½ľèĢħ": 4215,
      "éĺħè¯»": 4216,
      "ä»¥ä¸º": 4217,
      "æ°´æŀľ": 4218,
      "ç¡®å®ŀ": 4219,
      "æľīåĵªäºĽ": 4220,
      "æįĲ": 4221,
      "æħ¢æĢ§": 4222,
      "æĹ¥èµ·": 4223,
      "è¡¨æ¼Ķ": 4224,
      "é©¾é©¶": 4225,
      "æŃ£è§Ħ": 4226,
      "ä»°": 4227,
      "æķ´åĲĪ": 4228,
      "æµ·æ´ĭ": 4229,
      "åħ¶æ¬¡": 4230,
      "è®¸åı¯": 4231,
      "åŁºç¡Ģè®¾æĸ½": 4232,
      "ä»ªå¼ı": 4233,
      "å¹¶æ²¡æľī": 4234,
      "èµĶ": 4235,
      "è¤": 4236,
      "æľīä¸Ģä¸ª": 4237,
      "æľīæķĪçļĦ": 4238,
      "æĲŀ": 4239,
      "è®©æĪĳä»¬": 4240,
      "æĬĢæľ¯çļĦ": 4241,
      "éĻª": 4242,
      "åĬłçĽŁ": 4243,
      "ä½İäºİ": 4244,
      "æĿ¡ä¾ĭ": 4245,
      "å¤©æ°Ķ": 4246,
      "ãĢĭ(": 4247,
      "åłĨ": 4248,
      "æıĲéĨĴ": 4249,
      "çĶ·äºº": 4250,
      "ä¸ĸçķĮä¸Ĭ": 4251,
      "æµģéĩı": 4252,
      "èĳ£äºĭéķ¿": 4253,
      "å¯ĨåĪĩ": 4254,
      "ä¸Ģä»£": 4255,
      "34": 4256,
      "åĲįåŃĹ": 4257,
      "éĤ£ä¸ª": 4258,
      "çºªå¿µ": 4259,
      "æĽ¹": 4260,
      "éĶĪéĴ¢": 4261,
      "åħ³å¿ĥ": 4262,
      "æĪĲçļĦ": 4263,
      "éĻ¢éķ¿": 4264,
      "åĽŃåĮº": 4265,
      "å¾ĹåĪ°äºĨ": 4266,
      "å®īå¾½": 4267,
      "æ²Ĵæľī": 4268,
      "èĩ£": 4269,
      "åįıåĲĮ": 4270,
      "éĨ«": 4271,
      "æĦŁè°¢": 4272,
      "æħĪ": 4273,
      "ä»ĸåľ¨": 4274,
      "è®Ĭ": 4275,
      "åŁİä¹¡": 4276,
      "éĮ": 4277,
      "çĩķ": 4278,
      "èº«ä¸Ĭ": 4279,
      "äº§ä¸ļéĵ¾": 4280,
      "æ°ĶåĢĻ": 4281,
      "èĦ¾": 4282,
      "æ°´çļĦ": 4283,
      "æµ¸": 4284,
      "åħ¶å®ĥ": 4285,
      "åįļçī©": 4286,
      "åħ¬çĽĬ": 4287,
      "è§Ħå®ļçļĦ": 4288,
      "åĲĪéĢĤ": 4289,
      "åĩłå¹´": 4290,
      "----": 4291,
      "å¦Ĥä¸ĭ": 4292,
      "éĶ»çĤ¼": 4293,
      "æĶ¶çĽĬ": 4294,
      "çļĦä¸»": 4295,
      "ç»´æĮģ": 4296,
      "åĩ¤": 4297,
      "éĥ½èĥ½": 4298,
      "èī²å½©": 4299,
      "ï¿": 4300,
      "æµħ": 4301,
      "å©ļå§»": 4302,
      "æĿ¥æºĲ": 4303,
      "ä¼Ļä¼´": 4304,
      "æ·ĭ": 4305,
      "åŁİéķĩ": 4306,
      "é¢¨": 4307,
      "æĺ¯æľī": 4308,
      "çĸ¼çĹĽ": 4309,
      "32": 4310,
      "åįģä¸ī": 4311,
      "PP": 4312,
      "å·®å¼Ĥ": 4313,
      "åĺ´": 4314,
      "é»İ": 4315,
      "æ·Ģ": 4316,
      "æĪ¿å±ĭ": 4317,
      "ç°": 4318,
      "å¤§æķ°æį®": 4319,
      "æľĢæĸ°": 4320,
      "å¸Ĥå§Ķ": 4321,
      "éŃĶ": 4322,
      "å°Ĩä¼ļ": 4323,
      "æ±ģ": 4324,
      "é¢ģ": 4325,
      "2010": 4326,
      "å¯Ħ": 4327,
      "çĶŁåŃĺ": 4328,
      "çłĶç©¶éĻ¢": 4329,
      "____": 4330,
      "ä¸Ģæī¹": 4331,
      "59": 4332,
      "ä¸ĭäºĨ": 4333,
      "æĪĳä»¬è¦ģ": 4334,
      "æºª": 4335,
      "æıĲåĩºäºĨ": 4336,
      "çļĦåŁºæľ¬": 4337,
      "æĶ¯åĩº": 4338,
      "åīĳ": 4339,
      "åľ¨ä¸į": 4340,
      "çº¿ä¸Ĭ": 4341,
      "çĽĪ": 4342,
      "æĬ¥åĲį": 4343,
      "åı¯è§ģ": 4344,
      "éķĢ": 4345,
      "48": 4346,
      "ç»ıæµİç¤¾ä¼ļ": 4347,
      "è´§å¸ģ": 4348,
      "æĿ¥åĪ°": 4349,
      "éģĭ": 4350,
      "çļĦçĶŁäº§": 4351,
      "ï¿½": 4352,
      "åĩºçİ°äºĨ": 4353,
      "ar": 4354,
      "ä¸Ĭæ¶¨": 4355,
      "çļĦéľĢæ±Ĥ": 4356,
      "åľ°ä¸ĭ": 4357,
      "æ°¢": 4358,
      "éķ¿çļĦ": 4359,
      "å¤ļåħĥ": 4360,
      "2011": 4361,
      "èµ¢å¾Ĺ": 4362,
      "å®ŀéĻħä¸Ĭ": 4363,
      "ç»ĦåĲĪ": 4364,
      "äººæķ°": 4365,
      "äºĮåįģå¤§": 4366,
      "ä½¿çĶ¨çļĦ": 4367,
      "æ¢¦æĥ³": 4368,
      "ä»Ķ": 4369,
      "åĤ¬": 4370,
      "ä¸īæĺ¯": 4371,
      "è¯ķçĤ¹": 4372,
      "æľĪç»ı": 4373,
      "èĢĥå¯Ł": 4374,
      "åıĳåĬ¨": 4375,
      "äº§éĩı": 4376,
      "åģľæŃ¢": 4377,
      "ç¦ıå»º": 4378,
      "ä½ľé£İ": 4379,
      "è´«åĽ°": 4380,
      "ç¨į": 4381,
      "ä¹ĭè·¯": 4382,
      "çī¹æĢ§": 4383,
      "åĲĮæ¯Ķå¢ŀéķ¿": 4384,
      "åľ°çļĦ": 4385,
      "å·¨å¤§": 4386,
      "æķĻèĤ²éĥ¨": 4387,
      "åĻª": 4388,
      "åĪ¥": 4389,
      "åĽ½çļĦ": 4390,
      "55": 4391,
      "ä¸Ģä½į": 4392,
      "å°ıåŃ¦": 4393,
      "èĢķ": 4394,
      "è£ħä¿®": 4395,
      "åīįçļĦ": 4396,
      "å¤ļæł·": 4397,
      "æĸ¹ä½į": 4398,
      "åħĦ": 4399,
      "åŁĭ": 4400,
      "èĩªè¡Į": 4401,
      "çĶŁæ´»çļĦ": 4402,
      "æ¸¸å®¢": 4403,
      "å¾¡": 4404,
      "åĽ½æ°ĳ": 4405,
      "åŃ£åº¦": 4406,
      "æĸ¤": 4407,
      "å¹¿è¥¿": 4408,
      "æīĢæľīçļĦ": 4409,
      "ç²¾å½©": 4410,
      "è¾ĥé«ĺ": 4411,
      "å¸ĪçĶŁ": 4412,
      "çķª": 4413,
      "å¸Ĥæ°ĳ": 4414,
      "åĮºåĪ«": 4415,
      "åı°æ¹¾": 4416,
      "æ»¨": 4417,
      "æŁĲäºĽ": 4418,
      "æĦ¿æĦı": 4419,
      "æ£®æŀĹ": 4420,
      "å¹¶åľ¨": 4421,
      "è®¤å®ļ": 4422,
      "éŃĤ": 4423,
      "è¬": 4424,
      "æĳĩ": 4425,
      "å®¶äºº": 4426,
      "åĽŀåĪ°": 4427,
      "éŃı": 4428,
      "æ£ī": 4429,
      "ç¨¿": 4430,
      "å¸¦åĬ¨": 4431,
      "æ²ĥ": 4432,
      "æĮĩæķ°": 4433,
      "åĲ¹": 4434,
      "æī§æ³ķ": 4435,
      "åº·å¤į": 4436,
      "åĴĮåħ¶ä»ĸ": 4437,
      "åĩĮ": 4438,
      "ä¸Ģå¤©": 4439,
      "çĸ«èĭĹ": 4440,
      "ä¸Ģå¸¦": 4441,
      "æĳ¸": 4442,
      "å¤§å¹ħ": 4443,
      "éģ¸": 4444,
      "ç±»ä¼¼": 4445,
      "èĲ¥éĢł": 4446,
      "å¯¹æŃ¤": 4447,
      "å°Ĭéĩį": 4448,
      "å£°éŁ³": 4449,
      "åĲĪæ³ķ": 4450,
      "éĺ²æĬ¤": 4451,
      "å¥Ķ": 4452,
      "çĲ´": 4453,
      "ä¸įéĶĪéĴ¢": 4454,
      "æ·ĺ": 4455,
      "èĢĥçĶŁ": 4456,
      "æĸĹäºī": 4457,
      "å¦¹": 4458,
      "åīįè¿Ľ": 4459,
      "è¿Ł": 4460,
      "åĬ¨ä½ľ": 4461,
      "æīįæĺ¯": 4462,
      "æµ¦": 4463,
      "ç²¾åĩĨ": 4464,
      "èµ´": 4465,
      "å£³": 4466,
      "åĬłéĢŁ": 4467,
      "èĭ±éĽĦ": 4468,
      "æĢĢåŃķ": 4469,
      "æ¤Ĵ": 4470,
      "ç½©": 4471,
      "ç¾½": 4472,
      "è¥¿å®ī": 4473,
      "å¤§éĩıçļĦ": 4474,
      "å½¢æĪĲäºĨ": 4475,
      "çľģå§Ķ": 4476,
      "æĺ¯éĿŀå¸¸": 4477,
      "åı¯æĮģç»Ń": 4478,
      "ç¢°": 4479,
      "äººæ°ĳåħ±åĴĮåĽ½": 4480,
      "ç«ŀäºīåĬĽ": 4481,
      "èĵĦ": 4482,
      "åĬłéĩį": 4483,
      "éĶĻè¯¯": 4484,
      "å¯Ĩå°ģ": 4485,
      "è¿ĳæľŁ": 4486,
      "è´µå·ŀ": 4487,
      "æ··åĩĿ": 4488,
      "å¼·": 4489,
      "çĽĳæİ§": 4490,
      "39": 4491,
      "åĳ½è¿Ĳ": 4492,
      "æĶ»åĿļ": 4493,
      "åĴĮå¹³": 4494,
      "è¾©": 4495,
      "æ´»åĬĽ": 4496,
      "çĶ³æĬ¥": 4497,
      "æĮ¯åħ´": 4498,
      "æ³ķæ²»": 4499,
      "å¥¥è¿Ĳ": 4500,
      "èĬ³": 4501,
      "å¹»": 4502,
      "ç´§å¼ł": 4503,
      "çļĦä½¿çĶ¨": 4504,
      "æĿĥçĽĬ": 4505,
      "ä¸¥éĩįçļĦ": 4506,
      "å®ĹæĹ¨": 4507,
      "åĦ¿åŃĲ": 4508,
      "æĿ¥äºĨ": 4509,
      "åĽ½å®¶çļĦ": 4510,
      "çĸ«æĥħéĺ²æİ§": 4511,
      "æŁľ": 4512,
      "ç§ĳæĬĢåĪĽæĸ°": 4513,
      "éĩĮéĿ¢": 4514,
      "æĶ¹è¿Ľ": 4515,
      "åĴĮåıĳå±ķ": 4516,
      "å»·": 4517,
      "ä¸Ńåįİäººæ°ĳåħ±åĴĮåĽ½": 4518,
      "åħĨ": 4519,
      "èº«è¾¹": 4520,
      "åĩŃåĢŁ": 4521,
      "æĸ°çĸĨ": 4522,
      "æīĵå¼Ģ": 4523,
      "æĽ´æĸ°": 4524,
      "å»ºè®¾çļĦ": 4525,
      "ç©ºè°ĥ": 4526,
      "çĻ¾åĪĨçĤ¹": 4527,
      "çĹħä¾ĭ": 4528,
      "èŁ": 4529,
      "å¸«": 4530,
      "æ¡Į": 4531,
      "äººåĬĽ": 4532,
      "ä»£è°¢": 4533,
      "æĻ°": 4534,
      "75": 4535,
      "èģĮä¸ļæķĻèĤ²": 4536,
      "äººæīįåŁ¹åħ»": 4537,
      "éĿĴå°ĳå¹´": 4538,
      "ä¸Ģç³»åĪĹ": 4539,
      "æİ¨åĩº": 4540,
      "ä¸įçĶ¨": 4541,
      "ä¸Ńæľī": 4542,
      "è¿ĳæĹ¥": 4543,
      "ç§¯ç´¯": 4544,
      "è§Ĥå¿µ": 4545,
      "ç½ĳåıĭ": 4546,
      "è®ºåĿĽ": 4547,
      "èĤºçĤİ": 4548,
      "çĪ·": 4549,
      "é¢Ħç®Ĺ": 4550,
      "ç¼ĵè§£": 4551,
      "å¸¦æĿ¥çļĦ": 4552,
      "èİ·åıĸ": 4553,
      "å½¢æĢģ": 4554,
      "æĴŀ": 4555,
      "æ°ĽåĽ´": 4556,
      "åĬ©äºİ": 4557,
      "ä¼ĳæģ¯": 4558,
      "è¿ĩæ»¤": 4559,
      "éĦ": 4560,
      "åĬ£": 4561,
      "ä¸ĭåİ»": 4562,
      "æ¸¡": 4563,
      "äººä¸º": 4564,
      "åĲ¦åĪĻ": 4565,
      "ç»ĨèıĮ": 4566,
      "åį°åº¦": 4567,
      "å¾ĭå¸Ī": 4568,
      "ä¿Ĭ": 4569,
      "åĮħåĲ«": 4570,
      "çĶŁæĢģçİ¯å¢ĥ": 4571,
      "äººç¾¤": 4572,
      "ç®Ģç§°": 4573,
      "é©±åĬ¨": 4574,
      "ä¸ĭåįĪ": 4575,
      "å¯»æī¾": 4576,
      "çĭĤ": 4577,
      "å±ķè§Ī": 4578,
      "ä¸ªçĻ¾åĪĨçĤ¹": 4579,
      "åĶ®åĲİ": 4580,
      "çļĦå¤ĸ": 4581,
      "åħ¬å¹³": 4582,
      "éĸĢ": 4583,
      "ä¹Łå°±": 4584,
      "æķ´æĶ¹": 4585,
      "æ¡Ĩ": 4586,
      "åģļæ³ķ": 4587,
      "åķı": 4588,
      "âĢķ": 4589,
      "å¼¯": 4590,
      "çĻ½çĻľé£İæĤ£èĢħ": 4591,
      "æĮ¤": 4592,
      "æĢ§æł¼": 4593,
      "é«ĺä¸Ń": 4594,
      "äºĶå¹´": 4595,
      "å±ħä½ı": 4596,
      "å§¿": 4597,
      "ç©·": 4598,
      "çļĦèĥ½åĬĽ": 4599,
      "æ¯ıä¸Ģä¸ª": 4600,
      "è°ĥçłĶ": 4601,
      "çĻ¾å§ĵ": 4602,
      "æĭħå¿ĥ": 4603,
      "çĶµåķĨ": 4604,
      "ä¸įäºĨ": 4605,
      "åīª": 4606,
      "åŃ¦èĢħ": 4607,
      "è½¬ç§»": 4608,
      "éī´å®ļ": 4609,
      "å¸ħ": 4610,
      "è¿ĺèĥ½": 4611,
      "éĢĤçĶ¨": 4612,
      "çĶµèĦĳ": 4613,
      "çĽ¸ç»ĵåĲĪ": 4614,
      "çĲĨäºĭ": 4615,
      "æľīä»Ģä¹Ī": 4616,
      "ä¸ªæĢ§": 4617,
      "èĢĮåľ¨": 4618,
      "è¡ĵ": 4619,
      "æľīæĹ¶": 4620,
      "è¥¿æĸ¹": 4621,
      "çºªå¾ĭ": 4622,
      "sh": 4623,
      "æ¼Ĥ": 4624,
      "å®ŀçİ°äºĨ": 4625,
      "å¤§èµĽ": 4626,
      "éĴ»": 4627,
      "åĨĽäºĭ": 4628,
      "å¤±è´¥": 4629,
      "æľ¬äºº": 4630,
      "çļĦé£Łçī©": 4631,
      "åħļåĴĮ": 4632,
      "èĤ©": 4633,
      "åľ°çĲĥ": 4634,
      "è¾ĵéĢģ": 4635,
      "ä»ĬåĲİ": 4636,
      "å¤§åŃ¦çĶŁ": 4637,
      "èģĬ": 4638,
      "æĺ¯åĽłä¸º": 4639,
      "èµ«": 4640,
      "å¼Ģæĭĵ": 4641,
      "æŁ³": 4642,
      "ç½ĳä¸Ĭ": 4643,
      "åĭĥ": 4644,
      "éĢļéģĵ": 4645,
      "çĥĤ": 4646,
      "åĬ©åĬĽ": 4647,
      "ä¸įå¤Ł": 4648,
      "åŀĤ": 4649,
      "æĻļä¸Ĭ": 4650,
      "èĤ¡ç¥¨": 4651,
      "å¦ĩå¥³": 4652,
      "çĸ¹": 4653,
      "æįķ": 4654,
      "èĬĿ": 4655,
      "2008": 4656,
      "ä»¬çļĦ": 4657,
      "åĲĦä½į": 4658,
      "å°İ": 4659,
      "å©Ĩ": 4660,
      "èģĶçĽŁ": 4661,
      "åĨ¶": 4662,
      "æ°ĳéĹ´": 4663,
      "éĺŁçļĦ": 4664,
      "çĽ´æĴŃ": 4665,
      "ä¸»ç®¡éĥ¨éĹ¨": 4666,
      "æģ°": 4667,
      "èĴĻåı¤": 4668,
      "åıįå¤į": 4669,
      "æİ¥ä¸ĭæĿ¥": 4670,
      "åħ¬ä¼Ĺ": 4671,
      "åł¡": 4672,
      "å¥½å¥½": 4673,
      "49": 4674,
      "æ©¡èĥ¶": 4675,
      "åĤ³": 4676,
      "äºĨæĪĳ": 4677,
      "å°ıç¼ĸ": 4678,
      "çļĦä¸Ń": 4679,
      "éģĹä¼ł": 4680,
      "èĬĤçº¦": 4681,
      "å®ļåĪ¶": 4682,
      "æĺİçĻ½": 4683,
      "æĻĴ": 4684,
      "æŃ¤åīį": 4685,
      "éĤ»": 4686,
      "å¯Ĩåº¦": 4687,
      "åĳ¨å¹´": 4688,
      "65": 4689,
      "ä¸Ģçº§": 4690,
      "çĶ¨éĢĶ": 4691,
      "é¢Ĺç²Ĵ": 4692,
      "æ¯ģ": 4693,
      "æĶ¶éĽĨ": 4694,
      "è¶³å¤Ł": 4695,
      "æ¯ıä¸ªäºº": 4696,
      "æĸ°æĹ¶ä»£ä¸ŃåĽ½çī¹èī²ç¤¾ä¼ļä¸»ä¹ī": 4697,
      "è¦ĭ": 4698,
      "ä¸§": 4699,
      "ä¸ĵç§ĳ": 4700,
      "çļĦä¸ĵä¸ļ": 4701,
      "æĬĳåĪ¶": 4702,
      "å¹²åĩĢ": 4703,
      "æīĢå¾Ĺ": 4704,
      "æĪĲæķĪ": 4705,
      "è¡Ĺéģĵ": 4706,
      "ä¼Ĳ": 4707,
      "ä¼łæĦŁ": 4708,
      "æľįçĶ¨": 4709,
      "çº·çº·": 4710,
      "å¼Ĺ": 4711,
      "è´¢äº§": 4712,
      "åĲĪæĪĲ": 4713,
      "æ¡ĳ": 4714,
      "åŃķå¦ĩ": 4715,
      "é£İæľº": 4716,
      "åĩºåıĳ": 4717,
      "åĨħæ¶µ": 4718,
      "æ»ļ": 4719,
      "åļ": 4720,
      "æıŃ": 4721,
      "ç§įç±»": 4722,
      "æ¶ĪéĻ¤": 4723,
      "å¥īçĮ®": 4724,
      "æĪĺæĸĹ": 4725,
      "çĹħçļĦ": 4726,
      "å¤§ä¼Ĺ": 4727,
      "è¾Ĳ": 4728,
      "å±±è¥¿": 4729,
      "åı¯ä»¥è¯´": 4730,
      "äºĭåĬ¡": 4731,
      "æĦĽ": 4732,
      "æħ¢æħ¢": 4733,
      "çİ©å®¶": 4734,
      "çĿ¡çľł": 4735,
      "çŃīçº§": 4736,
      "èĤĸ": 4737,
      "åı¤ä»£": 4738,
      "åĪĨç¦»": 4739,
      "èµĦè´¨": 4740,
      "æ±Łè¥¿": 4741,
      "èŀįåħ¥": 4742,
      "ä¸īåĪĨ": 4743,
      "å¤§çº¦": 4744,
      "ä¼ļåĳĺ": 4745,
      "å¼ĺæī¬": 4746,
      "çŁ¥è¯Ĩäº§æĿĥ": 4747,
      "çĽ²": 4748,
      "çĨ±": 4749,
      "åĽŀçŃĶ": 4750,
      "åĴĸ": 4751,
      "çĶµæľº": 4752,
      "æľĢä½İ": 4753,
      "æĽ´å¥½åľ°": 4754,
      "ä¿±ä¹Ĳ": 4755,
      "æīİå®ŀ": 4756,
      "çĸ¾çĹħçļĦ": 4757,
      "æĹ¥åŃĲ": 4758,
      "åİ¨": 4759,
      "æŃ¤æĹ¶": 4760,
      "éĥ¨çļĦ": 4761,
      "çĥŃæ°´": 4762,
      "èī²çļĦ": 4763,
      "æĽ°": 4764,
      "æ¶Īæ¯Ĵ": 4765,
      "ä»¥ä¸ĬçļĦ": 4766,
      "èİ·å¾ĹäºĨ": 4767,
      "çĥĺ": 4768,
      "ä¾¿åĪ©": 4769,
      "ä¸īå¤§": 4770,
      "ç»Ŀå¯¹": 4771,
      "æĸĩçī©": 4772,
      "éĥ¨éķ¿": 4773,
      "åĩºæĿ¥çļĦ": 4774,
      "äºĪä»¥": 4775,
      "å¨ĺ": 4776,
      "å¯¹æīĭ": 4777,
      "åĳ¨è¾¹": 4778,
      "ç£·": 4779,
      "ç«ĭè¶³": 4780,
      "ä¸ľåĮĹ": 4781,
      "è®°å¿Ĩ": 4782,
      "èĪªå¤©": 4783,
      "äº§çĶŁçļĦ": 4784,
      "åĵªéĩĮ": 4785,
      "æµ©": 4786,
      "åįļçī©é¦Ĩ": 4787,
      "éĻĦè¿ĳ": 4788,
      "å®ª": 4789,
      "çĽ´åĪ°": 4790,
      "éªĳ": 4791,
      "åıĺæĪĲ": 4792,
      "çļĦåŁºç¡Ģä¸Ĭ": 4793,
      "pp": 4794,
      "æĮĩæĮ¥": 4795,
      "çłĶç©¶æīĢ": 4796,
      "éĿĴå²Ľ": 4797,
      "è¾ħåĬ©": 4798,
      "åĮºçļĦ": 4799,
      "åħļç»Ħç»ĩ": 4800,
      "åľ¨è¿Ļä¸ª": 4801,
      "åŃĿ": 4802,
      "èµĽäºĭ": 4803,
      "éľį": 4804,
      "èĮĥåĽ´åĨħ": 4805,
      "éĿŀæ³ķ": 4806,
      "åīĬ": 4807,
      "åħ¬åĳĬ": 4808,
      "åĽ¾ä¹¦": 4809,
      "è§ĤçĤ¹": 4810,
      "å°Ī": 4811,
      "åħļçļĦäºĮåįģå¤§": 4812,
      "åĨ·åį´": 4813,
      "èİ²": 4814,
      "èĤ¡ä»½æľīéĻĲåħ¬åı¸": 4815,
      "å¤¹": 4816,
      "çľĭçľĭ": 4817,
      "éłŃ": 4818,
      "éĥ½åı¯ä»¥": 4819,
      "ä¸ĬåįĪ": 4820,
      "æĬķèµĦèĢħ": 4821,
      "åħ»æ®ĸ": 4822,
      "éŀĭ": 4823,
      "99": 4824,
      "åīįåĪĹ": 4825,
      "ä¸Ī": 4826,
      "çĮĽ": 4827,
      "æķ°åŃ¦": 4828,
      "æĺ¨": 4829,
      "ä¿®å¤į": 4830,
      "çĽ¸åħ³çļĦ": 4831,
      "æ··åĩĿåľŁ": 4832,
      "çĥŃæĥħ": 4833,
      "çī©åĵģ": 4834,
      "æĲı": 4835,
      "è£ķ": 4836,
      "æľŁæľĽ": 4837,
      "é«ĺäºİ": 4838,
      "å¸¸è§ģçļĦ": 4839,
      "èµļ": 4840,
      "æ¢Ŀ": 4841,
      "åı¦ä¸Ģæĸ¹éĿ¢": 4842,
      "çĪ±çļĦ": 4843,
      "çµ¦": 4844,
      "æł¡éķ¿": 4845,
      "ä¸ŃåĮ»èį¯": 4846,
      "èµ°åĲĳ": 4847,
      "è®©æĪĳ": 4848,
      "æĸ°å¢ŀ": 4849,
      "ä¹Łæ²¡æľī": 4850,
      "æłĳèĦĤ": 4851,
      "åİ¦": 4852,
      "åĿĩåĮĢ": 4853,
      "ä¹Ļçĥ¯": 4854,
      "æįŁä¼¤": 4855,
      "çĽ¸åºĶçļĦ": 4856,
      "ä¸ļç»©": 4857,
      "ç´§å¯Ĩ": 4858,
      "åħ³èĬĤ": 4859,
      "çĦĬæİ¥": 4860,
      "æ¯ıæ¬¡": 4861,
      "ä½Ĩåľ¨": 4862,
      "åŃŁ": 4863,
      "ç¼Ĩ": 4864,
      "æĭĸ": 4865,
      "å¯¼åĲĳ": 4866,
      "ä¸ŃåŃ¦": 4867,
      "éĽĨæĪĲ": 4868,
      "åĿª": 4869,
      "çıŃåŃĲ": 4870,
      "éĹª": 4871,
      "åĽ¾çīĩ": 4872,
      "ä¸ŃåĽ½äººæ°ĳ": 4873,
      "å¿ħçĦ¶": 4874,
      "åħģè®¸": 4875,
      "åĩĿèģļ": 4876,
      "å®ĥæĺ¯": 4877,
      "éĽ¶åĶ®": 4878,
      "èĤ¡ä¸ľ": 4879,
      "åıĳçļĦ": 4880,
      "ç¬¬åħŃ": 4881,
      "ä¹Łå¾Ī": 4882,
      "ç¡®è®¤": 4883,
      "å¢ĵ": 4884,
      "æ¡Īä¾ĭ": 4885,
      "ä¸ĢåĢĭ": 4886,
      "èĢĢ": 4887,
      "åľ°çĲĨ": 4888,
      "æĤ¦": 4889,
      "çī©èģĶç½ĳ": 4890,
      "åīįæĻ¯": 4891,
      "èªį": 4892,
      "ä¿¡å¿µ": 4893,
      "å¸¸å¸¸": 4894,
      "åıĳè¡Į": 4895,
      "ç½Ĳ": 4896,
      "ç¬¬ä¸Ģä¸ª": 4897,
      "é¡Į": 4898,
      "ä¸ĵçĶ¨": 4899,
      "éģµå®Ī": 4900,
      "è¾¨": 4901,
      "ä¹Łåı¯": 4902,
      "å·¨å¤§çļĦ": 4903,
      "æħ°": 4904,
      "æĪĸè®¸": 4905,
      "åĴĮæľįåĬ¡": 4906,
      "è´¤": 4907,
      "de": 4908,
      "çļĦåİŁåĪĻ": 4909,
      "è¿Ļå°±æĺ¯": 4910,
      "æŁ´": 4911,
      "..": 4912,
      "2009": 4913,
      "è´º": 4914,
      "å·¢": 4915,
      "æĢĿè·¯": 4916,
      "ä¸ºæł¸å¿ĥ": 4917,
      "88": 4918,
      "æĻ¯è§Ĥ": 4919,
      "èĪŀåı°": 4920,
      "åį±æľº": 4921,
      "è¾Ĳå°Ħ": 4922,
      "åħ±æľī": 4923,
      "ç®Ń": 4924,
      "èĭ¯": 4925,
      "æĹłè®ºæĺ¯": 4926,
      "åºŁæ°´": 4927,
      "åįłåľ°": 4928,
      "æĶ¹éĿ©å¼ĢæĶ¾": 4929,
      "éĩĩè®¿": 4930,
      "å¤Ħç½®": 4931,
      "é¡¹çĽ®çļĦ": 4932,
      "æ¸ħæĻ°": 4933,
      "è¯ĨåĪ«": 4934,
      "éļĲæĤ£": 4935,
      "çħ§çīĩ": 4936,
      "ä¼łç»ŁçļĦ": 4937,
      "åĪĽæĦı": 4938,
      "è¥¿éĥ¨": 4939,
      "ä¸įå¾Ĺä¸į": 4940,
      "ä¼ĺåħĪ": 4941,
      "å¤§å°ı": 4942,
      "æĺ¯æľĢ": 4943,
      "çĶµæ°Ķ": 4944,
      "ä¸¤äºº": 4945,
      "çĨŁæĤī": 4946,
      "äººæ°ĳç¾¤ä¼Ĺ": 4947,
      "æľīåħ³éĥ¨éĹ¨": 4948,
      "400": 4949,
      "å·¥ç¨ĭå¸Ī": 4950,
      "åıĳè¾¾": 4951,
      "ä¸ĵé¢ĺ": 4952,
      "å½»åºķ": 4953,
      "åĽłçĤº": 4954,
      "å¯ĵ": 4955,
      "æµ´": 4956,
      "åľºæĻ¯": 4957,
      "æĥ³è±¡": 4958,
      "èģļçĦ¦": 4959,
      "åįıåĬ©": 4960,
      "æĿŃå·ŀ": 4961,
      "è¦ı": 4962,
      "åıĳè¨Ģ": 4963,
      "æŀª": 4964,
      "èī³": 4965,
      "å¥³åĦ¿": 4966,
      "å®¶éĩĮ": 4967,
      "è¿Ļä¹Łæĺ¯": 4968,
      "æµĵåº¦": 4969,
      "æĺĤ": 4970,
      "ä½ıå®ħ": 4971,
      "éķ¿æ±Ł": 4972,
      "è§Ģ": 4973,
      "å²Ń": 4974,
      "ç¦ģæŃ¢": 4975,
      "æ¡¶": 4976,
      "æĶ¾å¼ĥ": 4977,
      "è¿ĽçĲĥ": 4978,
      "åī¯ä¸»ä»»": 4979,
      "èµł": 4980,
      "æ°ĳçĶŁ": 4981,
      "æĮº": 4982,
      "çĨĬ": 4983,
      "é¤Ĳé¥®": 4984,
      "æľīå®³": 4985,
      "åıĤè§Ĥ": 4986,
      "ä½ĵåĨħ": 4987,
      "ç²¾åº¦": 4988,
      "å°±åľ¨": 4989,
      "ä»¥åħį": 4990,
      "æľºåĻ¨äºº": 4991,
      "çļĦè§Ħå®ļ": 4992,
      "æĮ¡": 4993,
      "æĥ³æ³ķ": 4994,
      "èĪĴéĢĤ": 4995,
      "ç¶²": 4996,
      "46": 4997,
      "è§£æĶ¾": 4998,
      "è°Ĭ": 4999,
      "çº²": 5000,
      "æĸĩåĮĸçļĦ": 5001,
      "è¿Ŀåıį": 5002,
      "ä¸¤å¹´": 5003,
      "çŃĭ": 5004,
      "å¾®ä¿¡": 5005,
      "çĶ·åŃĲ": 5006,
      "èľĤ": 5007,
      "ç«ŀèµĽ": 5008,
      "éĢłåŀĭ": 5009,
      "æĺ¯å¯¹": 5010,
      "æĪĲå¹´": 5011,
      "æĹ¥çĽĬ": 5012,
      "çļĦæķĪæŀľ": 5013,
      "è¯¾åłĤ": 5014,
      "çļĦä¸ĢäºĽ": 5015,
      "åĨħå¤ĸ": 5016,
      "æĢĴ": 5017,
      "çĶ±æŃ¤": 5018,
      "æµ·åįĹ": 5019,
      "åĬĽåĴĮ": 5020,
      "è¼ĥ": 5021,
      "åłµ": 5022,
      "åĿĬ": 5023,
      "ç²®é£Ł": 5024,
      "éĤĵ": 5025,
      "éĢļé£İ": 5026,
      "æĢİæł·": 5027,
      "æĭĮ": 5028,
      "å°ĳæķ°": 5029,
      "éĢīçĶ¨": 5030,
      "ç§°åı·": 5031,
      "æ°´åĪ©": 5032,
      "ä¹Łè®¸": 5033,
      "ç«Ļåľ¨": 5034,
      "ä¸ºå®¢æĪ·": 5035,
      "æ¯ķç«Ł": 5036,
      "ç¾¤ä½ĵ": 5037,
      "éĬ": 5038,
      "äº§åĵģè´¨éĩı": 5039,
      "çĶµåĻ¨": 5040,
      "ä¾ĿéĿł": 5041,
      "åĩıè½»": 5042,
      "æĢ§è´¨": 5043,
      "åıįå¯¹": 5044,
      "åį°è±¡": 5045,
      "ãĢį,": 5046,
      "ä¼ļçļĦ": 5047,
      "çĶ¨æ°´": 5048,
      "ãĢģâĢľ": 5049,
      "åĩºåİ»": 5050,
      "æľįè£ħ": 5051,
      "åĩºåı°": 5052,
      "è¦ģæľī": 5053,
      "ç»Īäºİ": 5054,
      "åĪĻæĺ¯": 5055,
      "çĶ¨èį¯": 5056,
      "æĬĵä½ı": 5057,
      "éĢıæĺİ": 5058,
      "é¼ł": 5059,
      "çº¿è·¯": 5060,
      "èĦ±è´«": 5061,
      "è¢Ń": 5062,
      "èĢ¶": 5063,
      "åĮ¹": 5064,
      "æĤ¨çļĦ": 5065,
      "å½±çīĩ": 5066,
      "åħļåı²": 5067,
      "é¸£": 5068,
      "çľĭæĿ¥": 5069,
      "èĥģ": 5070,
      "èĥº": 5071,
      "ç¯Ģ": 5072,
      "è®¼": 5073,
      "æķĻç»ĥ": 5074,
      "çĶŁèĤ²": 5075,
      "éĩįéĩı": 5076,
      "è¿Ľç¨ĭ": 5077,
      "æ¯ħ": 5078,
      "åľ°éĿ¢": 5079,
      "è§Ĩè§ī": 5080,
      "ä¾Ŀæīĺ": 5081,
      "é»Ħéĩĳ": 5082,
      "åĸ®": 5083,
      "çļĦåħ³éĶ®": 5084,
      "éĭ": 5085,
      "å°±æľī": 5086,
      "åĲĮæĦı": 5087,
      "åģļäºĨ": 5088,
      "çļĦçİ¯å¢ĥ": 5089,
      "å½±è§Ĩ": 5090,
      "çĶ¨äºº": 5091,
      "åī¯ä¹¦è®°": 5092,
      "ç¼ĸåĪ¶": 5093,
      "é«ĺèĢĥ": 5094,
      "çŁ©": 5095,
      "å¯Įæľī": 5096,
      "ä¸ĬéĿ¢": 5097,
      "éģĶ": 5098,
      "é¡¾å®¢": 5099,
      "ä¸įä½Ĩ": 5100,
      "å¿ĥéĩĮ": 5101,
      "åīĩ": 5102,
      "äº§ä¸ļåıĳå±ķ": 5103,
      "éħ±": 5104,
      "æĸ°æĹ¶ä»£ä¸ŃåĽ½çī¹èī²ç¤¾ä¼ļä¸»ä¹īæĢĿæĥ³": 5105,
      "èį£èİ·": 5106,
      "ä¿±ä¹Ĳéĥ¨": 5107,
      "è¾ĥä½İ": 5108,
      "ç¥ĸåĽ½": 5109,
      "è®²è§£": 5110,
      "æİ¥è¿ĳ": 5111,
      "æĽ´é«ĺ": 5112,
      "çĹķ": 5113,
      "æķħéļľ": 5114,
      "ED": 5115,
      "åģ·": 5116,
      "éĶ¡": 5117,
      "éħ¶": 5118,
      "æ³ª": 5119,
      "æĪĳä»¬åľ¨": 5120,
      "æĸ¹éĴĪ": 5121,
      "çļĦå®īåħ¨": 5122,
      "ch": 5123,
      "åĬŁçİĩ": 5124,
      "å·©": 5125,
      "ä¸Ģæĸ¹éĿ¢": 5126,
      "çĶ¨æĿ¥": 5127,
      "çļĦä¸ŃåĽ½": 5128,
      "æĺ¯ä¸ª": 5129,
      "æ£ĭ": 5130,
      "58": 5131,
      "å°½å¿«": 5132,
      "åįľ": 5133,
      "çģµæ´»": 5134,
      "æĺ¥èĬĤ": 5135,
      "2023": 5136,
      "æľīåĬĽ": 5137,
      "åĲįç§°": 5138,
      "æ¶ĪèĢĹ": 5139,
      "å¸ĪèĮĥ": 5140,
      "åıī": 5141,
      "éĴ¢ç®¡": 5142,
      "çħĮ": 5143,
      "è«ĭ": 5144,
      "èĮħ": 5145,
      "å¹´åºķ": 5146,
      "åĲįåįķ": 5147,
      "èĲ¬": 5148,
      "èº«ä½ĵåģ¥åº·": 5149,
      "çĬ¹": 5150,
      "åĪĳäºĭ": 5151,
      "å·®è·Ŀ": 5152,
      "æĶ¶è´¹": 5153,
      "åłª": 5154,
      "æ¸©æļĸ": 5155,
      "æľµ": 5156,
      "ä¹¦æ³ķ": 5157,
      "æıĲé«ĺäºĨ": 5158,
      "è·¯çº¿": 5159,
      "çļĩå¸Ŀ": 5160,
      "è´¢å¯Į": 5161,
      "åĮĹäº¬å¸Ĥ": 5162,
      "é¬¼": 5163,
      "åį¢": 5164,
      "åľ°åĮºçļĦ": 5165,
      "æĸ°åĮº": 5166,
      "åİĭç¼©": 5167,
      "è¢«åĳĬ": 5168,
      "å¥ĸåĬ±": 5169,
      "åķ¡": 5170,
      "ä¸įæĺĵ": 5171,
      "ä¼ĳéĹ²": 5172,
      "è¯īè®¼": 5173,
      "æ±¡æ°´å¤ĦçĲĨ": 5174,
      "åİĺ": 5175,
      "ä¼ļåľ¨": 5176,
      "éĩĬæĶ¾": 5177,
      "äººæ°ĳæ³ķéĻ¢": 5178,
      "å®¡è®¡": 5179,
      "æº«": 5180,
      "å¼ķèµ·çļĦ": 5181,
      "å¾Īæľī": 5182,
      "å±Ī": 5183,
      "è¸ª": 5184,
      "å¼ºå¤§": 5185,
      "åĪ°çļĦ": 5186,
      "å¸¶": 5187,
      "åħļæĶ¯éĥ¨": 5188,
      "åĩºè¡Ģ": 5189,
      "è¿ĩåº¦": 5190,
      "æľ´": 5191,
      "çľŁçĲĨ": 5192,
      "æĿĲæĸĻçļĦ": 5193,
      "åģļçļĦ": 5194,
      "é¡ŀ": 5195,
      "åįĥä¸ĩ": 5196,
      "å·¥äºº": 5197,
      "å°ºå¯¸": 5198,
      "çº³åħ¥": 5199,
      "åł±": 5200,
      "æīĢéľĢ": 5201,
      "å¤«å¦»": 5202,
      "èĽĭçĻ½è´¨": 5203,
      "ç¡®è¯Ĭ": 5204,
      "äºĴåĬ¨": 5205,
      "ç§ĺä¹¦": 5206,
      "åĽ½å®¶åĴĮ": 5207,
      "æ³³": 5208,
      "åİĮ": 5209,
      "åĲĪçī©": 5210,
      "éĺ²çģ«": 5211,
      "æ£Ģå¯Ł": 5212,
      "çĶŁäº§çļĦ": 5213,
      "ç¼ĸè¾ĳ": 5214,
      "çĽĴ": 5215,
      "æĳĺ": 5216,
      "é¢ĸ": 5217,
      "èĺ": 5218,
      "çļĦç®¡çĲĨ": 5219,
      "æ°´æ³¥": 5220,
      "åĬ¨æĢģ": 5221,
      "æľīåĬ©äºİ": 5222,
      "æ²¦": 5223,
      "çº³ç¨İ": 5224,
      "ä¸Ģä»½": 5225,
      "ç»´åº¦": 5226,
      "ä¹Ķ": 5227,
      "æĺ¯ä»¥": 5228,
      "å¼¥": 5229,
      "å¼ĢåĲ¯": 5230,
      "çļĦåĨħå®¹": 5231,
      "æĶ¿åįı": 5232,
      "è¿Ľå±ķ": 5233,
      "åİļçļĦ": 5234,
      "æ¿Ģåıĳ": 5235,
      "ç¦ģåĮº": 5236,
      "é¢ĩ": 5237,
      "ä¸įçŁ¥": 5238,
      "èµ·éĩį": 5239,
      "ç³ĸå°¿": 5240,
      "è¾½å®ģ": 5241,
      "å¹¶éĿŀ": 5242,
      "ä¿¡ä»»": 5243,
      "è¿ĺåľ¨": 5244,
      "çĴ°": 5245,
      "ç»ĵå©ļ": 5246,
      "ä¸Ģçº¿": 5247,
      "ä»ĸè¯´": 5248,
      "æĺ¯ä¸Ģå®¶": 5249,
      "çĤİçĹĩ": 5250,
      "åīįå¾Ģ": 5251,
      "çļĦå¸Ĥåľº": 5252,
      "ä¸ĵæ³¨": 5253,
      "éĺ´éģĵ": 5254,
      "æī¶è´«": 5255,
      "å¤ļå®¶": 5256,
      "æĽ´æį¢": 5257,
      "æĽ´å¤§": 5258,
      "çĽĳå¯Ł": 5259,
      "ä»ĸåĢĳ": 5260,
      "æİĪæĿĥ": 5261,
      "èµ¤": 5262,
      "or": 5263,
      "è½»æĿ¾": 5264,
      "æĭ³": 5265,
      "ä¸ľæĸ¹": 5266,
      "çŃĸçķ¥": 5267,
      "æĬĵå¥½": 5268,
      "åħ¨èº«": 5269,
      "æĿ±": 5270,
      "ä¸Ģåľº": 5271,
      "çļĦè¿ĩç¨ĭä¸Ń": 5272,
      "è´¾": 5273,
      "ä¸ŃéĹ´": 5274,
      "å°Ĩåħ¶": 5275,
      "çĹĽèĭ¦": 5276,
      "èį¡": 5277,
      "çĶ¨åĵģ": 5278,
      "å¤ļå¹´çļĦ": 5279,
      "çļĦçłĶç©¶": 5280,
      "åĴĸåķ¡": 5281,
      "ä¸īè§Ĵ": 5282,
      "æĦıå¤ĸ": 5283,
      "æī¿åĮħ": 5284,
      "éĶĲ": 5285,
      "å¥³åŃĲ": 5286,
      "æķ´çĲĨ": 5287,
      "åĪĨéħį": 5288,
      "åĲĦèĩª": 5289,
      "èĢĮä¸įæĺ¯": 5290,
      "æĤł": 5291,
      "çŃīåľ°": 5292,
      "è¯ŀ": 5293,
      "47": 5294,
      "çİĽ": 5295,
      "æĽ´æľī": 5296,
      "çŃ¾è®¢": 5297,
      "æĭįæĳĦ": 5298,
      "èª¿": 5299,
      "æĻºèĥ½åĮĸ": 5300,
      "å¼Ħ": 5301,
      "èĤ¢": 5302,
      "éĴ¢éĵģ": 5303,
      "æĬĽ": 5304,
      "âĹ": 5305,
      "å¹¿ä¸ľçľģ": 5306,
      "é¢Ħæµĭ": 5307,
      "çĶµæºĲ": 5308,
      "è´§çī©": 5309,
      "é¹ı": 5310,
      "åĮ»å¸Ī": 5311,
      "èµģ": 5312,
      "éĻ¶çĵ·": 5313,
      "æľºåºĬ": 5314,
      "ç¾İè§Ĥ": 5315,
      "ä¸įéľĢè¦ģ": 5316,
      "éĤĢè¯·": 5317,
      "è¿ĩäºİ": 5318,
      "çī¢è®°": 5319,
      "ä¸Ģä½ĵåĮĸ": 5320,
      "çļĦè®¾è®¡": 5321,
      "å¢ŀéĢŁ": 5322,
      "ç§Łèµģ": 5323,
      "æķ¦": 5324,
      "çµ±": 5325,
      "èĲĿ": 5326,
      "æĪĸæĺ¯": 5327,
      "åľ¨è¿ĻéĩĮ": 5328,
      "85": 5329,
      "éľ¸": 5330,
      "åŃĲå¥³": 5331,
      "è¡£æľį": 5332,
      "åŃ©åŃĲä»¬": 5333,
      "ç©Ĩ": 5334,
      "æĿĳæ°ĳ": 5335,
      "ä¿Ŀåħ»": 5336,
      "éłħ": 5337,
      "éļ¾åº¦": 5338,
      "æķĪåºĶ": 5339,
      "å¢ŀåĢ¼": 5340,
      "ä¾Ľç»Ļ": 5341,
      "ä¸Ģä¸ªæĸ°çļĦ": 5342,
      "å»ºç«ĭäºĨ": 5343,
      "ä¸¾æİª": 5344,
      "åıĳæĺİ": 5345,
      "çĽĳçĿ£ç®¡çĲĨ": 5346,
      "äºĭå®ŀä¸Ĭ": 5347,
      "å½¼æŃ¤": 5348,
      "å®ĹæķĻ": 5349,
      "æ¿ĢåĬ±": 5350,
      "ç¸½": 5351,
      "æĸ°åħ´": 5352,
      "åį§": 5353,
      "çººç»ĩ": 5354,
      "åĲĮåŃ¦ä»¬": 5355,
      "æĴ¤": 5356,
      "æĪĳæł¡": 5357,
      "æļĳ": 5358,
      "è¿ĲåĬ¨åĳĺ": 5359,
      "è½¨éģĵ": 5360,
      "æĩĪ": 5361,
      "å±Ģéĥ¨": 5362,
      "æī¿è¯º": 5363,
      "95": 5364,
      "ä¼ļéķ¿": 5365,
      "ä¿®æĶ¹": 5366,
      "èĩ³äºİ": 5367,
      "ä¾¯": 5368,
      "å®ŀçĶ¨": 5369,
      "èĢģå¹´äºº": 5370,
      "çļĦçī¹çĤ¹": 5371,
      "è§Ħæł¼": 5372,
      "æ°Ł": 5373,
      "åı¯èĥ½æĺ¯": 5374,
      "ä»²": 5375,
      "æ°®": 5376,
      "é¥¼": 5377,
      "äººå·¥æĻºèĥ½": 5378,
      "ä»·åĢ¼è§Ĥ": 5379,
      "éĺ²èĮĥ": 5380,
      "äºŃ": 5381,
      "66": 5382,
      "éŁ§": 5383,
      "ä¼łæĦŁåĻ¨": 5384,
      "æ¶¯": 5385,
      "éĢĶå¾Ħ": 5386,
      "éļıæĹ¶": 5387,
      "æĪĲäºº": 5388,
      "ç¨İåĬ¡": 5389,
      "é«ĺåİĭ": 5390,
      "åĵ²åŃ¦": 5391,
      "åĭŁ": 5392,
      "å®¢è§Ĥ": 5393,
      "æĶ¶èİ·": 5394,
      "åĵŃ": 5395,
      "æŃ£ç¡®çļĦ": 5396,
      "ç·ļ": 5397,
      "å¦»åŃĲ": 5398,
      "å¤§æ°Ķ": 5399,
      "çŃĽ": 5400,
      "çļĦåĬĽéĩı": 5401,
      "è¦ģç´ł": 5402,
      "èĪŁ": 5403,
      "æĶ¾åħ¥": 5404,
      "ç»ĨèĬĤ": 5405,
      "èµĶåģ¿": 5406,
      "æ¸´": 5407,
      "ä½¿çĶ¨å¯¿åĳ½": 5408,
      "al": 5409,
      "å»¶éķ¿": 5410,
      "å§Ķæīĺ": 5411,
      "åĤĻ": 5412,
      "èŃ°": 5413,
      "åĳ³éģĵ": 5414,
      "å¦Ĩ": 5415,
      "æĦıå¤§åĪ©": 5416,
      "éŃħ": 5417,
      "å¨ģèĥģ": 5418,
      "äºĮçº§": 5419,
      "æĵħ": 5420,
      "åŀ«": 5421,
      "çĪ±åĽ½": 5422,
      "ä¸įå¦Ĥ": 5423,
      "åıĺéĿ©": 5424,
      "ä¼ĺæĥł": 5425,
      "éĺ²æ°´": 5426,
      "å®¡æī¹": 5427,
      "èµ·äºĨ": 5428,
      "äººæĸĩ": 5429,
      "æľªæĿ¥çļĦ": 5430,
      "ä¹łè¿ĳå¹³æĸ°æĹ¶ä»£ä¸ŃåĽ½çī¹èī²ç¤¾ä¼ļä¸»ä¹īæĢĿæĥ³": 5431,
      "åľ°è´¨": 5432,
      "æĽ¸": 5433,
      "åİī": 5434,
      "è¿ĩæķı": 5435,
      "æ¶²ä½ĵ": 5436,
      "æĹ¥åīį": 5437,
      "é«ĺè¾¾": 5438,
      "æĭĽèģĺ": 5439,
      "çļĦåıĳçĶŁ": 5440,
      "å¼ºå¤§çļĦ": 5441,
      "è§£çŃĶ": 5442,
      "æľīåºı": 5443,
      "æĺİæĺŁ": 5444,
      "éģ¥": 5445,
      "åĲįä¸º": 5446,
      "å¹¿åľº": 5447,
      "å½ĵå¹´": 5448,
      "æ¼Ķåĩº": 5449,
      "å·¥ä¼ļ": 5450,
      "ä¸ľåįĹ": 5451,
      "æĹłäºº": 5452,
      "42": 5453,
      "åĨ¬åŃ£": 5454,
      "å¤ļåĲĥ": 5455,
      "ä¸Ģå¸¦ä¸Ģè·¯": 5456,
      "æİ§èĤ¡": 5457,
      "ä¹ĭä¸ĭ": 5458,
      "è¦ĸ": 5459,
      "åºŁæ°Ķ": 5460,
      "æłĩåĩĨåĮĸ": 5461,
      "äºĭä¸ļåįķä½į": 5462,
      "æµģè¡Į": 5463,
      "çļĦè´¨éĩı": 5464,
      "å·²æĪĲä¸º": 5465,
      "197": 5466,
      "å½ķåıĸ": 5467,
      "çĽĹ": 5468,
      "çĥ¤": 5469,
      "åĽłèĢĮ": 5470,
      "å±ĢéĿ¢": 5471,
      "56": 5472,
      "éĩĳé¢Ŀ": 5473,
      "æĸľ": 5474,
      "éĹ¹": 5475,
      "å®¡æł¸": 5476,
      "æĬ«": 5477,
      "è¿Ļä½į": 5478,
      "éĿ¢åīį": 5479,
      "æłª": 5480,
      "æĻĤéĸĵ": 5481,
      "ç»ıè´¹": 5482,
      "æĺ¾çĦ¶": 5483,
      "åħĪè¿ĽçļĦ": 5484,
      "BA": 5485,
      "ä»İä¸¥": 5486,
      "åĲįçļĦ": 5487,
      "å¯¼æ¼Ķ": 5488,
      "ä¸ĺ": 5489,
      "å¸ķ": 5490,
      "om": 5491,
      "ä¿ĿåŃĺ": 5492,
      "éĺ²èħĲ": 5493,
      "æŁ¥çľĭ": 5494,
      "è©²": 5495,
      "æł½": 5496,
      "ä¸įå¼Ģ": 5497,
      "è¿Ļç±»": 5498,
      "å£ĵ": 5499,
      "çļĦä¸ľè¥¿": 5500,
      "æķ°åŃĹåĮĸ": 5501,
      "èĩªèº«çļĦ": 5502,
      "åħ¨æĸ¹ä½į": 5503,
      "èĲ½åľ°": 5504,
      "æ´»åĬ¨çļĦ": 5505,
      "ä½Ļäºº": 5506,
      "åįĬåľº": 5507,
      "ä¼Łå¤§å¤įåħ´": 5508,
      "æĦıéĹ´": 5509,
      "ä¸įå¿ĺ": 5510,
      "èĤĮèĤī": 5511,
      "ä¿±": 5512,
      "è£Ŀ": 5513,
      "æ£ļ": 5514,
      "èĨı": 5515,
      "æķıæĦŁ": 5516,
      "ä¼ļå¯¼èĩ´": 5517,
      "åĪ°è¾¾": 5518,
      "æķĳæı´": 5519,
      "å½ĵä»£": 5520,
      "èįĴ": 5521,
      "å²³": 5522,
      "æĢ»ç»Ł": 5523,
      "çľŁæŃ£çļĦ": 5524,
      "å¾Īå°ĳ": 5525,
      "æĭĽæłĩ": 5526,
      "ç»µ": 5527,
      "è·µè¡Į": 5528,
      "åįģäºĶ": 5529,
      "è£¡": 5530,
      "æĹ¥çļĦ": 5531,
      "IS": 5532,
      "ç§©": 5533,
      "éĥİ": 5534,
      "èģĮèĥ½": 5535,
      "æĽ´å¤§çļĦ": 5536,
      "æĲŃéħį": 5537,
      "æĹłçĸĳ": 5538,
      "ĠâĢľ": 5539,
      "åħļå§Ķä¹¦è®°": 5540,
      "å»ºéĢł": 5541,
      "å¤ĸåĽ½": 5542,
      "èĥĸ": 5543,
      "æĸĩèīº": 5544,
      "ç²¾åĵģ": 5545,
      "éģµå¾ª": 5546,
      "æ¶¦æ»ĳ": 5547,
      "è¯¾é¢ĺ": 5548,
      "åĲĪçĲĨçļĦ": 5549,
      "çĩĥçĥ§": 5550,
      "èģª": 5551,
      "è¿ĩçļĦ": 5552,
      "éĢīæīĭ": 5553,
      "ç§īæī¿": 5554,
      "å¿ĥæĥħ": 5555,
      "æĽ¿ä»£": 5556,
      "åħ¬æ°ĳ": 5557,
      "éĢĢä¼ĳ": 5558,
      "ç¨ĭåº¦ä¸Ĭ": 5559,
      "æĸ°é²ľ": 5560,
      "æĿĥå¨ģ": 5561,
      "åį³å°Ĩ": 5562,
      "åħ¬åĬ¡": 5563,
      "æĬļ": 5564,
      "å¾Īé«ĺ": 5565,
      "ä¼łæŁĵ": 5566,
      "ç¿¼": 5567,
      "æ¶Īå¤±": 5568,
      "ä¹Łä¸įä¼ļ": 5569,
      "å¸¸è§Ħ": 5570,
      "è¡¥è´´": 5571,
      "ä¸¢": 5572,
      "æĸ¯åĿ¦": 5573,
      "æıĲäº¤": 5574,
      "èĦĨ": 5575,
      "åħĦå¼Ł": 5576,
      "æ¬ł": 5577,
      "æľįåĬ¡çļĦ": 5578,
      "çĨĶ": 5579,
      "å°Ŀè¯ķ": 5580,
      "ç«Ń": 5581,
      "çŃīé¢ĨåŁŁ": 5582,
      "èĥļ": 5583,
      "è¦ģåľ¨": 5584,
      "å°±ä¸į": 5585,
      "çĪ½": 5586,
      "å¥ł": 5587,
      "å¤ªå¤ļ": 5588,
      "ä¹Łå°Ĩ": 5589,
      "æıĲåĪ°è¿ĩ": 5590,
      "åĽŃæŀĹ": 5591,
      "ç¤¾ä¼ļçļĦ": 5592,
      "è¯ģæį®": 5593,
      "æīŃ": 5594,
      "åĽ¢ä½ĵ": 5595,
      "å¹½": 5596,
      "æľĢéĩįè¦ģ": 5597,
      "çĹħåĽł": 5598,
      "ç³Ĭ": 5599,
      "æĢ§å¥½": 5600,
      "æ¨Ļ": 5601,
      "LED": 5602,
      "åĪ©äºļ": 5603,
      "æĺ¯ä¸įæĺ¯": 5604,
      "äºĴçĽ¸": 5605,
      "ä¼ĺè´¨çļĦ": 5606,
      "è®©ä½ł": 5607,
      "åıĳåĩº": 5608,
      "å·©åĽº": 5609,
      "åĲĦåĽ½": 5610,
      "å¾ģç¨ĭ": 5611,
      "é£ŀæľº": 5612,
      "éĢ»": 5613,
      "èĳ±": 5614,
      "äºı": 5615,
      "åºĻ": 5616,
      "æĭ¨": 5617,
      "æ®¿": 5618,
      "ç§©åºı": 5619,
      "ä¼ª": 5620,
      "æīĩ": 5621,
      "è¥¿çıŃ": 5622,
      "æīĵåĩ»": 5623,
      "æµªè´¹": 5624,
      "æ¶Į": 5625,
      "çµĦ": 5626,
      "èĶ¡": 5627,
      "ä¼łéĢĴ": 5628,
      "çºĮ": 5629,
      "äº§èĥ½": 5630,
      "å®ŀåľ¨": 5631,
      "é£İæĻ¯": 5632,
      "éľī": 5633,
      "è¥¿çıŃçīĻ": 5634,
      "çĻ¼å±ķ": 5635,
      "æĻ®åıĬ": 5636,
      "åıĤèµĽ": 5637,
      "ç³ĸå°¿çĹħ": 5638,
      "åıł": 5639,
      "çļĦéĢīæĭ©": 5640,
      "åĲĮæľŁ": 5641,
      "çŃīå¾ħ": 5642,
      "é¤Ĭ": 5643,
      "éĽ¢": 5644,
      "å¨ľ": 5645,
      "èĬ½": 5646,
      "æ¨Ĥ": 5647,
      "æīĵåį°": 5648,
      "åĴ³": 5649,
      "åĽŀå®¶": 5650,
      "è¹Ī": 5651,
      "ç¤¾äº¤": 5652,
      "åĿļæĮģä»¥": 5653,
      "æ¾³éĹ¨": 5654,
      "éħįå¤ĩ": 5655,
      "æī©æķ£": 5656,
      "è¡Ķ": 5657,
      "æĽ¾ç»ıæıĲåĪ°è¿ĩ": 5658,
      "3000": 5659,
      "çļĦç¤¾ä¼ļ": 5660,
      "å¤ĸè§Ĥ": 5661,
      "çĶŁçĲĨ": 5662,
      "èĩªåŃ¦": 5663,
      "éĨī": 5664,
      "44": 5665,
      "é²ľæĺİ": 5666,
      "æĹ¥èĩ³": 5667,
      "å¿«éĢŁå¢ŀéķ¿": 5668,
      "ä¸Ĭæľī": 5669,
      "æŁı": 5670,
      "æķĻèĤ²çļĦ": 5671,
      "åĨįçĶŁ": 5672,
      "çħ¤çĤŃ": 5673,
      "çĲĨçĶ±": 5674,
      "åīµ": 5675,
      "å°ıè¯´": 5676,
      "æĢĿèĢĥè¿Ļä¸ªéĹ®é¢ĺ": 5677,
      "è¶ħå£°": 5678,
      "éĹ´çļĦ": 5679,
      "é¦Ī": 5680,
      "æĬ¼": 5681,
      "ä¸¸": 5682,
      "ä»¥å¤ĸ": 5683,
      "èĤ¡æĿĥ": 5684,
      "æĸ¹çļĦ": 5685,
      "å³¡": 5686,
      "æķ°æį®æĺ¾ç¤º": 5687,
      "è¯»ä¹¦": 5688,
      "é¹¿": 5689,
      "ä¸Ńåħ¨ä¼ļ": 5690,
      "æ§½": 5691,
      "æ²«": 5692,
      "æĹħè¡Į": 5693,
      "çĭĢ": 5694,
      "ç´Ħ": 5695,
      "å¸ĤæĶ¿åºľ": 5696,
      "æ¶Ľ": 5697,
      "æī®": 5698,
      "åħ½": 5699,
      "æī¹è¯Ħ": 5700,
      "åľ¨åħ¨åĽ½": 5701,
      "ä¸ºä¸Ńå¿ĥ": 5702,
      "çŃīå¤ļ": 5703,
      "å¥³åŃ©": 5704,
      "é«ĺæĸ°æĬĢæľ¯": 5705,
      "èĭ¹": 5706,
      "éĶĢéĩı": 5707,
      "åħļçļĦåįģä¹Ŀ": 5708,
      "æĪĳæĥ³": 5709,
      "éĢłæĪĲçļĦ": 5710,
      "èĢĲç£¨": 5711,
      "èı©": 5712,
      "çĭ¬çī¹çļĦ": 5713,
      "ä¼ļåĩºçİ°": 5714,
      "æ¨¡åŀĭ": 5715,
      "ä»İä¸ļ": 5716,
      "æ°ĳèĲ¥": 5717,
      "å¢ŀåĬłäºĨ": 5718,
      "åĲĦçķĮ": 5719,
      "çģ¾å®³": 5720,
      "æķĻæĿĲ": 5721,
      "è½´æī¿": 5722,
      "600": 5723,
      "çļĦäººçĶŁ": 5724,
      "å·²æľī": 5725,
      "è¾¦": 5726,
      "éĢīä¸¾": 5727,
      "æĥ©": 5728,
      "å¿ĥèĦı": 5729,
      "æĺ¾å¾Ĺ": 5730,
      "at": 5731,
      "å½¢çĬ¶": 5732,
      "å®ĮæĪĲäºĨ": 5733,
      "è©±": 5734,
      "è¾ĥé«ĺçļĦ": 5735,
      "è®¾æľī": 5736,
      "ä¾¿æĺ¯": 5737,
      "éļ¾é¢ĺ": 5738,
      "éĤ£æł·": 5739,
      "éĲ": 5740,
      "èĨ¨": 5741,
      "æĬ¥èŃ¦": 5742,
      "åħļåĳĺå¹²éĥ¨": 5743,
      "å·´è¥¿": 5744,
      "éĽ£": 5745,
      "çºªå½ķ": 5746,
      "åĬ©æĶ»": 5747,
      "åħħè¶³": 5748,
      "åıĺå½¢": 5749,
      "åŁİåĮº": 5750,
      "ä½ĽæķĻ": 5751,
      "å±±ä¸ľçľģ": 5752,
      "150": 5753,
      "æĬĬæĪĳä»¬": 5754,
      "çĶŁäº§çº¿": 5755,
      "ç»ĻäºĨ": 5756,
      "åĨħå¿ĥ": 5757,
      "ä½¿åħ¶": 5758,
      "æ£Ĵ": 5759,
      "çĺ¦": 5760,
      "çļĦæķħäºĭ": 5761,
      "å¯¹åħ¶": 5762,
      "çķľ": 5763,
      "çħ§æĺİ": 5764,
      "ä¸»åĬŀ": 5765,
      "åľ°éľĩ": 5766,
      "å»ºè®¾åĴĮ": 5767,
      "120": 5768,
      "å¤ļå¹´æĿ¥": 5769,
      "å¾®çĶŁçī©": 5770,
      "èŃ·": 5771,
      "èĭ¹æŀľ": 5772,
      "æķ´æ²»": 5773,
      "å¯¹æİ¥": 5774,
      "æ³ķå®ļ": 5775,
      "å¯¹å¾ħ": 5776,
      "æĢ¨": 5777,
      "åĲķ": 5778,
      "éģ©": 5779,
      "ç¼ºçĤ¹": 5780,
      "æĢ»éĥ¨": 5781,
      "æķ°æİ§": 5782,
      "ä¸»åľº": 5783,
      "éģ£": 5784,
      "çľĭçĿĢ": 5785,
      "éĩįå¤į": 5786,
      "çĶµè§Ĩåī§": 5787,
      "ç¢Ĺ": 5788,
      "çŃĴ": 5789,
      "éĢļæĬ¥": 5790,
      "è¦º": 5791,
      "ç¥Ń": 5792,
      "ãĢĤãĢį": 5793,
      "åĲĮæĹ¶ä¹Ł": 5794,
      "Ġå¹´": 5795,
      "äººåĬĽèµĦæºĲ": 5796,
      "åį¸": 5797,
      "çİ°åľ¨çļĦ": 5798,
      "èħĬ": 5799,
      "åįĵè¶Ĭ": 5800,
      "ä¸Ĭå¹´": 5801,
      "è¯¸å¤ļ": 5802,
      "çĶŁåĬ¨": 5803,
      "å±ĤéĿ¢": 5804,
      "è½ī": 5805,
      "å®ŀä¹ł": 5806,
      "ä¸ĭè½½": 5807,
      "2007": 5808,
      "éª¤": 5809,
      "ä¸»æ¼Ķ": 5810,
      "çĶµç¼Ĩ": 5811,
      "èĪ°": 5812,
      "é¢ĦæľŁ": 5813,
      "éĢĻåĢĭ": 5814,
      "çļĦè¿ĩç¨ĭ": 5815,
      "å¤§äºİ": 5816,
      "éĨĽ": 5817,
      "åħĴ": 5818,
      "è¨±": 5819,
      "è¥¿åįĹ": 5820,
      "çķĻä¸ĭ": 5821,
      "æĪĳä»¬åı¯ä»¥": 5822,
      "åŃĺåĤ¨": 5823,
      "æ¸ĹéĢı": 5824,
      "ä¸įåľ¨": 5825,
      "æĢ»é¢Ŀ": 5826,
      "åĬŀäºĭ": 5827,
      "æ·®": 5828,
      "å»Ĭ": 5829,
      "5000": 5830,
      "èŃī": 5831,
      "è¯Ħè®º": 5832,
      "çļĦåħ³ç³»": 5833,
      "2006": 5834,
      "le": 5835,
      "å¹³ç¨³": 5836,
      "æİĪäºĪ": 5837,
      "åŃ£èĬĤ": 5838,
      "é¥°æ¼Ķ": 5839,
      "æĹ¥åħĥ": 5840,
      "æ°Ķè±¡": 5841,
      "è¶ħè¶Ĭ": 5842,
      "ä¸įæĸŃæıĲé«ĺ": 5843,
      "æŀ¢": 5844,
      "ç®¡çĲĨä½ĵç³»": 5845,
      "äºĶè¡Įç¼º": 5846,
      "çļĦæľºä¼ļ": 5847,
      "å±Ģéķ¿": 5848,
      "æŁĲç§į": 5849,
      "æ¯ıæĹ¥": 5850,
      "çļĦçĽ®æłĩ": 5851,
      "çľ¾": 5852,
      "æĮĸæİĺ": 5853,
      "æĺ¯æĪĳä»¬": 5854,
      "è¿Ļå°±": 5855,
      "å¿ĥä¸Ń": 5856,
      "æľŁéĻĲ": 5857,
      "å¤ĸçķĮ": 5858,
      "è§Ĥçľĭ": 5859,
      "çĻ½éħĴ": 5860,
      "æ¾³å¤§åĪ©": 5861,
      "çºªå§Ķ": 5862,
      "å¿ħè¦ģçļĦ": 5863,
      "æĹ¶å°ļ": 5864,
      "å¸¸åĬ¡": 5865,
      "å¸¦æĿ¥äºĨ": 5866,
      "åĩºçĶŁäºİ": 5867,
      "å¯¨": 5868,
      "åİĨåı²ä¸Ĭ": 5869,
      "æ¡£æ¡Ī": 5870,
      "å®¶æĹı": 5871,
      "èĽĩ": 5872,
      "æ¹ĺ": 5873,
      "æĪ¿åŃĲ": 5874,
      "ä¼ĺå¼Ĥ": 5875,
      "åĪĿæŃ¥": 5876,
      "68": 5877,
      "ä¾Ŀèµĸ": 5878,
      "å¥Ī": 5879,
      "é»ĳèī²ç´ł": 5880,
      "æĶ¶åĪ°": 5881,
      "ç¨İæĶ¶": 5882,
      "è¯±åıĳ": 5883,
      "ä¸įåĪ©": 5884,
      "çĶŁæ®ĸ": 5885,
      "ä¸Ńåįİæ°ĳæĹıä¼Łå¤§å¤įåħ´": 5886,
      "ä¸Ģä½ĵçļĦ": 5887,
      "çķı": 5888,
      "ä¸Īå¤«": 5889,
      "æĵļ": 5890,
      "ç¯®æĿ¿": 5891,
      "æĺ¯æĪĳ": 5892,
      "å¸½": 5893,
      "æĪĲä¸ºäºĨ": 5894,
      "åĪĨè§£": 5895,
      "43": 5896,
      "çľī": 5897,
      "èĬĤçľģ": 5898,
      "çģ£": 5899,
      "äºīåıĸ": 5900,
      "å·¥ä½ľèĢħ": 5901,
      "çļĦçĽ®çļĦ": 5902,
      "çĶĺèĤĥ": 5903,
      "åĶ®åĲİæľįåĬ¡": 5904,
      "æį®äºĨè§£": 5905,
      "åıįèĢĮ": 5906,
      "æııè¿°": 5907,
      "çĹĴ": 5908,
      "âĸ": 5909,
      "ä¸ªä½ĵ": 5910,
      "è½¬æį¢": 5911,
      "éĴł": 5912,
      "ä¸įç¦ģ": 5913,
      "åĲĮä¸Ģ": 5914,
      "æ·±æĢĿ": 5915,
      "ç®¡çĲĨçļĦ": 5916,
      "å¥¹ä»¬": 5917,
      "åĭĺ": 5918,
      "åįıä½ľ": 5919,
      "å°ıåĮº": 5920,
      "å¾ħéģĩ": 5921,
      "å¥½å¤Ħ": 5922,
      "å¤ªéĺ³èĥ½": 5923,
      "åİĨç¨ĭ": 5924,
      "çļĦåıĺåĮĸ": 5925,
      "åĤħ": 5926,
      "æĥ§": 5927,
      "ä¸ĢçĶŁ": 5928,
      "èĢĮæĪĲ": 5929,
      "éĴ¢ç»ĵæŀĦ": 5930,
      "åľĺ": 5931,
      "çģ«çģ¾": 5932,
      "æľįåĭĻ": 5933,
      "æĮĩç¤º": 5934,
      "èķ´": 5935,
      "æį®æĤī": 5936,
      "åħ¥åı£": 5937,
      "åİĺç±³": 5938,
      "å½ĵäºĭ": 5939,
      "è¿ĺæ²¡æľī": 5940,
      "çĶµè·¯": 5941,
      "èģĮåĬ¡": 5942,
      "å¸¦åĪ°äºĨ": 5943,
      "ç¬¬ä¸ĥ": 5944,
      "éĺŁåĳĺ": 5945,
      "æ°´ä¸Ń": 5946,
      "ä¸İæŃ¤": 5947,
      "ç²¾å¿ĥ": 5948,
      "è¥¿åĮĹ": 5949,
      "52": 5950,
      "ä¹ĭæīĢä»¥": 5951,
      "å¸¦å¤´": 5952,
      "å®ŀä½ĵ": 5953,
      "èĥ½åĬĽåĴĮ": 5954,
      "è¦ģæĬĬ": 5955,
      "å¼µ": 5956,
      "éļĶç¦»": 5957,
      "èģļæ°¨": 5958,
      "æĽĿ": 5959,
      "æľ¬è´¨": 5960,
      "åįłæ¯Ķ": 5961,
      "ãĢĤãĢĤ": 5962,
      "çľŁç©º": 5963,
      "æ°´åĪĨ": 5964,
      "æĿĲè´¨": 5965,
      "å®¶å±ħ": 5966,
      "æĬĢå·§": 5967,
      "é¥®æĸĻ": 5968,
      "æī¿åıĹ": 5969,
      "æľºç»Ħ": 5970,
      "è´Łæĭħ": 5971,
      "è¾ĵåĩº": 5972,
      "æĬ¥èĢĥ": 5973,
      "ä¸įåıĹ": 5974,
      "æĢ»å±Ģ": 5975,
      "éģĹäº§": 5976,
      "å¹¿æĴŃ": 5977,
      "å®Įç¾İ": 5978,
      "éĺĲ": 5979,
      "äºĶè¡ĮåĪĨæŀĲ": 5980,
      "ä»¶äºĭ": 5981,
      "çĩĥæĸĻ": 5982,
      "äººåĴĮ": 5983,
      "çļĦè¡Įä¸º": 5984,
      "æĸ°çĶŁ": 5985,
      "ä¾ĽåºĶéĵ¾": 5986,
      "é»ı": 5987,
      "çĻĤ": 5988,
      "æľīå¤ļ": 5989,
      "çī©æĸĻ": 5990,
      "æ±°": 5991,
      "å¦¥": 5992,
      "åŃ¦æł¡çļĦ": 5993,
      "è®²è¿°": 5994,
      "ä»Ķç»Ĩ": 5995,
      "ç§įåŃĲ": 5996,
      "Ġ1": 5997,
      "è¿Ļä¸ĢçĤ¹": 5998,
      "æĪĺèĥľ": 5999,
      "æ¾³å¤§åĪ©äºļ": 6000,
      "åįģä¸Ģ": 6001,
      "ä¸ºæŃ¤": 6002,
      "æĤ¨åħ«åŃĹ": 6003,
      "åħ¨å¹´": 6004,
      "è½¦éĹ´": 6005,
      "è¯Ħå®¡": 6006,
      "å¹´åīį": 6007,
      "åİŁæľ¬": 6008,
      "çłĶç©¶ä¸Ńå¿ĥ": 6009,
      "ä¿ĿçķĻ": 6010,
      "éĢļçĶ¨": 6011,
      "åģ¥èº«": 6012,
      "èĳĽ": 6013,
      "æ²³åįĹçľģ": 6014,
      "41": 6015,
      "æ¡¥æ¢ģ": 6016,
      ":ãĢĮ": 6017,
      "èħ»": 6018,
      "éħ·": 6019,
      "ang": 6020,
      "ä¸įä»ħä»ħ": 6021,
      "å¿½è§Ĩ": 6022,
      "ç»ıæµİåŃ¦": 6023,
      "å¤§å¸Ī": 6024,
      "åĬłæĭ¿": 6025,
      "åĨ²çªģ": 6026,
      "èĪŀè¹Ī": 6027,
      "å®¢æĪ·çļĦ": 6028,
      "ä¾¨": 6029,
      "æľĢä¸º": 6030,
      "æľīæķĪåľ°": 6031,
      "è¯ĬçĸĹ": 6032,
      "èĳ¬": 6033,
      "èµ°è¿Ľ": 6034,
      "ing": 6035,
      "åĬ¨çĶ»": 6036,
      "èĮĤ": 6037,
      "çŃīéĹ®é¢ĺ": 6038,
      "åįģå¤§": 6039,
      "è¢«ç§°ä¸º": 6040,
      "ç¤¼çī©": 6041,
      "è¿Ŀè§Ħ": 6042,
      "è¯Ī": 6043,
      "åİ¿çº§": 6044,
      "ç¤¾ä¼ļä¸»ä¹īçİ°ä»£åĮĸ": 6045,
      "æ¶µçĽĸ": 6046,
      "äº¤æį¢": 6047,
      "åĲ¸éĻĦ": 6048,
      "äºĮæ¬¡": 6049,
      "ç®ĢåįķçļĦ": 6050,
      "çŃĶæ¡Ī": 6051,
      "ä¸ĵä¸ļæĬĢæľ¯": 6052,
      "å¤ļæķ°": 6053,
      "çİĦ": 6054,
      "æķ£çĥŃ": 6055,
      "çļĦç¾İ": 6056,
      "åľ°çĤ¹": 6057,
      "å¤ıåŃ£": 6058,
      "æĪĲç«ĭäºİ": 6059,
      "èģļæ°¨éħ¯": 6060,
      "éħ¬": 6061,
      "åıĥ": 6062,
      "ç¢º": 6063,
      "ç¢§": 6064,
      "æĢ¥æĢ§": 6065,
      "å¯¹æ¯Ķ": 6066,
      "åľ¨å¤§": 6067,
      "æĶ»åĩ»": 6068,
      "åľ°éĵģ": 6069,
      "æĥħèĬĤ": 6070,
      "éĤ£éĩĮ": 6071,
      "èģĮç§°": 6072,
      "è¿ĽèĢĮ": 6073,
      "åĲĮäºĭ": 6074,
      "åº§è°Ī": 6075,
      "åİŁæĿ¥": 6076,
      "çľĭè§ģ": 6077,
      "ä¸įä¸Ģæł·": 6078,
      "åĩıèĤ¥": 6079,
      "æº¢": 6080,
      "æ»ŀ": 6081,
      "åı¯ä»¥éĢļè¿ĩ": 6082,
      "åħ¥éĢī": 6083,
      "æįŁåĿı": 6084,
      "æĲľç´¢": 6085,
      "çī©èµĦ": 6086,
      "ä¸²": 6087,
      "åıĳçĶŁäºĨ": 6088,
      "ç¨³å®ļæĢ§": 6089,
      "åı¹": 6090,
      "çİ°çĬ¶": 6091,
      "éĢĬ": 6092,
      "ä¸¤æ¬¡": 6093,
      "èµĲ": 6094,
      "æĶ¶èĹı": 6095,
      "ç«ĭæ³ķ": 6096,
      "ç³ķ": 6097,
      "æ±Łèĭıçľģ": 6098,
      "et": 6099,
      "å½ĵå¤©": 6100,
      "åĪļåĪļ": 6101,
      "åĮł": 6102,
      "æĪĪ": 6103,
      "äººå¿ĥ": 6104,
      "åĵįåºĶ": 6105,
      "åĴ½": 6106,
      "åįıåķĨ": 6107,
      "éĿŀæ´²": 6108,
      "æĿ¡ä»¶ä¸ĭ": 6109,
      "æĦŁåıĹåĪ°": 6110,
      "é½Ĳåħ¨": 6111,
      "æµģéĢļ": 6112,
      "çŀ¬": 6113,
      "57": 6114,
      "ç¨»": 6115,
      "å°Ĩäºİ": 6116,
      "çĨ¬": 6117,
      "æīįä¼ļ": 6118,
      "éĢļè®¯": 6119,
      "æĸ°åĨłèĤºçĤİ": 6120,
      "é¾Ļå¤´": 6121,
      "ç»´åº¦åİ»": 6122,
      "éĢıéľ²": 6123,
      "å¹³å®ī": 6124,
      "æľĢéĩįè¦ģçļĦ": 6125,
      "äººä»¬çļĦ": 6126,
      "li": 6127,
      "åĴĮæĬĢæľ¯": 6128,
      "æĬĬæĪĳä»¬å¸¦åĪ°äºĨ": 6129,
      "èĬ¬": 6130,
      "æ°´å¹³çļĦ": 6131,
      "èĮ¨": 6132,
      "è¿Ļåı¥è¯ĿæĬĬæĪĳä»¬å¸¦åĪ°äºĨ": 6133,
      "ä¸Ģä¸ªæĸ°çļĦç»´åº¦åİ»": 6134,
      "è¿Ļåı¥è¯ĿæĬĬæĪĳä»¬å¸¦åĪ°äºĨä¸Ģä¸ªæĸ°çļĦç»´åº¦åİ»": 6135,
      "ä¸ĩå¹³æĸ¹ç±³": 6136,
      "åĩ¸": 6137,
      "éĹ¨çªĹ": 6138,
      "èı¯": 6139,
      "å¿ĥæĢģ": 6140,
      "éĳ": 6141,
      "æĹ¥åľ¨": 6142,
      "æĶ¾æĿ¾": 6143
    },
    "merges": [
      "ä ¸",
      "ã Ģ",
      "ç ļ",
      "çļ Ħ",
      "ä º",
      "ãĢ Ĥ",
      "æ ľ",
      "å ı",
      "å ħ",
      "ä »",
      "å ¤",
      "ãĢ ģ",
      "å ®",
      "å Ī",
      "ä ½",
      "è ¿",
      "ç Ķ",
      "å ľ",
      "å Ĳ",
      "å Ĭ",
      "æ ĺ",
      "ç »",
      "å Ľ",
      "æ Ī",
      "æ ĸ",
      "ä ¹",
      "ä ¼",
      "ä¸ Ģ",
      "å ¹",
      "å °",
      "æĺ ¯",
      "å Ń",
      "è ®",
      "æ Ĺ",
      "â Ģ",
      "å į",
      "å ·",
      "æľ ī",
      "è ¯",
      "åľ ¨",
      "é ĩ",
      "æ Ŀ",
      "äº º",
      "å Į",
      "ä¸ į",
      "å ¸",
      "å º",
      "ä¸ Ń",
      "å ¼",
      "æ ī",
      "é Ģ",
      "å Ĵ",
      "è ¡",
      "å ¾",
      "å Ĩ",
      "è Ģ",
      "å ¯",
      "åĴ Į",
      "å ĩ",
      "äº Ĩ",
      "å ±",
      "æ ķ",
      "ĥ ½",
      "æ Ģ",
      "å¤ §",
      "ç Ľ",
      "æ Ĭ",
      "æ °",
      "è ´",
      "ä¸ º",
      "ç §",
      "æ ł",
      "åĽ ½",
      "è §",
      "çĶ Ł",
      "ç İ",
      "è ¦",
      "ä¸ ļ",
      "ç ī",
      "ä» ¥",
      "è µ",
      "å ¥",
      "æ Ķ",
      "å ¿",
      "è¦ ģ",
      "é Ļ",
      "åŃ ¦",
      "é Ŀ",
      "åı ĳ",
      "è ĩ",
      "å¹ ´",
      "ä¼ ļ",
      "å İ",
      "çĶ ¨",
      "æ Ń",
      "æ ³",
      "ç Ń",
      "ç Ĳ",
      "ä ¿",
      "å ½",
      "è ĥ½",
      "é Ĺ",
      "ç º",
      "æ ²",
      "å· ¥",
      "ä¸ Ĭ",
      "ä½ ľ",
      "å ĳ",
      "æ İ",
      "æ µ",
      "æ ŀ",
      "æĹ ¶",
      "ä¸ ª",
      "âĢ ľ",
      "âĢ Ŀ",
      "æĪ Ĳ",
      "è¡ Į",
      "è¿ Ļ",
      "å ĵ",
      "åı ¯",
      "é ¢",
      "æĪ ĳ",
      "åĪ °",
      "æ ¯",
      "å¯ ¹",
      "æ Į",
      "åĩ º",
      "å Ł",
      "æ ĥ",
      "è ¾",
      "é ĺ",
      "é «",
      "å® ¶",
      "äº İ",
      "çĲ Ĩ",
      "ç ľ",
      "å ī",
      "é« ĺ",
      "è Ĥ",
      "äº §",
      "æĿ ¥",
      "æ ±",
      "çŃ ī",
      "åľ °",
      "å¤ ļ",
      "æ Ħ",
      "åĮ ĸ",
      "æ ĭ",
      "æĸ ¹",
      "åħ ¨",
      "åĪ Ĩ",
      "åĬ Ľ",
      "è¿ Ľ",
      "è ½",
      "é ģ",
      "èĩ ª",
      "ä½ ĵ",
      "æĸ °",
      "å »",
      "ç ®",
      "æĢ §",
      "ä ¾",
      "æ ´",
      "åĬ ¨",
      "ç «",
      "å® ŀ",
      "ç» ı",
      "åħ ¬",
      "æ ¸",
      "è¿ ĩ",
      "ä¹ Ł",
      "çİ °",
      "é ĥ",
      "ä» ¬",
      "ç ¨",
      "å ¦",
      "å° ±",
      "å± ķ",
      "åĲ İ",
      "åĲ Ī",
      "é ķ",
      "ä¸ »",
      "ç Ļ",
      "ç Ĥ",
      "å ģ",
      "ä¸ ĭ",
      "éĿ ¢",
      "æ ı",
      "éĩ į",
      "é £",
      "æ ¬",
      "ç ½",
      "æ Ľ",
      "å» º",
      "å® ļ",
      "ä» ĸ",
      "æľ º",
      "åĵ ģ",
      "éĥ ¨",
      "åĲ Į",
      "å¥ ½",
      "é ¡",
      "ä¸ İ",
      "è® ¾",
      "è ī",
      "æ³ ķ",
      "å¿ ĥ",
      "åĬ ł",
      "å¸ Ĥ",
      "ä¹ ĭ",
      "åº ¦",
      "è ģ",
      "ç ¤",
      "æ° ´",
      "èĢ Į",
      "å¼ Ģ",
      "ç Ĺ",
      "é Ľ",
      "åŃ Ĳ",
      "å ¢",
      "æ Ļ",
      "åħ ¶",
      "åĪ ¶",
      "æľ ¬",
      "å¾ Ĺ",
      "2 0",
      "å Ģ",
      "èĢ ħ",
      "éĩ ı",
      "è ¶",
      "ç ĸ",
      "è ·",
      "éķ ¿",
      "ç ¬",
      "ç Ł",
      "çī ©",
      "æı Ĳ",
      "è °",
      "å¦ Ĥ",
      "å Ŀ",
      "åĬ ¡",
      "åħ ³",
      "ä¿ Ŀ",
      "æī Ģ",
      "äº ĭ",
      "ç® ¡",
      "åı Ĭ",
      "ç ¾",
      "åī į",
      "æĹ ¥",
      "åº Ķ",
      "é ļ",
      "æ ¶",
      "éĢ ļ",
      "æ į",
      "ç Ŀ",
      "åĨ ħ",
      "é ĥ½",
      "ç ³",
      "çĶ µ",
      "æķ Ļ",
      "å §",
      "ç ł",
      "åľ º",
      "ç ©",
      "æĥ ħ",
      "ç§ į",
      "è Ĭ",
      "ç ķ",
      "åĽ ł",
      "å° ı",
      "ç ²",
      "æľ Ī",
      "æĸ ĩ",
      "æ Ł",
      "ç Ħ",
      "å¤ ĸ",
      "ç ´",
      "ç¨ ĭ",
      "åĮ º",
      "æ° ĳ",
      "åıĳ å±ķ",
      "å¹ ³",
      "è Ĳ",
      "æľ Ģ",
      "æĬ Ģ",
      "ç ĥ",
      "é ľ",
      "èµ Ħ",
      "é ħ",
      "ç§ ĳ",
      "æĽ ´",
      "çĽ ®",
      "éĹ ´",
      "ä½ į",
      "çĽ ¸",
      "åĳ ĺ",
      "è´ ¨",
      "å·¥ ä½ľ",
      "å¤ ©",
      "æĦ ı",
      "ä¸Ń åĽ½",
      "å° Ĩ",
      "åħ ¥",
      "æ¯ Ķ",
      "æľ ¯",
      "å¸ ¸",
      "ç ¡",
      "æľ Ł",
      "ç³ »",
      "å® ī",
      "çĤ ¹",
      "ä» £",
      "ä½ ¿",
      "ç¬ ¬",
      "è¡ ¨",
      "ç ±",
      "æĶ ¿",
      "é Ķ",
      "Ĥ £",
      "è¯ ´",
      "å¼ º",
      "å¾ Ī",
      "ä¸ ī",
      "æ ·",
      "è ĥ",
      "å½ ĵ",
      "åı ¸",
      "æ´ »",
      "è¿ ĺ",
      "éģ ĵ",
      "çī ¹",
      "æŀ ľ",
      "ä¼ ģ",
      "æ² »",
      "éĩ ĳ",
      "èµ ·",
      "ä» İ",
      "å¹ ¶",
      "åı¯ ä»¥",
      "è į",
      "æ ģ",
      "æĺ İ",
      "åĪ ©",
      "ç ¥",
      "æ¬ ¡",
      "çĦ ¶",
      "æŃ ¤",
      "è Ī",
      "çĿ Ģ",
      "ä¿ ¡",
      "åŁ º",
      "ãĢ ĭ",
      "ãĢ Ĭ",
      "ä½ Ĩ",
      "ä¸ ĵ",
      "æĪĳ ä»¬",
      "åĲ Ħ",
      "é Ĵ",
      "æĪ ĸ",
      "åħ¬ åı¸",
      "è® ¡",
      "é£ İ",
      "éĻ ¢",
      "ä¼ģ ä¸ļ",
      "æĮ ģ",
      "åĲ į",
      "æľ į",
      "æķ °",
      "é ĵ",
      "æĹ ł",
      "åħ ļ",
      "ç¾ İ",
      "çĹ ħ",
      "äº Ľ",
      "è§ Ħ",
      "ä¸Ģ ä¸ª",
      "å¼ ı",
      "ç ģ",
      "è ĭ",
      "ä½ ł",
      "è§ £",
      "æŃ £",
      "ç» ĵ",
      "èĤ ²",
      "é ¦",
      "ç ¼",
      "è ¢",
      "éĢ ł",
      "å¯ ¼",
      "è £",
      "éľ Ģ",
      "è º",
      "å ķ",
      "å £",
      "ç¤ ¾",
      "æ º",
      "äº Į",
      "èī ²",
      "å ŀ",
      "å ĸ",
      "æ ¡",
      "ä» »",
      "ç» Ł",
      "ç Ī",
      "æ± Ĥ",
      "æ° Ķ",
      "é¢ ĺ",
      "åħ ·",
      "è Ħ",
      "åģ ļ",
      "åį ģ",
      "åĮ »",
      "é¡ ¹",
      "åĪ Ľ",
      "çł Ķ",
      "0 0",
      "çľ ĭ",
      "åħ ĥ",
      "éĩ Į",
      "ç« ĭ",
      "èº «",
      "æł ĩ",
      "ç ¦",
      "å¢ ŀ",
      "æĦ Ł",
      "å¤ Ħ",
      "æĥ ³",
      "æķ Ī",
      "ç½ ĳ",
      "æµ ģ",
      "æį ®",
      "æİ ¥",
      "è¿ Ĳ",
      "çĶ ±",
      "ç² ¾",
      "éĹ ®",
      "æī ĭ",
      "ç» Ħ",
      "ä¹ Ī",
      "ä» ¶",
      "åİ »",
      "æł ·",
      "éĹ ¨",
      "æł ¡",
      "è¢ «",
      "è Į",
      "å· ±",
      "è½ ¦",
      "æĸ Ļ",
      "åĲ ĳ",
      "ä¼ ł",
      "æ »",
      "çĲ ĥ",
      "çĻ ½",
      "é ª",
      "åİ Ł",
      "æĬĢ æľ¯",
      "æĢ »",
      "é¢ Ĩ",
      "åı Ĺ",
      "è ¥",
      "å¤ ĩ",
      "æ² ¡",
      "å· ²",
      "åħ ±",
      "è· ¯",
      "èĩª å·±",
      "çº §",
      "äº ¤",
      "è¥ ¿",
      "åķ Ĩ",
      "å½ ¢",
      "çİ ¯",
      "æµ ·",
      "æł ¼",
      "åŀ ĭ",
      "å½ ±",
      "ä¸ ¤",
      "ç®¡ çĲĨ",
      "çŁ ¥",
      "é ©",
      "æ £",
      "éĺ ²",
      "æľį åĬ¡",
      "åį ķ",
      "çľ ģ",
      "åħ Ī",
      "ç± »",
      "åĽ½ å®¶",
      "è¿Ľ è¡Į",
      "åı ĺ",
      "é »",
      "è° ĥ",
      "æİ ¨",
      "å° ĳ",
      "ä¼ ĺ",
      "ä¸ ĩ",
      "éĽ Ĩ",
      "æĶ ¹",
      "å Ļ",
      "éĺ Ł",
      "èģ Ķ",
      "è İ",
      "æ· ±",
      "èĩ ³",
      "æ ¢",
      "å¹ ¿",
      "è Ļ",
      "ä¹ ł",
      "ä¸ ĸ",
      "ç¤ º",
      "æĶ ¶",
      "é Ĥ£",
      "è¾ ĥ",
      "å¸ Ī",
      "äº§ åĵģ",
      "æ ®",
      "åı ª",
      "å»º è®¾",
      "æĮ ĩ",
      "æŀ Ħ",
      "çĸ Ĺ",
      "æĬ ¥",
      "ç¤¾ ä¼ļ",
      "æī į",
      "åŁ İ",
      "é£ Ł",
      "æĸ ½",
      "æº Ĳ",
      "æĶ ¾",
      "å® Į",
      "åį Ĺ",
      "ä¹ ¦",
      "å± ±",
      "ä¸ ľ",
      "åı ĸ",
      "åı £",
      "ä¾ Ľ",
      "éĢ ī",
      "çĥ Ń",
      "èµ Ľ",
      "è® ¤",
      "çº ¿",
      "åĻ ¨",
      "è¾ ¾",
      "èĬ Ĥ",
      "æ ¨",
      "æ³ ¨",
      "èĲ ¥",
      "èĢ ģ",
      "è® °",
      "è® ©",
      "åĽ Ľ",
      "å¸ ¦",
      "ä» ·",
      "ç¥ ŀ",
      "è¿ ĳ",
      "æ ¼",
      "å® ¹",
      "ç Ĭ",
      "èĢ ĥ",
      "è£ ħ",
      "ç¡ ®",
      "éĿ ŀ",
      "æĪ ĺ",
      "åĮ Ĺ",
      "çķ Į",
      "éĹ® é¢ĺ",
      "åĩ Ĩ",
      "æĿ ¡",
      "åĪ «",
      "æĬ ¤",
      "å§ Ķ",
      "åħ ī",
      "åı °",
      "æķĻ èĤ²",
      "è ħ",
      "è¯ ģ",
      "å ²",
      "åĽ ¢",
      "ç ħ",
      "åĨ ³",
      "æ¯ ı",
      "æµ İ",
      "ç´ ł",
      "å¢ ĥ",
      "çĽ ´",
      "åĬ Ł",
      "æĢ Ŀ",
      "æķ ´",
      "æ²¡ æľī",
      "æī ĵ",
      "æĺ ĵ",
      "è ±",
      "å¥ ³",
      "æŃ ¥",
      "æĶ ¯",
      "ä½ İ",
      "äº Ķ",
      "ä¹ ī",
      "æĬ Ĭ",
      "å Ķ",
      "20 1",
      "ç© º",
      "æ¸ ħ",
      "åĽ ŀ",
      "ç© ¶",
      "åħ »",
      "æĿ Ĳ",
      "å± Ģ",
      "èģ Į",
      "çľ Ł",
      "åĮ ħ",
      "è§ Ĥ",
      "ä½¿ çĶ¨",
      "ç» Ļ",
      "çĶŁ äº§",
      "å ĭ",
      "è´ ¹",
      "æ¶ Ī",
      "è§ Ĩ",
      "æĬ ķ",
      "å® ĥ",
      "åĬ ŀ",
      "å¼ ķ",
      "æĪ ·",
      "éĻ ħ",
      "éľĢ è¦ģ",
      "å¤ ´",
      "ç»ı æµİ",
      "é ¥",
      "æģ ¯",
      "Ġ ,",
      "èį ¯",
      "å¿ «",
      "å¸Ĥ åľº",
      "å¤ į",
      "è¯ ¥",
      "åĬ ©",
      "ç§ ¯",
      "æł ¹",
      "çİ ĩ",
      "è ¨",
      "æŁ ¥",
      "ç» ´",
      "éĢļ è¿ĩ",
      "å°± æĺ¯",
      "åı Ĥ",
      "è® ®",
      "éĢ Ł",
      "ä» Ĭ",
      "è¯ Ĩ",
      "è´ £",
      "èĩ ´",
      "è§ ģ",
      "åį ĩ",
      "å¿ ħ",
      "è® º",
      "åĿ ļ",
      "éĩį è¦ģ",
      "å¹ ²",
      "åĨ į",
      "çĶŁ æ´»",
      "æĢ ģ",
      "åį İ",
      "å¸ ĥ",
      "å® ¢",
      "æ Ĥ£",
      "çłĶ ç©¶",
      "å®ī åħ¨",
      "è ı",
      "ç ı",
      "æ Ĥ",
      "è½ ¬",
      "åĨ µ",
      "éª Į",
      "æĸ Ń",
      "æŀ ģ",
      "å Ħ",
      "åı į",
      "åİ Ĩ",
      "ä¸ĵ ä¸ļ",
      "ç» Ń",
      "æĸ ¯",
      "ä¸» è¦ģ",
      "è¶ Ĭ",
      "æİ §",
      "èĬ ±",
      "è¶ ³",
      "æ¸ ©",
      "åĳ ½",
      "æ ħ",
      "éĻ Ĳ",
      "å¦Ĥ æŀľ",
      "åĵ į",
      "é Ł",
      "åģ ¥",
      "è¯ Ŀ",
      "1 0",
      "æĹ¶ éĹ´",
      "çĪ ±",
      "å¾ ·",
      "å ¡",
      "æ ¹",
      "è ĳ",
      "æ£ Ģ",
      "æĿ ĥ",
      "ä½ ķ",
      "ä¸ Ķ",
      "æ¸ ¸",
      "ç ĭ",
      "éĢ Ĥ",
      "è¯ ķ",
      "å· ŀ",
      "èĮ ĥ",
      "é¡¹ çĽ®",
      "æ¨ ¡",
      "ç ¢",
      "åİ ĭ",
      "ä»ĸ ä»¬",
      "åĢ ¼",
      "çļĦ äºº",
      "åĨ ľ",
      "èİ ·",
      "éĩ ĩ",
      "æİ Ĵ",
      "éļ ¾",
      "ç ª",
      "ä» Ģ",
      "è¶ ħ",
      "æ¡ Ī",
      "åŁ Ł",
      "åĪ Ļ",
      "æľ ª",
      "å·¥ ç¨ĭ",
      "æĸ¹ éĿ¢",
      "é¦ ĸ",
      "åĳ Ĭ",
      "åº ·",
      "åĬ ¿",
      "åı ²",
      "çĬ ¶",
      "æĸĩ åĮĸ",
      "å§ ĭ",
      "åĨ Ľ",
      "è¡ Ģ",
      "äºº æ°ĳ",
      "åŃ ĺ",
      "ç§ °",
      "åħ ĭ",
      "ç» ĩ",
      "ä¸ ¥",
      "âĢĿ ,",
      "è ŀ",
      "åĳ ¨",
      "æ² ¹",
      "åı Ī",
      "ç³» ç»Ł",
      "æ²» çĸĹ",
      "æĺ ¾",
      "åĦ ¿",
      "é© ¬",
      "ä¼ Ĺ",
      "è¦ģ æ±Ĥ",
      "ä¸ĸ çķĮ",
      "æµ ĭ",
      "éĻ ¤",
      "åħ· æľī",
      "åĪ Ĵ",
      "éħ į",
      "çļ ®",
      "ä¾ ¿",
      "æıĲ ä¾Ľ",
      "åŃ Ĺ",
      "å¥ ¹",
      "å½± åĵį",
      "åı¯ èĥ½",
      "æ± Ł",
      "çİ¯ å¢ĥ",
      "1 9",
      "åŃ¦ çĶŁ",
      "è¿Ļ ä¸ª",
      "æĥħ åĨµ",
      "æĪ ¿",
      "ä»Ģ ä¹Ī",
      "åŁ ¹",
      "è¡Į ä¸ļ",
      "ä¹ Ĳ",
      "åĢ Ļ",
      "åĪ ĩ",
      "è´¨ éĩı",
      "åį ı",
      "çĽ ĳ",
      "éĿ Ĵ",
      "âĢ Ķ",
      "ç» Ĩ",
      "èī º",
      "èĲ ½",
      "åŃ¦ ä¹ł",
      "å¥½ çļĦ",
      "åĲĮ æĹ¶",
      "çħ §",
      "ç« Ļ",
      "ç± ³",
      "ç Į",
      "è®¾ è®¡",
      "åľ Ł",
      "åĽł ä¸º",
      "çī ĩ",
      "è®¾ å¤ĩ",
      "å¼ ł",
      "çģ «",
      "æľ Ľ",
      "çº ¦",
      "çİ ĭ",
      "é ¾",
      "äº§ ä¸ļ",
      "å± Ĥ",
      "äº ¬",
      "èĥ½ åĬĽ",
      "ãĢĤ âĢĿ",
      "çŁ ³",
      "å± ŀ",
      "å£ «",
      "æ Ĵ",
      "æ ļ",
      "æ´» åĬ¨",
      "æīĢ ä»¥",
      "é¢ Ħ",
      "å¤ ±",
      "å¤ ª",
      "å° Ķ",
      "æ ¥",
      "æ ĳ",
      "è± ¡",
      "æī ¿",
      "åĩ ł",
      "åį ³",
      "éĻ į",
      "éĶ Ģ",
      "åĪĽ æĸ°",
      "åº ľ",
      "æĺ¯ ä¸Ģ",
      "åĸ Ħ",
      "çº ¢",
      "èµ °",
      "ä»¥ åıĬ",
      "æ® µ",
      "çĽ Ĭ",
      "ç»Ħ ç»ĩ",
      "éļ ı",
      "ä¾ Ŀ",
      "æĿ ¿",
      "æıĲ é«ĺ",
      "ç¦ »",
      "æ» ¡",
      "åħ ħ",
      "ç½ ®",
      "æĤ£ èĢħ",
      "æ¼ Ķ",
      "çĻ ¾",
      "æĿ ĳ",
      "æł ¸",
      "åħ į",
      "èŀ į",
      "ä¿¡ æģ¯",
      "ä» ħ",
      "å ĥ",
      "èī ¯",
      "åĪ Ĺ",
      "æ ĵ",
      "å® ¤",
      "çļĦ ä¸Ģ",
      "å ¨",
      "ä½ľ ä¸º",
      "çī Į",
      "å ł",
      "å¯ Į",
      "æŀ Ĺ",
      "ä¸į åĲĮ",
      "éĿ ©",
      "å¤§ çļĦ",
      "åĩ ı",
      "æĻ º",
      "é Ĥ",
      "å¤ Ł",
      "ç²¾ ç¥ŀ",
      "è´ Ł",
      "å¾ Ģ",
      "éĻ ©",
      "æĻ ¯",
      "è¯ Ħ",
      "æ ¿",
      "äºº åĳĺ",
      "äº ī",
      "ä¾ ĭ",
      "ä¸Ń å¿ĥ",
      "äº ¿",
      "çŃ ĸ",
      "è¿Ļ æł·",
      "äºº çļĦ",
      "ä½ľ çĶ¨",
      "æĪĲ ä¸º",
      "ä¸Ń çļĦ",
      "è¨ Ģ",
      "åŃ¦ æł¡",
      "åŃ ©",
      "äº ļ",
      "åĽ ´",
      "éĺ ³",
      "å¾Ī å¤ļ",
      "ä¿ ®",
      "åİ ¿",
      "å¾ ĭ",
      "å¿ µ",
      "ç¾ ¤",
      "åı ·",
      "æĶ¿ åºľ",
      "è® ¸",
      "åĩº çİ°",
      "æĮ ī",
      "æ Ĳ",
      "åĽ½ éĻħ",
      "å¿ Ĺ",
      "ä½ ı",
      "æĭ ©",
      "ä¹Ł æĺ¯",
      "åĽ ¾",
      "åĲ «",
      "åı ĭ",
      "å¤§ åŃ¦",
      "è¿ ŀ",
      "éĿŀ å¸¸",
      "å®ŀ çİ°",
      "åĽ Ń",
      "åĲ ĥ",
      "ç® Ĺ",
      "ç» Ī",
      "æĹ ©",
      "å® ³",
      "çĹ ĩ",
      "æĿĲ æĸĻ",
      "ä» ½",
      "ç¬¬ ä¸Ģ",
      "âĢĿ ãĢĤ",
      "æ² ³",
      "è¿Ļ äºĽ",
      "ä¸Ģ å®ļ",
      "æĭ ī",
      "ä¸Ģ äºĽ",
      "éĢī æĭ©",
      "å·² ç»ı",
      "çĽ¸ åħ³",
      "åı Į",
      "ç§ĳ åŃ¦",
      "å¯ Ĩ",
      "è ª",
      "è¯ Ń",
      "å¯¹ äºİ",
      "è¿ ľ",
      "åĿ ĩ",
      "åģ¥ åº·",
      "èĩªå·± çļĦ",
      "åħ¨ åĽ½",
      "èĤ ¡",
      "èĪ ¬",
      "ç§ĳ æĬĢ",
      "äº Ĵ",
      "è§ Ĵ",
      "æŁ ĵ",
      "éħ Ĵ",
      "è§ ī",
      "æ¿ Ģ",
      "æĻ ®",
      "è¿ĩ ç¨ĭ",
      "åĲĪ ä½ľ",
      "åħ¶ ä»ĸ",
      "é» Ħ",
      "å Ĥ",
      "ä¸į æĸŃ",
      "åħ ´",
      "æł¹ æį®",
      "æĹ¶ åĢĻ",
      "é¡ »",
      "åĽł æŃ¤",
      "è´ ¢",
      "åĶ ®",
      "è® ²",
      "éĴ ¢",
      "å¤Ħ çĲĨ",
      "æĹ ı",
      "Ġ ãĢĤ",
      "ä½Ĩ æĺ¯",
      "çĽ® åīį",
      "çŃ ĳ",
      "å¾ ®",
      "ä¸į æĺ¯",
      "è¯ ·",
      "å ©",
      "åŁİ å¸Ĥ",
      "ä»¥ ä¸Ĭ",
      "ç Ĩ",
      "åı ¤",
      "ä¸į èĥ½",
      "æĬķ èµĦ",
      "åĲ ¸",
      "æłĩ åĩĨ",
      "åıĳ çĶŁ",
      "æķ ħ",
      "åĪ° äºĨ",
      "èĭ ±",
      "åįķ ä½į",
      "è½ »",
      "è Ń",
      "éĥ¨ éĹ¨",
      "1 2",
      "åĥ ı",
      "åŁº ç¡",
      "ç¦ ı",
      "çľ ¼",
      "éħ ¸",
      "ç¨ ³",
      "åŁºç¡ Ģ",
      "ä¸ ¾",
      "æĸ¹ å¼ı",
      "è Ĩ",
      "æī ¹",
      "éŁ ³",
      "åŃ© åŃĲ",
      "åĪ Ŀ",
      "çĸ «",
      "å± ħ",
      "æĿ İ",
      "è¯ ¾",
      "éĥ¨ åĪĨ",
      "è® Ń",
      "æŃ ¢",
      "æ ¤",
      "å¤§ å®¶",
      "åºĶ çĶ¨",
      "ç ĵ",
      "è¾ ¹",
      "éĵ ¶",
      "é¦ Ļ",
      "åŃ £",
      "éĵ ģ",
      "ä¸» ä¹ī",
      "è¡¨ ç¤º",
      "åĮ» éĻ¢",
      "æĬ Ĺ",
      "åī ¯",
      "ä¼ ¤",
      "åħ¶ ä¸Ń",
      "20 0",
      "æ¬ ¾",
      "ç ĩ",
      "åĳ ³",
      "çº ª",
      "æľ ¨",
      "åİ Ĥ",
      "çĶ ·",
      "èĥ½ å¤Ł",
      "æĭ ¬",
      "ä¸Ģ èĪ¬",
      "å° ½",
      "æķ° æį®",
      "åİĨ åı²",
      "èģ ļ",
      "éļ ľ",
      "çª ģ",
      "éĥ½ æĺ¯",
      "å£ °",
      "åº ķ",
      "çļĦ æĺ¯",
      "å»º çŃĳ",
      "åį «",
      "å® ¡",
      "ç® Ģ",
      "è¾ ĵ",
      "å¥ ĸ",
      "å·¥ ä¸ļ",
      "çķ ¥",
      "æĭ ħ",
      "åħ «",
      "1 1",
      "æĸ¹ æ³ķ",
      "åī Ĥ",
      "çł ´",
      "å¼Ģ å§ĭ",
      "æľī éĻĲ",
      "åħ¨ éĿ¢",
      "åį Ĭ",
      "ç £",
      "ä» ĭ",
      "çĻ½ çĻ",
      "çı Ń",
      "è¿Ļ ç§į",
      "ľ é£İ",
      "å® Ŀ",
      "æ ½",
      "å® ĺ",
      "é ²",
      ": âĢľ",
      "çĻ½çĻ ľé£İ",
      "å¼Ģ å±ķ",
      "æ¶ ²",
      "ä¿ ĥ",
      "åĮħ æĭ¬",
      "åĬŁ èĥ½",
      "Ġ ãĢģ",
      "äº ²",
      "æĺ Ł",
      "æ± ½",
      "èµĦ æºĲ",
      "è¡ ¥",
      "é¾ Ļ",
      "å¸ Į",
      "åĿļ æĮģ",
      "éĽĨ åĽ¢",
      "å® £",
      "é Ĩ",
      "æĪĸ èĢħ",
      "å¿ħ é¡»",
      "åĸ ľ",
      "æ± ¡",
      "è§Ħ å®ļ",
      "èİ· å¾Ĺ",
      "æĹ ħ",
      "æ¯ Ĵ",
      "åį °",
      "æĪĳ åĽ½",
      "ç§¯ æŀģ",
      "ç¼ º",
      "æĺ ¥",
      "çĶ± äºİ",
      "åľ° åĮº",
      "æ°´ å¹³",
      "è Ĵ",
      "æĽ ¾",
      "ç½ Ĺ",
      "ç ¿",
      "åį ´",
      "åį ļ",
      "ä¿Ŀ æĬ¤",
      "ä»£ è¡¨",
      "åĨ ·",
      "è Ĺ",
      "ä¸ ´",
      "åħ Ń",
      "ç»ĵ æŀĦ",
      "çİ° åľ¨",
      "é¢Ĩ åŁŁ",
      "é¢Ĩ å¯¼",
      "æľº æŀĦ",
      "çķ Ļ",
      "æī §",
      "åī §",
      "ç¾İ åĽ½",
      "æıĲ åįĩ",
      "å¢ŀ éķ¿",
      "çĶ »",
      "åĮĹ äº¬",
      "æ¯Ķ è¾ĥ",
      "åĬł å¼º",
      "ç» §",
      "çĭ ¬",
      "æ³¨ æĦı",
      "ç ¯",
      "3 0",
      "æŀ Ĳ",
      "å· ®",
      "ä½ Ļ",
      "ä¸Ģ æŃ¥",
      "éĢ ģ",
      "20 2",
      "çĸ ¾",
      "åı ¦",
      "å¸ ®",
      "åį ł",
      "åĬ ³",
      "æĹ¶ ä»£",
      "ç´ §",
      "å· ´",
      "è´ Ń",
      "ç¨ İ",
      "é º",
      "äº ĳ",
      "åĽ º",
      "äºĨ è§£",
      "å¾ ģ",
      "1 5",
      "æİ§ åĪ¶",
      "å¢ŀ åĬł",
      "å¤ ®",
      "èĳ Ĺ",
      "ç» ¼",
      "ä¸ª äºº",
      "è´£ ä»»",
      "ä¸ °",
      "ä¹ ¡",
      "æį Ł",
      "ç» ľ",
      "å¹³ åı°",
      "å®¢ æĪ·",
      "å½¢ æĪĲ",
      "åŁº æľ¬",
      "çĤ İ",
      "ç¬¬ äºĮ",
      "åį ĥ",
      "é» ĳ",
      "æŃ ¦",
      "æ ¦",
      "å¾ ħ",
      "è¿ĺ æĺ¯",
      "æĢĿ æĥ³",
      "ç» ¿",
      "åŃ¦ éĻ¢",
      "å®Į æĪĲ",
      "åĪ »",
      "çİ° ä»£",
      "åħ³ ç³»",
      "å¼ Ĥ",
      "æ¹ ĸ",
      "åĵģ çīĮ",
      "æŁ Ĳ",
      "å¹´ çļĦ",
      "æĶ¹ éĿ©",
      "æķĻ åŃ¦",
      "çĤ º",
      "æ¬ ¢",
      "ä¸į ä¼ļ",
      "åĨħ å®¹",
      "é¥ ®",
      "æ¸ ¯",
      "èĢĮ ä¸Ķ",
      "å¯¼ èĩ´",
      "çº ³",
      "çŁ Ń",
      "é ¼",
      "è§£ åĨ³",
      "å¯ Ł",
      "éľĢ æ±Ĥ",
      "é ¸",
      "æľīéĻĲ åħ¬åı¸",
      "æĶ¿ çŃĸ",
      "æľī æķĪ",
      "äºº æīį",
      "åº Ĺ",
      "ç« ŀ",
      "åĽ½ åĨħ",
      "éķ ĩ",
      "éĤ£ ä¹Ī",
      "åĪ¶ éĢł",
      "åıĳ çİ°",
      "æł ĳ",
      "æĶ¿ æ²»",
      "åĩ »",
      "æ¯ į",
      "è®¤ ä¸º",
      "é¢ Ŀ",
      "åĪĨ æŀĲ",
      "èĮ ¶",
      "èĢ Ĳ",
      "æī ¾",
      "åı ¥",
      "æİ¨ è¿Ľ",
      "è´ §",
      "ä½ĵ ç³»",
      "æĸ° çļĦ",
      "èĥ ľ",
      "åĲĦ ç§į",
      "ä¸Ĭ çļĦ",
      "æŃ »",
      "éģ ¿",
      "çĶ ³",
      "åĲ ¦",
      "äº§ çĶŁ",
      "åį ¡",
      "ç»ı èĲ¥",
      "åĨ ł",
      "èĻ ½",
      "å¸Į æľĽ",
      "åĪ© çĶ¨",
      "å° Ħ",
      "æĮ ¥",
      "æĽ´ åĬł",
      "æ¢ ¦",
      "æ³ ¢",
      "ä¸º äºĨ",
      "éĩį çĤ¹",
      "åĨ Ļ",
      "è¿Ļ ä¸Ģ",
      "ç»¼ åĲĪ",
      "èĩª çĦ¶",
      "æľī åħ³",
      "çĹ Ľ",
      ") ,",
      "ä¼ļ è®®",
      "åĪ¶ åº¦",
      "å² ģ",
      "æĿ¥ çļĦ",
      "ç½ĳ ç»ľ",
      ", âĢľ",
      "ç¼ ĸ",
      "çĽ® æłĩ",
      "ç§ »",
      "åŃĺ åľ¨",
      "å®ŀ æĸ½",
      "å¼Ģ åıĳ",
      "åħļ çļĦ",
      "ç« ¯",
      "éĢł æĪĲ",
      "èĪ ª",
      "æľ ĥ",
      "çĶ¨ äºİ",
      "æİ¨ åĬ¨",
      "ç» Ŀ",
      "éģ ĩ",
      "åħ °",
      "åį ±",
      "ä» ¤",
      "éĩĩ çĶ¨",
      "æį ¢",
      "å®¹ æĺĵ",
      "æ± ī",
      "éĴ Ł",
      "æĶ¯ æĮģ",
      "æĭ ¥",
      "éĺ ¿",
      "ä¼ł ç»Ł",
      "çī Ľ",
      "å½ ķ",
      "ä¸Ń å¤®",
      "ä¹¦ è®°",
      "æ° §",
      "æĸ Ĺ",
      "çī¹ èī²",
      "æ¶Ī è´¹",
      "ä¹ĭ åĲİ",
      "çŁ¥ éģĵ",
      "åĲ ¬",
      "åº §",
      "æīĢ æľī",
      "èĭ ı",
      "ç§ Ģ",
      "æĦ ¿",
      "çļĦ æĹ¶åĢĻ",
      "äºĨ ä¸Ģ",
      "çĸ¾ çĹħ",
      "çŁ¥ è¯Ĩ",
      "èı ľ",
      "æĴ Ń",
      "ä¸į ä»ħ",
      "ç« ł",
      "æķĪ æŀľ",
      "è¯ »",
      "å¦Ĥ ä½ķ",
      "æ±½ è½¦",
      "æĭ Ľ",
      "ä¹ Ŀ",
      "æĤ ¨",
      "çī¹ åĪ«",
      "æ¬ §",
      "æĿ¡ ä»¶",
      "åĵ ª",
      "æ¤ į",
      "ä¸ļ åĬ¡",
      "åº Ń",
      "å® Ī",
      "ä¿Ŀ æĮģ",
      "æ´ Ĺ",
      "åºĶ è¯¥",
      "è Ľ",
      "è¾¾ åĪ°",
      "é ĸ",
      "çĮ ®",
      "æ ĩ",
      "å»º ç«ĭ",
      "åľ° æĸ¹",
      "çī Ī",
      "åĬ ª",
      "Â ·",
      "ç»ĵ åĲĪ",
      "æĢ ¥",
      "éĢ Ĳ",
      "å± Ĭ",
      "è¿Ľ ä¸ĢæŃ¥",
      "å®ŀ éĻħ",
      "èŃ ¦",
      "èĤ ī",
      "æĪ ı",
      "åĽ °",
      "çĶ ļ",
      "èį ī",
      "äº¿ åħĥ",
      "è´Ł è´£",
      "èģĮ ä¸ļ",
      "æĢ İ",
      "å¤ «",
      "ç² ī",
      "ä»· æł¼",
      "é¢ ĳ",
      "åº ı",
      "æĵ į",
      "å ³",
      "1 00",
      "èº« ä½ĵ",
      "è¿ °",
      "âĢĶ âĢĶ",
      "ä» į",
      "åº Ĭ",
      "æĿ¥ è¯´",
      "å· ¦",
      "çĿ £",
      "åĩ Ģ",
      "å½ ©",
      "è¿ĺ æľī",
      "åĬª åĬĽ",
      "è¿Ļ æĺ¯",
      "åĳ ¢",
      "è· µ",
      "% ,",
      "æıĲ åĩº",
      "æĮģ ç»Ń",
      "èīº æľ¯",
      "åıĸ å¾Ĺ",
      "5 0",
      "ä¹ ħ",
      "è ²",
      "ä¸Ģ èµ·",
      "ä¸į è¦ģ",
      "æİ Ī",
      "è½ ®",
      "åı ³",
      "ä»· åĢ¼",
      "ä» ª",
      "ä¹ °",
      "æĻ Ĥ",
      "åŁ¹ åħ»",
      "ç» į",
      "åħ¨ çĲĥ",
      "éĻ Ī",
      "é£ ŀ",
      "åİŁ åĽł",
      "çĶ ²",
      "å ª",
      "ç µ",
      "æİ ª",
      "ä¹ĭ ä¸Ģ",
      "è¿ ½",
      "ä¼ĺ åĬ¿",
      "ãĢ Į",
      "æ´ ²",
      "è½ ¯",
      "ä¸ ĥ",
      "ä¿ĥ è¿Ľ",
      "éĿ ł",
      "éĺ ¶",
      "æ¯Ķ èµĽ",
      "é ½",
      "æĶ »",
      "é ¤",
      "éĶĢ åĶ®",
      "æĻº èĥ½",
      "ãĢ į",
      "éĴ Ī",
      "åģ ľ",
      "æĪĺ çķ¥",
      "ç¨³ å®ļ",
      "æ¢ °",
      "å¡ ĳ",
      "èĻ½ çĦ¶",
      "ä¸Ĭ æµ·",
      "çĽ´ æİ¥",
      "ç» ©",
      "ä¿Ŀ éļľ",
      "é¡ º",
      "å¸® åĬ©",
      "èĤ ¤",
      "äºº ä»¬",
      "1 8",
      "è®¡ åĪĴ",
      "äºĭ ä¸ļ",
      "æĪĲ åĬŁ",
      "æĽ´ å¤ļ",
      "è¿Ĳ åĬ¨",
      "è´ µ",
      "é£Ł åĵģ",
      "ç´ ¢",
      "è ĸ",
      "å¥ ĭ",
      "æ£Ģ æŁ¥",
      "å¸ Ń",
      "åıª æľī",
      "å® ģ",
      "æ ©",
      "éĴ ±",
      "äº Ī",
      "æĭ¥ æľī",
      "è· Ł",
      "å° ¼",
      "çĻ »",
      "è¿Ľ åħ¥",
      "éĶ ®",
      "åħ ¸",
      "è¯ Ĭ",
      "æķ £",
      "å¥ ĩ",
      "åĨ ²",
      "åıĤ åĬł",
      "å¥ Ĺ",
      "éļı çĿĢ",
      "åħ± åĲĮ",
      "çĪ ¶",
      "èĦ ĳ",
      "ç» ĥ",
      "åĪ ĺ",
      "è¡Į ä¸º",
      "æħ ¢",
      "èı Į",
      "éĢ ı",
      "æķĻ å¸Ī",
      "èĦ ±",
      "çĶŁ æĢģ",
      "é¦ Ĩ",
      "è¯ ī",
      "è½ ½",
      "ä¼ ¼",
      "å§Ķ åĳĺ",
      "è§Ħ åĪĴ",
      "éĢ Ļ",
      "è ĵ",
      "ä¹ĭ éĹ´",
      "éĢ Ģ",
      "ç ¶",
      "æĻ ļ",
      "æ°ĳ æĹı",
      "èį £",
      "è¿ĩç¨ĭ ä¸Ń",
      "çĶļ èĩ³",
      "æ³ Ľ",
      "åıĬ æĹ¶",
      "æī ©",
      "çĶ¨ æĪ·",
      "åħħ åĪĨ",
      "èĲ½ å®ŀ",
      "èĭ ¦",
      "ä» ĺ",
      "ä»ĭ ç»į",
      "éĩĳ èŀį",
      "äº¤ éĢļ",
      "æ³ķ å¾ĭ",
      "é Ń",
      "æĮī çħ§",
      "ä¸¥ éĩį",
      "åģ ĩ",
      "èĨ ľ",
      "åıĳå±ķ çļĦ",
      "æİ ¢",
      "æĿ ¾",
      "çĶµ åŃĲ",
      "çļĦ åıĳå±ķ",
      "åĮ» çĸĹ",
      "éĶ Ļ",
      "æī ĺ",
      "ç½ ª",
      "æĢ§ èĥ½",
      "æ¯ ķ",
      "åı ¶",
      "ç¥ ¨",
      "åĬł å·¥",
      "å¥ ¥",
      "ç¬¬ ä¸ī",
      "åŁ¹ è®Ń",
      "å ĺ",
      "å¨ ģ",
      "æĹħ æ¸¸",
      "æĢ§ çļĦ",
      "åŃ ķ",
      "å® «",
      "è´ ¯",
      "å¾Ĺ åĪ°",
      "æł¸ å¿ĥ",
      "ç»§ ç»Ń",
      "ä»Ĭ å¹´",
      "å» ¶",
      "è ³",
      "åħ³ äºİ",
      "1 6",
      "æ° ¸",
      "ä»» ä½ķ",
      "æĬ ĵ",
      "ä¼ Ł",
      "æľ Ŀ",
      "æīį èĥ½",
      "ä¸Ģ çĽ´",
      "å½ »",
      "åĩı å°ĳ",
      "å© ļ",
      "æĬ¥ åĳĬ",
      "çĽ ĸ",
      "ä¸¤ ä¸ª",
      "åıĳ æĮ¥",
      "èĥ½ æºĲ",
      "èĥ Į",
      "è¶ħ è¿ĩ",
      "äº «",
      "åĢ ĭ",
      "åº Ĩ",
      "å®Į åĸĦ",
      "çģ µ",
      "ä¹ İ",
      "æĿ Ĥ",
      "ç Ĵ",
      "ä¸° å¯Į",
      "åİ ļ",
      "æķ ĳ",
      "éĽ ¨",
      "ä½ ³",
      "è° Ī",
      "åĪĨ éĴŁ",
      "ä»ĸ çļĦ",
      "é² ľ",
      "ç¤¾ä¼ļ ä¸»ä¹ī",
      "éģ¿ åħį",
      "èĥ ¶",
      "è¯ ļ",
      "æĸ¹ æ¡Ī",
      "çĨ Ł",
      "å®ŀ è·µ",
      "åĪ ¤",
      "æ² Ļ",
      "æľ ĭ",
      "ä½ Ľ",
      "ç¦ ģ",
      "ä¸ĵ å®¶",
      "æ ¾",
      "ç ĺ",
      "èĮĥ åĽ´",
      "è¿ İ",
      "å¼ķ èµ·",
      "è§Ħ æ¨¡",
      "% ãĢĤ",
      "èħ Ĳ",
      "èĭ ¥",
      "éĻ Ħ",
      "1 4",
      "ç»ı è¿ĩ",
      "æĢ Ģ",
      "æľª æĿ¥",
      "æĸ½ å·¥",
      "æĮĩ å¯¼",
      "çļĦ å¤§",
      "éª ¨",
      "æŃ Į",
      "èĹ ı",
      "éĩį å¤§",
      "ä¸ĩ åħĥ",
      "åħ³ éĶ®",
      "æ¨¡ å¼ı",
      "ç³» åĪĹ",
      "åª Ĵ",
      "èĻ ĳ",
      "æ¯ Ľ",
      "1 3",
      "ä¸Ń åįİ",
      "é ł",
      "çĲĨ è®º",
      "å° ¤",
      "åıĹ åĪ°",
      "æĪĲ æľ¬",
      "å° ģ",
      "æľº æ¢°",
      "äº ®",
      "å® Ĺ",
      "åıĺ åĮĸ",
      "åĲ ¯",
      "åº Ł",
      "ä¸į åı¯",
      "å®¶ åºŃ",
      "è¡¨ çİ°",
      "åĬĽ éĩı",
      "ä¸Ģ æ¬¡",
      "æľĢ åĲİ",
      "åº ĵ",
      "æĹ ¢",
      "è®¸ å¤ļ",
      "çĶŁ çī©",
      "ç³ ĸ",
      "ä¿Ŀ è¯ģ",
      "å¹´ æĿ¥",
      "ç»ı éªĮ",
      "ç« ¥",
      "éķ¿ æľŁ",
      "çļ® èĤ¤",
      "ä»¥ ä¸ĭ",
      "åıĤ ä¸İ",
      "æĽ ²",
      "å¤ ı",
      "åģļ å¥½",
      "ä¾ Ĩ",
      "ç¡ ¬",
      "åĽł ç´ł",
      "æĭ ¿",
      "è¿ Ŀ",
      "æĪĲ ç«ĭ",
      "ä»¥ æĿ¥",
      "æı ¡",
      "ä½ĵ èĤ²",
      "åĿ Ĺ",
      "çŃ Ķ",
      "èµ· æĿ¥",
      "æľĭ åıĭ",
      "éĿ Ļ",
      "åĪ ļ",
      "çĥ Ī",
      "ç ĳ",
      "çļĦ éĩįè¦ģ",
      "éĽ ¶",
      "éģ Ĺ",
      "é£İ éĻ©",
      "æ¥ ¼",
      "èģĶ ç½ĳ",
      "æĿ ¯",
      "çĬ ¯",
      "ä¸Ģ ç§į",
      "äº¤ æµģ",
      "ä»» åĬ¡",
      "çłĶ åıĳ",
      "ç¾¤ ä¼Ĺ",
      "æ£Ģ æµĭ",
      "æĪĳ çļĦ",
      "è¡Į æĶ¿",
      "é ±",
      "æ¶ ¦",
      "æĺ¯ä¸Ģ ç§į",
      "æľī çļĦ",
      "åºĶ å½ĵ",
      "éĹ »",
      "èĥ ŀ",
      "æİª æĸ½",
      "æ´ ģ",
      "çĸ ĳ",
      "ç©º éĹ´",
      "éĵ ¾",
      "ä¸ ½",
      "ç«ŀ äºī",
      "å® ľ",
      "ç ¹",
      "åħĪ è¿Ľ",
      "å¦ ĩ",
      "è´ ¸",
      "ä¸Ģ æł·",
      "è¿ĳ å¹³",
      "é± ¼",
      "éĻį ä½İ",
      "æ¶ Ĥ",
      "çī¹ çĤ¹",
      "æ¶ ī",
      "å· Ŀ",
      "ç¬ ¦",
      "çŁ ¿",
      "å¹¿ æ³Ľ",
      "ä¹ł è¿ĳå¹³",
      "æŀ ¶",
      "åĨ³ å®ļ",
      "èĦ Ĥ",
      "æĵį ä½ľ",
      "åħ· ä½ĵ",
      "é¡ ¾",
      "è Ķ",
      ") ãĢģ",
      "çĸ« æĥħ",
      "åĬ³ åĬ¨",
      "å¹² éĥ¨",
      "æĢİ ä¹Ī",
      "éĺ¶ æ®µ",
      "å¹ ¸",
      "åį« çĶŁ",
      "åĢ Ł",
      "æ±¡ æŁĵ",
      "æĺ¯ åľ¨",
      "åĨ Į",
      "æĺ¾ ç¤º",
      "æŃ£ å¸¸",
      "çĥ Ł",
      ") ãĢĤ",
      "åĪ º",
      "æľŁ éĹ´",
      "å· ¨",
      "çĩ ĥ",
      "æ¹ ¿",
      "ä¸ Ŀ",
      "å®£ ä¼ł",
      "æ´ ¾",
      "å¢ŀ å¼º",
      "æ·± åħ¥",
      "ä¼ĺ ç§Ģ",
      "åĬ ±",
      "èĩª åĬ¨",
      "éĿ¢ ç§¯",
      "æİ¥ åıĹ",
      "é¤ Ĳ",
      "æ¸ Ĳ",
      "âĢĿ ãĢģ",
      "éĵ¶ è¡Į",
      "çİ ©",
      "æ· ·",
      "è° ¢",
      "åĨľ ä¸ļ",
      "éĺ ´",
      "çī© è´¨",
      "è´ «",
      "ç»ĵ æŀľ",
      "ä½ł çļĦ",
      "é¥ °",
      "çĹĩ çĬ¶",
      "ç´ ¯",
      "å»º è®®",
      "æĦı è¯Ĩ",
      "ç¤ ¼",
      "ãĢĭ ,",
      "çļĦ é«ĺ",
      "çŃ ¾",
      "éļ Ķ",
      "å¤ ľ",
      "èĽ ĭ",
      "ä¼ ĳ",
      "ç»´ æĬ¤",
      "æĹł æ³ķ",
      "æĸ¹ åĲĳ",
      "å·¥ èīº",
      "åıĳ å¸ĥ",
      "å°± ä¼ļ",
      "ä»İ èĢĮ",
      "æĶ¶ åħ¥",
      "é ¹",
      "æĦı ä¹ī",
      "ä¸į è¿ĩ",
      "è®¾ æĸ½",
      "1 7",
      "æ± ł",
      "00 0",
      "çļĦ äºĭ",
      "æĮĩ åĩº",
      "åĲ ī",
      "åĤ ¨",
      "2 5",
      "æĺ¯ åĲ¦",
      "ç¢ ³",
      "åİĭ åĬĽ",
      "è´ ¥",
      "ä¹Ł æľī",
      "è ļ",
      "å¹¶ ä¸Ķ",
      "æĪĳä»¬ çļĦ",
      "åł Ĥ",
      "åĳĺ å·¥",
      "å½¢ å¼ı",
      "çĲĨ å¿µ",
      "é£Ł çī©",
      "æ¡ ¥",
      "æī ¬",
      "çĶ³ è¯·",
      "åĮº åŁŁ",
      "çĽ Ł",
      "å¿« éĢŁ",
      "å®ŀ éªĮ",
      "ç® ±",
      "å¿ĥ çĲĨ",
      "éľ ²",
      "æĺİ ç¡®",
      "çļ ĩ",
      "è®° èĢħ",
      "ç© ¿",
      "çĶ °",
      "è® ¿",
      "åİ ħ",
      "åĽ¢ éĺŁ",
      "çİ° åľº",
      "å¼ ±",
      "è ľ",
      "4 0",
      "èµĦ éĩĳ",
      "åĩ Ŀ",
      "è¡ £",
      "æİ Į",
      "çº ¸",
      "åľ ĭ",
      "æĿ Ģ",
      "ç£ ¨",
      "çĽ Ľ",
      "è· Ŀ",
      "åĲ Ĺ",
      "è§ ¦",
      "è ¸",
      "å®Į åħ¨",
      "é«ĺ çļĦ",
      "çİ ī",
      "æ» ĳ",
      "çĶµ å½±",
      "ä¼ ´",
      "èĤ ¥",
      "çľĭ åĪ°",
      "å° ļ",
      "æĺİ æĺ¾",
      "èĪ ŀ",
      "è®¡ ç®Ĺ",
      "åħļ åĳĺ",
      "æĹ¥ æľ¬",
      "ç®Ģ åįķ",
      "ç¨ĭ åº¦",
      "çĽĳ çĿ£",
      "ç¡® ä¿Ŀ",
      "æĪĲ æŀľ",
      "ä½ľ åĵģ",
      "çĽ ĺ",
      "æ¸¸ æĪı",
      "ãĢĤ âĢľ",
      "å¤§ éĩı",
      "åĪĽ éĢł",
      "çĶŁ åĳ½",
      "è§Ħ èĮĥ",
      "åħ¶ å®ŀ",
      "æ¸© åº¦",
      "é½ Ĳ",
      "å¸ Ŀ",
      "éĩ Ĭ",
      "å ´",
      "ç½ĳ ç«Ļ",
      "å° į",
      "æ»¡ è¶³",
      "å¼Ģ æĶ¾",
      "çİ¯ ä¿Ŀ",
      "çĦ¶ åĲİ",
      "ä¸į å¾Ĺ",
      "åĨ ¬",
      "è¯ ¢",
      "æľº åĪ¶",
      "åĲĪ çĲĨ",
      "è ©",
      "ç¼ ©",
      "æī§ è¡Į",
      "å¸ ģ",
      "çļĦ å·¥ä½ľ",
      "å½ Ĵ",
      "å¹ ħ",
      "èĩª èº«",
      "çļĦ æĥħåĨµ",
      "åįģ åĪĨ",
      "èģĶ åĲĪ",
      "éĺ »",
      "éĽ ·",
      "äºº ç±»",
      "åŃ ¸",
      "èĦ ļ",
      "æļ ĸ",
      "åħ µ",
      "éĻ¤ äºĨ",
      "æĳ Ħ",
      "è¯ Ĺ",
      "èī¯ å¥½çļĦ",
      "å² Ĺ",
      "åĩº äºĨ",
      "åĭ ĩ",
      "ç»Ĩ èĥŀ",
      "éģ İ",
      "åĢ ĳ",
      "6 0",
      "è°ĥ æķ´",
      "è´ ¡",
      "åĿ ı",
      "é¡ ¶",
      "çĻ ¼",
      "éĽ Ħ",
      "çļĦ è¯Ŀ",
      "å·¦ åı³",
      "è¡Į åĬ¨",
      "åĳ ¼",
      "éĢ Ķ",
      "åŁº åľ°",
      "åĮĸ çļĦ",
      "å¥³ æĢ§",
      "åĪĨ åĪ«",
      "è´¯ å½»",
      "20 20",
      "å³ °",
      "æĿ ¨",
      "å®ī è£ħ",
      "è® ¨",
      "åĸľ æ¬¢",
      "- -",
      "ç¼ ĵ",
      "é¼ ĵ",
      "éĩįè¦ģ çļĦ",
      "æ¯Ķ å¦Ĥ",
      "è¿Ĳ è¡Į",
      "çĬ¶ æĢģ",
      "äº¤ æĺĵ",
      "åħ³ æ³¨",
      "çī Ļ",
      "è¡¨ éĿ¢",
      "æĮ ĳ",
      "çļĦ æĸ°",
      "èª ī",
      "ç»Ł ä¸Ģ",
      "ç©º æ°Ķ",
      "æīĵ éĢł",
      "å² Ľ",
      "è¯ į",
      "åģ ı",
      "å¦ Ī",
      "ä¸» ä»»",
      "èĢĥ èĻĳ",
      "ç»¿ èī²",
      "æĺ¯ ä¸Ģä¸ª",
      "è¿Ļ éĩĮ",
      "ä¹ ³",
      "ä¸¥ æł¼",
      "ä½ĵ çļĦ",
      "ç¬ ĳ",
      "çł ģ",
      "åĢ Ĵ",
      "åį Ī",
      "å§Ķåĳĺ ä¼ļ",
      "æ³ ¡",
      "åı «",
      "æ¯ķ ä¸ļ",
      "çļĦ éĹ®é¢ĺ",
      "æĸĩ æĺİ",
      "åĮĸ åŃ¦",
      "èį¯ çī©",
      "ç¬¦ åĲĪ",
      "èĻ ļ",
      "æ¦ Ĥ",
      "å°¤ åħ¶",
      "ç»ı å¸¸",
      "æľº åħ³",
      "åħ¬ åħ±",
      "çģ ¾",
      "æħ §",
      "éĽ ª",
      "å¸¦ æĿ¥",
      "å¡ Ķ",
      "è¯ ¯",
      "éĥ½ æľī",
      "ç½ ²",
      "èĢģ å¸Ī",
      "ä¹Ł ä¸į",
      "2 4",
      "æ± ĩ",
      "è¡ Ĺ",
      "çģ ¯",
      "æĸ ĳ",
      "ä»Ĭ å¤©",
      "è¶Ĭ æĿ¥",
      "ç§ĳ çłĶ",
      "çĥ §",
      "æŃ¤ å¤ĸ",
      "æ´ ĭ",
      "ä¿Ŀ éĻ©",
      "è¶ĬæĿ¥ è¶Ĭ",
      "åģļ åĪ°",
      "ç¬ Ķ",
      "åŁº éĩĳ",
      "å¾ ª",
      "åĬł å¿«",
      "åĲ §",
      "å±ŀ äºİ",
      "ç»Ħ æĪĲ",
      "ä¸įåĲĮ çļĦ",
      "æĦŁ æŁĵ",
      "æĿ Ł",
      "å°ı æĹ¶",
      "æģ ¶",
      "å° ¿",
      "æĮ ¯",
      "åı¥ è¯Ŀ",
      "åĪ¶ ä½ľ",
      "æ³¨ åĨĮ",
      "æĻ® éĢļ",
      "éĩĳ å±ŀ",
      "åĿ Ĳ",
      "åľ Ĩ",
      "ç½ ļ",
      "æķ ı",
      "æķ° åŃĹ",
      "è® ¢",
      "éĿĴ å¹´",
      "èĪ ĩ",
      "æ² ī",
      "202 1",
      "ç§ ģ",
      "çĶŁ çļĦ",
      "æŃ£ åľ¨",
      "19 9",
      "åıª æĺ¯",
      "æ³ °",
      "ç§ ĭ",
      "æ½ ®",
      "äºĴ èģĶç½ĳ",
      "æĭ į",
      "ä¸ĭ éĻį",
      "è´¡ çĮ®",
      "æĿ¥ çľĭ",
      "è¿Ĳ è¾ĵ",
      "è¶ £",
      "æ® Ĭ",
      "é¦ĸ åħĪ",
      "çº ·",
      "çĻ Į",
      "è°ĥ æŁ¥",
      "èĲ¥ åħ»",
      "å¡ ŀ",
      "æķĪ çİĩ",
      "å¢ Ļ",
      "åĳ Ī",
      "ç¹ ģ",
      "è®¤ çľŁ",
      "æľī äºĽ",
      "éĻ Ĩ",
      "æĪĲ ç»©",
      "ä¸º ä¸»",
      "è¾ Ĩ",
      "äºĶ è¡Į",
      "æ¥ Ń",
      "åĦ¿ ç«¥",
      "å «",
      "çĽ® çļĦ",
      "æĹ¶ æľŁ",
      "åĨ °",
      "æľ «",
      "æ£ ®",
      "è± Ĩ",
      "è¡ ¡",
      "æ°§ åĮĸ",
      "å® ½",
      "æĸ° æĹ¶ä»£",
      "åħļ å§Ķ",
      "åİŁ åĪĻ",
      "æľº ä¼ļ",
      "ä¹ĭ åīį",
      "æļ ´",
      "åªĴ ä½ĵ",
      "åĵ Ī",
      "çľŁ æŃ£",
      "åĨľ æĿĳ",
      "æĺ ł",
      "æĦı è§ģ",
      "æľĢ ç»Ī",
      "èĥ ĥ",
      "éĴĪ å¯¹",
      "åĪ ĳ",
      "è´ ´",
      "æ´ ¥",
      "ç¡® å®ļ",
      "æĶ¹ åıĺ",
      "çħ ¤",
      "çĪ Ĩ",
      "å¾ Ħ",
      "çİ »",
      "åĬŀ åħ¬",
      "åŃ Ķ",
      "a n",
      "é¢ ľ",
      "è®¤ è¯Ĩ",
      "ä¼ į",
      "éĩ İ",
      "åį µ",
      "åĶ Ĳ",
      "ç¥ ĸ",
      "æ¾ ³",
      "åŃ¦ ç§ĳ",
      "æ¢ ħ",
      "å¯ ¿",
      "_ _",
      "8 0",
      "çĿ ¡",
      "åı¦ å¤ĸ",
      "æķħ äºĭ",
      "æķ´ ä¸ª",
      "201 9",
      "ä¹ Ļ",
      "åĪ¶ å®ļ",
      "ç§ ĺ",
      "å°± ä¸ļ",
      "éĢŁ åº¦",
      "çº ¯",
      "è· ¨",
      "æĭ ĵ",
      "ä¹Ł ä¼ļ",
      "éļ Ĳ",
      "è ¼",
      "å¹¿ å¤§",
      "æķ´ ä½ĵ",
      "ä¸Ģ ä¸ĭ",
      "çĴ ĥ",
      "æµ ĵ",
      "å¯ »",
      "æ¢ ģ",
      "æĥ ł",
      "åĬĽ çļĦ",
      "çĦ ¦",
      "é¾ Ħ",
      "éĿ¢ å¯¹",
      "èĪ ¹",
      "2 3",
      "èĢ Ĺ",
      "åıª è¦ģ",
      "äºĮ åįģ",
      "èµĦ äº§",
      "çĽ Ĳ",
      "è¯¾ ç¨ĭ",
      "èĢĥ è¯ķ",
      "åĢ į",
      "æĶ¹ åĸĦ",
      "æĢ ķ",
      "éĽĨ ä¸Ń",
      "å¯ Ĵ",
      "ç¶ ĵ",
      "çī© æµģ",
      "åı ¬",
      "éŁ ©",
      "åįı ä¼ļ",
      "æ³ ¥",
      "æĸ ¼",
      "åį ĸ",
      "ä¼ °",
      "æ²» çĲĨ",
      "ä»İ äºĭ",
      "å¹ ķ",
      "çī ¢",
      "åĩº çļĦ",
      "åĸ Ŀ",
      "éº »",
      "åħ± äº§",
      "æ¶Īè´¹ èĢħ",
      "æĸ¹ ä¾¿",
      "åĲİ çļĦ",
      "ä¾Ŀ æ³ķ",
      "å¹¶ ä¸į",
      "åķĨ ä¸ļ",
      "201 8",
      "æľī ä¸Ģ",
      "ç¯ ĩ",
      "ç» ķ",
      "æī ¶",
      "èĳ £",
      "ä¾ §",
      "æł¹ æľ¬",
      "æĬ ĺ",
      "å¦Ĥ æŃ¤",
      "ç§ Ł",
      "è¿Ļæł· çļĦ",
      "âĢĿãĢģ âĢľ",
      "2 1",
      "ä¹ ±",
      "çİ» çĴĥ",
      "åĽ° éļ¾",
      "é¦Ļ æ¸¯",
      "åĪĽ ä¸ļ",
      "æİ ī",
      "éĢĤ åĲĪ",
      "å± ĭ",
      "åħ¨ éĥ¨",
      "å° Ĭ",
      "éģĵ è·¯",
      "åĭ ķ",
      "æģ ¢",
      "æ¥ ļ",
      "è¿ĩ åİ»",
      "éģ į",
      "èĤ ¿",
      "å¾ Į",
      "èµ ¢",
      "ä¿ Ħ",
      "å¼º è°ĥ",
      "éĵ Ŀ",
      "å¤ļ çļĦ",
      "çı ¾",
      "æĹ Ĺ",
      "å¥ ¶",
      "èĢ ³",
      "å·¥ä½ľ çļĦ",
      "éĿ© åĳ½",
      "éĩį è§Ĩ",
      "åıį åºĶ",
      "æĹ §",
      "äº ¡",
      "åĬŀ æ³ķ",
      "ä¸į å°ĳ",
      "å½ĵ æĹ¶",
      "ãĢģ ãĢĬ",
      "æĥ ¯",
      "éĹ Ń",
      "éĺ µ",
      "æĬĢ èĥ½",
      "æĹ¥ å¸¸",
      "æº ¶",
      "èĴ Ļ",
      "åľ Ī",
      "å¤ļ ç§į",
      "ä¸Ģå®ļ è¦ģ",
      "å½ĵ åľ°",
      "2 2",
      "æ² Ł",
      "202 2",
      "å§ĭ ç»Ī",
      "çĶµ è§Ĩ",
      "ç¾İ åħĥ",
      "ä¼ Ĭ",
      "æĦŁ è§ī",
      "åĲ ¨",
      "æŃ£ ç¡®",
      "è¿Ĳ èĲ¥",
      "çī¹ æ®Ĭ",
      "èĥ İ",
      "æĿ¥ èĩª",
      "ä¸ª æľĪ",
      "è· ĳ",
      "è´¹ çĶ¨",
      "è¯ º",
      "é«ĺ è´¨éĩı",
      "æ¡ £",
      "æ² ¿",
      "çĲĨ è§£",
      "æģ ©",
      "é ī",
      "ä¸Ģå®ļ çļĦ",
      "æµ ª",
      "çĽ¸ å¯¹",
      "éĥ½ ä¼ļ",
      "è¯ ¦",
      "éĩĩ åıĸ",
      "éĢļ å¸¸",
      "è¦ Ĩ",
      "èĥ ¡",
      "èĤ º",
      "çĲĥ éĺŁ",
      "æĻº æħ§",
      "ä¼ģä¸ļ çļĦ",
      "è¿ ·",
      "èĤ ¯",
      "åĩĨ å¤ĩ",
      "èĤ Ŀ",
      "èĤ ł",
      "èħ ¹",
      "æĪ ª",
      "ä¾ µ",
      "ç² Ĵ",
      "çĽ¸ ä¿¡",
      "å¼º åĮĸ",
      "è¶ ĭ",
      "åĲĦ ç±»",
      "ç¯ ®",
      "çŃ ¹",
      "åĮħ è£ħ",
      "ç¼ ĺ",
      "çĽĳ ç®¡",
      "é¥® é£Ł",
      "è½¯ ä»¶",
      "èĲ ¨",
      "çª Ĺ",
      "é¸ ¡",
      "éľ ĩ",
      "èģĶ ç³»",
      "ä¸Ń åĮ»",
      "æģ¢ å¤į",
      "é«ĺ åº¦",
      "çİ° è±¡",
      "± ä¹Ĳ",
      "æķĻ æİĪ",
      "å®ĥ çļĦ",
      "å¼ ¹",
      "è¿ ħ",
      "å¤§ ä¼ļ",
      "7 0",
      "å®ī æİĴ",
      "éĨ Ĵ",
      "é«ĺ æł¡",
      "çĵ ¦",
      "åŃ Ļ",
      "é¢Ħ éĺ²",
      "è´¨ çļĦ",
      "æŃ¤ æ¬¡",
      "åĩº åı£",
      "åĲĦ é¡¹",
      "å¿ ĺ",
      "å±± ä¸ľ",
      "æŃ£ å¼ı",
      "æ¯ı å¤©",
      "å¥ĭ æĸĹ",
      "èĤ Į",
      "ç² ĺ",
      "æ³ ½",
      "é« Ķ",
      "å¹ ¼",
      "èµĦ æľ¬",
      "éī ´",
      "åħ· å¤ĩ",
      "« çĹ",
      "è¾ ħ",
      "èĩª çĶ±",
      "åĪ ·",
      "ç ŀ",
      "çİ°ä»£ åĮĸ",
      "æı ´",
      "ä¸ľ è¥¿",
      "æ¯ «",
      "åĮ» çĶŁ",
      "èŀį åĲĪ",
      "ãĢ Ĳ",
      "åħ ¼",
      "åĪ ¸",
      "ãĢ ĳ",
      "ä¸» é¢ĺ",
      "ä» ģ",
      "åıĮ æĸ¹",
      "åĲĮ å¿Ĺ",
      "2 8",
      "è§ī å¾Ĺ",
      "éķ ľ",
      "æ® ĸ",
      "æ½ ľ",
      "æī İ",
      "ä¾Ľ åºĶ",
      "å° ĺ",
      "ç« Ł",
      "èµ µ",
      "å¤§ å¤ļ",
      "æ´ Ľ",
      "èĢĮ æĺ¯",
      "éŁ³ ä¹Ĳ",
      "ä¸į è¶³",
      "æĬķ åħ¥",
      "åĴ ¨",
      "æ¤į çī©",
      "è¯ ¸",
      "åĢ º",
      "åķĨ åĵģ",
      "åĲĪ åĲĮ",
      "ç¿ »",
      "éĽ ħ",
      "åĪĨ ä¸º",
      "ä¸ŃåĽ½ çī¹èī²",
      "çĶ ĺ",
      "åį ·",
      "ä¸ĭ æĿ¥",
      "åĪ© çĽĬ",
      "å¹³ æĸ¹",
      "æķ ¬",
      "éĶ ħ",
      "èª ª",
      "çĤ ¼",
      "i n",
      "å¹¸ ç¦ı",
      "éĺ² æŃ¢",
      "æ¹ ¾",
      "æĽ¾ ç»ı",
      "åĬ¨ åĬĽ",
      "èĭ Ĺ",
      "èĵ Ŀ",
      "åħ¬ éĩĮ",
      "æĹł è®º",
      "æ© Ł",
      "åľ ³",
      "æīĭ æľ¯",
      "åĶ ¯",
      "è° ĵ",
      "è£ ģ",
      "åĲĮ æ¯Ķ",
      "äºº ä½ĵ",
      "çĪ¶ æ¯į",
      "åĩº æĿ¥",
      "è§Ĩ é¢ĳ",
      "«çĹ «",
      "çĻ «çĹ«",
      "æĲ Ń",
      "ä¸į åĪ°",
      "æ· ¡",
      "åĲ ´",
      "æ·± åľ³",
      "èģĮ å·¥",
      "éķ ·",
      "ä½į äºİ",
      "èĦ ī",
      "ä¸Ģ åĪĩ",
      "éĺŁ ä¼į",
      "çº ¤",
      "åĬł åħ¥",
      "æĳ ©",
      "é² ģ",
      "åĨħ çļĦ",
      "è¯´ è¿ĩ",
      "ä¹ Į",
      "å¹¿ ä¸ľ",
      "èµĦ æĸĻ",
      "ç¤¾ åĮº",
      "å¿ħ è¦ģ",
      "2 6",
      "åĭ ¤",
      "åĨį æ¬¡",
      "æł· çļĦ",
      "æµ Ļ",
      "åĴ¨ è¯¢",
      "è´ ·",
      "æĢ§ åĴĮ",
      "æĸ° éĹ»",
      "æķ ¢",
      "ä¹ł æĥ¯",
      "ä¸´ åºĬ",
      "è¾ Ľ",
      "åĮ» åŃ¦",
      "è¿ ª",
      "æ¶ ¨",
      "å½ĵ çĦ¶",
      "è° ģ",
      "è´¸ æĺĵ",
      "ä»¥ åĲİ",
      "åĵª äºĽ",
      "æķ° éĩı",
      "ç ·",
      "æĢ» ä¹¦è®°",
      "æľī æīĢ",
      "é¥ Ń",
      "ä¹ ı",
      "ä½ĵ çİ°",
      "ä½į ç½®",
      "201 7",
      "çĶŁ ç´ł",
      "å®ĥ ä»¬",
      "çĻ £",
      "è½ ´",
      "èħ º",
      "æī© å¤§",
      "Â °",
      "çļĦ å°ı",
      "å¢ ¨",
      "æľī æľº",
      "äº ¦",
      "ä¼Ł å¤§",
      "çĦ¶ èĢĮ",
      "æŀĦ å»º",
      "çŃī æĸ¹éĿ¢",
      "æīĭ æľº",
      "æĽ ¿",
      "ä¸ ģ",
      "ãĢĭ ãĢģãĢĬ",
      "ç¬¬ åįģ",
      "æľ Ĺ",
      "çĹħ æ¯Ĵ",
      "åĩ ¡",
      "è¯Ħ ä»·",
      "æĽ´ å¥½",
      "çĳ ŀ",
      "ä¹ ĺ",
      "éģ µ",
      "æĤ ī",
      "ç¨ĭ åºı",
      "èĸ Ħ",
      "ä¸» åĬ¨",
      "å© ´",
      "éĢĲ æ¸Ĳ",
      "åĵ ¥",
      "å® ĭ",
      "è§ Ī",
      "æĪĲ éķ¿",
      "äº§åĵģ çļĦ",
      "è¿Ľè¡Į äºĨ",
      "èļ Ģ",
      "è£ Ĥ",
      "ä¿ Ĺ",
      "åĶ ±",
      "è «",
      "å½¢ è±¡",
      "åľŁ åľ°",
      "å£ ®",
      "å¤ļ ä¸ª",
      "åı¦ ä¸Ģ",
      "çīĽ çļ®",
      "çļĦ ä¸»è¦ģ",
      "ä¹Ł åı¯ä»¥",
      "ç´ «",
      "è¿ŀ ç»Ń",
      "èģ ĺ",
      "é¡ ¿",
      "åĪº æ¿Ģ",
      "åĸ ·",
      "å¤§ åŀĭ",
      "éĢĤ åºĶ",
      "æ® ĭ",
      "èµĽ åŃ£",
      "å¤ º",
      "çļĦ ä½ľçĶ¨",
      "çªģ çł´",
      "æĬ µ",
      "ç» ª",
      "èĩª æĪĳ",
      "èµĦ æł¼",
      "2 7",
      "æ· »",
      "åº Ħ",
      "æĽ ¼",
      "çı ł",
      "æľĢ å¤§çļĦ",
      "ä¸» å¸Ń",
      "èĪ Ĵ",
      "å¾Ģ å¾Ģ",
      "è° ·",
      "æ¯ı ä¸ª",
      "æ¶ µ",
      "ç¬¬ åĽĽ",
      "è¿Ļ åı¥è¯Ŀ",
      "å¼ ĥ",
      "èĽĭ çĻ½",
      "è¿ ¹",
      "åĲĮ åŃ¦",
      "æĥ Ĭ",
      "ç¤º èĮĥ",
      "å¼º åº¦",
      "æľĢ å¤§",
      "åľ £",
      "å¤Ħ äºİ",
      "ä¼ĺ åĮĸ",
      "ç¥ Ŀ",
      "å¦ »",
      "åĵģ è´¨",
      "æĭ Ł",
      "ä¸ĸ çºª",
      "å¼ Ł",
      "åİĤ å®¶",
      "å¼ķ å¯¼",
      "æ° ı",
      "èĦ ı",
      "åįĩ çº§",
      "å¤į æĿĤ",
      "éĥ ĳ",
      "æĥ³ è¦ģ",
      "ä»į çĦ¶",
      "çĹħ æĥħ",
      "è¯´ æĺİ",
      "æİĮ æı¡",
      "çĬ¯ ç½ª",
      "æī¿ æĭħ",
      "æĬ¥ éģĵ",
      "åĿļ å®ļ",
      "çĺ ¤",
      "çļĦ å½±åĵį",
      "5 00",
      "æĹ ¦",
      "ä¸º ä»Ģä¹Ī",
      "ä¸ĭ çļĦ",
      "ä¾ĭ å¦Ĥ",
      "æĬ ½",
      "è¿ĺ è¦ģ",
      "åĳĬ è¯ī",
      "äºº åı£",
      "æģ Ĵ",
      "ä»ĸä»¬ çļĦ",
      "åģ ¿",
      "åħį çĸ«",
      "æľī äºĨ",
      "éĵ ľ",
      "çªģ åĩº",
      "é© ¾",
      "ä¼ ¦",
      "éĸ ĵ",
      "å¹¿ å·ŀ",
      "å®ŀ åĬĽ",
      "ä¼ Ļ",
      "æ¶ī åıĬ",
      "æĺ¯ ä»Ģä¹Ī",
      "è´Ń ä¹°",
      "æĿ °",
      "æµ ®",
      "æ·± åĪ»",
      "åı¯èĥ½ ä¼ļ",
      "æ §",
      "ç»Ł è®¡",
      "éĤ£ äºĽ",
      "å® ĩ",
      "çīĽçļ® çĻ£",
      "ä½ĵ éªĮ",
      "æ¼ «",
      "æĪĲ åĳĺ",
      "èİ «",
      "çĲĨ æĥ³",
      "æľī äºº",
      "åĨħ éĥ¨",
      "åĩ Ń",
      "çĦ ¡",
      "å¡ĳ æĸĻ",
      "å» ī",
      "èĬĤ èĥ½",
      "åĮĸ å·¥",
      "å¹´ åº¦",
      "ä¸ŃåĽ½çī¹èī² ç¤¾ä¼ļä¸»ä¹ī",
      "åįı è°ĥ",
      "è¯ģ æĺİ",
      "èĦ ¸",
      "å±ķ ç¤º",
      "åıª èĥ½",
      "æĪĲ äºĨ",
      "éĶ ĭ",
      "ä¸Ĭ å¸Ĥ",
      "åĪ© äºİ",
      "åħ¬ å¼Ģ",
      "è® ¯",
      "çĶ¨ çļĦ",
      "çĮ ª",
      "åĪ Ģ",
      "æľ¬ æ¬¡",
      "å± ¥",
      "å±ħ æ°ĳ",
      "çķ ¶",
      "çī¹åĪ« æĺ¯",
      "å¸¸ è§ģ",
      "æľĢ é«ĺ",
      "å¯ ¦",
      "å£ ģ",
      "èĻ «",
      "å¿ ł",
      "å§ ĵ",
      "éĢ ²",
      "çĽ¸ æ¯Ķ",
      "å¾ Ĳ",
      "è° ĭ",
      "é«ĺ éĢŁ",
      "æĮĳ æĪĺ",
      "9 0",
      "éĩı çļĦ",
      "æĸĩ ä»¶",
      "åĲ« æľī",
      "æľ ±",
      "æĻ ¶",
      "ä¸Ģ ä½ĵ",
      "è´¢ æĶ¿",
      "ç§° ä¸º",
      "é¢Ĩ åħĪ",
      "æµĻ æ±Ł",
      "æ± ¤",
      "æ» ¤",
      "ä¸ī ä¸ª",
      "ç´ł è´¨",
      "çģ °",
      "å²Ĺ ä½į",
      "çİ° å®ŀ",
      "éĹ ľ",
      "çı į",
      "èĴ ¸",
      "ä¸ ¹",
      "éĥ¨ ç½²",
      "3 5",
      "æľī çĿĢ",
      "åİ» å¹´",
      "å± ı",
      "æľº åĻ¨",
      "å¹´ è½»",
      "éģ Ń",
      "äºĭ ä»¶",
      "è¿Ľ æŃ¥",
      "è¿½ æ±Ĥ",
      "èĩª ä¸»",
      "æ° ¨",
      "æ³ ī",
      "æĢĿ èĢĥ",
      "å· §",
      "åħ §",
      "èī¯ å¥½",
      "æĪ ´",
      "å®¶ éķ¿",
      "è´Łè´£ äºº",
      "èĳ£ äºĭ",
      "æİ¢ ç´¢",
      "ç¢ į",
      "çģ Ń",
      "æİ¥ è§¦",
      "èħ Ķ",
      "ä¸Ģ å¹´",
      "æ·± åĮĸ",
      "æĭ ľ",
      "è§Ĵ åº¦",
      "åĪĨ åŃĲ",
      "éĸ ĭ",
      "ä¸¾ åĬŀ",
      ") (",
      "åĽ½ åĬ¡",
      "æĶ¯ ä»ĺ",
      "åĬ¨ çī©",
      "å½ĵ åīį",
      "æĺ Į",
      "ç£ ģ",
      "åľ° ä½į",
      "æĮ Ĥ",
      "å¼º çļĦ",
      "è¿ħ éĢŁ",
      "åħĪ çĶŁ",
      "æİ¨ å¹¿",
      "çĩ ¥",
      "çŃī çŃī",
      "å¾ª çİ¯",
      "ç¾ Ĭ",
      "çĶµ æ±ł",
      "è »",
      "ä½¿ åĳ½",
      "èĤ¡ ä»½",
      "åŃ¦ æľ¯",
      "å¦Ĥ ä»Ĭ",
      "ç¨ ®",
      "201 6",
      "çĶŁæ´» ä¸Ń",
      "ç»ı çĲĨ",
      "çļĦ æĹ¶éĹ´",
      "çļĦ åŁºç¡Ģ",
      "ä¼ł æĴŃ",
      "èĤ ¾",
      "ç±» åŀĭ",
      "åħ±äº§ åħļ",
      "èį ·",
      "åĺ ī",
      "å± ĳ",
      "æ³ķ éĻ¢",
      "æĢ» ç»ĵ",
      "å² ¸",
      "æ¬ ²",
      "åħ¨ ä½ĵ",
      "æĩ ī",
      "è¯ķ éªĮ",
      "2 9",
      "è¿Ĳ çĶ¨",
      "ç² ®",
      "å¤§ åĬĽ",
      "åĩº çĶŁ",
      "æĬ ĳ",
      "ç»ı åİĨ",
      "å¹³ åĿĩ",
      "æ¯ı å¹´",
      "åıĬ åħ¶",
      "åĨł åĨĽ",
      "åħ¬åı¸ çļĦ",
      "å°¤åħ¶ æĺ¯",
      "åĽĽ å·Ŀ",
      "çĲĥ åĳĺ",
      "çĶŁ éķ¿",
      "è´ Ŀ",
      "æĴ ĳ",
      "éĽ »",
      "çļĦ æ²»çĸĹ",
      "æĹ º",
      "ç»ĵ æĿŁ",
      "è¯Ń è¨Ģ",
      "é» ĺ",
      "ä¸¾ è¡Į",
      "æ²³ åįĹ",
      "è´ ¦",
      "éĤ Ħ",
      "ç»´ çĶŁç´ł",
      "å§ Ĩ",
      "éĿ¢ ä¸´",
      "çĭ¬ ç«ĭ",
      "è®Ń ç»ĥ",
      "èĢĮ è¨Ģ",
      "ä¹ĭéĹ´ çļĦ",
      "è¿Ļä¸ª éĹ®é¢ĺ",
      "éĺ ħ",
      "äºº å·¥",
      "äºĭ æķħ",
      "æĦ Ī",
      "åĽ½åĬ¡ éĻ¢",
      "åĲĦ åľ°",
      "åĿ Ģ",
      "çĽ¸ å½ĵ",
      "è®¾ ç½®",
      "åį± å®³",
      "å°± åı¯ä»¥",
      "çĥ ¯",
      "éĻ ¶",
      "æħ İ",
      "èĢħ çļĦ",
      "ä¸» ä½ĵ",
      "è½ ¨",
      "ç§ ¦",
      "äºĭ æĥħ",
      "çĶ ¢",
      "åĲ Ľ",
      "åĲ¸ å¼ķ",
      "äºº å£«",
      "æĭ Ĵ",
      "è§Ĥ ä¼Ĺ",
      "å¤ª éĺ³",
      "åį³ ä½¿",
      "éĿ¢ çļĦ",
      "å® ı",
      "æĥħ ç»ª",
      "æĺ¯ æĮĩ",
      "çĽ¸ åºĶ",
      "éħį åĲĪ",
      "åĽ´ ç»ķ",
      "åŁº å±Ĥ",
      "ä¼ ¯",
      "åĢ¼ å¾Ĺ",
      "èµ ŀ",
      "çŁ¥ åĲį",
      "è¿ĳ å¹´æĿ¥",
      "o n",
      "éĩį åºĨ",
      "æŁ Ķ",
      "æ¡ ĥ",
      "è± ª",
      "ä¸Ń å°ı",
      "é¢ Ĺ",
      "ä¿Ŀ æ¸©",
      "è· ³",
      "çĬ¶ åĨµ",
      "å¤ļ å°ĳ",
      "æ¦ ľ",
      "è¾ ĳ",
      "è®² è¯Ŀ",
      "äºĭ å®ŀ",
      "æĿ Ĩ",
      "åķĨ æłĩ",
      "201 5",
      "æĹ ¨",
      "æµĭ è¯ķ",
      "æ¬¢ è¿İ",
      "åĲ¸ æĶ¶",
      "æ±Ł èĭı",
      "è¡Ģ ç®¡",
      "éĵģ è·¯",
      "éĢ Ĵ",
      "æľ¬ èº«",
      "åĭ Ĵ",
      "æ¬§ æ´²",
      "ç± į",
      "æľº çļĦ",
      "èİ ±",
      "çļĦ å¿ĥ",
      "é ŀ",
      "ä»¤ äºº",
      "å±ķ å¼Ģ",
      "çĵ ľ",
      "æĪĲ å°±",
      "âĢĿ âĢľ",
      "æ°ĳ ä¸»",
      "åħĥ ç´ł",
      "ç½Ĺ æĸ¯",
      "æĩ Ĥ",
      "èĢģ å¹´",
      "åĩĨ ç¡®",
      "æį ·",
      "èĲ¥ éĶĢ",
      "è¿ «",
      "å¹¿ åĳĬ",
      "æĬ ¢",
      "ç»Ļ äºĪ",
      "å¡ «",
      "è ķ",
      "å¥ ī",
      "çº¤ ç»´",
      "æı ı",
      "èĤ¯ å®ļ",
      "éĶ Ī",
      "åħĪ åĲİ",
      "å¾Ī å¤§",
      "è¾ ī",
      "e r",
      "æĳ Ĩ",
      "é¼ĵ åĬ±",
      "åŃĲ çļĦ",
      "å¾· åĽ½",
      "ç¥ŀ ç»ı",
      "æİĴ åĲį",
      "ä¸°å¯Į çļĦ",
      "å®ŀ è¡Į",
      "è¶ĭ åĬ¿",
      "ä¸» æĮģ",
      "æ³ µ",
      "éĽ ķ",
      "éĻ ·",
      "é«ĺ æķĪ",
      "æŁ ±",
      ", ãĢĬ",
      "äºº çĶŁ",
      "æļ Ĺ",
      "æŃ¦ æ±ī",
      "æĹ ĭ",
      "è¦Ĩ çĽĸ",
      "æ±¡ æ°´",
      "æī¾ åĪ°",
      "æ³ Į",
      "èģĶ èµĽ",
      "åħ¬ è·¯",
      "æ´ ŀ",
      "é£Ł çĶ¨",
      "å¤© çĦ¶",
      "åĿ ¦",
      "é©¬ åħĭ",
      "æ¯ı ä¸Ģ",
      "èĭ± åĽ½",
      "çº ¹",
      "æīĭ æ®µ",
      "å°ĳ å¹´",
      "éħĴ åºĹ",
      "19 8",
      "çĤ ī",
      "åįļ å£«",
      "åĽ¢ ç»ĵ",
      "å·¥ åħ·",
      "çĽ¸ äºĴ",
      "åįı è®®",
      "çļĦ æĸ¹å¼ı",
      "çļĦ ä¸į",
      "æĻ ĵ",
      "çļĦ äº§åĵģ",
      "æľ¬ ç§ĳ",
      "åį± éĻ©",
      "ä¼ ı",
      "å¹³æĸ¹ ç±³",
      "è ¹",
      "æĭ Ķ",
      "æ¨ ª",
      "å¸ĥ å±Ģ",
      "ä¹łè¿ĳå¹³ æĢ»ä¹¦è®°",
      "éĢļ çŁ¥",
      "åı¬ å¼Ģ",
      "è¿ Ķ",
      "åĬł å¤§",
      "èĩª æ²»",
      "é¡º åĪ©",
      "åĿ Ľ",
      "é© ¶",
      "çļĦ åľ°æĸ¹",
      "åĲ« éĩı",
      "ä¹¡ æĿĳ",
      "èµ ı",
      "æ¯Ķ ä¾ĭ",
      "é© ±",
      "å¯¿ åĳ½",
      "è½¦ è¾Ĩ",
      "å¤ļ å¹´",
      "ç į",
      "èį Ĳ",
      "æ¸ ł",
      "åĪ« äºº",
      "è£ħ å¤ĩ",
      "åŀ ĥ",
      "åľ ¾",
      "å®ŀéªĮ å®¤",
      "éº ¦",
      "å±ķ çİ°",
      "åŀĥ åľ¾",
      "æī £",
      "èĻ İ",
      "æĽ´ æĺ¯",
      "è¯¦ ç»Ĩ",
      "åŃ¦ ä¼ļ",
      "é¢ľ èī²",
      "å¿ ½",
      "åĪĩ å®ŀ",
      "æĸ° åŀĭ",
      "å° ĩ",
      "ãĢĤ (",
      "ç¡ ķ",
      "çİ¯ èĬĤ",
      "åĵ ²",
      "æ³ķ è§Ħ",
      "çĽĳ æµĭ",
      "æĪĳ åĢĳ",
      "ä¼ ¸",
      "åıĺ å¾Ĺ",
      "çĶµ åĬĽ",
      "ä¸Ģ çĤ¹",
      "ä¸Ĭ åįĩ",
      "å Ĺ",
      "ç§» åĬ¨",
      "ä¸Ģ æĺ¯",
      "äºº åľ¨",
      "èĶ ¬",
      "èĳĹ åĲį",
      "æ³¨ éĩį",
      "çĵ ¶",
      "åķĨ åĬ¡",
      "æĽ´å¤ļ çļĦ",
      "ä¼ĺ è´¨",
      "è¿Ļ ä¹Ī",
      "3 1",
      "å©´ åĦ¿",
      "æĸ¹éĿ¢ çļĦ",
      "çº¢ èī²",
      "æĶ¯ æĴĳ",
      "å®¤ åĨħ",
      "åı¯ éĿł",
      "è½¬ åŀĭ",
      "å¤ļ æ¬¡",
      "ä¸» ç®¡",
      "å¤§ å¤§",
      "æĶ¾ åľ¨",
      "éĩį æĸ°",
      "æĬ¤ çĲĨ",
      "ä¼¼ ä¹İ",
      "æļ Ĥ",
      "çĶ ľ",
      "èĪª ç©º",
      "çķ ħ",
      "é£İ æł¼",
      "ä¸ĭ éĿ¢",
      "å¿ Ĩ",
      "æĬĬ æı¡",
      "ç« ¹",
      "çļĦ ä¼ģä¸ļ",
      "èħĲ èļĢ",
      "å¹´ é¾Ħ",
      "éĺ² æİ§",
      "è¶³ çĲĥ",
      "çĻ½ æĸĳ",
      "çľ ł",
      "æ¼ ı",
      "æľĢ ä½³",
      "çľŁ çļĦ",
      "å·ŀ å¸Ĥ",
      "æ² Ĵ",
      "æıĲä¾Ľ äºĨ",
      "æĭ ¼",
      "åĩ ī",
      "çĵ ·",
      "åıĳ çĹħ",
      "è·Ŀ ç¦»",
      "æĿ ľ",
      "èī °",
      "éĻĲ åĪ¶",
      "ä¸ĵ åĪ©",
      "æĶ¹ éĢł",
      "çļĦ çĶŁæ´»",
      "åĪ¶ åĵģ",
      "çĻ» è®°",
      "å® ¾",
      "åıį æĺł",
      "è¯ģ ä¹¦",
      "ä¸Ńåįİ æ°ĳæĹı",
      "æŀĦ æĪĲ",
      "èº« ä»½",
      "çĸ ¼",
      "ä½ľ åĩº",
      "è¿Ļ æ¬¡",
      "éĩĮ çļĦ",
      "æģ Ĳ",
      "é«ĺ çŃī",
      "éļ Ĩ",
      "éģĵ å¾·",
      "æ´ ª",
      "çļĦ åĲĮæĹ¶",
      "çĻ¾ å¹´",
      "è®¤ è¯ģ",
      "è£ħ é¥°",
      "åĽĽ ä¸ª",
      "âĢ Ļ",
      "æ¶Ī æģ¯",
      "åľ¨ ä¸ŃåĽ½",
      "æĺ¯ ä¸į",
      "åĩł ä¹İ",
      "æĪĲ éĥ½",
      "ä¸ĵä¸ļ çļĦ",
      "åĿ ¡",
      "æ¶Ī éĺ²",
      "è¿ ģ",
      "åĲĦ çº§",
      "è¯Ħ ä¼°",
      "æľĪ ä»½",
      "æ¸ħ æ¥ļ",
      "èŀ º",
      "éĻ¢ æł¡",
      "ä¹ĭ å¤ĸ",
      "æĪĲ åĪĨ",
      "ä¸Ĭ è¿°",
      "èĳ ¡",
      "å² ©",
      "è¿ŀ æİ¥",
      "çļĦ å¥½",
      "ä¿Ħ ç½Ĺæĸ¯",
      "çļĦ è¦ģæ±Ĥ",
      "æľĢ å¥½",
      "å»º æĪĲ",
      "æ²Ł éĢļ",
      "å§Ķ ä¼ļ",
      "è®° å½ķ",
      "é¢ Ī",
      "çĦ Ĭ",
      "æĪĲ çĨŁ",
      "æī¹ åĩĨ",
      "æģ ĭ",
      "e n",
      "å° º",
      "ä¼ļ æľī",
      "ä¼ļ ä¸Ĭ",
      "é© »",
      "åĵ ¡",
      "ç ¸",
      "è®© äºº",
      "äº ķ",
      "åĨ³ çŃĸ",
      "å¿ĥ çļĦ",
      "æĻ ĭ",
      "è¯ķ ç®¡",
      "è¡¨ è¾¾",
      "å¼ķ é¢Ĩ",
      "ç¢ İ",
      "ç¼º ä¹ı",
      "ä»ĸ äºº",
      "æ¸ħ æ´ģ",
      "çļĦä¸Ģ ç§į",
      "20 00",
      "è¡ °",
      "äºĮ æĺ¯",
      "éĢĲ æŃ¥",
      "ä¸»è¦ģ æĺ¯",
      "çĶµ åĬ¨",
      "åľ¨ äºİ",
      "åĩº çīĪ",
      "ç¼ ´",
      "é¼ »",
      "äº« åıĹ",
      "éļ¾ ä»¥",
      "åĢ ¾",
      "æĢģ åº¦",
      "è² Į",
      "è° ±",
      "æŃ» äº¡",
      "æĢ» ä½ĵ",
      "æ° Ľ",
      "4 5",
      "æĸĩ ç«ł",
      "ä¸į èī¯",
      "é©¬åħĭ æĢĿ",
      "èĥ Ĩ",
      "æĤ£èĢħ çļĦ",
      "å® ¿",
      "å§ Ĳ",
      "åĽº å®ļ",
      "å¼ķ åıĳ",
      "éĥ½ ä¸į",
      "âĢ ĺ",
      "åĨ Ĵ",
      "èµ ĸ",
      "çľģ çº§",
      "åľ° äº§",
      "ä¸Ģ æĹ¦",
      "çī© çļĦ",
      "çĭ Ĺ",
      "å¤§ åĪ©",
      "åĲĦ ä¸ª",
      "æĮĩ æłĩ",
      "éĹ ²",
      "ä½¿ å¾Ĺ",
      "è¿Ŀ æ³ķ",
      "çĤ Ń",
      "äºİ æĺ¯",
      "çī¹ å¾ģ",
      "çĪ± æĥħ",
      "é«ĺ çº§",
      "åİŁ æĸĻ",
      "çŁ³ æ²¹",
      "è· ĥ",
      "ä¹ ĥ",
      "éĨ ĩ",
      "éģĩ åĪ°",
      "3 6",
      "åħ¬ å®ī",
      "å° ¾",
      "è®¡ç®Ĺ æľº",
      "å¾ ½",
      "èĪ į",
      "å· ¡",
      "è° Ĳ",
      "å¤© æ´¥",
      "ä¾Ŀ æį®",
      "æĦŁ åĪ°",
      "åı¯ æĺ¯",
      "æ Ĩ",
      "çļĦäºĭ æĥħ",
      "çĸ Ĩ",
      "æ° £",
      "ä¸Ģä¸ª äºº",
      "ä¸ŃåĽ½ åħ±äº§åħļ",
      "åĬ ²",
      "å¹² çĩ¥",
      "è´¢ åĬ¡",
      "å¾ Ĵ",
      "æĦı åĳ³",
      "åĪĽ ä½ľ",
      "è¾ £",
      "åĬŀ çĲĨ",
      "çĪ ¸",
      "å¤§å¤ļ æķ°",
      "åĪĨ æ³Į",
      "åħ¬ å¸ĥ",
      "è£ħ ç½®",
      "æķĪ çĽĬ",
      "çļĦ åİŁåĽł",
      "æ¡Ī ä»¶",
      "åĳ¼ åĲ¸",
      "èµ ¶",
      "åŃĲ å®«",
      "å¹´ ä»£",
      "æ¶Ĥ æĸĻ",
      "äººæ°ĳ æĶ¿åºľ",
      "åįģ ä¹Ŀ",
      "åĪ© æ¶¦",
      "çĭ¬ çī¹",
      "åĪ Ĭ",
      "æ» ´",
      "ç¡ ħ",
      "é» ŀ",
      "å¨ ±ä¹Ĳ",
      "ãĢĭ ãĢĤ",
      "å¤§ éĥ¨åĪĨ",
      "èĲ Ħ",
      "åįģ äºĮ",
      "åĲİ æĿ¥",
      "åģļ åĩº",
      "åĩł ä¸ª",
      "åº¦ çļĦ",
      "åĨľ æ°ĳ",
      "çĹħ äºº",
      "åĭ Ļ",
      "èĥĮ æĻ¯",
      "æĦŁ æĥħ",
      "æĬ ±",
      "åħ± äº«",
      "æľŁ çļĦ",
      "è®¾ ç«ĭ",
      "åıĳ çĶµ",
      "3 00",
      "è¡¨ æĺİ",
      "æµģ ç¨ĭ",
      "åĵģ ç§į",
      "åľº æīĢ",
      "ä¹Ł å°±æĺ¯",
      "æ¸ħ æ´Ĺ",
      "è¿Ľ åı£",
      "åł ´",
      "åºĶ æĢ¥",
      "å°½ ç®¡",
      "åĲ¯ åĬ¨",
      "çł Ĥ",
      "åĽ½ æľī",
      "è¯ ±",
      "å¾Īå¤ļ äºº",
      "å¯¹ å¤ĸ",
      "æ¼ Ĩ",
      "æ¹ĸ åįĹ",
      "ä¸ĸçķĮ æĿ¯",
      "ä» ĵ",
      "åĲĪ æł¼",
      "ä¸ĩ äºº",
      "éĵ ¸",
      "æīĢ è°ĵ",
      "ç» ĺ",
      "èĤ ĥ",
      "ä¸Ģ å®¶",
      "åĨ³ èµĽ",
      "åĲĮ æł·",
      "æĺ¾ èĳĹ",
      "ä¸Ģ æµģ",
      "åĬĽ åº¦",
      "çł ĸ",
      "ä¼¤ å®³",
      "åıĳ è¡¨",
      "æł ı",
      "èĳ¡ èĲĦ",
      "åŃ¦çĶŁ çļĦ",
      "å°½ éĩı",
      "è§Ĥ å¯Ł",
      "åį ĵ",
      "å°ı ç»Ħ",
      "çĻ¾ åĪĨ",
      "åĽ Ĭ",
      "è¦ģ æ³¨æĦı",
      "è¯ģ åĪ¸",
      "æİ¨ èįĲ",
      "éĶ »",
      "éĤ Ģ",
      "åģ ¶",
      "æīĢ åľ¨",
      "åħħ æ»¡",
      "ç®¡ éģĵ",
      "201 4",
      "å¿ §",
      "å¥¹ çļĦ",
      "éĢĤ å½ĵ",
      "æĶ¯ éĥ¨",
      "ä¿¡ å¿ĥ",
      "å¿Ĺ æĦ¿",
      "è½¬ åĮĸ",
      "æĸ° æĬĢæľ¯",
      "çļĦ æ°´",
      "çľŁ å®ŀ",
      "å¿ Ļ",
      "åħ« åŃĹ",
      "åŁ¹ èĤ²",
      "éħ ¯",
      "è³ ĩ",
      "çļĦ æĸ¹æ³ķ",
      "çļĦ ä¸Ģä¸ª",
      "è§Ĵ èī²",
      "ä»ª åĻ¨",
      "åĬŀåħ¬ å®¤",
      "ä»£ çĲĨ",
      "çĽ ¾",
      "èĥ ¸",
      "éĢ Ĩ",
      "åĴĮ åĽ½",
      "å¯¹ æĸ¹",
      "æįŁ å¤±",
      "è® ĵ",
      "ä¸Ģ è·¯",
      "è°ĥ èĬĤ",
      "å° ĸ",
      "å¹³ è¡¡",
      "å£ ¤",
      "èģĮ è´£",
      "çĽ¸ åĲĮ",
      "é«ĺ æ¸©",
      "æ³ Ħ",
      "å½¢ åĬ¿",
      "æİĴ æĶ¾",
      "æĲ º",
      "çĥ ¦",
      "èĶ¬ èıľ",
      "èħ ¾",
      "å¾Ī å¤§çļĦ",
      "æķ Į",
      "å®Į æķ´",
      "ä¿¡ çĶ¨",
      "æł¡ åĽŃ",
      "éĽĨ ä½ĵ",
      "ç¢ ±",
      "æĽ´ å¥½çļĦ",
      "ç»´ ä¿®",
      "å±Ĥ æ¬¡",
      "å¦Ĥæŀľ ä½ł",
      "åŃ¦ ä½į",
      "è¢ ĭ",
      "æµĭ éĩı",
      "ä» ¿",
      "? âĢĿ",
      "æĵ ¦",
      "æ¸ Ĺ",
      "çļĦ æĬĢæľ¯",
      "æŃ£ æĺ¯",
      "è¨ Ń",
      "ä½ ©",
      "ç¡ «",
      "éĻ ķ",
      "é¦ĸ æ¬¡",
      "åĿļ åĨ³",
      "æĸĩ åŃ¦",
      "èĩ´ åĬĽ",
      "æĸ° åĨł",
      "å°± èĥ½",
      "æıĲ åĪ°",
      "æ´» æĢ§",
      "åĬŀ åŃ¦",
      "å¸¦ çĿĢ",
      "æī °",
      "æłĩ å¿Ĺ",
      "è¡¥ åħħ",
      "èĥľ åĪ©",
      "æ°Ķ ä½ĵ",
      "ä¸ī å¹´",
      "å® ħ",
      "éħį å¥Ĺ",
      "è Ŀ",
      "äºĨ ä¸Ģä¸ª",
      "åıĳ ä½ľ",
      "è· Į",
      "æ¢¦ è§ģ",
      "ä½ł ä»¬",
      "è§Ħ å¾ĭ",
      "ä» Ļ",
      "æĹ¶ çļĦ",
      "åľ¨ ä¸Ģèµ·",
      "æ¸ł éģĵ",
      "å¾Ī å¥½çļĦ",
      "éĶ ģ",
      "å¿ Į",
      "æĻ ¨",
      "åĶ¯ ä¸Ģ",
      "å½ ¼",
      "ä½ĵ åĪ¶",
      "èį¯ åĵģ",
      "çļĦ çĥŃ",
      "æ± Ĺ",
      "åį Ģ",
      "èı ²",
      "ç¥ ¥",
      "æĢĿ ç»´",
      "åį³ åı¯",
      "çŃī å¥ĸ",
      "çī µ",
      "è¯Ĭ æĸŃ",
      "ç¾İ ä¸½",
      "æĦŁ åıĹ",
      "éĥ Ń",
      "è®¨ è®º",
      "çļĦ åīį",
      "æĻ® éģį",
      "ä¹Ł èĥ½",
      "å®ĺ æĸ¹",
      "èµ· åĪ°",
      "åħļ ä¸Ńå¤®",
      "è´· æ¬¾",
      "æĢ» æĺ¯",
      "åħ¬ åĽŃ",
      "å®Ŀ å®Ŀ",
      "å´ ĩ",
      "ä¸ĵ éĹ¨",
      "æ» ĭ",
      "åľ¨ çº¿",
      "æĤ ²",
      "åĬŁ æķĪ",
      "éĥ ģ",
      "åįĹ äº¬",
      "æ ª",
      "å¯¹ è±¡",
      "åĪ° åºķ",
      "å¾ ŀ",
      "éĵ º",
      "å¿« ä¹Ĳ",
      "åĲĪ éĩĳ",
      "ä½ľ ä¸ļ",
      "ä¸¤ ç§į",
      "éĤ ®",
      "åħ¨ çľģ",
      "æ»¡ æĦı",
      "åĩĢ åĮĸ",
      "æľĢ è¿ĳ",
      "çłĶç©¶ çĶŁ",
      "å¯ ¸",
      "æ¨ £",
      "çº ł",
      "ä¼ļ è®¡",
      "ä¸Ģ èĩ´",
      "äº§ æĿĥ",
      "åĳĪ çİ°",
      "ä¾Ŀ çĦ¶",
      "éĩį çļĦ",
      "æĭĴ ç»Ŀ",
      "æĤ Ł",
      "æĭħ ä»»",
      "çĸ ı",
      "çļĦæĥħåĨµ ä¸ĭ",
      "æ²³ åĮĹ",
      "ä¼Ĺ å¤ļ",
      "éĶ ¦",
      "çļ Ĩ",
      "ç² Ĺ",
      "éĥ½ åľ¨",
      "éĢ ĥ",
      "ç§ Ĵ",
      "é¢Ħ è®¡",
      "éĵ¶ å±ĳ",
      "è¯ļ ä¿¡",
      "çī© çĲĨ",
      "ç¾İ çļĦ",
      "è³ ª",
      "å¦Ī å¦Ī",
      "éĺ Ģ",
      "ä¸ ¦",
      "çĤ ¸",
      "åľ¨ è¿Ļ",
      "åºĶ å¯¹",
      "æĮ ĸ",
      "è¾ ½",
      "åħ» èĢģ",
      "åĪ¶éĢł ä¸ļ",
      "å®ļ ä½į",
      "äºº å¤§",
      "æĪª èĩ³",
      "éĵ¶å±ĳ çĹħ",
      "èĤ ª",
      "æ© ¡",
      "é«ĺè´¨éĩı åıĳå±ķ",
      "åĩ ¯",
      "ä¿Ŀ åģ¥",
      "èĦĤ èĤª",
      "å®¶ çļĦ",
      "åĪĽ å»º",
      "è¯´ éģĵ",
      "æĲ ľ",
      "éļľ ç¢į",
      "åī ²",
      "ä¸Ģ åĲį",
      "å°± è¦ģ",
      "æ£Ģ éªĮ",
      "éĥ¨ ä½į",
      "èĩ³ ä»Ĭ",
      "åŃ¦ åİĨ",
      "æĸ° èĥ½æºĲ",
      "å¸Ĥåľº çļĦ",
      "éĢĤ çĶ¨äºİ",
      "éĹ®é¢ĺ çļĦ",
      "å¹¶ ä¸įæĺ¯",
      "ç¬¬ äºĶ",
      "éĺ Ķ",
      "å®ļ æľŁ",
      "è¿ĺ åı¯ä»¥",
      "ä¸Ĭ ä¸ĭ",
      "å¼ ĺ",
      "æľī å¾Īå¤ļ",
      "äº ©",
      "çģ Į",
      "å¾Ī éļ¾",
      "æĥħåĨµ ä¸ĭ",
      "æ¬ £",
      "äºĭ é¡¹",
      "100 0",
      "æ°¸ è¿ľ",
      "æ² Ī",
      "èĥ Ģ",
      "ä¹ĭ ä¸Ń",
      "å¥³ äºº",
      "åİŁ çĲĨ",
      "çĶµ è¯Ŀ",
      "è¯ ĳ",
      "ä¸Ģ æĿ¡",
      "èī ¾",
      "æī «",
      "åħ´ è¶£",
      "è¾ ŀ",
      "ä»¥ åīį",
      "æ·» åĬł",
      "å±¥ è¡Į",
      "æľī åĪ©äºİ",
      "çł´ åĿı",
      "æľī åı¯èĥ½",
      "åĪĨ å¸ĥ",
      "å½ ¹",
      "è§£ éĩĬ",
      "è¸ ı",
      "æ¹ĸ åĮĹ",
      "çĿ Ľ",
      "æ° ¯",
      "è¡Įä¸ļ çļĦ",
      "éĴ Ļ",
      "å¹¼ åĦ¿",
      "é»ĳ èī²",
      "åĨ »",
      "ãĢĭ ãĢĬ",
      "çº µ",
      "ç¼ Ŀ",
      "ä¸ Ļ",
      "çĶ· æĢ§",
      "äºº çī©",
      "ä¸į ç®¡",
      "ä¼ĺ çĤ¹",
      "äº¿ ç¾İåħĥ",
      "åķ Ĭ",
      "è¿ Ī",
      "ä¼ł æī¿",
      "èµ ĭ",
      "ä¸ĵ é¡¹",
      "çļĦ åİĨåı²",
      "ä¸Ģ åı¥",
      "éŁ© åĽ½",
      "èĻ ķ",
      "ä¹Ł è¦ģ",
      "é ¬",
      "çĪ¶ äº²",
      "Ġ (",
      "äººæ°ĳ å¸ģ",
      "åŁ ĥ",
      "æĥ ľ",
      "æĻ¯ åĮº",
      "åºĶçĶ¨ äºİ",
      "å°ı çļĦ",
      "ãĢĤ ãĢĬ",
      "çħ ®",
      "ç¦» å¼Ģ",
      "å¯ º",
      "éĿĴ æĺ¥",
      "éļı åĲİ",
      "èĬĤ çĽ®",
      "é½ ¿",
      "ä¸Ĭ äºĨ",
      "å°± åĥı",
      "è¡Ģ æ¶²",
      "èĩª è§ī",
      "èŀį èµĦ",
      "å¼Ĥ å¸¸",
      "3 8",
      "å¤± åİ»",
      "éĤ ¦",
      "ä¿¡æģ¯ åĮĸ",
      "èħ °",
      "æĿ Ń",
      "çĻ½çĻľé£İ çļĦ",
      "åĪĨ ç±»",
      "æĦı æĢĿ",
      "åĴĮ è°Ĳ",
      "åįģ å¹´",
      "201 3",
      "åĲ Ĭ",
      "åĬł ä¸Ĭ",
      "ç³»ç»Ł çļĦ",
      "å·¥ åķĨ",
      "è§Ħ åĪĻ",
      "åľ¨ æŃ¤",
      "äºĳ åįĹ",
      "ä¸ŃåĽ½ çļĦ",
      "åģ¥ åħ¨",
      "å° Ŀ",
      "èħ ¿",
      "ç§į æ¤į",
      "è½¬ åıĺ",
      "èĥ½ éĩı",
      "æĹ¶ åĪ»",
      "å®ĺ ç½ĳ",
      "æľº åľº",
      "æĪĺ äºī",
      "éĺ³ åħī",
      "æĺ¯ çĶ±",
      "æĹ ģ",
      "è¾ ĸ",
      "æŀ Ŀ",
      "å¸¦ é¢Ĩ",
      "% ;",
      "åĢ ¡",
      "èĢģ äºº",
      "èĢĥ æł¸",
      "åĴĮ ç¤¾ä¼ļ",
      "éĺ² æ²»",
      "æµ Ĩ",
      "åľŁ å£¤",
      "ä¸į å¥½",
      "å¥ ı",
      "åıĳ èĤ²",
      "è¡Į çļĦ",
      "å·¥ åİĤ",
      "å¾Ī å¥½",
      "å·¥ èµĦ",
      "æĦıåĳ³ çĿĢ",
      "åĽ½å®¶ çº§",
      "æĭ Ĩ",
      "å¤Ħ ç½ļ",
      "åĽŀ åºĶ",
      "èĩ Ń",
      "é ³",
      "ç´¯ è®¡",
      "ä¸Ń åħ±",
      "åħħåĪĨ åıĳæĮ¥",
      "ä½ı æĪ¿",
      "ä¸į åĨį",
      "æ³ķ åĽ½",
      "éĢļ ä¿¡",
      "åĳ¨ æľŁ",
      "æ¶Ī åĮĸ",
      "æ·± åº¦",
      "é«ĺ ç«¯",
      "åĽŀ æĶ¶",
      "ä¼ĺ èī¯",
      "è¾ĥ å¤§",
      "æ·· åĲĪ",
      "çİ° æľī",
      "æĲ ¬",
      "åħ¨ ä¼ļ",
      "åįĬ å¹´",
      "åľº æ¯ĶèµĽ",
      "æ¿Ģ ç´ł",
      "æĭĽ çĶŁ",
      "åĮ Ģ",
      "æ¯į äº²",
      "æĽ´ ä¸º",
      "åħ± åĴĮåĽ½",
      "ç«ĭ åį³",
      "3 3",
      "éĶ Į",
      "åĽ½åĨħ å¤ĸ",
      "å¼ķ è¿Ľ",
      "åħį è´¹",
      "è¾ĥ ä¸º",
      "è¿ĺ ä¼ļ",
      "çĿĢ åĬĽ",
      "å¹³ æĹ¶",
      "m m",
      "å¤© ä¸ĭ",
      "åį° åĪ·",
      "èĩ´åĬĽ äºİ",
      "æľĢ å¥½çļĦ",
      "è®¤ åı¯",
      "æı Ĵ",
      "ç¢ ĳ",
      "çĻ½ èī²",
      "éĩĩ è´Ń",
      "éĥ¨ ä»¶",
      "å®ļ çļĦ",
      "! âĢĿ",
      "æłĳ ç«ĭ",
      "èĸ ª",
      "å°Ĩ åľ¨",
      "ä¸ĩ åĲ¨",
      "åŁº äºİ",
      "çļĦ ç²¾ç¥ŀ",
      "æĢ ª",
      "æµ· å¤ĸ",
      "è®¾å¤ĩ çļĦ",
      "èĩª ä¿¡",
      "çĽ Ĩ",
      "æĭħ å½ĵ",
      "åħ ©",
      "è¾ °",
      "æ¼Ķ åĳĺ",
      "æĺ Ĩ",
      "é©¬åħĭæĢĿ ä¸»ä¹ī",
      "é¸ Ł",
      "è¨ Ī",
      "éº ¼",
      "è° ¨",
      "çŁ Ľ",
      "æĺ¯ ä¸ŃåĽ½",
      "å¿ į",
      "å·¥ä½ľ äººåĳĺ",
      "çªģ çĦ¶",
      "åĮ» èį¯",
      "åĳ¨ åĽ´",
      "ç¾İ æľ¯",
      "èĭ± è¯Ń",
      "åħ¨ å¸Ĥ",
      "å®īåħ¨ çĶŁäº§",
      "çľ¼ çĿĽ",
      "éĽ ¾",
      "æĭĵ å±ķ",
      "çº ½",
      "å¤© çļĦ",
      "éĥ½ è¦ģ",
      "å§ ľ",
      "æįŁ å®³",
      "è®º æĸĩ",
      "ç¦» åŃĲ",
      "çº º",
      "éª Ĺ",
      "åįģ åĽĽ",
      "èĢĮ ä¸į",
      "åĽ½ å¤ĸ",
      "ç¾İ å¥½",
      "åĻ¨ çļĦ",
      "201 2",
      "èį£ èªī",
      "ä¿¡ åı·",
      "èĩªæ²» åĮº",
      "æ¯ķä¸ļ çĶŁ",
      "æĿĥ åĪ©",
      "éĿ¢ åĲĳ",
      "ç¡ķ å£«",
      "èĬ ¯",
      "åįģ åħ«",
      "å¤į åĲĪ",
      "æķ ¸",
      "æ¢ ¯",
      "èĩ³ å°ĳ",
      "åĪĿ å¿ĥ",
      "å¦ Ļ",
      "å§ »",
      "ä¹Ł åľ¨",
      "è¡Ģ åİĭ",
      "åĬł çĥŃ",
      "å½ °",
      "åŁº åĽł",
      "è¾ Ī",
      "å« Į",
      "äºļ æ´²",
      "çĮ «",
      "åĪ¤ æĸŃ",
      "å®£ å¸ĥ",
      "æĥ ĳ",
      "é¢ĨåŁŁ çļĦ",
      "æµģ åĬ¨",
      "åħ ģ",
      "é¡ µ",
      "ç§ ī",
      "åħ¨ åĬĽ",
      "æİ ĺ",
      "æł¼ å±Ģ",
      "é¥ ±",
      "çµ Ĳ",
      "éħį ç½®",
      "å²ģ çļĦ",
      "å®¶ åħ·",
      "éķ¿ æĹ¶éĹ´",
      "èĲ¥ ä¸ļ",
      "ä¸į çŁ¥éģĵ",
      "çĤ Ĵ",
      "å¤į åħ´",
      "å½ĵ ä¸Ń",
      "æĹ© æľŁ",
      "åŃ©åŃĲ çļĦ",
      "èĴ Ĥ",
      "å¾Ī å®¹æĺĵ",
      "åıĤ èĢĥ",
      "æĸĩ åŃĹ",
      "ç»ıæµİ åıĳå±ķ",
      "å®¡ æŁ¥",
      "æľŁ å¾ħ",
      "åı¯ä»¥ åľ¨",
      "åħļ å»º",
      "ç¬¬ä¸Ģ æ¬¡",
      "çļĦ æľįåĬ¡",
      "åŃ ¤",
      "å¥ ĳ",
      "æľº éģĩ",
      "ä¸Ģ æ®µ",
      "èĤ¿ çĺ¤",
      "ä¸Ń èį¯",
      "åĨ² åĩ»",
      "åıĸå¾Ĺ äºĨ",
      "æ¦Ĥ å¿µ",
      "ä¸į éĶĻ",
      "è¯ķç®¡ å©´åĦ¿",
      "ç¨ Ģ",
      "ä½ĵ ä¼ļ",
      "æĤ ¬",
      "åĲ Ĳ",
      "ç»ı åħ¸",
      "ç»Ł çŃ¹",
      "åĩº å¸Ń",
      "æ¿Ģ åħī",
      "è¯´ çļĦ",
      "åī ©",
      "åı¸ æ³ķ",
      "è§£åĨ³ æĸ¹æ¡Ī",
      "3 7",
      "éĻ µ",
      "çĸ ²",
      "åħ¸ åŀĭ",
      "çĥĪ çļĦ",
      "çŁĽ çĽ¾",
      "è» Ĭ",
      "æıĲ åīį",
      "ä¹ī åĬ¡",
      "è´¯å½» èĲ½å®ŀ",
      "æĹ© å·²",
      "å¾Ī å¿«",
      "éĻķ è¥¿",
      "æĥħ æĦŁ",
      "æĢ» ç»ıçĲĨ",
      "æĪ Ĵ",
      "èĩªåĬ¨ åĮĸ",
      "èľ ľ",
      "å·¥ä½ľ ä¸Ń",
      "æĪ¿ åľ°äº§",
      "æ¡ Ĥ",
      "æĥ³ åĪ°",
      "çī §",
      "ä½ľ èĢħ",
      "éĺħ è¯»",
      "ä»¥ ä¸º",
      "æ°´ æŀľ",
      "ç¡® å®ŀ",
      "æľī åĵªäºĽ",
      "æį Ĳ",
      "æħ¢ æĢ§",
      "æĹ¥ èµ·",
      "è¡¨ æ¼Ķ",
      "é©¾ é©¶",
      "æŃ£ è§Ħ",
      "ä» °",
      "æķ´ åĲĪ",
      "æµ· æ´ĭ",
      "åħ¶ æ¬¡",
      "è®¸ åı¯",
      "åŁºç¡Ģ è®¾æĸ½",
      "ä»ª å¼ı",
      "å¹¶ æ²¡æľī",
      "èµ Ķ",
      "è ¤",
      "æľī ä¸Ģä¸ª",
      "æľīæķĪ çļĦ",
      "æĲ ŀ",
      "è®© æĪĳä»¬",
      "æĬĢæľ¯ çļĦ",
      "éĻ ª",
      "åĬł çĽŁ",
      "ä½İ äºİ",
      "æĿ¡ ä¾ĭ",
      "å¤© æ°Ķ",
      "ãĢĭ (",
      "åł Ĩ",
      "æıĲ éĨĴ",
      "çĶ· äºº",
      "ä¸ĸçķĮ ä¸Ĭ",
      "æµģ éĩı",
      "èĳ£äºĭ éķ¿",
      "å¯Ĩ åĪĩ",
      "ä¸Ģ ä»£",
      "3 4",
      "åĲį åŃĹ",
      "éĤ£ ä¸ª",
      "çºª å¿µ",
      "æĽ ¹",
      "éĶĪ éĴ¢",
      "åħ³ å¿ĥ",
      "æĪĲ çļĦ",
      "éĻ¢ éķ¿",
      "åĽŃ åĮº",
      "å¾Ĺ åĪ°äºĨ",
      "å®ī å¾½",
      "æ²Ĵ æľī",
      "èĩ £",
      "åįı åĲĮ",
      "éĨ «",
      "æĦŁ è°¢",
      "æħ Ī",
      "ä»ĸ åľ¨",
      "è® Ĭ",
      "åŁİ ä¹¡",
      "é Į",
      "çĩ ķ",
      "èº« ä¸Ĭ",
      "äº§ä¸ļ éĵ¾",
      "æ°Ķ åĢĻ",
      "èĦ ¾",
      "æ°´ çļĦ",
      "æµ ¸",
      "åħ¶ å®ĥ",
      "åįļ çī©",
      "åħ¬ çĽĬ",
      "è§Ħå®ļ çļĦ",
      "åĲĪ éĢĤ",
      "åĩł å¹´",
      "-- --",
      "å¦Ĥ ä¸ĭ",
      "éĶ» çĤ¼",
      "æĶ¶ çĽĬ",
      "çļĦ ä¸»",
      "ç»´ æĮģ",
      "åĩ ¤",
      "éĥ½ èĥ½",
      "èī² å½©",
      "ï ¿",
      "æµ ħ",
      "å©ļ å§»",
      "æĿ¥ æºĲ",
      "ä¼Ļ ä¼´",
      "æ· ĭ",
      "åŁİ éķĩ",
      "é¢ ¨",
      "æĺ¯ æľī",
      "çĸ¼ çĹĽ",
      "3 2",
      "åįģ ä¸ī",
      "P P",
      "å·® å¼Ĥ",
      "åĺ ´",
      "é» İ",
      "æ· Ģ",
      "æĪ¿ å±ĭ",
      "ç °",
      "å¤§ æķ°æį®",
      "æľĢ æĸ°",
      "å¸Ĥ å§Ķ",
      "éŃ Ķ",
      "å°Ĩ ä¼ļ",
      "æ± ģ",
      "é¢ ģ",
      "201 0",
      "å¯ Ħ",
      "çĶŁ åŃĺ",
      "çłĶç©¶ éĻ¢",
      "__ __",
      "ä¸Ģ æī¹",
      "5 9",
      "ä¸ĭ äºĨ",
      "æĪĳä»¬ è¦ģ",
      "æº ª",
      "æıĲåĩº äºĨ",
      "çļĦ åŁºæľ¬",
      "æĶ¯ åĩº",
      "åī ĳ",
      "åľ¨ ä¸į",
      "çº¿ ä¸Ĭ",
      "çĽ Ī",
      "æĬ¥ åĲį",
      "åı¯ è§ģ",
      "éķ Ģ",
      "4 8",
      "ç»ıæµİ ç¤¾ä¼ļ",
      "è´§ å¸ģ",
      "æĿ¥ åĪ°",
      "éģ ĭ",
      "çļĦ çĶŁäº§",
      "ï¿ ½",
      "åĩºçİ° äºĨ",
      "a r",
      "ä¸Ĭ æ¶¨",
      "çļĦ éľĢæ±Ĥ",
      "åľ° ä¸ĭ",
      "æ° ¢",
      "éķ¿ çļĦ",
      "å¤ļ åħĥ",
      "201 1",
      "èµ¢ å¾Ĺ",
      "å®ŀéĻħ ä¸Ĭ",
      "ç»Ħ åĲĪ",
      "äºº æķ°",
      "äºĮåįģ å¤§",
      "ä½¿çĶ¨ çļĦ",
      "æ¢¦ æĥ³",
      "ä» Ķ",
      "åĤ ¬",
      "ä¸ī æĺ¯",
      "è¯ķ çĤ¹",
      "æľĪ ç»ı",
      "èĢĥ å¯Ł",
      "åıĳ åĬ¨",
      "äº§ éĩı",
      "åģľ æŃ¢",
      "ç¦ı å»º",
      "ä½ľ é£İ",
      "è´« åĽ°",
      "ç¨ į",
      "ä¹ĭ è·¯",
      "çī¹ æĢ§",
      "åĲĮæ¯Ķ å¢ŀéķ¿",
      "åľ° çļĦ",
      "å·¨ å¤§",
      "æķĻèĤ² éĥ¨",
      "åĻ ª",
      "åĪ ¥",
      "åĽ½ çļĦ",
      "5 5",
      "ä¸Ģ ä½į",
      "å°ı åŃ¦",
      "èĢ ķ",
      "è£ħ ä¿®",
      "åīį çļĦ",
      "å¤ļ æł·",
      "æĸ¹ ä½į",
      "åħ Ħ",
      "åŁ ĭ",
      "èĩª è¡Į",
      "çĶŁæ´» çļĦ",
      "æ¸¸ å®¢",
      "å¾ ¡",
      "åĽ½ æ°ĳ",
      "åŃ£ åº¦",
      "æĸ ¤",
      "å¹¿ è¥¿",
      "æīĢæľī çļĦ",
      "ç²¾ å½©",
      "è¾ĥ é«ĺ",
      "å¸Ī çĶŁ",
      "çķ ª",
      "å¸Ĥ æ°ĳ",
      "åĮº åĪ«",
      "åı° æ¹¾",
      "æ» ¨",
      "æŁĲ äºĽ",
      "æĦ¿ æĦı",
      "æ£® æŀĹ",
      "å¹¶ åľ¨",
      "è®¤ å®ļ",
      "éŃ Ĥ",
      "è ¬",
      "æĳ ĩ",
      "å®¶ äºº",
      "åĽŀ åĪ°",
      "éŃ ı",
      "æ£ ī",
      "ç¨ ¿",
      "å¸¦ åĬ¨",
      "æ² ĥ",
      "æĮĩ æķ°",
      "åĲ ¹",
      "æī§ æ³ķ",
      "åº· å¤į",
      "åĴĮ åħ¶ä»ĸ",
      "åĩ Į",
      "ä¸Ģ å¤©",
      "çĸ« èĭĹ",
      "ä¸Ģ å¸¦",
      "æĳ ¸",
      "å¤§ å¹ħ",
      "éģ ¸",
      "ç±» ä¼¼",
      "èĲ¥ éĢł",
      "å¯¹ æŃ¤",
      "å°Ĭ éĩį",
      "å£° éŁ³",
      "åĲĪ æ³ķ",
      "éĺ² æĬ¤",
      "å¥ Ķ",
      "çĲ ´",
      "ä¸į éĶĪéĴ¢",
      "æ· ĺ",
      "èĢĥ çĶŁ",
      "æĸĹ äºī",
      "å¦ ¹",
      "åīį è¿Ľ",
      "è¿ Ł",
      "åĬ¨ ä½ľ",
      "æīį æĺ¯",
      "æµ ¦",
      "ç²¾ åĩĨ",
      "èµ ´",
      "å£ ³",
      "åĬł éĢŁ",
      "èĭ± éĽĦ",
      "æĢĢ åŃķ",
      "æ¤ Ĵ",
      "ç½ ©",
      "ç¾ ½",
      "è¥¿ å®ī",
      "å¤§éĩı çļĦ",
      "å½¢æĪĲ äºĨ",
      "çľģ å§Ķ",
      "æĺ¯ éĿŀå¸¸",
      "åı¯ æĮģç»Ń",
      "ç¢ °",
      "äººæ°ĳ åħ±åĴĮåĽ½",
      "ç«ŀäºī åĬĽ",
      "èĵ Ħ",
      "åĬł éĩį",
      "éĶĻ è¯¯",
      "å¯Ĩ å°ģ",
      "è¿ĳ æľŁ",
      "è´µ å·ŀ",
      "æ·· åĩĿ",
      "å¼ ·",
      "çĽĳ æİ§",
      "3 9",
      "åĳ½ è¿Ĳ",
      "æĶ» åĿļ",
      "åĴĮ å¹³",
      "è¾ ©",
      "æ´» åĬĽ",
      "çĶ³ æĬ¥",
      "æĮ¯ åħ´",
      "æ³ķ æ²»",
      "å¥¥ è¿Ĳ",
      "èĬ ³",
      "å¹ »",
      "ç´§ å¼ł",
      "çļĦ ä½¿çĶ¨",
      "æĿĥ çĽĬ",
      "ä¸¥éĩį çļĦ",
      "å®Ĺ æĹ¨",
      "åĦ¿ åŃĲ",
      "æĿ¥ äºĨ",
      "åĽ½å®¶ çļĦ",
      "çĸ«æĥħ éĺ²æİ§",
      "æŁ ľ",
      "ç§ĳæĬĢ åĪĽæĸ°",
      "éĩĮ éĿ¢",
      "æĶ¹ è¿Ľ",
      "åĴĮ åıĳå±ķ",
      "å» ·",
      "ä¸Ńåįİ äººæ°ĳåħ±åĴĮåĽ½",
      "åħ Ĩ",
      "èº« è¾¹",
      "åĩŃ åĢŁ",
      "æĸ° çĸĨ",
      "æīĵ å¼Ģ",
      "æĽ´ æĸ°",
      "å»ºè®¾ çļĦ",
      "ç©º è°ĥ",
      "çĻ¾åĪĨ çĤ¹",
      "çĹħ ä¾ĭ",
      "è Ł",
      "å¸ «",
      "æ¡ Į",
      "äºº åĬĽ",
      "ä»£ è°¢",
      "æĻ °",
      "7 5",
      "èģĮä¸ļ æķĻèĤ²",
      "äººæīį åŁ¹åħ»",
      "éĿĴ å°ĳå¹´",
      "ä¸Ģ ç³»åĪĹ",
      "æİ¨ åĩº",
      "ä¸į çĶ¨",
      "ä¸Ń æľī",
      "è¿ĳ æĹ¥",
      "ç§¯ ç´¯",
      "è§Ĥ å¿µ",
      "ç½ĳ åıĭ",
      "è®º åĿĽ",
      "èĤº çĤİ",
      "çĪ ·",
      "é¢Ħ ç®Ĺ",
      "ç¼ĵ è§£",
      "å¸¦ æĿ¥çļĦ",
      "èİ· åıĸ",
      "å½¢ æĢģ",
      "æĴ ŀ",
      "æ°Ľ åĽ´",
      "åĬ© äºİ",
      "ä¼ĳ æģ¯",
      "è¿ĩ æ»¤",
      "é Ħ",
      "åĬ £",
      "ä¸ĭ åİ»",
      "æ¸ ¡",
      "äºº ä¸º",
      "åĲ¦ åĪĻ",
      "ç»Ĩ èıĮ",
      "åį° åº¦",
      "å¾ĭ å¸Ī",
      "ä¿ Ĭ",
      "åĮħ åĲ«",
      "çĶŁæĢģ çİ¯å¢ĥ",
      "äºº ç¾¤",
      "ç®Ģ ç§°",
      "é©± åĬ¨",
      "ä¸ĭ åįĪ",
      "å¯» æī¾",
      "çĭ Ĥ",
      "å±ķ è§Ī",
      "ä¸ª çĻ¾åĪĨçĤ¹",
      "åĶ® åĲİ",
      "çļĦ å¤ĸ",
      "åħ¬ å¹³",
      "éĸ Ģ",
      "ä¹Ł å°±",
      "æķ´ æĶ¹",
      "æ¡ Ĩ",
      "åģļ æ³ķ",
      "åķ ı",
      "âĢ ķ",
      "å¼ ¯",
      "çĻ½çĻľé£İ æĤ£èĢħ",
      "æĮ ¤",
      "æĢ§ æł¼",
      "é«ĺ ä¸Ń",
      "äºĶ å¹´",
      "å±ħ ä½ı",
      "å§ ¿",
      "ç© ·",
      "çļĦ èĥ½åĬĽ",
      "æ¯ı ä¸Ģä¸ª",
      "è°ĥ çłĶ",
      "çĻ¾ å§ĵ",
      "æĭħ å¿ĥ",
      "çĶµ åķĨ",
      "ä¸į äºĨ",
      "åī ª",
      "åŃ¦ èĢħ",
      "è½¬ ç§»",
      "éī´ å®ļ",
      "å¸ ħ",
      "è¿ĺ èĥ½",
      "éĢĤ çĶ¨",
      "çĶµ èĦĳ",
      "çĽ¸ ç»ĵåĲĪ",
      "çĲĨ äºĭ",
      "æľī ä»Ģä¹Ī",
      "ä¸ª æĢ§",
      "èĢĮ åľ¨",
      "è¡ ĵ",
      "æľī æĹ¶",
      "è¥¿ æĸ¹",
      "çºª å¾ĭ",
      "s h",
      "æ¼ Ĥ",
      "å®ŀçİ° äºĨ",
      "å¤§ èµĽ",
      "éĴ »",
      "åĨĽ äºĭ",
      "å¤± è´¥",
      "æľ¬ äºº",
      "çļĦ é£Łçī©",
      "åħļ åĴĮ",
      "èĤ ©",
      "åľ° çĲĥ",
      "è¾ĵ éĢģ",
      "ä»Ĭ åĲİ",
      "å¤§ åŃ¦çĶŁ",
      "èģ Ĭ",
      "æĺ¯ åĽłä¸º",
      "èµ «",
      "å¼Ģ æĭĵ",
      "æŁ ³",
      "ç½ĳ ä¸Ĭ",
      "åĭ ĥ",
      "éĢļ éģĵ",
      "çĥ Ĥ",
      "åĬ© åĬĽ",
      "ä¸į å¤Ł",
      "åŀ Ĥ",
      "æĻļ ä¸Ĭ",
      "èĤ¡ ç¥¨",
      "å¦ĩ å¥³",
      "çĸ ¹",
      "æį ķ",
      "èĬ Ŀ",
      "200 8",
      "ä»¬ çļĦ",
      "åĲĦ ä½į",
      "å° İ",
      "å© Ĩ",
      "èģĶ çĽŁ",
      "åĨ ¶",
      "æ°ĳ éĹ´",
      "éĺŁ çļĦ",
      "çĽ´ æĴŃ",
      "ä¸»ç®¡ éĥ¨éĹ¨",
      "æģ °",
      "èĴĻ åı¤",
      "åıį å¤į",
      "æİ¥ ä¸ĭæĿ¥",
      "åħ¬ ä¼Ĺ",
      "åł ¡",
      "å¥½ å¥½",
      "4 9",
      "æ©¡ èĥ¶",
      "åĤ ³",
      "äºĨ æĪĳ",
      "å°ı ç¼ĸ",
      "çļĦ ä¸Ń",
      "éģĹ ä¼ł",
      "èĬĤ çº¦",
      "å®ļ åĪ¶",
      "æĺİ çĻ½",
      "æĻ Ĵ",
      "æŃ¤ åīį",
      "éĤ »",
      "å¯Ĩ åº¦",
      "åĳ¨ å¹´",
      "6 5",
      "ä¸Ģ çº§",
      "çĶ¨ éĢĶ",
      "é¢Ĺ ç²Ĵ",
      "æ¯ ģ",
      "æĶ¶ éĽĨ",
      "è¶³ å¤Ł",
      "æ¯ı ä¸ªäºº",
      "æĸ°æĹ¶ä»£ ä¸ŃåĽ½çī¹èī²ç¤¾ä¼ļä¸»ä¹ī",
      "è¦ ĭ",
      "ä¸ §",
      "ä¸ĵ ç§ĳ",
      "çļĦ ä¸ĵä¸ļ",
      "æĬĳ åĪ¶",
      "å¹² åĩĢ",
      "æīĢ å¾Ĺ",
      "æĪĲ æķĪ",
      "è¡Ĺ éģĵ",
      "ä¼ Ĳ",
      "ä¼ł æĦŁ",
      "æľį çĶ¨",
      "çº· çº·",
      "å¼ Ĺ",
      "è´¢ äº§",
      "åĲĪ æĪĲ",
      "æ¡ ĳ",
      "åŃķ å¦ĩ",
      "é£İ æľº",
      "åĩº åıĳ",
      "åĨħ æ¶µ",
      "æ» ļ",
      "å ļ",
      "æı Ń",
      "ç§į ç±»",
      "æ¶Ī éĻ¤",
      "å¥ī çĮ®",
      "æĪĺ æĸĹ",
      "çĹħ çļĦ",
      "å¤§ ä¼Ĺ",
      "è¾ Ĳ",
      "å±± è¥¿",
      "åı¯ä»¥ è¯´",
      "äºĭ åĬ¡",
      "æĦ Ľ",
      "æħ¢ æħ¢",
      "çİ© å®¶",
      "çĿ¡ çľł",
      "çŃī çº§",
      "èĤ ĸ",
      "åı¤ ä»£",
      "åĪĨ ç¦»",
      "èµĦ è´¨",
      "æ±Ł è¥¿",
      "èŀį åħ¥",
      "ä¸ī åĪĨ",
      "å¤§ çº¦",
      "ä¼ļ åĳĺ",
      "å¼ĺ æī¬",
      "çŁ¥è¯Ĩ äº§æĿĥ",
      "çĽ ²",
      "çĨ ±",
      "åĽŀ çŃĶ",
      "åĴ ĸ",
      "çĶµ æľº",
      "æľĢ ä½İ",
      "æĽ´å¥½ åľ°",
      "ä¿ ±ä¹Ĳ",
      "æīİ å®ŀ",
      "çĸ¾çĹħ çļĦ",
      "æĹ¥ åŃĲ",
      "åİ ¨",
      "æŃ¤ æĹ¶",
      "éĥ¨ çļĦ",
      "çĥŃ æ°´",
      "èī² çļĦ",
      "æĽ °",
      "æ¶Ī æ¯Ĵ",
      "ä»¥ä¸Ĭ çļĦ",
      "èİ·å¾Ĺ äºĨ",
      "çĥ ĺ",
      "ä¾¿ åĪ©",
      "ä¸ī å¤§",
      "ç»Ŀ å¯¹",
      "æĸĩ çī©",
      "éĥ¨ éķ¿",
      "åĩº æĿ¥çļĦ",
      "äºĪ ä»¥",
      "å¨ ĺ",
      "å¯¹ æīĭ",
      "åĳ¨ è¾¹",
      "ç£ ·",
      "ç«ĭ è¶³",
      "ä¸ľ åĮĹ",
      "è®° å¿Ĩ",
      "èĪª å¤©",
      "äº§çĶŁ çļĦ",
      "åĵª éĩĮ",
      "æµ ©",
      "åįļçī© é¦Ĩ",
      "éĻĦ è¿ĳ",
      "å® ª",
      "çĽ´ åĪ°",
      "éª ĳ",
      "åıĺ æĪĲ",
      "çļĦåŁºç¡Ģ ä¸Ĭ",
      "p p",
      "æĮĩ æĮ¥",
      "çłĶç©¶ æīĢ",
      "éĿĴ å²Ľ",
      "è¾ħ åĬ©",
      "åĮº çļĦ",
      "åħļ ç»Ħç»ĩ",
      "åľ¨ è¿Ļä¸ª",
      "åŃ Ŀ",
      "èµĽ äºĭ",
      "éľ į",
      "èĮĥåĽ´ åĨħ",
      "éĿŀ æ³ķ",
      "åī Ĭ",
      "åħ¬ åĳĬ",
      "åĽ¾ ä¹¦",
      "è§Ĥ çĤ¹",
      "å° Ī",
      "åħļçļĦ äºĮåįģå¤§",
      "åĨ· åį´",
      "èİ ²",
      "èĤ¡ä»½ æľīéĻĲåħ¬åı¸",
      "å¤ ¹",
      "çľĭ çľĭ",
      "éł Ń",
      "éĥ½ åı¯ä»¥",
      "ä¸Ĭ åįĪ",
      "æĬķèµĦ èĢħ",
      "åħ» æ®ĸ",
      "éŀ ĭ",
      "9 9",
      "åīį åĪĹ",
      "ä¸ Ī",
      "çĮ Ľ",
      "æķ° åŃ¦",
      "æĺ ¨",
      "ä¿® å¤į",
      "çĽ¸åħ³ çļĦ",
      "æ··åĩĿ åľŁ",
      "çĥŃ æĥħ",
      "çī© åĵģ",
      "æĲ ı",
      "è£ ķ",
      "æľŁ æľĽ",
      "é«ĺ äºİ",
      "å¸¸è§ģ çļĦ",
      "èµ ļ",
      "æ¢ Ŀ",
      "åı¦ä¸Ģ æĸ¹éĿ¢",
      "çĪ± çļĦ",
      "çµ ¦",
      "æł¡ éķ¿",
      "ä¸ŃåĮ» èį¯",
      "èµ° åĲĳ",
      "è®© æĪĳ",
      "æĸ° å¢ŀ",
      "ä¹Ł æ²¡æľī",
      "æłĳ èĦĤ",
      "åİ ¦",
      "åĿĩ åĮĢ",
      "ä¹Ļ çĥ¯",
      "æįŁ ä¼¤",
      "çĽ¸åºĶ çļĦ",
      "ä¸ļ ç»©",
      "ç´§ å¯Ĩ",
      "åħ³ èĬĤ",
      "çĦĬ æİ¥",
      "æ¯ı æ¬¡",
      "ä½Ĩ åľ¨",
      "åŃ Ł",
      "ç¼ Ĩ",
      "æĭ ĸ",
      "å¯¼ åĲĳ",
      "ä¸Ń åŃ¦",
      "éĽĨ æĪĲ",
      "åĿ ª",
      "çıŃ åŃĲ",
      "éĹ ª",
      "åĽ¾ çīĩ",
      "ä¸ŃåĽ½ äººæ°ĳ",
      "å¿ħ çĦ¶",
      "åħģ è®¸",
      "åĩĿ èģļ",
      "å®ĥ æĺ¯",
      "éĽ¶ åĶ®",
      "èĤ¡ ä¸ľ",
      "åıĳ çļĦ",
      "ç¬¬ åħŃ",
      "ä¹Ł å¾Ī",
      "ç¡® è®¤",
      "å¢ ĵ",
      "æ¡Ī ä¾ĭ",
      "ä¸Ģ åĢĭ",
[...]
