{
  "version": "1.0",
  "truncation": null,
  "padding": null,
  "added_tokens": [
    {
      "id": 0,
      "content": "<|endoftext|>",
      "single_word": false,
      "lstrip": false,
      "rstrip": false,
      "normalized": false,
      "special": true
    },
    {
      "id": 1,
      "content": "<|im_start|>",
      "single_word": false,
      "lstrip": false,
      "rstrip": false,
      "normalized": false,
      "special": true
    },
    {
      "id": 2,
      "content": "<|im_end|>",
      "single_word": false,
      "lstrip": false,
      "rstrip": false,
      "normalized": false,
      "special": true
    },
    {
      "id": 3,
      "content": "<|object_ref_start|>",
      "single_word": false,
      "lstrip": false,
      "rstrip": false,
      "normalized": false,
      "special": true
    },
    {
      "id": 4,
      "content": "<|object_ref_end|>",
      "single_word": false,
      "lstrip": false,
      "rstrip": false,
      "normalized": false,
      "special": true
    },
    {
      "id": 5,
      "content": "<|box_start|>",
      "single_word": false,
      "lstrip": false,
      "rstrip": false,
      "normalized": false,
      "special": true
    },
    {
      "id": 6,
      "content": "<|box_end|>",
      "single_word": false,
      "lstrip": false,
      "rstrip": false,
      "normalized": false,
      "special": true
    },
    {
      "id": 7,
      "content": "<|quad_start|>",
      "single_word": false,
      "lstrip": false,
      "rstrip": false,
      "normalized": false,
      "special": true
    },
    {
      "id": 8,
      "content": "<|quad_end|>",
      "single_word": false,
      "lstrip": false,
      "rstrip": false,
      "normalized": false,
      "special": true
    },
    {
      "id": 9,
      "content": "<|vision_start|>",
      "single_word": false,
      "lstrip": false,
      "rstrip": false,
      "normalized": false,
      "special": true
    },
    {
      "id": 10,
      "content": "<|vision_end|>",
      "single_word": false,
      "lstrip": false,
      "rstrip": false,
      "normalized": false,
      "special": true
    },
    {
      "id": 11,
      "content": "<|vision_pad|>",
      "single_word": false,
      "lstrip": false,
      "rstrip": false,
      "normalized": false,
      "special": true
    },
    {
      "id": 12,
      "content": "<|image_pad|>",
      "single_word": false,
      "lstrip": false,
      "rstrip": false,
      "normalized": false,
      "special": true
    },
    {
      "id": 13,
      "content": "<|video_pad|>",
      "single_word": false,
      "lstrip": false,
      "rstrip": false,
      "normalized": false,
      "special": true
    },
    {
      "id": 14,
      "content": "<|audio_start|>",
      "single_word": false,
      "lstrip": false,
      "rstrip": false,
      "normalized": false,
      "special": true
    },
    {
      "id": 15,
      "content": "<|audio_end|>",
      "single_word": false,
      "lstrip": false,
      "rstrip": false,
      "normalized": false,
      "special": true
    },
    {
      "id": 16,
      "content": "<|audio_pad|>",
      "single_word": false,
      "lstrip": false,
      "rstrip": false,
      "normalized": false,
      "special": true
    },
    {
      "id": 17,
      "content": "<tts_pad>",
      "single_word": false,
      "lstrip": false,
      "rstrip": false,
      "normalized": false,
      "special": true
    },
    {
      "id": 18,
      "content": "<tts_text_bos>",
      "single_word": false,
      "lstrip": false,
      "rstrip": false,
      "normalized": false,
      "special": true
    },
    {
      "id": 19,
      "content": "<tts_text_eod>",
      "single_word": false,
      "lstrip": false,
      "rstrip": false,
      "normalized": false,
      "special": true
    },
    {
      "id": 20,
      "content": "<tts_text_bos_single>",
      "single_word": false,
      "lstrip": false,
      "rstrip": false,
      "normalized": false,
      "special": true
    },
    {
      "id": 21,
      "content": "<tool_call>",
      "single_word": false,
      "lstrip": false,
      "rstrip": false,
      "normalized": false,
      "special": false
    },
    {
      "id": 22,
      "content": "</tool_call>",
      "single_word": false,
      "lstrip": false,
      "rstrip": false,
      "normalized": false,
      "special": false
    },
    {
      "id": 23,
      "content": "<tool_response>",
      "single_word": false,
      "lstrip": false,
      "rstrip": false,
      "normalized": false,
      "special": false
    },
    {
      "id": 24,
      "content": "</tool_response>",
      "single_word": false,
      "lstrip": false,
      "rstrip": false,
      "normalized": false,
      "special": false
    },
    {
      "id": 25,
      "content": "<think>",
      "single_word": false,
      "lstrip": false,
      "rstrip": false,
      "normalized": false,
      "special": false
    },
    {
      "id": 26,
      "content": "</think>",
      "single_word": false,
      "lstrip": false,
      "rstrip": false,
      "normalized": false,
      "special": false
    },
    {
      "id": 27,
      "content": "<|buffer1|>",
      "single_word": false,
      "lstrip": false,
      "rstrip": false,
      "normalized": false,
      "special": false
    },
    {
      "id": 28,
      "content": "<|buffer2|>",
      "single_word": false,
      "lstrip": false,
      "rstrip": false,
      "normalized": false,
      "special": false
    },
    {
      "id": 29,
      "content": "<|buffer3|>",
      "single_word": false,
      "lstrip": false,
      "rstrip": false,
      "normalized": false,
      "special": false
    },
    {
      "id": 30,
      "content": "<|buffer4|>",
      "single_word": false,
      "lstrip": false,
      "rstrip": false,
      "normalized": false,
      "special": false
    },
    {
      "id": 31,
      "content": "<|buffer5|>",
      "single_word": false,
      "lstrip": false,
      "rstrip": false,
      "normalized": false,
      "special": false
    },
    {
      "id": 32,
      "content": "<|buffer6|>",
      "single_word": false,
      "lstrip": false,
      "rstrip": false,
      "normalized": false,
      "special": false
    },
    {
      "id": 33,
      "content": "<|buffer7|>",
      "single_word": false,
      "lstrip": false,
      "rstrip": false,
      "normalized": false,
      "special": false
    },
    {
      "id": 34,
      "content": "<|buffer8|>",
      "single_word": false,
      "lstrip": false,
      "rstrip": false,
      "normalized": false,
      "special": false
    },
    {
      "id": 35,
      "content": "<|buffer9|>",
      "single_word": false,
      "lstrip": false,
      "rstrip": false,
      "normalized": false,
      "special": false
    },
    {
      "id": 36,
      "content": "<|buffer10|>",
      "single_word": false,
      "lstrip": false,
      "rstrip": false,
      "normalized": false,
      "special": false
    },
    {
      "id": 37,
      "content": "<|buffer11|>",
      "single_word": false,
      "lstrip": false,
      "rstrip": false,
      "normalized": false,
      "special": false
    },
    {
      "id": 38,
      "content": "<|buffer12|>",
      "single_word": false,
      "lstrip": false,
      "rstrip": false,
      "normalized": false,
      "special": false
    },
    {
      "id": 39,
      "content": "<|buffer13|>",
      "single_word": false,
      "lstrip": false,
      "rstrip": false,
      "normalized": false,
      "special": false
    },
    {
      "id": 40,
      "content": "<|buffer14|>",
      "single_word": false,
      "lstrip": false,
      "rstrip": false,
      "normalized": false,
      "special": false
    },
    {
      "id": 41,
      "content": "<|buffer15|>",
      "single_word": false,
      "lstrip": false,
      "rstrip": false,
      "normalized": false,
      "special": false
    },
    {
      "id": 42,
      "content": "<|buffer16|>",
      "single_word": false,
      "lstrip": false,
      "rstrip": false,
      "normalized": false,
      "special": false
    },
    {
      "id": 43,
      "content": "<|buffer17|>",
      "single_word": false,
      "lstrip": false,
      "rstrip": false,
      "normalized": false,
      "special": false
    },
    {
      "id": 44,
      "content": "<|buffer18|>",
      "single_word": false,
      "lstrip": false,
      "rstrip": false,
      "normalized": false,
      "special": false
    },
    {
      "id": 45,
      "content": "<|buffer19|>",
      "single_word": false,
      "lstrip": false,
      "rstrip": false,
      "normalized": false,
      "special": false
    },
    {
      "id": 46,
      "content": "<|buffer20|>",
      "single_word": false,
      "lstrip": false,
      "rstrip": false,
      "normalized": false,
      "special": false
    },
    {
      "id": 47,
      "content": "<|buffer21|>",
      "single_word": false,
      "lstrip": false,
      "rstrip": false,
      "normalized": false,
      "special": false
    },
    {
      "id": 48,
      "content": "<|buffer22|>",
      "single_word": false,
      "lstrip": false,
      "rstrip": false,
      "normalized": false,
      "special": false
    },
    {
      "id": 49,
      "content": "<|buffer23|>",
      "single_word": false,
      "lstrip": false,
      "rstrip": false,
      "normalized": false,
      "special": false
    },
    {
      "id": 50,
      "content": "<|buffer24|>",
      "single_word": false,
      "lstrip": false,
      "rstrip": false,
      "normalized": false,
      "special": false
    },
    {
      "id": 51,
      "content": "<|buffer25|>",
      "single_word": false,
      "lstrip": false,
      "rstrip": false,
      "normalized": false,
      "special": false
    },
    {
      "id": 52,
      "content": "<|buffer26|>",
      "single_word": false,
      "lstrip": false,
      "rstrip": false,
      "normalized": false,
      "special": false
    },
    {
      "id": 53,
      "content": "<|buffer27|>",
      "single_word": false,
      "lstrip": false,
      "rstrip": false,
      "normalized": false,
      "special": false
    },
    {
      "id": 54,
      "content": "<|buffer28|>",
      "single_word": false,
      "lstrip": false,
      "rstrip": false,
      "normalized": false,
      "special": false
    },
    {
      "id": 55,
      "content": "<|buffer29|>",
      "single_word": false,
      "lstrip": false,
      "rstrip": false,
      "normalized": false,
      "special": false
    },
    {
      "id": 56,
      "content": "<|buffer30|>",
      "single_word": false,
      "lstrip": false,
      "rstrip": false,
      "normalized": false,
      "special": false
    },
    {
      "id": 57,
      "content": "<|buffer31|>",
      "single_word": false,
      "lstrip": false,
      "rstrip": false,
      "normalized": false,
      "special": false
    },
    {
      "id": 58,
      "content": "<|buffer32|>",
      "single_word": false,
      "lstrip": false,
      "rstrip": false,
      "normalized": false,
      "special": false
    },
    {
      "id": 59,
      "content": "<|buffer33|>",
      "single_word": false,
      "lstrip": false,
      "rstrip": false,
      "normalized": false,
      "special": false
    },
    {
      "id": 60,
      "content": "<|buffer34|>",
      "single_word": false,
      "lstrip": false,
      "rstrip": false,
      "normalized": false,
      "special": false
    },
    {
      "id": 61,
      "content": "<|buffer35|>",
      "single_word": false,
      "lstrip": false,
      "rstrip": false,
      "normalized": false,
      "special": false
    },
    {
      "id": 62,
      "content": "<|buffer36|>",
      "single_word": false,
      "lstrip": false,
      "rstrip": false,
      "normalized": false,
      "special": false
    },
    {
      "id": 63,
      "content": "<|buffer37|>",
      "single_word": false,
      "lstrip": false,
      "rstrip": false,
      "normalized": false,
      "special": false
    }
  ],
  "normalizer": {
    "type": "NFKC"
  },
  "pre_tokenizer": {
    "type": "ByteLevel",
    "add_prefix_space": false,
    "trim_offsets": true,
    "use_regex": true
  },
  "post_processor": {
    "type": "TemplateProcessing",
    "single": [
      {
        "Sequence": {
          "id": "A",
          "type_id": 0
        }
      }
    ],
    "pair": [
      {
        "Sequence": {
          "id": "A",
          "type_id": 0
        }
      },
      {
        "Sequence": {
          "id": "B",
          "type_id": 1
        }
      }
    ],
    "special_tokens": {}
  },
  "decoder": {
    "type": "ByteLevel",
    "add_prefix_space": true,
    "trim_offsets": true,
    "use_regex": true
  },
  "model": {
    "type": "BPE",
    "dropout": null,
    "unk_token": null,
    "continuing_subword_prefix": null,
    "end_of_word_suffix": null,
    "fuse_unk": false,
    "byte_fallback": false,
    "ignore_merges": false,
    "vocab": {
      "<|endoftext|>": 0,
      "<|im_start|>": 1,
      "<|im_end|>": 2,
      "<|object_ref_start|>": 3,
      "<|object_ref_end|>": 4,
      "<|box_start|>": 5,
      "<|box_end|>": 6,
      "<|quad_start|>": 7,
      "<|quad_end|>": 8,
      "<|vision_start|>": 9,
      "<|vision_end|>": 10,
      "<|vision_pad|>": 11,
      "<|image_pad|>": 12,
      "<|video_pad|>": 13,
      "<|audio_start|>": 14,
      "<|audio_end|>": 15,
      "<|audio_pad|>": 16,
      "<tts_pad>": 17,
      "<tts_text_bos>": 18,
      "<tts_text_eod>": 19,
      "<tts_text_bos_single>": 20,
      "<tool_call>": 21,
      "</tool_call>": 22,
      "<tool_response>": 23,
      "</tool_response>": 24,
      "<think>": 25,
      "</think>": 26,
      "<|buffer1|>": 27,
      "<|buffer2|>": 28,
      "<|buffer3|>": 29,
      "<|buffer4|>": 30,
      "<|buffer5|>": 31,
      "<|buffer6|>": 32,
      "<|buffer7|>": 33,
      "<|buffer8|>": 34,
      "<|buffer9|>": 35,
      "<|buffer10|>": 36,
      "<|buffer11|>": 37,
      "<|buffer12|>": 38,
      "<|buffer13|>": 39,
      "<|buffer14|>": 40,
      "<|buffer15|>": 41,
      "<|buffer16|>": 42,
      "<|buffer17|>": 43,
      "<|buffer18|>": 44,
      "<|buffer19|>": 45,
      "<|buffer20|>": 46,
      "<|buffer21|>": 47,
      "<|buffer22|>": 48,
      "<|buffer23|>": 49,
      "<|buffer24|>": 50,
      "<|buffer25|>": 51,
      "<|buffer26|>": 52,
      "<|buffer27|>": 53,
      "<|buffer28|>": 54,
      "<|buffer29|>": 55,
      "<|buffer30|>": 56,
      "<|buffer31|>": 57,
      "<|buffer32|>": 58,
      "<|buffer33|>": 59,
      "<|buffer34|>": 60,
      "<|buffer35|>": 61,
      "<|buffer36|>": 62,
      "<|buffer37|>": 63,
      "!": 64,
      "\"": 65,
      "#": 66,
      "$": 67,
      "%": 68,
      "&": 69,
      "'": 70,
      "(": 71,
      ")": 72,
      "*": 73,
      "+": 74,
      ",": 75,
      "-": 76,
      ".": 77,
      "/": 78,
      "0": 79,
      "1": 80,
      "2": 81,
      "3": 82,
      "4": 83,
      "5": 84,
      "6": 85,
      "7": 86,
      "8": 87,
      "9": 88,
      ":": 89,
      ";": 90,
      "<": 91,
      "=": 92,
      ">": 93,
      "?": 94,
      "@": 95,
      "A": 96,
      "B": 97,
      "C": 98,
      "D": 99,
      "E": 100,
      "F": 101,
      "G": 102,
      "H": 103,
      "I": 104,
      "J": 105,
      "K": 106,
      "L": 107,
      "M": 108,
      "N": 109,
      "O": 110,
      "P": 111,
      "Q": 112,
      "R": 113,
      "S": 114,
      "T": 115,
      "U": 116,
      "V": 117,
      "W": 118,
      "X": 119,
      "Y": 120,
      "Z": 121,
      "[": 122,
      "\\": 123,
      "]": 124,
      "^": 125,
      "_": 126,
      "`": 127,
      "a": 128,
      "b": 129,
      "c": 130,
      "d": 131,
      "e": 132,
      "f": 133,
      "g": 134,
      "h": 135,
      "i": 136,
      "j": 137,
      "k": 138,
      "l": 139,
      "m": 140,
      "n": 141,
      "o": 142,
      "p": 143,
      "q": 144,
      "r": 145,
      "s": 146,
      "t": 147,
      "u": 148,
      "v": 149,
      "w": 150,
      "x": 151,
      "y": 152,
      "z": 153,
      "{": 154,
      "|": 155,
      "}": 156,
      "~": 157,
      "¡": 158,
      "¢": 159,
      "£": 160,
      "¤": 161,
      "¥": 162,
      "¦": 163,
      "§": 164,
      "¨": 165,
      "©": 166,
      "ª": 167,
      "«": 168,
      "¬": 169,
      "®": 170,
      "¯": 171,
      "°": 172,
      "±": 173,
      "²": 174,
      "³": 175,
      "´": 176,
      "µ": 177,
      "¶": 178,
      "·": 179,
      "¸": 180,
      "¹": 181,
      "º": 182,
      "»": 183,
      "¼": 184,
      "½": 185,
      "¾": 186,
      "¿": 187,
      "À": 188,
      "Á": 189,
      "Â": 190,
      "Ã": 191,
      "Ä": 192,
      "Å": 193,
      "Æ": 194,
      "Ç": 195,
      "È": 196,
      "É": 197,
      "Ê": 198,
      "Ë": 199,
      "Ì": 200,
      "Í": 201,
      "Î": 202,
      "Ï": 203,
      "Ð": 204,
      "Ñ": 205,
      "Ò": 206,
      "Ó": 207,
      "Ô": 208,
      "Õ": 209,
      "Ö": 210,
      "×": 211,
      "Ø": 212,
      "Ù": 213,
      "Ú": 214,
      "Û": 215,
      "Ü": 216,
      "Ý": 217,
      "Þ": 218,
      "ß": 219,
      "à": 220,
      "á": 221,
      "â": 222,
      "ã": 223,
      "ä": 224,
      "å": 225,
      "æ": 226,
      "ç": 227,
      "è": 228,
      "é": 229,
      "ê": 230,
      "ë": 231,
      "ì": 232,
      "í": 233,
      "î": 234,
      "ï": 235,
      "ð": 236,
      "ñ": 237,
      "ò": 238,
      "ó": 239,
      "ô": 240,
      "õ": 241,
      "ö": 242,
      "÷": 243,
      "ø": 244,
      "ù": 245,
      "ú": 246,
      "û": 247,
      "ü": 248,
      "ý": 249,
      "þ": 250,
      "ÿ": 251,
      "Ā": 252,
      "ā": 253,
      "Ă": 254,
      "ă": 255,
      "Ą": 256,
      "ą": 257,
      "Ć": 258,
      "ć": 259,
      "Ĉ": 260,
      "ĉ": 261,
      "Ċ": 262,
      "ċ": 263,
      "Č": 264,
      "č": 265,
      "Ď": 266,
      "ď": 267,
      "Đ": 268,
      "đ": 269,
      "Ē": 270,
      "ē": 271,
      "Ĕ": 272,
      "ĕ": 273,
      "Ė": 274,
      "ė": 275,
      "Ę": 276,
      "ę": 277,
      "Ě": 278,
      "ě": 279,
      "Ĝ": 280,
      "ĝ": 281,
      "Ğ": 282,
      "ğ": 283,
      "Ġ": 284,
      "ġ": 285,
      "Ģ": 286,
      "ģ": 287,
      "Ĥ": 288,
      "ĥ": 289,
      "Ħ": 290,
      "ħ": 291,
      "Ĩ": 292,
      "ĩ": 293,
      "Ī": 294,
      "ī": 295,
      "Ĭ": 296,
      "ĭ": 297,
      "Į": 298,
      "į": 299,
      "İ": 300,
      "ı": 301,
      "Ĳ": 302,
      "ĳ": 303,
      "Ĵ": 304,
      "ĵ": 305,
      "Ķ": 306,
      "ķ": 307,
      "ĸ": 308,
      "Ĺ": 309,
      "ĺ": 310,
      "Ļ": 311,
      "ļ": 312,
      "Ľ": 313,
      "ľ": 314,
      "Ŀ": 315,
      "ŀ": 316,
      "Ł": 317,
      "ł": 318,
      "Ń": 319,
      "ä¸": 320,
      "ãĢ": 321,
      "çļ": 322,
      "çļĦ": 323,
      "äº": 324,
      "ãĢĤ": 325,
      "æľ": 326,
      "åı": 327,
      "åħ": 328,
      "ä»": 329,
      "å¤": 330,
      "ãĢģ": 331,
      "å®": 332,
      "åĪ": 333,
      "ä½": 334,
      "è¿": 335,
      "çĶ": 336,
      "åľ": 337,
      "åĲ": 338,
      "åĬ": 339,
      "æĺ": 340,
      "ç»": 341,
      "åĽ": 342,
      "æĪ": 343,
      "æĸ": 344,
      "ä¹": 345,
      "ä¼": 346,
      "ä¸Ģ": 347,
      "å¹": 348,
      "å°": 349,
      "æĺ¯": 350,
      "åŃ": 351,
      "è®": 352,
      "æĹ": 353,
      "åį": 354,
      "âĢ": 355,
      "å·": 356,
      "æľī": 357,
      "è¯": 358,
      "åľ¨": 359,
      "éĩ": 360,
      "æĿ": 361,
      "äºº": 362,
      "åĮ": 363,
      "ä¸į": 364,
      "å¸": 365,
      "åº": 366,
      "ä¸Ń": 367,
      "å¼": 368,
      "æī": 369,
      "éĢ": 370,
      "åĴ": 371,
      "è¡": 372,
      "å¾": 373,
      "åĨ": 374,
      "èĢ": 375,
      "å¯": 376,
      "åĴĮ": 377,
      "åĩ": 378,
      "äºĨ": 379,
      "æķ": 380,
      "å±": 381,
      "ĥ½": 382,
      "æĢ": 383,
      "å¤§": 384,
      "çĽ": 385,
      "æĬ": 386,
      "æ°": 387,
      "è´": 388,
      "ä¸º": 389,
      "ç§": 390,
      "æł": 391,
      "åĽ½": 392,
      "è§": 393,
      "çĶŁ": 394,
      "çİ": 395,
      "è¦": 396,
      "ä¸ļ": 397,
      "çī": 398,
      "èµ": 399,
      "ä»¥": 400,
      "å¥": 401,
      "æĶ": 402,
      "è¦ģ": 403,
      "å¿": 404,
      "éĻ": 405,
      "åŃ¦": 406,
      "éĿ": 407,
      "åıĳ": 408,
      "èĩ": 409,
      "å¹´": 410,
      "åİ": 411,
      "ä¼ļ": 412,
      "çĶ¨": 413,
      "æŃ": 414,
      "æ³": 415,
      "çŃ": 416,
      "çĲ": 417,
      "ä¿": 418,
      "å½": 419,
      "èĥ½": 420,
      "éĹ": 421,
      "æ²": 422,
      "çº": 423,
      "å·¥": 424,
      "ä¸Ĭ": 425,
      "ä½ľ": 426,
      "åĳ": 427,
      "æİ": 428,
      "æµ": 429,
      "æŀ": 430,
      "æĹ¶": 431,
      "ä¸ª": 432,
      "âĢľ": 433,
      "âĢĿ": 434,
      "æĪĲ": 435,
      "è¡Į": 436,
      "åĵ": 437,
      "è¿Ļ": 438,
      "åı¯": 439,
      "é¢": 440,
      "æĪĳ": 441,
      "åĪ°": 442,
      "æ¯": 443,
      "å¯¹": 444,
      "æĮ": 445,
      "åĩº": 446,
      "åŁ": 447,
      "æĥ": 448,
      "è¾": 449,
      "éĺ": 450,
      "é«": 451,
      "å®¶": 452,
      "äºİ": 453,
      "çĲĨ": 454,
      "çľ": 455,
      "åī": 456,
      "é«ĺ": 457,
      "èĤ": 458,
      "äº§": 459,
      "æĿ¥": 460,
      "æ±": 461,
      "çŃī": 462,
      "å¤ļ": 463,
      "åľ°": 464,
      "åĮĸ": 465,
      "æĦ": 466,
      "æĭ": 467,
      "æĸ¹": 468,
      "åħ¨": 469,
      "åĪĨ": 470,
      "åĬĽ": 471,
      "è¿Ľ": 472,
      "è½": 473,
      "èĩª": 474,
      "éģ": 475,
      "ä½ĵ": 476,
      "æĸ°": 477,
      "å»": 478,
      "ç®": 479,
      "æĢ§": 480,
      "ä¾": 481,
      "æ´": 482,
      "ç«": 483,
      "åĬ¨": 484,
      "å®ŀ": 485,
      "ç»ı": 486,
      "åħ¬": 487,
      "æ¸": 488,
      "ä¹Ł": 489,
      "è¿ĩ": 490,
      "çİ°": 491,
      "éĥ": 492,
      "ä»¬": 493,
      "å¦": 494,
      "ç¨": 495,
      "å°±": 496,
      "å±ķ": 497,
      "åĲİ": 498,
      "éķ": 499,
      "åĲĪ": 500,
      "ä¸»": 501,
      "çĤ": 502,
      "çĻ": 503,
      "åģ": 504,
      "ä¸ĭ": 505,
      "éĿ¢": 506,
      "æı": 507,
      "éĩį": 508,
      "é£": 509,
      "æ¬": 510,
      "ç½": 511,
      "æĽ": 512,
      "å»º": 513,
      "ä»ĸ": 514,
      "å®ļ": 515,
      "æľº": 516,
      "åĵģ": 517,
      "éĥ¨": 518,
      "åĲĮ": 519,
      "è®¾": 520,
      "å¥½": 521,
      "ä¸İ": 522,
      "é¡": 523,
      "èī": 524,
      "æ³ķ": 525,
      "åĬł": 526,
      "å¿ĥ": 527,
      "å¸Ĥ": 528,
      "ä¹ĭ": 529,
      "åº¦": 530,
      "æ°´": 531,
      "èģ": 532,
      "ç¤": 533,
      "èĢĮ": 534,
      "å¼Ģ": 535,
      "çĹ": 536,
      "éĽ": 537,
      "å¢": 538,
      "åŃĲ": 539,
      "æĻ": 540,
      "åħ¶": 541,
      "åĪ¶": 542,
      "æľ¬": 543,
      "å¾Ĺ": 544,
      "20": 545,
      "åĢ": 546,
      "éĩı": 547,
      "èĢħ": 548,
      "è¶": 549,
      "çĸ": 550,
      "ç¬": 551,
      "éķ¿": 552,
      "è·": 553,
      "çŁ": 554,
      "æıĲ": 555,
      "çī©": 556,
      "è°": 557,
      "å¦Ĥ": 558,
      "åĿ": 559,
      "åĬ¡": 560,
      "åħ³": 561,
      "ä¿Ŀ": 562,
      "æīĢ": 563,
      "äºĭ": 564,
      "ç®¡": 565,
      "åıĬ": 566,
      "ç¾": 567,
      "æĹ¥": 568,
      "åīį": 569,
      "åºĶ": 570,
      "éļ": 571,
      "æ¶": 572,
      "éĢļ": 573,
      "æį": 574,
      "åĨħ": 575,
      "éĥ½": 576,
      "çĿ": 577,
      "çĶµ": 578,
      "ç³": 579,
      "æķĻ": 580,
      "å§": 581,
      "çł": 582,
      "åľº": 583,
      "ç©": 584,
      "èĬ": 585,
      "æĥħ": 586,
      "ç§į": 587,
      "çķ": 588,
      "å°ı": 589,
      "åĽł": 590,
      "ç²": 591,
      "æľĪ": 592,
      "æŁ": 593,
      "æĸĩ": 594,
      "çĦ": 595,
      "å¤ĸ": 596,
      "ç¨ĭ": 597,
      "ç´": 598,
      "åĮº": 599,
      "æ°ĳ": 600,
      "åıĳå±ķ": 601,
      "èĲ": 602,
      "æľĢ": 603,
      "å¹³": 604,
      "æĬĢ": 605,
      "çĥ": 606,
      "éľ": 607,
      "èµĦ": 608,
      "éħ": 609,
      "ç§ĳ": 610,
      "æĽ´": 611,
      "çĽ®": 612,
      "éĹ´": 613,
      "çĽ¸": 614,
      "ä½į": 615,
      "è´¨": 616,
      "å¤©": 617,
      "åĳĺ": 618,
      "æĦı": 619,
      "å·¥ä½ľ": 620,
      "å°Ĩ": 621,
      "åħ¥": 622,
      "ä¸ŃåĽ½": 623,
      "æ¯Ķ": 624,
      "æľ¯": 625,
      "æľŁ": 626,
      "å¸¸": 627,
      "ç¡": 628,
      "çĤ¹": 629,
      "ç³»": 630,
      "å®ī": 631,
      "ç¬¬": 632,
      "ä»£": 633,
      "ä½¿": 634,
      "æĶ¿": 635,
      "ç±": 636,
      "Ĥ£": 637,
      "è¡¨": 638,
      "éĶ": 639,
      "è¯´": 640,
      "å¼º": 641,
      "å¾Ī": 642,
      "ä¸ī": 643,
      "èĥ": 644,
      "å½ĵ": 645,
      "æ·": 646,
      "åı¸": 647,
      "è¿ĺ": 648,
      "æ´»": 649,
      "éģĵ": 650,
      "çī¹": 651,
      "æŀľ": 652,
      "ä¼ģ": 653,
      "æ²»": 654,
      "éĩĳ": 655,
      "èµ·": 656,
      "ä»İ": 657,
      "åı¯ä»¥": 658,
      "å¹¶": 659,
      "èį": 660,
      "æģ": 661,
      "æĺİ": 662,
      "åĪ©": 663,
      "ç¥": 664,
      "æ¬¡": 665,
      "çĦ¶": 666,
      "èĪ": 667,
      "æŃ¤": 668,
      "çĿĢ": 669,
      "åŁº": 670,
      "ä¿¡": 671,
      "ãĢĭ": 672,
      "ãĢĬ": 673,
      "ä½Ĩ": 674,
      "ä¸ĵ": 675,
      "åĲĦ": 676,
      "éĴ": 677,
      "æĪĳä»¬": 678,
      "æĪĸ": 679,
      "è®¡": 680,
      "åħ¬åı¸": 681,
      "ä¼ģä¸ļ": 682,
      "éĻ¢": 683,
      "é£İ": 684,
      "åĲį": 685,
      "æĮģ": 686,
      "æľį": 687,
      "æķ°": 688,
      "éĵ": 689,
      "ç¾İ": 690,
      "çĹħ": 691,
      "æĹł": 692,
      "äºĽ": 693,
      "è§Ħ": 694,
      "åħļ": 695,
      "å¼ı": 696,
      "ä¸Ģä¸ª": 697,
      "çģ": 698,
      "èĭ": 699,
      "ä½ł": 700,
      "è§£": 701,
      "æŃ£": 702,
      "èĤ²": 703,
      "ç»ĵ": 704,
      "é¦": 705,
      "ç¼": 706,
      "è¢": 707,
      "è£": 708,
      "éĢł": 709,
      "å¯¼": 710,
      "éľĢ": 711,
      "åķ": 712,
      "èº": 713,
      "å£": 714,
      "æº": 715,
      "èī²": 716,
      "åŀ": 717,
      "äºĮ": 718,
      "ç¤¾": 719,
      "åĸ": 720,
      "æ¡": 721,
      "ä»»": 722,
      "çĪ": 723,
      "ç»Ł": 724,
      "æ±Ĥ": 725,
      "åħ·": 726,
      "æ°Ķ": 727,
      "é¢ĺ": 728,
      "èĦ": 729,
      "åĮ»": 730,
      "åģļ": 731,
      "åįģ": 732,
      "é¡¹": 733,
      "åĪĽ": 734,
      "çłĶ": 735,
      "çľĭ": 736,
      "åħĥ": 737,
      "00": 738,
      "éĩĮ": 739,
      "å¢ŀ": 740,
      "ç«ĭ": 741,
      "ç¦": 742,
      "èº«": 743,
      "æłĩ": 744,
      "æĦŁ": 745,
      "å¤Ħ": 746,
      "ç½ĳ": 747,
      "æķĪ": 748,
      "æĥ³": 749,
      "æį®": 750,
      "æµģ": 751,
      "æİ¥": 752,
      "çĶ±": 753,
      "è¿Ĳ": 754,
      "ç²¾": 755,
      "æīĭ": 756,
      "éĹ®": 757,
      "éĹ¨": 758,
      "ç»Ħ": 759,
      "ä»¶": 760,
      "ä¹Ī": 761,
      "åİ»": 762,
      "æł·": 763,
      "èĮ": 764,
      "è¢«": 765,
      "æł¡": 766,
      "è½¦": 767,
      "å·±": 768,
      "æĸĻ": 769,
      "çĲĥ": 770,
      "åĲĳ": 771,
      "ä¼ł": 772,
      "æ»": 773,
      "çĻ½": 774,
      "éª": 775,
      "åİŁ": 776,
      "æĬĢæľ¯": 777,
      "æĢ»": 778,
      "åıĹ": 779,
      "é¢Ĩ": 780,
      "è¥": 781,
      "å¤ĩ": 782,
      "å·²": 783,
      "æ²¡": 784,
      "çº§": 785,
      "èĩªå·±": 786,
      "åħ±": 787,
      "è·¯": 788,
      "äº¤": 789,
      "è¥¿": 790,
      "åķĨ": 791,
      "çİ¯": 792,
      "å½¢": 793,
      "æł¼": 794,
      "æµ·": 795,
      "åŀĭ": 796,
      "å½±": 797,
      "ä¸¤": 798,
      "çŁ¥": 799,
      "ç®¡çĲĨ": 800,
      "æ£": 801,
      "é©": 802,
      "æľįåĬ¡": 803,
      "çľģ": 804,
      "åįķ": 805,
      "éĺ²": 806,
      "åħĪ": 807,
      "é»": 808,
      "è¿Ľè¡Į": 809,
      "åıĺ": 810,
      "ç±»": 811,
      "è°ĥ": 812,
      "å°ĳ": 813,
      "ä¼ĺ": 814,
      "åĽ½å®¶": 815,
      "æİ¨": 816,
      "ä¸ĩ": 817,
      "éĽĨ": 818,
      "éĺŁ": 819,
      "æĶ¹": 820,
      "åĻ": 821,
      "èģĶ": 822,
      "èİ": 823,
      "æ¢": 824,
      "èĩ³": 825,
      "å¹¿": 826,
      "æ·±": 827,
      "èĻ": 828,
      "ä¸ĸ": 829,
      "ä¹ł": 830,
      "ç¤º": 831,
      "æĶ¶": 832,
      "éĤ£": 833,
      "è¾ĥ": 834,
      "äº§åĵģ": 835,
      "å¸Ī": 836,
      "æ®": 837,
      "åıª": 838,
      "å»ºè®¾": 839,
      "åŁİ": 840,
      "çĸĹ": 841,
      "æĮĩ": 842,
      "æŀĦ": 843,
      "æºĲ": 844,
      "æīį": 845,
      "æĸ½": 846,
      "æĬ¥": 847,
      "å±±": 848,
      "é£Ł": 849,
      "æĶ¾": 850,
      "ç¤¾ä¼ļ": 851,
      "å®Į": 852,
      "åįĹ": 853,
      "ä¸ľ": 854,
      "ä¹¦": 855,
      "åı£": 856,
      "èµĽ": 857,
      "ä¾Ľ": 858,
      "çĥŃ": 859,
      "åıĸ": 860,
      "éĢī": 861,
      "è®¤": 862,
      "çº¿": 863,
      "æ¨": 864,
      "åĻ¨": 865,
      "èĬĤ": 866,
      "è¾¾": 867,
      "æ³¨": 868,
      "èĲ¥": 869,
      "è®©": 870,
      "èĢģ": 871,
      "è®°": 872,
      "åĽĽ": 873,
      "æ¼": 874,
      "ä»·": 875,
      "å¸¦": 876,
      "è¿ĳ": 877,
      "ç¥ŀ": 878,
      "è£ħ": 879,
      "å®¹": 880,
      "éĿŀ": 881,
      "åĮĹ": 882,
      "çĬ": 883,
      "ç¡®": 884,
      "èĢĥ": 885,
      "æĪĺ": 886,
      "çķĮ": 887,
      "æĿ¡": 888,
      "åĩĨ": 889,
      "æĬ¤": 890,
      "åĪ«": 891,
      "éĹ®é¢ĺ": 892,
      "åħī": 893,
      "å§Ķ": 894,
      "åı°": 895,
      "æķĻèĤ²": 896,
      "èħ": 897,
      "è¯ģ": 898,
      "çħ": 899,
      "å²": 900,
      "åĽ¢": 901,
      "æ¯ı": 902,
      "åĨ³": 903,
      "å¢ĥ": 904,
      "ç´ł": 905,
      "æµİ": 906,
      "çĽ´": 907,
      "åĬŁ": 908,
      "æķ´": 909,
      "æīĵ": 910,
      "æĢĿ": 911,
      "æ²¡æľī": 912,
      "æĺĵ": 913,
      "æŃ¥": 914,
      "å¥³": 915,
      "è±": 916,
      "ä½İ": 917,
      "äºĶ": 918,
      "æĶ¯": 919,
      "201": 920,
      "æĬĬ": 921,
      "ç©º": 922,
      "åĶ": 923,
      "æ¸ħ": 924,
      "ä¹ī": 925,
      "æĿĲ": 926,
      "åĽŀ": 927,
      "ç©¶": 928,
      "åħ»": 929,
      "åĮħ": 930,
      "èģĮ": 931,
      "å±Ģ": 932,
      "ä½¿çĶ¨": 933,
      "ç»Ļ": 934,
      "è§Ĥ": 935,
      "çľŁ": 936,
      "åĭ": 937,
      "çĶŁäº§": 938,
      "æĬķ": 939,
      "å®ĥ": 940,
      "è§Ĩ": 941,
      "æ¶Ī": 942,
      "è´¹": 943,
      "æĪ·": 944,
      "åĬŀ": 945,
      "éĻħ": 946,
      "å¼ķ": 947,
      "éľĢè¦ģ": 948,
      "é¥": 949,
      "å¤´": 950,
      "ç»ıæµİ": 951,
      "æģ¯": 952,
      "å¿«": 953,
      "Ġ,": 954,
      "å¸Ĥåľº": 955,
      "è¯¥": 956,
      "èį¯": 957,
      "å¤į": 958,
      "ç§¯": 959,
      "çİĩ": 960,
      "æł¹": 961,
      "è¨": 962,
      "æŁ¥": 963,
      "åĬ©": 964,
      "ç»´": 965,
      "å°±æĺ¯": 966,
      "éĢļè¿ĩ": 967,
      "éĢŁ": 968,
      "è®®": 969,
      "åıĤ": 970,
      "ä»Ĭ": 971,
      "è¯Ĩ": 972,
      "åįĩ": 973,
      "èĩ´": 974,
      "è´£": 975,
      "è§ģ": 976,
      "æĢģ": 977,
      "åĨį": 978,
      "çĶŁæ´»": 979,
      "å¿ħ": 980,
      "éĩįè¦ģ": 981,
      "å¹²": 982,
      "æĤ£": 983,
      "åįİ": 984,
      "å¸ĥ": 985,
      "å®¢": 986,
      "è®º": 987,
      "åĿļ": 988,
      "çłĶç©¶": 989,
      "èı": 990,
      "æĤ": 991,
      "å®īåħ¨": 992,
      "çı": 993,
      "è½¬": 994,
      "éªĮ": 995,
      "åĦ": 996,
      "åĨµ": 997,
      "æĸŃ": 998,
      "æĸ¯": 999,
      "æŀģ": 1000,
      "ç»Ń": 1001,
      "åıį": 1002,
      "åİĨ": 1003,
      "ä¸»è¦ģ": 1004,
      "ä¸ĵä¸ļ": 1005,
      "è¶³": 1006,
      "èĬ±": 1007,
      "è¶Ĭ": 1008,
      "æİ§": 1009,
      "æ¸©": 1010,
      "æħ": 1011,
      "éĻĲ": 1012,
      "åĳ½": 1013,
      "éŁ": 1014,
      "åģ¥": 1015,
      "å¦Ĥæŀľ": 1016,
      "10": 1017,
      "åĵį": 1018,
      "çĪ±": 1019,
      "è¯Ŀ": 1020,
      "æĹ¶éĹ´": 1021,
      "å¡": 1022,
      "å¾·": 1023,
      "æ¹": 1024,
      "æ£Ģ": 1025,
      "æ¸¸": 1026,
      "èĳ": 1027,
      "ä¸Ķ": 1028,
      "æĿĥ": 1029,
      "ä½ķ": 1030,
      "ç¢": 1031,
      "å·ŀ": 1032,
      "éĢĤ": 1033,
      "æ¨¡": 1034,
      "é¡¹çĽ®": 1035,
      "çĭ": 1036,
      "èĮĥ": 1037,
      "åİĭ": 1038,
      "è¯ķ": 1039,
      "ä»ĸä»¬": 1040,
      "åĢ¼": 1041,
      "åĨľ": 1042,
      "èİ·": 1043,
      "æİĴ": 1044,
      "çļĦäºº": 1045,
      "çª": 1046,
      "éĩĩ": 1047,
      "éļ¾": 1048,
      "è¶ħ": 1049,
      "ä»Ģ": 1050,
      "åŁŁ": 1051,
      "æľª": 1052,
      "å·¥ç¨ĭ": 1053,
      "æ¡Ī": 1054,
      "åĪĻ": 1055,
      "é¦ĸ": 1056,
      "æĸ¹éĿ¢": 1057,
      "åº·": 1058,
      "åĳĬ": 1059,
      "åĬ¿": 1060,
      "æĸĩåĮĸ": 1061,
      "å§ĭ": 1062,
      "çĬ¶": 1063,
      "åĨĽ": 1064,
      "åı²": 1065,
      "è¡Ģ": 1066,
      "åŃĺ": 1067,
      "åħĭ": 1068,
      "ç§°": 1069,
      "äººæ°ĳ": 1070,
      "åĳ¨": 1071,
      "èŀ": 1072,
      "æ²¹": 1073,
      "âĢĿ,": 1074,
      "æ²»çĸĹ": 1075,
      "åıĪ": 1076,
      "ä¸¥": 1077,
      "ç³»ç»Ł": 1078,
      "ç»ĩ": 1079,
      "æĺ¾": 1080,
      "åĦ¿": 1081,
      "æµĭ": 1082,
      "ä¸ĸçķĮ": 1083,
      "é©¬": 1084,
      "åĪĴ": 1085,
      "çļ®": 1086,
      "è¦ģæ±Ĥ": 1087,
      "åħ·æľī": 1088,
      "ä¼Ĺ": 1089,
      "éĻ¤": 1090,
      "éħį": 1091,
      "å¥¹": 1092,
      "åŃ¦çĶŁ": 1093,
      "åŃĹ": 1094,
      "19": 1095,
      "æıĲä¾Ľ": 1096,
      "ä¾¿": 1097,
      "çİ¯å¢ĥ": 1098,
      "ä¹Ĳ": 1099,
      "å½±åĵį": 1100,
      "æ±Ł": 1101,
      "åı¯èĥ½": 1102,
      "æĥħåĨµ": 1103,
      "æĪ¿": 1104,
      "ä»Ģä¹Ī": 1105,
      "åŁ¹": 1106,
      "è¡Įä¸ļ": 1107,
      "è¿Ļä¸ª": 1108,
      "åĢĻ": 1109,
      "åĪĩ": 1110,
      "è´¨éĩı": 1111,
      "ç»Ĩ": 1112,
      "éĿĴ": 1113,
      "åįı": 1114,
      "èīº": 1115,
      "âĢĶ": 1116,
      "èĲ½": 1117,
      "çĽĳ": 1118,
      "å¥½çļĦ": 1119,
      "åĲĮæĹ¶": 1120,
      "åŃ¦ä¹ł": 1121,
      "çħ§": 1122,
      "ç«Ļ": 1123,
      "ç±³": 1124,
      "è®¾è®¡": 1125,
      "åĽłä¸º": 1126,
      "çĮ": 1127,
      "çīĩ": 1128,
      "è®¾å¤ĩ": 1129,
      "åľŁ": 1130,
      "çģ«": 1131,
      "çº¦": 1132,
      "æľĽ": 1133,
      "çİĭ": 1134,
      "å¼ł": 1135,
      "äº§ä¸ļ": 1136,
      "äº¬": 1137,
      "èĥ½åĬĽ": 1138,
      "çŁ³": 1139,
      "ãĢĤâĢĿ": 1140,
      "å±ŀ": 1141,
      "å±Ĥ": 1142,
      "æĴ": 1143,
      "é¾": 1144,
      "å£«": 1145,
      "å°Ķ": 1146,
      "æļ": 1147,
      "æīĢä»¥": 1148,
      "é¢Ħ": 1149,
      "å¤ª": 1150,
      "æ´»åĬ¨": 1151,
      "å¤±": 1152,
      "æĳ": 1153,
      "æī¿": 1154,
      "åĩł": 1155,
      "éĻį": 1156,
      "è±¡": 1157,
      "æ¥": 1158,
      "åºľ": 1159,
      "åį³": 1160,
      "éĶĢ": 1161,
      "åĪĽæĸ°": 1162,
      "æĺ¯ä¸Ģ": 1163,
      "çº¢": 1164,
      "æ®µ": 1165,
      "åĸĦ": 1166,
      "ä»¥åıĬ": 1167,
      "æĿ¿": 1168,
      "ä¾Ŀ": 1169,
      "éļı": 1170,
      "ç½®": 1171,
      "èµ°": 1172,
      "æ¼Ķ": 1173,
      "åħħ": 1174,
      "ç¦»": 1175,
      "æıĲé«ĺ": 1176,
      "çĻ¾": 1177,
      "ç»Ħç»ĩ": 1178,
      "çĽĬ": 1179,
      "æĤ£èĢħ": 1180,
      "æ»¡": 1181,
      "èŀį": 1182,
      "æł¸": 1183,
      "æĿĳ": 1184,
      "åħį": 1185,
      "ä¿¡æģ¯": 1186,
      "ä»ħ": 1187,
      "åĪĹ": 1188,
      "åĥ": 1189,
      "å®¤": 1190,
      "æĵ": 1191,
      "çļĦä¸Ģ": 1192,
      "å¨": 1193,
      "èī¯": 1194,
      "ä½ľä¸º": 1195,
      "åł": 1196,
      "çīĮ": 1197,
      "åĩı": 1198,
      "ä¸įåĲĮ": 1199,
      "å¤§çļĦ": 1200,
      "å¯Į": 1201,
      "æŀĹ": 1202,
      "æĻº": 1203,
      "éĤ": 1204,
      "éĻ©": 1205,
      "å¤Ł": 1206,
      "æĻ¯": 1207,
      "éĿ©": 1208,
      "äº¿": 1209,
      "å¾Ģ": 1210,
      "è¯Ħ": 1211,
      "è´Ł": 1212,
      "ç²¾ç¥ŀ": 1213,
      "æ¿": 1214,
      "ä¾ĭ": 1215,
      "çŃĸ": 1216,
      "ä¸Ńå¿ĥ": 1217,
      "äºī": 1218,
      "äººåĳĺ": 1219,
      "åŃ©": 1220,
      "è¿Ļæł·": 1221,
      "äººçļĦ": 1222,
      "æĪĲä¸º": 1223,
      "ä¸ŃçļĦ": 1224,
      "ä½ľçĶ¨": 1225,
      "è¨Ģ": 1226,
      "éĺ³": 1227,
      "äºļ": 1228,
      "åŃ¦æł¡": 1229,
      "å¾Īå¤ļ": 1230,
      "åĽ´": 1231,
      "ä¿®": 1232,
      "åİ¿": 1233,
      "å¾ĭ": 1234,
      "ç¾¤": 1235,
      "æĶ¿åºľ": 1236,
      "åı·": 1237,
      "å¿µ": 1238,
      "è®¸": 1239,
      "æĮī": 1240,
      "åĩºçİ°": 1241,
      "æĲ": 1242,
      "ä½ı": 1243,
      "åĽ½éĻħ": 1244,
      "å¿Ĺ": 1245,
      "ä¹Łæĺ¯": 1246,
      "æĭ©": 1247,
      "å¤§åŃ¦": 1248,
      "åĽ¾": 1249,
      "åĲ«": 1250,
      "åıĭ": 1251,
      "éĿŀå¸¸": 1252,
      "è¿ŀ": 1253,
      "åĽŃ": 1254,
      "å®ŀçİ°": 1255,
      "åĲĥ": 1256,
      "ç®Ĺ": 1257,
      "ç»Ī": 1258,
      "æĹ©": 1259,
      "æĿĲæĸĻ": 1260,
      "æĭī": 1261,
      "ä»½": 1262,
      "çĹĩ": 1263,
      "ç¬¬ä¸Ģ": 1264,
      "å®³": 1265,
      "æ²³": 1266,
      "âĢĿãĢĤ": 1267,
      "è¿ĻäºĽ": 1268,
      "ä¸Ģå®ļ": 1269,
      "ä¸ĢäºĽ": 1270,
      "å·²ç»ı": 1271,
      "åıĮ": 1272,
      "éĢīæĭ©": 1273,
      "ç§ĳåŃ¦": 1274,
      "èª": 1275,
      "çĽ¸åħ³": 1276,
      "åģ¥åº·": 1277,
      "è¯Ń": 1278,
      "å¯¹äºİ": 1279,
      "åĿĩ": 1280,
      "å¯Ĩ": 1281,
      "è¿ľ": 1282,
      "èĩªå·±çļĦ": 1283,
      "éħĴ": 1284,
      "åħ¨åĽ½": 1285,
      "ç§ĳæĬĢ": 1286,
      "äºĴ": 1287,
      "èĪ¬": 1288,
      "è§Ĵ": 1289,
      "æ¿Ģ": 1290,
      "æŁĵ": 1291,
      "åĤ": 1292,
      "è§ī": 1293,
      "è¿ĩç¨ĭ": 1294,
      "æĻ®": 1295,
      "åħ¶ä»ĸ": 1296,
      "èĤ¡": 1297,
      "åĲĪä½ľ": 1298,
      "é»Ħ": 1299,
      "éĴ¢": 1300,
      "åħ´": 1301,
      "æł¹æį®": 1302,
      "ä¸įæĸŃ": 1303,
      "æĹ¶åĢĻ": 1304,
      "åĽłæŃ¤": 1305,
      "è´¢": 1306,
      "çŃĳ": 1307,
      "å©": 1308,
      "é¡»": 1309,
      "çĽ®åīį": 1310,
      "è®²": 1311,
      "åĶ®": 1312,
      "ä½Ĩæĺ¯": 1313,
      "å¾®": 1314,
      "æĹı": 1315,
      "ĠãĢĤ": 1316,
      "ä»¥ä¸Ĭ": 1317,
      "è¯·": 1318,
      "å¤ĦçĲĨ": 1319,
      "ä¸įæĺ¯": 1320,
      "åŁİå¸Ĥ": 1321,
      "çĨ": 1322,
      "æĬķèµĦ": 1323,
      "åı¤": 1324,
      "ä¸įèĥ½": 1325,
      "åıĳçĶŁ": 1326,
      "æķħ": 1327,
      "åĲ¸": 1328,
      "æłĩåĩĨ": 1329,
      "åĪ°äºĨ": 1330,
      "12": 1331,
      "èĭ±": 1332,
      "è½»": 1333,
      "éĥ¨éĹ¨": 1334,
      "èŃ": 1335,
      "åįķä½į": 1336,
      "åĥı": 1337,
      "åŁºç¡": 1338,
      "åŃ©åŃĲ": 1339,
      "çľ¼": 1340,
      "ç¦ı": 1341,
      "éŁ³": 1342,
      "åŁºç¡Ģ": 1343,
      "ç¨³": 1344,
      "æĸ¹å¼ı": 1345,
      "éħ¸": 1346,
      "æī¹": 1347,
      "èĨ": 1348,
      "ä¸¾": 1349,
      "åĪĿ": 1350,
      "è¯¾": 1351,
      "çĸ«": 1352,
      "å±ħ": 1353,
      "éĥ¨åĪĨ": 1354,
      "æŃ¢": 1355,
      "æ¤": 1356,
      "å¤§å®¶": 1357,
      "è®Ń": 1358,
      "åŃ£": 1359,
      "åºĶçĶ¨": 1360,
      "æĿİ": 1361,
      "é¦Ļ": 1362,
      "è¾¹": 1363,
      "åĮ»éĻ¢": 1364,
      "çĵ": 1365,
      "è¡¨ç¤º": 1366,
      "éĵģ": 1367,
      "éĵ¶": 1368,
      "åī¯": 1369,
      "ä¼¤": 1370,
      "æľ¨": 1371,
      "åħ¶ä¸Ń": 1372,
      "200": 1373,
      "æ¬¾": 1374,
      "åĳ³": 1375,
      "æĬĹ": 1376,
      "ä¸»ä¹ī": 1377,
      "åİĤ": 1378,
      "æķ°æį®": 1379,
      "çĶ·": 1380,
      "çĩ": 1381,
      "ä¸ĢèĪ¬": 1382,
      "æĭ¬": 1383,
      "å°½": 1384,
      "èĥ½å¤Ł": 1385,
      "å»ºçŃĳ": 1386,
      "çºª": 1387,
      "éļľ": 1388,
      "èģļ": 1389,
      "çªģ": 1390,
      "åį«": 1391,
      "åİĨåı²": 1392,
      "çļĦæĺ¯": 1393,
      "éĥ½æĺ¯": 1394,
      "åºķ": 1395,
      "å£°": 1396,
      "è¾ĵ": 1397,
      "å®¡": 1398,
      "ç®Ģ": 1399,
      "å¥ĸ": 1400,
      "å·¥ä¸ļ": 1401,
      "æĭħ": 1402,
      "çķ¥": 1403,
      "11": 1404,
      "åħ«": 1405,
      "å¼Ģå§ĭ": 1406,
      "åīĤ": 1407,
      "åįĬ": 1408,
      "çł´": 1409,
      "æĸ¹æ³ķ": 1410,
      "æľīéĻĲ": 1411,
      "ç£": 1412,
      "åħ¨éĿ¢": 1413,
      "ä»ĭ": 1414,
      "æ½": 1415,
      "çıŃ": 1416,
      "é²": 1417,
      "å®Ŀ": 1418,
      ":âĢľ": 1419,
      "æ¶²": 1420,
      "çĻ½çĻ": 1421,
      "æĺŁ": 1422,
      "å®ĺ": 1423,
      "ľé£İ": 1424,
      "è¿Ļç§į": 1425,
      "æ±½": 1426,
      "å¼Ģå±ķ": 1427,
      "åĮħæĭ¬": 1428,
      "åĬŁèĥ½": 1429,
      "äº²": 1430,
      "çĻ½çĻľé£İ": 1431,
      "èµĦæºĲ": 1432,
      "ä¿ĥ": 1433,
      "å¸Į": 1434,
      "ĠãĢģ": 1435,
      "è¡¥": 1436,
      "åĸľ": 1437,
      "éĨ": 1438,
      "éĽĨåĽ¢": 1439,
      "é¾Ļ": 1440,
      "åĿļæĮģ": 1441,
      "å®£": 1442,
      "æĹħ": 1443,
      "æĪĸèĢħ": 1444,
      "è§Ħå®ļ": 1445,
      "åį°": 1446,
      "æ±¡": 1447,
      "èİ·å¾Ĺ": 1448,
      "å¿ħé¡»": 1449,
      "æĪĳåĽ½": 1450,
      "æ¯Ĵ": 1451,
      "ä¿ĿæĬ¤": 1452,
      "åľ°åĮº": 1453,
      "ç½Ĺ": 1454,
      "ç¼º": 1455,
      "çĶ±äºİ": 1456,
      "æ°´å¹³": 1457,
      "ç§¯æŀģ": 1458,
      "ç¿": 1459,
      "èĴ": 1460,
      "æĽ¾": 1461,
      "æĺ¥": 1462,
      "åį´": 1463,
      "ç»ĵæŀĦ": 1464,
      "åĨ·": 1465,
      "èĹ": 1466,
      "åįļ": 1467,
      "ä¸´": 1468,
      "å¢ŀéķ¿": 1469,
      "é¢ĨåŁŁ": 1470,
      "çķĻ": 1471,
      "çİ°åľ¨": 1472,
      "åħŃ": 1473,
      "ä»£è¡¨": 1474,
      "æıĲåįĩ": 1475,
      "åĮĹäº¬": 1476,
      "æľºæŀĦ": 1477,
      "æī§": 1478,
      "é¢Ĩå¯¼": 1479,
      "ç¾İåĽ½": 1480,
      "åī§": 1481,
      "æ¯Ķè¾ĥ": 1482,
      "30": 1483,
      "åĬłå¼º": 1484,
      "çĭ¬": 1485,
      "æ³¨æĦı": 1486,
      "202": 1487,
      "ç»§": 1488,
      "æŀĲ": 1489,
      "ä½Ļ": 1490,
      "çĶ»": 1491,
      "å·®": 1492,
      "ç¯": 1493,
      "ä¸ĢæŃ¥": 1494,
      "éĢģ": 1495,
      "åı¦": 1496,
      "å·´": 1497,
      "å¸®": 1498,
      "çĸ¾": 1499,
      "åįł": 1500,
      "ç´§": 1501,
      "éº": 1502,
      "15": 1503,
      "è´Ń": 1504,
      "æĹ¶ä»£": 1505,
      "ç¨İ": 1506,
      "å¢ŀåĬł": 1507,
      "äºĳ": 1508,
      "å¾ģ": 1509,
      "äºĨè§£": 1510,
      "åĽº": 1511,
      "åĬ³": 1512,
      "æİ§åĪ¶": 1513,
      "èĳĹ": 1514,
      "ç»¼": 1515,
      "ä¸ªäºº": 1516,
      "ä¹¡": 1517,
      "å¤®": 1518,
      "è´£ä»»": 1519,
      "åįĥ": 1520,
      "ä¸°": 1521,
      "æįŁ": 1522,
      "çĤİ": 1523,
      "é»ĳ": 1524,
      "åŁºæľ¬": 1525,
      "ç»ľ": 1526,
      "å¹³åı°": 1527,
      "ç»¿": 1528,
      "ç¬¬äºĮ": 1529,
      "å½¢æĪĲ": 1530,
      "å®¢æĪ·": 1531,
      "æ¦": 1532,
      "è¿ĺæĺ¯": 1533,
      "å¾ħ": 1534,
      "æķĻåŃ¦": 1535,
      "æŃ¦": 1536,
      "æ¹ĸ": 1537,
      "åĪ»": 1538,
      "çİ°ä»£": 1539,
      "åĵģçīĮ": 1540,
      "å®ĮæĪĲ": 1541,
      "æĢĿæĥ³": 1542,
      "å¼Ĥ": 1543,
      "å¹´çļĦ": 1544,
      "æ¬¢": 1545,
      "æŁĲ": 1546,
      "åŃ¦éĻ¢": 1547,
      "åħ³ç³»": 1548,
      "çĤº": 1549,
      "æ¸¯": 1550,
      "é¥®": 1551,
      "çº³": 1552,
      "æĶ¹éĿ©": 1553,
      "ä¸įä¼ļ": 1554,
      "åĨħå®¹": 1555,
      "å¯¼èĩ´": 1556,
      "èĢĮä¸Ķ": 1557,
      "é¸": 1558,
      "é¼": 1559,
      "çŁŃ": 1560,
      "æľīéĻĲåħ¬åı¸": 1561,
      "éľĢæ±Ĥ": 1562,
      "åĽ½åĨħ": 1563,
      "æĶ¿çŃĸ": 1564,
      "åºĹ": 1565,
      "è§£åĨ³": 1566,
      "å¯Ł": 1567,
      "æľīæķĪ": 1568,
      "æ¯į": 1569,
      "åĪ¶éĢł": 1570,
      "ç«ŀ": 1571,
      "èĮ¶": 1572,
      "äººæīį": 1573,
      "éķĩ": 1574,
      "åĩ»": 1575,
      "éĤ£ä¹Ī": 1576,
      "èĢĲ": 1577,
      "åıĳçİ°": 1578,
      "æłĳ": 1579,
      "åĪĨæŀĲ": 1580,
      "åį¡": 1581,
      "è®¤ä¸º": 1582,
      "é¢Ŀ": 1583,
      "èĥľ": 1584,
      "æĶ¿æ²»": 1585,
      "åĲĦç§į": 1586,
      "æī¾": 1587,
      "ä½ĵç³»": 1588,
      "è´§": 1589,
      "çĶ³": 1590,
      "æİ¨è¿Ľ": 1591,
      "åĨł": 1592,
      "æŃ»": 1593,
      "æĸ°çļĦ": 1594,
      "ä¸ĬçļĦ": 1595,
      "éģ¿": 1596,
      "åĲ¦": 1597,
      "æ¢¦": 1598,
      "ç»ıèĲ¥": 1599,
      "å°Ħ": 1600,
      "åı¥": 1601,
      "èĻ½": 1602,
      "å¸ĮæľĽ": 1603,
      "åĪ©çĶ¨": 1604,
      "äº§çĶŁ": 1605,
      "æĽ´åĬł": 1606,
      "éĩįçĤ¹": 1607,
      "æ³¢": 1608,
      "ä¸ºäºĨ": 1609,
      "æĮ¥": 1610,
      "åĨĻ": 1611,
      "ç»¼åĲĪ": 1612,
      "è¿Ļä¸Ģ": 1613,
      "èĩªçĦ¶": 1614,
      "æľīåħ³": 1615,
      "),": 1616,
      "çĹĽ": 1617,
      "ç½ĳç»ľ": 1618,
      "æĿ¥çļĦ": 1619,
      "å²ģ": 1620,
      "å®ŀæĸ½": 1621,
      "åĪ¶åº¦": 1622,
      "ç¼ĸ": 1623,
      "ç§»": 1624,
      "çĶ¨äºİ": 1625,
      "ä¼ļè®®": 1626,
      "æľĥ": 1627,
      ",âĢľ": 1628,
      "çĽ®æłĩ": 1629,
      "èĪª": 1630,
      "æį¢": 1631,
      "ç«¯": 1632,
      "éĴŁ": 1633,
      "ä¼łç»Ł": 1634,
      "åį±": 1635,
      "åħļçļĦ": 1636,
      "ç»Ŀ": 1637,
      "éĢłæĪĲ": 1638,
      "å¼Ģåıĳ": 1639,
      "éĩĩçĶ¨": 1640,
      "æİ¨åĬ¨": 1641,
      "åŃĺåľ¨": 1642,
      "éĺ¿": 1643,
      "å®¹æĺĵ": 1644,
      "åħ°": 1645,
      "æĭ¥": 1646,
      "éģĩ": 1647,
      "ä»¤": 1648,
      "æ±ī": 1649,
      "æĶ¯æĮģ": 1650,
      "èĭı": 1651,
      "åĲ¬": 1652,
      "ä¹¦è®°": 1653,
      "æ°§": 1654,
      "å½ķ": 1655,
      "åº§": 1656,
      "çīĽ": 1657,
      "ä¹ĭåĲİ": 1658,
      "ç§Ģ": 1659,
      "çī¹èī²": 1660,
      "æ¶Īè´¹": 1661,
      "çŁ¥éģĵ": 1662,
      "ä¸Ńå¤®": 1663,
      "æīĢæľī": 1664,
      "æĴŃ": 1665,
      "æĸĹ": 1666,
      "æ±½è½¦": 1667,
      "çļĦæĹ¶åĢĻ": 1668,
      "äºĨä¸Ģ": 1669,
      "çĸ¾çĹħ": 1670,
      "çŁ¥è¯Ĩ": 1671,
      "æĦ¿": 1672,
      "ä¸įä»ħ": 1673,
      "ç«ł": 1674,
      "æ¬§": 1675,
      "æķĪæŀľ": 1676,
      "èıľ": 1677,
      "æ´Ĺ": 1678,
      "æĤ¨": 1679,
      "æĭĽ": 1680,
      "å¦Ĥä½ķ": 1681,
      "è¯»": 1682,
      "åºŃ": 1683,
      "åĵª": 1684,
      "éĸ": 1685,
      "æĿ¡ä»¶": 1686,
      "èĽ": 1687,
      "åºĶè¯¥": 1688,
      "çī¹åĪ«": 1689,
      "æ¤į": 1690,
      "ä¸ļåĬ¡": 1691,
      "è¾¾åĪ°": 1692,
      "æĩ": 1693,
      "ä¹Ŀ": 1694,
      "ä¿ĿæĮģ": 1695,
      "å®Ī": 1696,
      "Â·": 1697,
      "å»ºç«ĭ": 1698,
      "åľ°æĸ¹": 1699,
      "æĪı": 1700,
      "éĢĲ": 1701,
      "çĮ®": 1702,
      "åĬª": 1703,
      "çīĪ": 1704,
      "äº¿åħĥ": 1705,
      "ç»ĵåĲĪ": 1706,
      "èĤī": 1707,
      "æĢ¥": 1708,
      "è¿Ľä¸ĢæŃ¥": 1709,
      "å®ŀéĻħ": 1710,
      "èįī": 1711,
      "èģĮä¸ļ": 1712,
      "å¤«": 1713,
      "çĶļ": 1714,
      "ä»·æł¼": 1715,
      "èŃ¦": 1716,
      "åĽ°": 1717,
      "å±Ĭ": 1718,
      "ç²ī": 1719,
      "é¢ĳ": 1720,
      "è´Łè´£": 1721,
      "100": 1722,
      "æĵį": 1723,
      "å³": 1724,
      "æĢİ": 1725,
      "ä»į": 1726,
      "åºı": 1727,
      "åºĬ": 1728,
      "èº«ä½ĵ": 1729,
      "å½©": 1730,
      "âĢĶâĢĶ": 1731,
      "%,": 1732,
      "è¿ĺæľī": 1733,
      "å·¦": 1734,
      "æĿ¥è¯´": 1735,
      "è¿°": 1736,
      "åĩĢ": 1737,
      "åĳ¢": 1738,
      "çĿ£": 1739,
      "è¿Ļæĺ¯": 1740,
      "50": 1741,
      "åĬªåĬĽ": 1742,
      "è·µ": 1743,
      "æĮģç»Ń": 1744,
      "æıĲåĩº": 1745,
      "ä¸įè¦ģ": 1746,
      "ä»ª": 1747,
      "èīºæľ¯": 1748,
      "æĻĤ": 1749,
      "è²": 1750,
      "ä¸Ģèµ·": 1751,
      "åħ¨çĲĥ": 1752,
      "ä¹ħ": 1753,
      "åıĸå¾Ĺ": 1754,
      "æİĪ": 1755,
      "åŁ¹åħ»": 1756,
      "ç»į": 1757,
      "é£ŀ": 1758,
      "åı³": 1759,
      "è½®": 1760,
      "çµ": 1761,
      "ä»·åĢ¼": 1762,
      "ä¹ĭä¸Ģ": 1763,
      "éĻĪ": 1764,
      "åª": 1765,
      "è½¯": 1766,
      "ãĢĮ": 1767,
      "ä¼ĺåĬ¿": 1768,
      "ä¹°": 1769,
      "åİŁåĽł": 1770,
      "æİª": 1771,
      "çĶ²": 1772,
      "æ¯ĶèµĽ": 1773,
      "é½": 1774,
      "æ´²": 1775,
      "å¡ĳ": 1776,
      "è¿½": 1777,
      "åģľ": 1778,
      "é¤": 1779,
      "æĶ»": 1780,
      "ä¿ĥè¿Ľ": 1781,
      "éĿł": 1782,
      "éĺ¶": 1783,
      "ä¸ĥ": 1784,
      "ãĢį": 1785,
      "æĻºèĥ½": 1786,
      "éĶĢåĶ®": 1787,
      "æ¢°": 1788,
      "ç¨³å®ļ": 1789,
      "èĻ½çĦ¶": 1790,
      "çĽ´æİ¥": 1791,
      "æĪĺçķ¥": 1792,
      "ä¸Ĭæµ·": 1793,
      "ä¿Ŀéļľ": 1794,
      "éĴĪ": 1795,
      "é¡º": 1796,
      "è®¡åĪĴ": 1797,
      "äººä»¬": 1798,
      "ç»©": 1799,
      "èĤ¤": 1800,
      "æĽ´å¤ļ": 1801,
      "å¸®åĬ©": 1802,
      "18": 1803,
      "æĪĲåĬŁ": 1804,
      "äºĭä¸ļ": 1805,
      "äºĪ": 1806,
      "æ£ĢæŁ¥": 1807,
      "å¸Ń": 1808,
      "è´µ": 1809,
      "æ©": 1810,
      "éĴ±": 1811,
      "å®ģ": 1812,
      "åıªæľī": 1813,
      "æĭ¥æľī": 1814,
      "èıĮ": 1815,
      "ç´¢": 1816,
      "å°¼": 1817,
      "è¿ĲåĬ¨": 1818,
      "è¿Ľåħ¥": 1819,
      "å¥ĩ": 1820,
      "èĸ": 1821,
      "é£Łåĵģ": 1822,
      "è¯Ĭ": 1823,
      "çĶŁæĢģ": 1824,
      "å¥Ĺ": 1825,
      "éĶ®": 1826,
      "è·Ł": 1827,
      "åħ¸": 1828,
      "æķ£": 1829,
      "åĨ²": 1830,
      "çĻ»": 1831,
      "å¥ĭ": 1832,
      "è¯ī": 1833,
      "éļıçĿĢ": 1834,
      "è½½": 1835,
      "æħ¢": 1836,
      "èĵ": 1837,
      "åıĤåĬł": 1838,
      "çĪ¶": 1839,
      "èĦĳ": 1840,
      "é¦Ĩ": 1841,
      "åħ±åĲĮ": 1842,
      "éĢı": 1843,
      "è§ĦåĪĴ": 1844,
      "æķĻå¸Ī": 1845,
      "èĦ±": 1846,
      "ç¶": 1847,
      "éĢĻ": 1848,
      "è¡Įä¸º": 1849,
      "ä¹ĭéĹ´": 1850,
      "ç»ĥ": 1851,
      "ä¼¼": 1852,
      "åĪĺ": 1853,
      "å§Ķåĳĺ": 1854,
      "éĢĢ": 1855,
      "æĻļ": 1856,
      "çĶ¨æĪ·": 1857,
      "èį£": 1858,
      "çĶļèĩ³": 1859,
      "åıĬæĹ¶": 1860,
      "ä»ĭç»į": 1861,
      "æ³Ľ": 1862,
      "è¿ĩç¨ĭä¸Ń": 1863,
      "èĲ½å®ŀ": 1864,
      "æī©": 1865,
      "éŃ": 1866,
      "èĭ¦": 1867,
      "æ°ĳæĹı": 1868,
      "åħħåĪĨ": 1869,
      "ä»ĺ": 1870,
      "éĩĳèŀį": 1871,
      "èĨľ": 1872,
      "äº¤éĢļ": 1873,
      "ä¸¥éĩį": 1874,
      "æĮīçħ§": 1875,
      "æ³ķå¾ĭ": 1876,
      "çĶµåŃĲ": 1877,
      "åıĳå±ķçļĦ": 1878,
      "æīĺ": 1879,
      "æİ¢": 1880,
      "éĶĻ": 1881,
      "åģĩ": 1882,
      "åĮ»çĸĹ": 1883,
      "çļĦåıĳå±ķ": 1884,
      "æĿ¾": 1885,
      "æ¯ķ": 1886,
      "æĢ§èĥ½": 1887,
      "å¥¥": 1888,
      "æĹħæ¸¸": 1889,
      "ç¬¬ä¸ī": 1890,
      "åĬłå·¥": 1891,
      "åı¶": 1892,
      "ç¥¨": 1893,
      "åĺ": 1894,
      "åŃķ": 1895,
      "åŁ¹è®Ń": 1896,
      "æĢ§çļĦ": 1897,
      "å®«": 1898,
      "ä»Ĭå¹´": 1899,
      "å©ļ": 1900,
      "16": 1901,
      "å¨ģ": 1902,
      "è³": 1903,
      "å¾ĹåĪ°": 1904,
      "ç»§ç»Ń": 1905,
      "æł¸å¿ĥ": 1906,
      "è´¯": 1907,
      "å»¶": 1908,
      "ä»»ä½ķ": 1909,
      "åħ³äºİ": 1910,
      "æľĿ": 1911,
      "ç½ª": 1912,
      "èĥ½æºĲ": 1913,
      "æ°¸": 1914,
      "åĩıå°ĳ": 1915,
      "æīįèĥ½": 1916,
      "ä¸ĢçĽ´": 1917,
      "æĬĵ": 1918,
      "äº«": 1919,
      "åºĨ": 1920,
      "å½»": 1921,
      "æĬ¥åĳĬ": 1922,
      "çĴ": 1923,
      "ä¸¤ä¸ª": 1924,
      "çĽĸ": 1925,
      "åĪĨéĴŁ": 1926,
      "ä¼Ł": 1927,
      "è¶ħè¿ĩ": 1928,
      "åİļ": 1929,
      "å®ĮåĸĦ": 1930,
      "èĥĮ": 1931,
      "åĢĭ": 1932,
      "åıĳæĮ¥": 1933,
      "æ²Ļ": 1934,
      "æĿĤ": 1935,
      "ä¹İ": 1936,
      "çģµ": 1937,
      "è°Ī": 1938,
      "ä¸°å¯Į": 1939,
      "ç¦ģ": 1940,
      "ä½³": 1941,
      "çĨŁ": 1942,
      "æķĳ": 1943,
      "ä»ĸçļĦ": 1944,
      "éĽ¨": 1945,
      "éģ¿åħį": 1946,
      "åĪ¤": 1947,
      "é²ľ": 1948,
      "æ¾": 1949,
      "%ãĢĤ": 1950,
      "æĸ¹æ¡Ī": 1951,
      "æľĭ": 1952,
      "å®ŀè·µ": 1953,
      "èĥ¶": 1954,
      "è§Ħæ¨¡": 1955,
      "çĺ": 1956,
      "ä¸ĵå®¶": 1957,
      "èĮĥåĽ´": 1958,
      "ç¤¾ä¼ļä¸»ä¹ī": 1959,
      "è¿İ": 1960,
      "14": 1961,
      "éĻĦ": 1962,
      "è¯ļ": 1963,
      "å¼ķèµ·": 1964,
      "æľªæĿ¥": 1965,
      "æĢĢ": 1966,
      "ä½Ľ": 1967,
      "èħĲ": 1968,
      "çļĦå¤§": 1969,
      "éł": 1970,
      "éª¨": 1971,
      "èĹı": 1972,
      "æĸ½å·¥": 1973,
      "èĭ¥": 1974,
      "æŃĮ": 1975,
      "ç³»åĪĹ": 1976,
      "13": 1977,
      "åªĴ": 1978,
      "æ¨¡å¼ı": 1979,
      "æĮĩå¯¼": 1980,
      "ç»ıè¿ĩ": 1981,
      "æ¯Ľ": 1982,
      "ä¸ĩåħĥ": 1983,
      "åħ³éĶ®": 1984,
      "éĩįå¤§": 1985,
      "å®Ĺ": 1986,
      "åıĹåĪ°": 1987,
      "èĻĳ": 1988,
      "å°¤": 1989,
      "æľºæ¢°": 1990,
      "æĪĲæľ¬": 1991,
      "å°ģ": 1992,
      "äº®": 1993,
      "åıĺåĮĸ": 1994,
      "ç³ĸ": 1995,
      "ç«¥": 1996,
      "å®¶åºŃ": 1997,
      "æĽ²": 1998,
      "åĲ¯": 1999,
      "åºĵ": 2000,
      "åºŁ": 2001,
      "çĲĨè®º": 2002,
      "çĶŁçī©": 2003,
      "è¡¨çİ°": 2004,
      "çļ®èĤ¤": 2005,
      "ä¸Ģæ¬¡": 2006,
      "ä¸įåı¯": 2007,
      "ä¸Ńåįİ": 2008,
      "æľĢåĲİ": 2009,
      "è®¸å¤ļ": 2010,
      "ç¡¬": 2011,
      "ç»ıéªĮ": 2012,
      "æĹ¢": 2013,
      "ä»¥ä¸ĭ": 2014,
      "å¹´æĿ¥": 2015,
      "éķ¿æľŁ": 2016,
      "ä¿Ŀè¯ģ": 2017,
      "åıĤä¸İ": 2018,
      "åĬĽéĩı": 2019,
      "åģļå¥½": 2020,
      "è¿Ŀ": 2021,
      "åĿĹ": 2022,
      "ä¾Ĩ": 2023,
      "å¤ı": 2024,
      "åĽłç´ł": 2025,
      "çĳ": 2026,
      "æĪĲç«ĭ": 2027,
      "ä»¥æĿ¥": 2028,
      "åĪļ": 2029,
      "ä½ĵèĤ²": 2030,
      "æı¡": 2031,
      "æľĭåıĭ": 2032,
      "é£İéĻ©": 2033,
      "æĭ¿": 2034,
      "èµ·æĿ¥": 2035,
      "æĿ¯": 2036,
      "æ¥¼": 2037,
      "éĿĻ": 2038,
      "çļĦéĩįè¦ģ": 2039,
      "éģĹ": 2040,
      "èģĶç½ĳ": 2041,
      "è¡ĮæĶ¿": 2042,
      "éĽ¶": 2043,
      "çĥĪ": 2044,
      "ä¸Ģç§į": 2045,
      "åºĶå½ĵ": 2046,
      "ä»»åĬ¡": 2047,
      "çłĶåıĳ": 2048,
      "çŃĶ": 2049,
      "æĪĳçļĦ": 2050,
      "é±": 2051,
      "äº¤æµģ": 2052,
      "èĥŀ": 2053,
      "ç¾¤ä¼Ĺ": 2054,
      "éĹ»": 2055,
      "éĵ¾": 2056,
      "æ´ģ": 2057,
      "æ£Ģæµĭ": 2058,
      "æ¶¦": 2059,
      "æľīçļĦ": 2060,
      "ç©ºéĹ´": 2061,
      "çĬ¯": 2062,
      "çĸĳ": 2063,
      "ç¹": 2064,
      "ä¸½": 2065,
      "æĺ¯ä¸Ģç§į": 2066,
      "æİªæĸ½": 2067,
      "å®ľ": 2068,
      "ç«ŀäºī": 2069,
      "ä¸Ģæł·": 2070,
      "éĻįä½İ": 2071,
      "é±¼": 2072,
      "æŀ¶": 2073,
      "åħĪè¿Ľ": 2074,
      "è´¸": 2075,
      "å¦ĩ": 2076,
      "è¿ĳå¹³": 2077,
      "çī¹çĤ¹": 2078,
      "èĦĤ": 2079,
      "ç¬¦": 2080,
      "æ¶Ĥ": 2081,
      "çŁ¿": 2082,
      "èĶ": 2083,
      "ä¹łè¿ĳå¹³": 2084,
      "å¹¿æ³Ľ": 2085,
      "åĨ³å®ļ": 2086,
      "æ¶ī": 2087,
      "æĵįä½ľ": 2088,
      "å·Ŀ": 2089,
      ")ãĢģ": 2090,
      "éĺ¶æ®µ": 2091,
      "åį«çĶŁ": 2092,
      "é¡¾": 2093,
      "åħ·ä½ĵ": 2094,
      "æĺ¾ç¤º": 2095,
      "åĢŁ": 2096,
      "å¹²éĥ¨": 2097,
      "æ¹¿": 2098,
      "æĺ¯åľ¨": 2099,
      "å¹¸": 2100,
      "çĩĥ": 2101,
      "çĸ«æĥħ": 2102,
      "æľŁéĹ´": 2103,
      "æŃ£å¸¸": 2104,
      "åĪº": 2105,
      ")ãĢĤ": 2106,
      "æ±¡æŁĵ": 2107,
      "çĥŁ": 2108,
      "æĢİä¹Ī": 2109,
      "çİ©": 2110,
      "å·¨": 2111,
      "é¤Ĳ": 2112,
      "ä¼ĺç§Ģ": 2113,
      "èĩªåĬ¨": 2114,
      "è´«": 2115,
      "åĨĮ": 2116,
      "é¥°": 2117,
      "æİ¥åıĹ": 2118,
      "å®£ä¼ł": 2119,
      "éĿ¢ç§¯": 2120,
      "å¢ŀå¼º": 2121,
      "åĬ³åĬ¨": 2122,
      "æ¸Ĳ": 2123,
      "éĵ¶è¡Į": 2124,
      "æ·±åħ¥": 2125,
      "åĬ±": 2126,
      "åĨľä¸ļ": 2127,
      "ä¸Ŀ": 2128,
      "âĢĿãĢģ": 2129,
      "éĺ´": 2130,
      "ç¤¼": 2131,
      "ç»ĵæŀľ": 2132,
      "æ´¾": 2133,
      "è°¢": 2134,
      "çī©è´¨": 2135,
      "çŃ¾": 2136,
      "ä½łçļĦ": 2137,
      "ç´¯": 2138,
      "æ··": 2139,
      "å»ºè®®": 2140,
      "çĹĩçĬ¶": 2141,
      "çļĦé«ĺ": 2142,
      "éļĶ": 2143,
      "èĽĭ": 2144,
      "æĦıè¯Ĩ": 2145,
      "æĸ¹åĲĳ": 2146,
      "è®¾æĸ½": 2147,
      "åıĳå¸ĥ": 2148,
      "ãĢĭ,": 2149,
      "ç»´æĬ¤": 2150,
      "åĤ¨": 2151,
      "æĹłæ³ķ": 2152,
      "å·¥èīº": 2153,
      "ä¼ĳ": 2154,
      "é¹": 2155,
      "å¤ľ": 2156,
      "ä¸įè¿ĩ": 2157,
      "ä»İèĢĮ": 2158,
      "å°±ä¼ļ": 2159,
      "æĶ¶åħ¥": 2160,
      "åĲī": 2161,
      "17": 2162,
      "ç¢³": 2163,
      "æĦıä¹ī": 2164,
      "25": 2165,
      "åłĤ": 2166,
      "æ±ł": 2167,
      "çļĦäºĭ": 2168,
      "æĺ¯åĲ¦": 2169,
      "æ¡¥": 2170,
      "æĮĩåĩº": 2171,
      "000": 2172,
      "ä¹Łæľī": 2173,
      "è´¥": 2174,
      "åİĭåĬĽ": 2175,
      "å¹¶ä¸Ķ": 2176,
      "å½¢å¼ı": 2177,
      "å¿ĥçĲĨ": 2178,
      "åĮºåŁŁ": 2179,
      "çĲĨå¿µ": 2180,
      "çĶ³è¯·": 2181,
      "å¿«éĢŁ": 2182,
      "å®ŀéªĮ": 2183,
      "æĪĳä»¬çļĦ": 2184,
      "éľ²": 2185,
      "æĺİç¡®": 2186,
      "è¡£": 2187,
      "çĽŁ": 2188,
      "é£Łçī©": 2189,
      "èļ": 2190,
      "ç©¿": 2191,
      "åİħ": 2192,
      "æī¬": 2193,
      "åĳĺå·¥": 2194,
      "è®¿": 2195,
      "çļĩ": 2196,
      "è®°èĢħ": 2197,
      "èľ": 2198,
      "çĶ°": 2199,
      "40": 2200,
      "ç®±": 2201,
      "æĿĢ": 2202,
      "å¼±": 2203,
      "ç£¨": 2204,
      "èµĦéĩĳ": 2205,
      "çİ°åľº": 2206,
      "åĽ¢éĺŁ": 2207,
      "çİī": 2208,
      "çº¸": 2209,
      "æ¸¸æĪı": 2210,
      "æ»ĳ": 2211,
      "æİĮ": 2212,
      "çĽĽ": 2213,
      "ä¼´": 2214,
      "è§¦": 2215,
      "èĪŀ": 2216,
      "åĲĹ": 2217,
      "è·Ŀ": 2218,
      "è¸": 2219,
      "åľĭ": 2220,
      "é«ĺçļĦ": 2221,
      "å®Įåħ¨": 2222,
      "å°ļ": 2223,
      "æĹ¥æľ¬": 2224,
      "çľĭåĪ°": 2225,
      "ä½ľåĵģ": 2226,
      "çĶµå½±": 2227,
      "èĤ¥": 2228,
      "åĩĿ": 2229,
      "æĺİæĺ¾": 2230,
      "çĽĺ": 2231,
      "çĶŁåĳ½": 2232,
      "ç¨ĭåº¦": 2233,
      "ç®Ģåįķ": 2234,
      "è®¡ç®Ĺ": 2235,
      "å¤§éĩı": 2236,
      "æĪĲæŀľ": 2237,
      "åħļåĳĺ": 2238,
      "ç¡®ä¿Ŀ": 2239,
      "é½Ĳ": 2240,
      "å¹ħ": 2241,
      "æ¸©åº¦": 2242,
      "ãĢĤâĢľ": 2243,
      "åħ¶å®ŀ": 2244,
      "è©": 2245,
      "çĽĳçĿ£": 2246,
      "è§ĦèĮĥ": 2247,
      "åĪĽéĢł": 2248,
      "éĩĬ": 2249,
      "åĨ¬": 2250,
      "åŃ¸": 2251,
      "å´": 2252,
      "æ»¡è¶³": 2253,
      "è¯¢": 2254,
      "çĦ¶åĲİ": 2255,
      "åĲĪçĲĨ": 2256,
      "å°į": 2257,
      "èĦļ": 2258,
      "æĳĦ": 2259,
      "å¼ĢæĶ¾": 2260,
      "ä¸įå¾Ĺ": 2261,
      "åįģåĪĨ": 2262,
      "ç¼©": 2263,
      "é¡¶": 2264,
      "ç½ĳç«Ļ": 2265,
      "çİ¯ä¿Ŀ": 2266,
      "è¯Ĺ": 2267,
      "çļĦæĥħåĨµ": 2268,
      "éĻ¤äºĨ": 2269,
      "å¸Ŀ": 2270,
      "å½Ĵ": 2271,
      "æļĸ": 2272,
      "éĽ·": 2273,
      "çļĦå·¥ä½ľ": 2274,
      "æľºåĪ¶": 2275,
      "ç»Ĩèĥŀ": 2276,
      "éĺ»": 2277,
      "èģĶåĲĪ": 2278,
      "åħµ": 2279,
      "èĩªèº«": 2280,
      "æī§è¡Į": 2281,
      "éģİ": 2282,
      "äººç±»": 2283,
      "çĻ¼": 2284,
      "åĩºäºĨ": 2285,
      "å¸ģ": 2286,
      "åĪĨåĪ«": 2287,
      "èī¯å¥½çļĦ": 2288,
      "è°ĥæķ´": 2289,
      "éĽĦ": 2290,
      "åĿı": 2291,
      "60": 2292,
      "å¥³æĢ§": 2293,
      "åĳ¼": 2294,
      "åĮĸçļĦ": 2295,
      "2020": 2296,
      "åĭĩ": 2297,
      "å³°": 2298,
      "çļĦè¯Ŀ": 2299,
      "åĢĳ": 2300,
      "åŁºåľ°": 2301,
      "è¡ĮåĬ¨": 2302,
      "å®īè£ħ": 2303,
      "è´¡": 2304,
      "å·¦åı³": 2305,
      "åĸľæ¬¢": 2306,
      "è´¯å½»": 2307,
      "éĢĶ": 2308,
      "å²Ĺ": 2309,
      "ä¹³": 2310,
      "ç¼ĵ": 2311,
      "é¼ĵ": 2312,
      "çīĻ": 2313,
      "è¡¨éĿ¢": 2314,
      "è¿Ĳè¡Į": 2315,
      "æ¯Ķå¦Ĥ": 2316,
      "éĩįè¦ģçļĦ": 2317,
      "è®¨": 2318,
      "åħ³æ³¨": 2319,
      "æĮĳ": 2320,
      "æĿ¨": 2321,
      "åģı": 2322,
      "çĬ¶æĢģ": 2323,
      "çļĦæĸ°": 2324,
      "ç»¿èī²": 2325,
      "äº¤æĺĵ": 2326,
      "æīĵéĢł": 2327,
      "å¦Ī": 2328,
      "--": 2329,
      "èªī": 2330,
      "å¡Ķ": 2331,
      "å²Ľ": 2332,
      "ç©ºæ°Ķ": 2333,
      "èĢĥèĻĳ": 2334,
      "è¿ĻéĩĮ": 2335,
      "ç»Łä¸Ģ": 2336,
      "ç¬ĳ": 2337,
      "åı«": 2338,
      "æľºåħ³": 2339,
      "æĺ¯ä¸Ģä¸ª": 2340,
      "ä¸»ä»»": 2341,
      "éĽª": 2342,
      "åĢĴ": 2343,
      "åįĪ": 2344,
      "è¯į": 2345,
      "èĻļ": 2346,
      "åĮĸåŃ¦": 2347,
      "æ¯ķä¸ļ": 2348,
      "ä½ĵçļĦ": 2349,
      "åħ¬åħ±": 2350,
      "æ³¡": 2351,
      "ä¸¥æł¼": 2352,
      "æ¦Ĥ": 2353,
      "èį¯çī©": 2354,
      "æħ§": 2355,
      "ç¬¦åĲĪ": 2356,
      "ç»ıå¸¸": 2357,
      "çļĦéĹ®é¢ĺ": 2358,
      "å°¤åħ¶": 2359,
      "èĢģå¸Ī": 2360,
      "è¯¯": 2361,
      "å§Ķåĳĺä¼ļ": 2362,
      "çĥ§": 2363,
      "å¸¦æĿ¥": 2364,
      "éĥ½æľī": 2365,
      "çģ¯": 2366,
      "æ±ĩ": 2367,
      "ç½²": 2368,
      "ä¹Łä¸į": 2369,
      "24": 2370,
      "æĸĩæĺİ": 2371,
      "çłģ": 2372,
      "è¶ĬæĿ¥": 2373,
      "æŃ¤å¤ĸ": 2374,
      "è¡Ĺ": 2375,
      "ç§ĳçłĶ": 2376,
      "ä»Ĭå¤©": 2377,
      "è¶ĬæĿ¥è¶Ĭ": 2378,
      "å¾ª": 2379,
      "ä¿ĿéĻ©": 2380,
      "æĸĳ": 2381,
      "æ´ĭ": 2382,
      "åĬłå¿«": 2383,
      "çģ¾": 2384,
      "åĲ§": 2385,
      "æĦŁæŁĵ": 2386,
      "åģļåĪ°": 2387,
      "ç¬Ķ": 2388,
      "çĻĮ": 2389,
      "å±ŀäºİ": 2390,
      "åŁºéĩĳ": 2391,
      "æĿŁ": 2392,
      "ä¸įåĲĮçļĦ": 2393,
      "ç»ĦæĪĲ": 2394,
      "æĮ¯": 2395,
      "å°¿": 2396,
      "æģ¶": 2397,
      "å°ıæĹ¶": 2398,
      "æĻ®éĢļ": 2399,
      "æķ°åŃĹ": 2400,
      "åĪ¶ä½ľ": 2401,
      "éĩĳå±ŀ": 2402,
      "ä¸ĭéĻį": 2403,
      "è®¢": 2404,
      "ç½ļ": 2405,
      "æ²ī": 2406,
      "èĪĩ": 2407,
      "åĿĲ": 2408,
      "åı¥è¯Ŀ": 2409,
      "äºĴèģĶç½ĳ": 2410,
      "æķı": 2411,
      "2021": 2412,
      "åľĨ": 2413,
      "æĭį": 2414,
      "æŃ£åľ¨": 2415,
      "æ³¨åĨĮ": 2416,
      "çĶŁçļĦ": 2417,
      "æ³°": 2418,
      "å¢Ļ": 2419,
      "åıªæĺ¯": 2420,
      "199": 2421,
      "æ½®": 2422,
      "è¶£": 2423,
      "é¦ĸåħĪ": 2424,
      "éĿĴå¹´": 2425,
      "åĳĪ": 2426,
      "ç§ģ": 2427,
      "è°ĥæŁ¥": 2428,
      "ç§ĭ": 2429,
      "äºĶè¡Į": 2430,
      "æĿ¥çľĭ": 2431,
      "æľīäºĽ": 2432,
      "è¾Ĩ": 2433,
      "å¡ŀ": 2434,
      "èĲ¥åħ»": 2435,
      "æ®Ĭ": 2436,
      "è¿Ĳè¾ĵ": 2437,
      "ç¹ģ": 2438,
      "åĦ¿ç«¥": 2439,
      "æķĪçİĩ": 2440,
      "çº·": 2441,
      "ä¸ºä¸»": 2442,
      "è´¡çĮ®": 2443,
      "éĻĨ": 2444,
      "å«": 2445,
      "æ°§åĮĸ": 2446,
      "è®¤çľŁ": 2447,
      "æľ«": 2448,
      "æĪĲç»©": 2449,
      "åİŁåĪĻ": 2450,
      "çĽ®çļĦ": 2451,
      "æ£®": 2452,
      "æ¥Ń": 2453,
      "åĨ°": 2454,
      "è±Ĩ": 2455,
      "å®½": 2456,
      "æĹ¶æľŁ": 2457,
      "çĪĨ": 2458,
      "ä¹ĭåīį": 2459,
      "æľºä¼ļ": 2460,
      "èĥĥ": 2461,
      "åªĴä½ĵ": 2462,
      "æ´¥": 2463,
      "åĵĪ": 2464,
      "å¾Ħ": 2465,
      "è´´": 2466,
      "åħļå§Ķ": 2467,
      "è¡¡": 2468,
      "çİ»": 2469,
      "åĨľæĿĳ": 2470,
      "æĶ¹åıĺ": 2471,
      "è®¤è¯Ĩ": 2472,
      "æļ´": 2473,
      "æľĢç»Ī": 2474,
      "çľŁæŃ£": 2475,
      "éĴĪå¯¹": 2476,
      "æĦıè§ģ": 2477,
      "æĸ°æĹ¶ä»£": 2478,
      "åŃ¦ç§ĳ": 2479,
      "åŃĶ": 2480,
      "çħ¤": 2481,
      "é¢ľ": 2482,
      "æ¢ħ": 2483,
      "æĺł": 2484,
      "ç¡®å®ļ": 2485,
      "2019": 2486,
      "åĬŀåħ¬": 2487,
      "æ¾³": 2488,
      "éĩİ": 2489,
      "ä¹Ļ": 2490,
      "80": 2491,
      "åı¦å¤ĸ": 2492,
      "è¼": 2493,
      "åĪĳ": 2494,
      "å¯¿": 2495,
      "æķħäºĭ": 2496,
      "an": 2497,
      "__": 2498,
      "çĿ¡": 2499,
      "åįµ": 2500,
      "çĦ¦": 2501,
      "åĪ¶å®ļ": 2502,
      "çº¯": 2503,
      "åĶĲ": 2504,
      "ä¼į": 2505,
      "æķ´ä¸ª": 2506,
      "ç¥ĸ": 2507,
      "ç§ĺ": 2508,
      "è·¨": 2509,
      "éļĲ": 2510,
      "çĴĥ": 2511,
      "éĢŁåº¦": 2512,
      "å°±ä¸ļ": 2513,
      "æĥł": 2514,
      "ä¹Łä¼ļ": 2515,
      "æķ´ä½ĵ": 2516,
      "æµĵ": 2517,
      "æĭĵ": 2518,
      "è¯¾ç¨ĭ": 2519,
      "å¹¿å¤§": 2520,
      "ä¸Ģä¸ĭ": 2521,
      "åĬĽçļĦ": 2522,
      "23": 2523,
      "äºĮåįģ": 2524,
      "çĽĲ": 2525,
      "éŁ©": 2526,
      "èĢĹ": 2527,
      "é¾Ħ": 2528,
      "èĪ¹": 2529,
      "éĿ¢å¯¹": 2530,
      "å¯»": 2531,
      "åıªè¦ģ": 2532,
      "æ¢ģ": 2533,
      "ç§Ł": 2534,
      "æĢķ": 2535,
      "éĽĨä¸Ń": 2536,
      "åĢį": 2537,
      "æĶ¹åĸĦ": 2538,
      "åĸĿ": 2539,
      "å¹ķ": 2540,
      "ä»İäºĭ": 2541,
      "æ³¥": 2542,
      "èµĦäº§": 2543,
      "æĸ¼": 2544,
      "ä¼°": 2545,
      "ç¶ĵ": 2546,
      "åįıä¼ļ": 2547,
      "2018": 2548,
      "æ¶Īè´¹èĢħ": 2549,
      "æĸ¹ä¾¿": 2550,
      "åı¬": 2551,
      "æ²»çĲĨ": 2552,
      "åĩºçļĦ": 2553,
      "æī¶": 2554,
      "éº»": 2555,
      "å¯Ĵ": 2556,
      "åĲİçļĦ": 2557,
      "ä¾§": 2558,
      "åķĨä¸ļ": 2559,
      "å¹¶ä¸į": 2560,
      "ç¯ĩ": 2561,
      "çī©æµģ": 2562,
      "åĪĽä¸ļ": 2563,
      "æľīä¸Ģ": 2564,
      "çī¢": 2565,
      "ä¾Ŀæ³ķ": 2566,
      "åħ±äº§": 2567,
      "åįĸ": 2568,
      "çİ»çĴĥ": 2569,
      "21": 2570,
      "ç»ķ": 2571,
      "èĢĥè¯ķ": 2572,
      "éĵĿ": 2573,
      "æĬĺ": 2574,
      "é¦Ļæ¸¯": 2575,
      "åĭķ": 2576,
      "å¦ĤæŃ¤": 2577,
      "è¿Ļæł·çļĦ": 2578,
      "å¾Į": 2579,
      "éĢĤåĲĪ": 2580,
      "æł¹æľ¬": 2581,
      "ä¹±": 2582,
      "å°Ĭ": 2583,
      "èĳ£": 2584,
      "åĽ°éļ¾": 2585,
      "å¥¶": 2586,
      "èĤ¿": 2587,
      "æĹĹ": 2588,
      "æİī": 2589,
      "å¤ļçļĦ": 2590,
      "âĢĿãĢģâĢľ": 2591,
      "çı¾": 2592,
      "å±ĭ": 2593,
      "åħ¨éĥ¨": 2594,
      "èĢ³": 2595,
      "è¿ĩåİ»": 2596,
      "éģĵè·¯": 2597,
      "éĩįè§Ĩ": 2598,
      "ä¿Ħ": 2599,
      "æģ¢": 2600,
      "å·¥ä½ľçļĦ": 2601,
      "åıįåºĶ": 2602,
      "çĶµè§Ĩ": 2603,
      "ä¼Ĭ": 2604,
      "2022": 2605,
      "æº¶": 2606,
      "å½ĵæĹ¶": 2607,
      "å¼ºè°ĥ": 2608,
      "éģį": 2609,
      "èµ¢": 2610,
      "åľĪ": 2611,
      "å¤ļç§į": 2612,
      "æ¥ļ": 2613,
      "æĥ¯": 2614,
      "ä¸įå°ĳ": 2615,
      "äº¡": 2616,
      "ç¾İåħĥ": 2617,
      "å½ĵåľ°": 2618,
      "æĹ§": 2619,
      "22": 2620,
      "åĬŀæ³ķ": 2621,
      "æĬĢèĥ½": 2622,
      "ä¸Ģå®ļè¦ģ": 2623,
      "éĹŃ": 2624,
      "è¿ĲèĲ¥": 2625,
      "ãĢģãĢĬ": 2626,
      "æĹ¥å¸¸": 2627,
      "åĲ¨": 2628,
      "æ²Ł": 2629,
      "éĺµ": 2630,
      "èĴĻ": 2631,
      "èĥİ": 2632,
      "å§ĭç»Ī": 2633,
      "éĿ©åĳ½": 2634,
      "æĿ¥èĩª": 2635,
      "ä¸ªæľĪ": 2636,
      "æĦŁè§ī": 2637,
      "è·ĳ": 2638,
      "æŃ£ç¡®": 2639,
      "èĤĿ": 2640,
      "è¯º": 2641,
      "çī¹æ®Ĭ": 2642,
      "æ¡£": 2643,
      "é«ĺè´¨éĩı": 2644,
      "çĲĨè§£": 2645,
      "è´¹çĶ¨": 2646,
      "æģ©": 2647,
      "æµª": 2648,
      "èĤº": 2649,
      "çĲĥéĺŁ": 2650,
      "éĥ½ä¼ļ": 2651,
      "çĽ¸å¯¹": 2652,
      "èĤł": 2653,
      "æ²¿": 2654,
      "è¿·": 2655,
      "ä¸Ģå®ļçļĦ": 2656,
      "è¦Ĩ": 2657,
      "éĩĩåıĸ": 2658,
      "éĢļå¸¸": 2659,
      "éī": 2660,
      "ä¼ģä¸ļçļĦ": 2661,
      "åĩĨå¤ĩ": 2662,
      "æĻºæħ§": 2663,
      "è¯¦": 2664,
      "èĥ¡": 2665,
      "çªĹ": 2666,
      "é¸¡": 2667,
      "èĤ¯": 2668,
      "è½¯ä»¶": 2669,
      "ç²Ĵ": 2670,
      "èĲ¨": 2671,
      "èħ¹": 2672,
      "åĮħè£ħ": 2673,
      "å¼ºåĮĸ": 2674,
      "çŃ¹": 2675,
      "è¶ĭ": 2676,
      "ä¾µ": 2677,
      "åĲĦç±»": 2678,
      "æĪª": 2679,
      "±ä¹Ĳ": 2680,
      "çĽ¸ä¿¡": 2681,
      "ç¼ĺ": 2682,
      "é¥®é£Ł": 2683,
      "é«ĺåº¦": 2684,
      "å¼¹": 2685,
      "ä¸ŃåĮ»": 2686,
      "åŃĻ": 2687,
      "ç¯®": 2688,
      "æķĻæİĪ": 2689,
      "èģĶç³»": 2690,
      "70": 2691,
      "é«Ķ": 2692,
      "éľĩ": 2693,
      "å®ĥçļĦ": 2694,
      "å¿ĺ": 2695,
      "å±±ä¸ľ": 2696,
      "çĵ¦": 2697,
      "è¿ħ": 2698,
      "åĵģè´¨": 2699,
      "æģ¢å¤į": 2700,
      "éŁ³ä¹Ĳ": 2701,
      "éĨĴ": 2702,
      "æŃ¤æ¬¡": 2703,
      "çĽĳç®¡": 2704,
      "çİ°è±¡": 2705,
      "çŀ": 2706,
      "å®īæİĴ": 2707,
      "å¤§ä¼ļ": 2708,
      "ç²ĺ": 2709,
      "æ¯ıå¤©": 2710,
      "åĪ·": 2711,
      "æ³½": 2712,
      "ä¾ĽåºĶ": 2713,
      "æŃ£å¼ı": 2714,
      "é«ĺæł¡": 2715,
      "é¢Ħéĺ²": 2716,
      "èĩªçĶ±": 2717,
      "åĩºåı£": 2718,
      "éķľ": 2719,
      "ä¼ĺè´¨": 2720,
      "èŀįåĲĪ": 2721,
      "åĲĦé¡¹": 2722,
      "è§īå¾Ĺ": 2723,
      "åħ·å¤ĩ": 2724,
      "ä»ģ": 2725,
      "åĮ»çĶŁ": 2726,
      "ä¸ľè¥¿": 2727,
      "è¾ħ": 2728,
      "å¹¼": 2729,
      "åıĮæĸ¹": 2730,
      "æ¯«": 2731,
      "æ´Ľ": 2732,
      "ãĢĲ": 2733,
      "æ®ĸ": 2734,
      "èĤĮ": 2735,
      "åĪ¸": 2736,
      "ãĢĳ": 2737,
      "çİ°ä»£åĮĸ": 2738,
      "æ½ľ": 2739,
      "ç¿»": 2740,
      "28": 2741,
      "å¤§å¤ļ": 2742,
      "«çĹ": 2743,
      "éī´": 2744,
      "ä¸»é¢ĺ": 2745,
      "åħ¼": 2746,
      "åĢº": 2747,
      "åĴ¨": 2748,
      "å¥ĭæĸĹ": 2749,
      "æīĭæľ¯": 2750,
      "æı´": 2751,
      "ç«Ł": 2752,
      "èµĦæľ¬": 2753,
      "æĬķåħ¥": 2754,
      "æīİ": 2755,
      "èĵĿ": 2756,
      "åĲĮæ¯Ķ": 2757,
      "éĽħ": 2758,
      "éĶħ": 2759,
      "ä¸įè¶³": 2760,
      "èĢĮæĺ¯": 2761,
      "èªª": 2762,
      "è¯¸": 2763,
      "åĲĪåĲĮ": 2764,
      "åĲĮå¿Ĺ": 2765,
      "æ¤įçī©": 2766,
      "å°ĺ": 2767,
      "çĤ¼": 2768,
      "åĬ¨åĬĽ": 2769,
      "åĪĨä¸º": 2770,
      "çĶĺ": 2771,
      "å¹³æĸ¹": 2772,
      "ä¸ĭæĿ¥": 2773,
      "è£ģ": 2774,
      "in": 2775,
      "æ©Ł": 2776,
      "åħ¬éĩĮ": 2777,
      "æķ¬": 2778,
      "èĭĹ": 2779,
      "æĲŃ": 2780,
      "å¹¸ç¦ı": 2781,
      "èµµ": 2782,
      "åĬłåħ¥": 2783,
      "çĪ¶æ¯į": 2784,
      "åķĨåĵģ": 2785,
      "åĶ¯": 2786,
      "éĺ²æŃ¢": 2787,
      "æ·¡": 2788,
      "æĹłè®º": 2789,
      "ä¸įåĪ°": 2790,
      "é²ģ": 2791,
      "éķ·": 2792,
      "ä¸ŃåĽ½çī¹èī²": 2793,
      "ä½įäºİ": 2794,
      "æ¹¾": 2795,
      "æĽ¾ç»ı": 2796,
      "åį·": 2797,
      "äººä½ĵ": 2798,
      "åľ³": 2799,
      "åĩºæĿ¥": 2800,
      "æĳ©": 2801,
      "åĪ©çĽĬ": 2802,
      "å¹¿ä¸ľ": 2803,
      "åĨħçļĦ": 2804,
      "è°ĵ": 2805,
      "26": 2806,
      "åĲ´": 2807,
      "çº¤": 2808,
      "åĭ¤": 2809,
      "æ·±åľ³": 2810,
      "çĻ«çĹ": 2811,
      "è§Ĩé¢ĳ": 2812,
      "çĻ«çĹ«": 2813,
      "èµĦæĸĻ": 2814,
      "æ¶¨": 2815,
      "èĦī": 2816,
      "åĴ¨è¯¢": 2817,
      "ä¸´åºĬ": 2818,
      "å¿ħè¦ģ": 2819,
      "æĸ°éĹ»": 2820,
      "ä¹Į": 2821,
      "è´·": 2822,
      "æĢ§åĴĮ": 2823,
      "æł·çļĦ": 2824,
      "åĨįæ¬¡": 2825,
      "ä¹łæĥ¯": 2826,
      "èģĮå·¥": 2827,
      "ä¸ĢåĪĩ": 2828,
      "åĮ»åŃ¦": 2829,
      "æķ¢": 2830,
      "ç¤¾åĮº": 2831,
      "è°ģ": 2832,
      "éĺŁä¼į": 2833,
      "è¾Ľ": 2834,
      "å½ĵçĦ¶": 2835,
      "ä»¥åĲİ": 2836,
      "èħº": 2837,
      "æµĻ": 2838,
      "è´¸æĺĵ": 2839,
      "ç·": 2840,
      "æľīæīĢ": 2841,
      "è¯´è¿ĩ": 2842,
      "é¥Ń": 2843,
      "åĵªäºĽ": 2844,
      "ä½įç½®": 2845,
      "æīĭæľº": 2846,
      "æĢ»ä¹¦è®°": 2847,
      "è½´": 2848,
      "è¿ª": 2849,
      "çĳŀ": 2850,
      "æķ°éĩı": 2851,
      "2017": 2852,
      "çĶŁç´ł": 2853,
      "Â°": 2854,
      "çļĦå°ı": 2855,
      "ä½ĵçİ°": 2856,
      "ä¹ı": 2857,
      "çĹħæ¯Ĵ": 2858,
      "æĽ¿": 2859,
      "çŃīæĸ¹éĿ¢": 2860,
      "çĦ¶èĢĮ": 2861,
      "æī©å¤§": 2862,
      "åĵ¥": 2863,
      "ç¬¬åįģ": 2864,
      "æľĹ": 2865,
      "ä¸ģ": 2866,
      "è¯Ħä»·": 2867,
      "æĽ´å¥½": 2868,
      "æľīæľº": 2869,
      "æŀĦå»º": 2870,
      "æĤī": 2871,
      "å®ĥä»¬": 2872,
      "èĸĦ": 2873,
      "äº¦": 2874,
      "éģµ": 2875,
      "ä¸»åĬ¨": 2876,
      "ç´łè´¨": 2877,
      "çĻ£": 2878,
      "æĪĲéķ¿": 2879,
      "éĢĲæ¸Ĳ": 2880,
      "ãĢĭãĢģãĢĬ": 2881,
      "å©´": 2882,
      "äº§åĵģçļĦ": 2883,
      "ä¹ĺ": 2884,
      "ç¨ĭåºı": 2885,
      "å¢¨": 2886,
      "å®ĭ": 2887,
      "è£Ĥ": 2888,
      "å¤§åŀĭ": 2889,
      "åĩ¡": 2890,
      "å½¢è±¡": 2891,
      "ç´«": 2892,
      "èļĢ": 2893,
      "ä¿Ĺ": 2894,
      "è¿Ľè¡ĮäºĨ": 2895,
      "èµĽåŃ£": 2896,
      "ä¼Łå¤§": 2897,
      "è«": 2898,
      "åľŁåľ°": 2899,
      "è§Ī": 2900,
      "åĶ±": 2901,
      "åĪºæ¿Ģ": 2902,
      "åı¦ä¸Ģ": 2903,
      "æĽ¼": 2904,
      "çļĦä¸»è¦ģ": 2905,
      "å£®": 2906,
      "å¤ļä¸ª": 2907,
      "è¿ŀç»Ń": 2908,
      "ä¹Łåı¯ä»¥": 2909,
      "åĸ·": 2910,
      "æľĢå¤§çļĦ": 2911,
      "éĢĤåºĶ": 2912,
      "å¦»": 2913,
      "å¤º": 2914,
      "èĩªæĪĳ": 2915,
      "æ·»": 2916,
      "çļĦä½ľçĶ¨": 2917,
      "é¡¿": 2918,
      "27": 2919,
      "ä¸»å¸Ń": 2920,
      "çªģçł´": 2921,
      "èģĺ": 2922,
      "çıł": 2923,
      "èĪĴ": 2924,
      "æ®ĭ": 2925,
      "åºĦ": 2926,
      "æĬµ": 2927,
      "æ¶µ": 2928,
      "ä¼ĺåĮĸ": 2929,
      "è°·": 2930,
      "åĲĮåŃ¦": 2931,
      "æľĢå¤§": 2932,
      "ç¬¬åĽĽ": 2933,
      "å¼ĥ": 2934,
      "å¾Ģå¾Ģ": 2935,
      "ç»ª": 2936,
      "çĺ¤": 2937,
      "æĥ³è¦ģ": 2938,
      "åľ£": 2939,
      "æĬ½": 2940,
      "çīĽçļ®": 2941,
      "æ¯ıä¸ª": 2942,
      "æĥĬ": 2943,
      "æĭŁ": 2944,
      "å¼ºåº¦": 2945,
      "çļĦå½±åĵį": 2946,
      "åįĩçº§": 2947,
      "å¼Ł": 2948,
      "èµĦæł¼": 2949,
      "å¤Ħäºİ": 2950,
      "äººåı£": 2951,
      "æ°ı": 2952,
      "500": 2953,
      "æģĴ": 2954,
      "å¤įæĿĤ": 2955,
      "åİĤå®¶": 2956,
      "æī¿æĭħ": 2957,
      "ç¤ºèĮĥ": 2958,
      "å¼ķå¯¼": 2959,
      "èĦı": 2960,
      "æĹ¦": 2961,
      "éĥĳ": 2962,
      "ä¸ĸçºª": 2963,
      "éĸĵ": 2964,
      "è¿¹": 2965,
      "æĬ¥éģĵ": 2966,
      "èĽĭçĻ½": 2967,
      "ä»įçĦ¶": 2968,
      "çĹħæĥħ": 2969,
      "ä¸ĭçļĦ": 2970,
      "ä¾ĭå¦Ĥ": 2971,
      "è¯´æĺİ": 2972,
      "ç¥Ŀ": 2973,
      "ç»Łè®¡": 2974,
      "æµ®": 2975,
      "å¡ĳæĸĻ": 2976,
      "æİĮæı¡": 2977,
      "è¿Ļåı¥è¯Ŀ": 2978,
      "ä½ĵéªĮ": 2979,
      "èİ«": 2980,
      "ä¸ºä»Ģä¹Ī": 2981,
      "åĳĬè¯ī": 2982,
      "ä»ĸä»¬çļĦ": 2983,
      "å¹¿å·ŀ": 2984,
      "èĬĤèĥ½": 2985,
      "æľīäºĨ": 2986,
      "ä¼Ļ": 2987,
      "åĿļå®ļ": 2988,
      "æľ±": 2989,
      "æ§": 2990,
      "å®ŀåĬĽ": 2991,
      "çªģåĩº": 2992,
      "æ·±åĪ»": 2993,
      "æĿ°": 2994,
      "è¿ĺè¦ģ": 2995,
      "é©¾": 2996,
      "åı¯èĥ½ä¼ļ": 2997,
      "éĤ£äºĽ": 2998,
      "éĵľ": 2999,
      "åħįçĸ«": 3000,
      "æĺ¯ä»Ģä¹Ī": 3001,
      "æ¶īåıĬ": 3002,
      "æľīäºº": 3003,
      "è´Ńä¹°": 3004,
      "çĲĨæĥ³": 3005,
      "æ¼«": 3006,
      "åĮĸå·¥": 3007,
      "åĩŃ": 3008,
      "ä¼¦": 3009,
      "å®ĩ": 3010,
      "å£ģ": 3011,
      "å¹´åº¦": 3012,
      "åģ¿": 3013,
      "å±ķç¤º": 3014,
      "çĬ¯ç½ª": 3015,
      "åĪĢ": 3016,
      "çĶ¨çļĦ": 3017,
      "å§ĵ": 3018,
      "æĪĲåĳĺ": 3019,
      "å¯¦": 3020,
      "èĦ¸": 3021,
      "åĨħéĥ¨": 3022,
      "çķ¶": 3023,
      "å±ħæ°ĳ": 3024,
      "åıªèĥ½": 3025,
      "åĪ©äºİ": 3026,
      "90": 3027,
      "è®¯": 3028,
      "çĮª": 3029,
      "å±¥": 3030,
      "çļĦäº§åĵģ": 3031,
      "å¸¸è§ģ": 3032,
      "çĽ¸æ¯Ķ": 3033,
      "éĢ²": 3034,
      "å»ī": 3035,
      "ä¸ŃåĽ½çī¹èī²ç¤¾ä¼ļä¸»ä¹ī": 3036,
      "çīĽçļ®çĻ£": 3037,
      "è¯ģæĺİ": 3038,
      "åįıè°ĥ": 3039,
      "æĪĲäºĨ": 3040,
      "éĶĭ": 3041,
      "éĹľ": 3042,
      "æĮĳæĪĺ": 3043,
      "æľ¬æ¬¡": 3044,
      "çī¹åĪ«æĺ¯": 3045,
      "çĦ¡": 3046,
      "éĩıçļĦ": 3047,
      "æľĢé«ĺ": 3048,
      "ä¸Ģä½ĵ": 3049,
      "æ±¤": 3050,
      "åİ»å¹´": 3051,
      "è´¢æĶ¿": 3052,
      "åħ¬å¼Ģ": 3053,
      "ä¸Ĭå¸Ĥ": 3054,
      "è°ĭ": 3055,
      "ä¸¹": 3056,
      "å¿ł": 3057,
      "åĲ«æľī": 3058,
      "æ³ī": 3059,
      "æĸĩä»¶": 3060,
      "é¢ĨåħĪ": 3061,
      "é«ĺéĢŁ": 3062,
      "å¾Ĳ": 3063,
      "çģ°": 3064,
      "å¹´è½»": 3065,
      "æĻ¶": 3066,
      "ç§°ä¸º": 3067,
      "èĻ«": 3068,
      "åħ§": 3069,
      "èĴ¸": 3070,
      "ä¸īä¸ª": 3071,
      "å·§": 3072,
      "èħĶ": 3073,
      "åĬ¨çī©": 3074,
      "æ»¤": 3075,
      "å®¶éķ¿": 3076,
      "çıį": 3077,
      "æľºåĻ¨": 3078,
      "éģŃ": 3079,
      "èĩªä¸»": 3080,
      "35": 3081,
      "æľīçĿĢ": 3082,
      "åħĪçĶŁ": 3083,
      "çİ°å®ŀ": 3084,
      "éĥ¨ç½²": 3085,
      "è¿½æ±Ĥ": 3086,
      "æµĻæ±Ł": 3087,
      "ç¾Ĭ": 3088,
      "è»": 3089,
      "è´Łè´£äºº": 3090,
      "äºĭä»¶": 3091,
      "æ°¨": 3092,
      "ç¢į": 3093,
      "éĸĭ": 3094,
      "åĽ½åĬ¡": 3095,
      "æİ¥è§¦": 3096,
      "çģŃ": 3097,
      "è¿ĽæŃ¥": 3098,
      "å±ı": 3099,
      "ä¸Ģå¹´": 3100,
      "èī¯å¥½": 3101,
      "å½ĵåīį": 3102,
      ")(": 3103,
      "æİ¢ç´¢": 3104,
      "çŃīçŃī": 3105,
      "æĮĤ": 3106,
      "å¾ªçİ¯": 3107,
      "æĢĿèĢĥ": 3108,
      "æĪ´": 3109,
      "åľ°ä½į": 3110,
      "æĶ¯ä»ĺ": 3111,
      "çĩ¥": 3112,
      "åĪĨåŃĲ": 3113,
      "ä¸¾åĬŀ": 3114,
      "å²Ĺä½į": 3115,
      "éĽ»": 3116,
      "æİ¨å¹¿": 3117,
      "èĳ£äºĭ": 3118,
      "è§Ĵåº¦": 3119,
      "ç£ģ": 3120,
      "å¼ºçļĦ": 3121,
      "2016": 3122,
      "è¿ħéĢŁ": 3123,
      "æĭľ": 3124,
      "å¦Ĥä»Ĭ": 3125,
      "ç¨®": 3126,
      "å±ĳ": 3127,
      "æ·±åĮĸ": 3128,
      "çĶµæ±ł": 3129,
      "æ¬²": 3130,
      "æĬĳ": 3131,
      "ä½¿åĳ½": 3132,
      "åĺī": 3133,
      "çĶŁæ´»ä¸Ń": 3134,
      "ç±»åŀĭ": 3135,
      "èĤ¡ä»½": 3136,
      "æ¯ıå¹´": 3137,
      "èį·": 3138,
      "æĩī": 3139,
      "ä¼łæĴŃ": 3140,
      "åĩºçĶŁ": 3141,
      "çļĦåŁºç¡Ģ": 3142,
      "å¹³åĿĩ": 3143,
      "æĢ»ç»ĵ": 3144,
      "ç»ıåİĨ": 3145,
      "æĹº": 3146,
      "æĺĮ": 3147,
      "çĲĥåĳĺ": 3148,
      "ç»ıçĲĨ": 3149,
      "åħ±äº§åħļ": 3150,
      "çļĦæĹ¶éĹ´": 3151,
      "è¿ĲçĶ¨": 3152,
      "åıĬåħ¶": 3153,
      "èĤ¾": 3154,
      "æ³ķéĻ¢": 3155,
      "æĴĳ": 3156,
      "å¤§åĬĽ": 3157,
      "29": 3158,
      "è¯ķéªĮ": 3159,
      "åħ¨ä½ĵ": 3160,
      "ä¸¾è¡Į": 3161,
      "è´Ŀ": 3162,
      "å°¤åħ¶æĺ¯": 3163,
      "ç»ĵæĿŁ": 3164,
      "å²¸": 3165,
      "æ²³åįĹ": 3166,
      "åĨłåĨĽ": 3167,
      "éĻ¶": 3168,
      "çĶŁéķ¿": 3169,
      "è´¦": 3170,
      "è¯Ńè¨Ģ": 3171,
      "çļĦæ²»çĸĹ": 3172,
      "åŃ¦æľ¯": 3173,
      "éĤĦ": 3174,
      "ç²®": 3175,
      "ç»´çĶŁç´ł": 3176,
      "è®¾ç½®": 3177,
      "é»ĺ": 3178,
      "è½¨": 3179,
      "ä¹ĭéĹ´çļĦ": 3180,
      "çĭ¬ç«ĭ": 3181,
      "äººå·¥": 3182,
      "éĺħ": 3183,
      "åĽ½åĬ¡éĻ¢": 3184,
      "çĽ¸å½ĵ": 3185,
      "åĽĽå·Ŀ": 3186,
      "éĿ¢ä¸´": 3187,
      "åĲĦåľ°": 3188,
      "èĢĮè¨Ģ": 3189,
      "åĿĢ": 3190,
      "å§Ĩ": 3191,
      "æĦĪ": 3192,
      "äºĭæķħ": 3193,
      "ä¸Ńå°ı": 3194,
      "çĶ¢": 3195,
      "ä¸»ä½ĵ": 3196,
      "å°±åı¯ä»¥": 3197,
      "æĭĴ": 3198,
      "åĲ¸å¼ķ": 3199,
      "åį±å®³": 3200,
      "éĿ¢çļĦ": 3201,
      "äººå£«": 3202,
      "å¤ªéĺ³": 3203,
      "è®Ńç»ĥ": 3204,
      "çĥ¯": 3205,
      "æħİ": 3206,
      "çĽ¸åºĶ": 3207,
      "è¿Ļä¸ªéĹ®é¢ĺ": 3208,
      "è±ª": 3209,
      "æŁĶ": 3210,
      "æ¦ľ": 3211,
      "ç§¦": 3212,
      "èĢħçļĦ": 3213,
      "å®ı": 3214,
      "on": 3215,
      "åħ¬åı¸çļĦ": 3216,
      "è¿ĳå¹´æĿ¥": 3217,
      "éĩįåºĨ": 3218,
      "åį³ä½¿": 3219,
      "ä¼¯": 3220,
      "åĲĽ": 3221,
      "åĢ¼å¾Ĺ": 3222,
      "èµŀ": 3223,
      "çŁ¥åĲį": 3224,
      "åĽ´ç»ķ": 3225,
      "äºĭæĥħ": 3226,
      "æĺ¯æĮĩ": 3227,
      "æ±Łèĭı": 3228,
      "ä¿Ŀæ¸©": 3229,
      "è§Ĥä¼Ĺ": 3230,
      "é¢Ĺ": 3231,
      "æ¬§æ´²": 3232,
      "æĥħç»ª": 3233,
      "æ¡ĥ": 3234,
      "çĬ¶åĨµ": 3235,
      "éħįåĲĪ": 3236,
      "æ¬¢è¿İ": 3237,
      "å¤ļå°ĳ": 3238,
      "2015": 3239,
      "æµĭè¯ķ": 3240,
      "è·³": 3241,
      "è¾ĳ": 3242,
      "åŁºå±Ĥ": 3243,
      "è¡Ģç®¡": 3244,
      "åĲ¸æĶ¶": 3245,
      "éĢĴ": 3246,
      "ç»ĻäºĪ": 3247,
      "æĹ¨": 3248,
      "äºĭå®ŀ": 3249,
      "åķĨæłĩ": 3250,
      "ç½Ĺæĸ¯": 3251,
      "èİ±": 3252,
      "åĭĴ": 3253,
      "æĿĨ": 3254,
      "å¡«": 3255,
      "ç±į": 3256,
      "åħĥç´ł": 3257,
      "æį·": 3258,
      "å¹¿åĳĬ": 3259,
      "âĢĿâĢľ": 3260,
      "éŀ": 3261,
      "éĽķ": 3262,
      "æľºçļĦ": 3263,
      "è¿«": 3264,
      "æĩĤ": 3265,
      "æľ¬èº«": 3266,
      "è®²è¯Ŀ": 3267,
      "çļĦå¿ĥ": 3268,
      "ä»¤äºº": 3269,
      "æĬ¢": 3270,
      "å±ķå¼Ģ": 3271,
      "åĩĨç¡®": 3272,
      "èĲ¥éĶĢ": 3273,
      "æİĴåĲį": 3274,
      "æĪĲå°±": 3275,
      "èĢģå¹´": 3276,
      "éĵģè·¯": 3277,
      "è¾ī": 3278,
      "åħĪåĲİ": 3279,
      "èķ": 3280,
      "å¾Īå¤§": 3281,
      "è¶ĭåĬ¿": 3282,
      "æ³Į": 3283,
      "èģĶèµĽ": 3284,
      "çĤī": 3285,
      "æŁ±": 3286,
      "é«ĺæķĪ": 3287,
      "èĤ¯å®ļ": 3288,
      "åĿ¦": 3289,
      "çĵľ": 3290,
      "ä¸»æĮģ": 3291,
      "å¥ī": 3292,
      "æ³µ": 3293,
      "er": 3294,
      "æıı": 3295,
      "ç¥ŀç»ı": 3296,
      "198": 3297,
      "æĳĨ": 3298,
      "æŃ¦æ±ī": 3299,
      "åŃĲçļĦ": 3300,
      "çº¤ç»´": 3301,
      "æ±¡æ°´": 3302,
      "äººçĶŁ": 3303,
      "é£ŁçĶ¨": 3304,
      "å¾·åĽ½": 3305,
      "éĶĪ": 3306,
      "è¦ĨçĽĸ": 3307,
      "é¼ĵåĬ±": 3308,
      "æī¾åĪ°": 3309,
      "éħĴåºĹ": 3310,
      "éĻ·": 3311,
      "æĹĭ": 3312,
      "æ°ĳä¸»": 3313,
      "æļĹ": 3314,
      "æ´ŀ": 3315,
      "å®ŀè¡Į": 3316,
      "æīĭæ®µ": 3317,
      "å°ĳå¹´": 3318,
      ",ãĢĬ": 3319,
      "ä¸°å¯ĮçļĦ": 3320,
      "å·¥åħ·": 3321,
      "åįıè®®": 3322,
      "å¤©çĦ¶": 3323,
      "çļĦæĸ¹å¼ı": 3324,
      "åį±éĻ©": 3325,
      "è¹": 3326,
      "åŀĥ": 3327,
      "éĢļçŁ¥": 3328,
      "åľ¾": 3329,
      "èĭ±åĽ½": 3330,
      "æ¨ª": 3331,
      "çļĦä¸į": 3332,
      "çº¹": 3333,
      "èĩªæ²»": 3334,
      "çĽ¸äºĴ": 3335,
      "åįļå£«": 3336,
      "éº¦": 3337,
      "åŀĥåľ¾": 3338,
      "èĻİ": 3339,
      "æ¯ıä¸Ģ": 3340,
      "æĭĶ": 3341,
      "åħ¬è·¯": 3342,
      "æľ¬ç§ĳ": 3343,
      "åĲ«éĩı": 3344,
      "èµı": 3345,
      "å¸ĥå±Ģ": 3346,
      "çį": 3347,
      "å¹³æĸ¹ç±³": 3348,
      "åĬłå¤§": 3349,
      "åĽ¢ç»ĵ": 3350,
      "åĪ«äºº": 3351,
      "ä¹łè¿ĳå¹³æĢ»ä¹¦è®°": 3352,
      "åı¬å¼Ģ": 3353,
      "è¿Ķ": 3354,
      "è£ħå¤ĩ": 3355,
      "é¢ľèī²": 3356,
      "æĻĵ": 3357,
      "è½¦è¾Ĩ": 3358,
      "çļĦåľ°æĸ¹": 3359,
      "é©±": 3360,
      "ä¹¡æĿĳ": 3361,
      "çļĦä¼ģä¸ļ": 3362,
      "æ¯Ķä¾ĭ": 3363,
      "é©¬åħĭ": 3364,
      "é¡ºåĪ©": 3365,
      "åĪĩå®ŀ": 3366,
      "åĿĽ": 3367,
      "æ³ķè§Ħ": 3368,
      "çĽĳæµĭ": 3369,
      "ä¼ı": 3370,
      "å¯¿åĳ½": 3371,
      "é©¶": 3372,
      "å¤ļå¹´": 3373,
      "å®ŀéªĮå®¤": 3374,
      "ä¸ĢçĤ¹": 3375,
      "ç¡ķ": 3376,
      "å°ĩ": 3377,
      "æ¸ł": 3378,
      "å±ķçİ°": 3379,
      "åķĨåĬ¡": 3380,
      "æĸ°åŀĭ": 3381,
      "31": 3382,
      "çĶµåĬĽ": 3383,
      "åŃ¦ä¼ļ": 3384,
      "æĽ´æĺ¯": 3385,
      "ç§»åĬ¨": 3386,
      "çĶľ": 3387,
      "ä¸»ç®¡": 3388,
      "èįĲ": 3389,
      "çİ¯èĬĤ": 3390,
      "å®¤åĨħ": 3391,
      "æĽ´å¤ļçļĦ": 3392,
      "çĵ¶": 3393,
      "è¿Ļä¹Ī": 3394,
      "æĶ¯æĴĳ": 3395,
      "è¯¦ç»Ĩ": 3396,
      "èĳĹåĲį": 3397,
      "äººåľ¨": 3398,
      "å¿½": 3399,
      "ä¸Ĭåįĩ": 3400,
      "ä¼¸": 3401,
      "éĩįæĸ°": 3402,
      "èĶ¬": 3403,
      "æī£": 3404,
      "è½¬åŀĭ": 3405,
      "åĹ": 3406,
      "å©´åĦ¿": 3407,
      "åĵ²": 3408,
      "åıĺå¾Ĺ": 3409,
      "æĭ¼": 3410,
      "å·ŀå¸Ĥ": 3411,
      "é£İæł¼": 3412,
      "å¤§å¤§": 3413,
      "ãĢĤ(": 3414,
      "åı¯éĿł": 3415,
      "æĸ¹éĿ¢çļĦ": 3416,
      "æ¼ı": 3417,
      "æ³¨éĩį": 3418,
      "çº¢èī²": 3419,
      "è¶³çĲĥ": 3420,
      "å®¾": 3421,
      "æļĤ": 3422,
      "çķħ": 3423,
      "çļĦçĶŁæ´»": 3424,
      "å¤ļæ¬¡": 3425,
      "ä¸Ģæĺ¯": 3426,
      "èħĲèļĢ": 3427,
      "èĪªç©º": 3428,
      "å¹´é¾Ħ": 3429,
      "æĶ¾åľ¨": 3430,
      "ä¸ĭéĿ¢": 3431,
      "éļĨ": 3432,
      "å¿Ĩ": 3433,
      "è£ħé¥°": 3434,
      "ç«¹": 3435,
      "æľĢä½³": 3436,
      "ä¼¼ä¹İ": 3437,
      "çļĦåĲĮæĹ¶": 3438,
      "æıĲä¾ĽäºĨ": 3439,
      "æ²Ĵ": 3440,
      "æĶ¹éĢł": 3441,
      "æĬĬæı¡": 3442,
      "åıĳçĹħ": 3443,
      "è·Ŀç¦»": 3444,
      "èī°": 3445,
      "çĵ·": 3446,
      "æĪĳåĢĳ": 3447,
      "é«ĺçŃī": 3448,
      "æĬ¤çĲĨ": 3449,
      "è¯ģä¹¦": 3450,
      "åĪ¶åĵģ": 3451,
      "èº«ä»½": 3452,
      "æľĪä»½": 3453,
      "çľŁçļĦ": 3454,
      "åĩī": 3455,
      "éĺ²æİ§": 3456,
      "éĻĲåĪ¶": 3457,
      "éĩĮçļĦ": 3458,
      "æ´ª": 3459,
      "çĻ½æĸĳ": 3460,
      "âĢĻ": 3461,
      "æĿľ": 3462,
      "çľł": 3463,
      "åĲĦçº§": 3464,
      "çļĦè¦ģæ±Ĥ": 3465,
      "äºķ": 3466,
      "ä½ľåĩº": 3467,
      "æģĲ": 3468,
      "çĻ»è®°": 3469,
      "æŀĦæĪĲ": 3470,
      "è¿Ļæ¬¡": 3471,
      "æ¶Īæģ¯": 3472,
      "æ¶Īéĺ²": 3473,
      "æģĭ": 3474,
      "åľ¨ä¸ŃåĽ½": 3475,
      "æĺ¯ä¸į": 3476,
      "åĽĽä¸ª": 3477,
      "åĵ¡": 3478,
      "åĩłä¹İ": 3479,
      "éĻ¢æł¡": 3480,
      "èŀº": 3481,
      "ä¿Ħç½Ĺæĸ¯": 3482,
      "é¢Ī": 3483,
      "åıįæĺł": 3484,
      "çĸ¼": 3485,
      "æĪĲåĪĨ": 3486,
      "éģĵå¾·": 3487,
      "ä¸ĵåĪ©": 3488,
      "ä¸ĵä¸ļçļĦ": 3489,
      "å²©": 3490,
      "è¿ŀæİ¥": 3491,
      "çĻ¾å¹´": 3492,
      "æī¹åĩĨ": 3493,
      "æĪĲçĨŁ": 3494,
      "å»ºæĪĲ": 3495,
      "ä¹ĭå¤ĸ": 3496,
      "en": 3497,
      "çļĦå¥½": 3498,
      "è®¤è¯ģ": 3499,
      "æľĢå¥½": 3500,
      "æ²ŁéĢļ": 3501,
      "èĳ¡": 3502,
      "å§Ķä¼ļ": 3503,
      "ä¸Ĭè¿°": 3504,
      "åĿ¡": 3505,
      "ä¸Ńåįİæ°ĳæĹı": 3506,
      "æĪĲéĥ½": 3507,
      "å°º": 3508,
      "è¿ģ": 3509,
      "æ¸ħæ´ģ": 3510,
      "æĻĭ": 3511,
      "ä¼ļæľī": 3512,
      "è¯Ħä¼°": 3513,
      "è®°å½ķ": 3514,
      "æ¸ħæ¥ļ": 3515,
      "ç¸": 3516,
      "è®©äºº": 3517,
      "å¿ĥçļĦ": 3518,
      "å¼ķé¢Ĩ": 3519,
      "è¡¨è¾¾": 3520,
      "åĩºçīĪ": 3521,
      "ä¸»è¦ģæĺ¯": 3522,
      "ä»ĸäºº": 3523,
      "ä¼ļä¸Ĭ": 3524,
      "ç¢İ": 3525,
      "è°±": 3526,
      "çļĦä¸Ģç§į": 3527,
      "çĦĬ": 3528,
      "äº«åıĹ": 3529,
      "åĨ³çŃĸ": 3530,
      "éĢĲæŃ¥": 3531,
      "è¯ķç®¡": 3532,
      "çĶµåĬ¨": 3533,
      "äºİæĺ¯": 3534,
      "é©»": 3535,
      "ç¼´": 3536,
      "åľ°äº§": 3537,
      "ç¼ºä¹ı": 3538,
      "éļ¾ä»¥": 3539,
      "äººæ°ĳæĶ¿åºľ": 3540,
      "æĸĩç«ł": 3541,
      "2000": 3542,
      "åľ¨äºİ": 3543,
      "è²Į": 3544,
      "åĢ¾": 3545,
      "é¼»": 3546,
      "è¿Ŀæ³ķ": 3547,
      "âĢĺ": 3548,
      "æŃ»äº¡": 3549,
      "45": 3550,
      "çĤŃ": 3551,
      "ä¸įèī¯": 3552,
      "è¡°": 3553,
      "äºĮæĺ¯": 3554,
      "éĥ½ä¸į": 3555,
      "æ°Ľ": 3556,
      "åĲĦä¸ª": 3557,
      "çľģçº§": 3558,
      "åĽºå®ļ": 3559,
      "è·ĥ": 3560,
      "ä½¿å¾Ĺ": 3561,
      "æĢģåº¦": 3562,
      "çĭĹ": 3563,
      "èĥĨ": 3564,
      "ä¹ĥ": 3565,
      "æĢ»ä½ĵ": 3566,
      "å·¡": 3567,
      "çĪ±æĥħ": 3568,
      "éĨĩ": 3569,
      "å®¿": 3570,
      "è°Ĳ": 3571,
      "å°¾": 3572,
      "å¼ķåıĳ": 3573,
      "å¤§åĪ©": 3574,
      "æĮĩæłĩ": 3575,
      "åİŁæĸĻ": 3576,
      "çī¹å¾ģ": 3577,
      "åĨĴ": 3578,
      "çŁ³æ²¹": 3579,
      "æĤ£èĢħçļĦ": 3580,
      "ä¸ĢæĹ¦": 3581,
      "è£ħç½®": 3582,
      "èµĸ": 3583,
      "é»ŀ": 3584,
      "36": 3585,
      "çī©çļĦ": 3586,
      "ä¾Ŀæį®": 3587,
      "è®¡ç®Ĺæľº": 3588,
      "éģĩåĪ°": 3589,
      "çĸĨ": 3590,
      "å§Ĳ": 3591,
      "éĹ²": 3592,
      "è¾£": 3593,
      "çļĦäºĭæĥħ": 3594,
      "æĨ": 3595,
      "å¾½": 3596,
      "åĪĨæ³Į": 3597,
      "åı¯æĺ¯": 3598,
      "å¤©æ´¥": 3599,
      "ä¸Ģä¸ªäºº": 3600,
      "çĪ¸": 3601,
      "æĦıåĳ³": 3602,
      "é«ĺçº§": 3603,
      "å¤§å¤ļæķ°": 3604,
      "å¹²çĩ¥": 3605,
      "æĦŁåĪ°": 3606,
      "åĨľæ°ĳ": 3607,
      "åĪĽä½ľ": 3608,
      "åĬ²": 3609,
      "ä¸ŃåĽ½åħ±äº§åħļ": 3610,
      "æ°£": 3611,
      "åŃĲå®«": 3612,
      "èĪį": 3613,
      "åħ¬å¸ĥ": 3614,
      "çĭ¬çī¹": 3615,
      "é©¬åħĭæĢĿ": 3616,
      "ãĢĭãĢĤ": 3617,
      "åĪ©æ¶¦": 3618,
      "çļĦåİŁåĽł": 3619,
      "å¤§éĥ¨åĪĨ": 3620,
      "æķĪçĽĬ": 3621,
      "å¹´ä»£": 3622,
      "åĬŀçĲĨ": 3623,
      "åĪĬ": 3624,
      "å¨±ä¹Ĳ": 3625,
      "è®¾ç«ĭ": 3626,
      "åł´": 3627,
      "åº¦çļĦ": 3628,
      "ç¡ħ": 3629,
      "åħ¬å®ī": 3630,
      "åįģäºĮ": 3631,
      "è´¢åĬ¡": 3632,
      "æ»´": 3633,
      "æĬ±": 3634,
      "åĳ¼åĲ¸": 3635,
      "æĦŁæĥħ": 3636,
      "åĩłä¸ª": 3637,
      "è¡¨æĺİ": 3638,
      "èĥĮæĻ¯": 3639,
      "æ¶ĤæĸĻ": 3640,
      "åĵģç§į": 3641,
      "300": 3642,
      "èµ¶": 3643,
      "åıĳçĶµ": 3644,
      "åĭĻ": 3645,
      "åħ±äº«": 3646,
      "åĲĪæł¼": 3647,
      "æłı": 3648,
      "è¿Ľåı£": 3649,
      "åģļåĩº": 3650,
      "çłĤ": 3651,
      "çĹħäºº": 3652,
      "å¾Ĵ": 3653,
      "æ¡Īä»¶": 3654,
      "åĲİæĿ¥": 3655,
      "æľŁçļĦ": 3656,
      "åįģä¹Ŀ": 3657,
      "ç»ĺ": 3658,
      "èĲĦ": 3659,
      "ä¸ĸçķĮæĿ¯": 3660,
      "åĨ³èµĽ": 3661,
      "åľºæīĢ": 3662,
      "å°½ç®¡": 3663,
      "ä»ĵ": 3664,
      "æ¸ħæ´Ĺ": 3665,
      "ä¹Łå°±æĺ¯": 3666,
      "æ¼Ĩ": 3667,
      "æ¹ĸåįĹ": 3668,
      "æµģç¨ĭ": 3669,
      "åŃ¦çĶŁçļĦ": 3670,
      "åĲ¯åĬ¨": 3671,
      "ä¸ĩäºº": 3672,
      "çĻ¾åĪĨ": 3673,
      "çłĸ": 3674,
      "éĵ¸": 3675,
      "ä¸Ģæµģ": 3676,
      "ä¸Ģå®¶": 3677,
      "å¾Īå¤ļäºº": 3678,
      "çļĦæ°´": 3679,
      "è¯±": 3680,
      "å¥¹çļĦ": 3681,
      "åĲĮæł·": 3682,
      "ç®¡éģĵ": 3683,
      "å¯¹æĸ¹": 3684,
      "åħ«åŃĹ": 3685,
      "åĽ½æľī": 3686,
      "åĬĽåº¦": 3687,
      "èĤĥ": 3688,
      "å¯¹å¤ĸ": 3689,
      "ä¼¤å®³": 3690,
      "æĺ¾èĳĹ": 3691,
      "åħħæ»¡": 3692,
      "2014": 3693,
      "å°ıç»Ħ": 3694,
      "è½¬åĮĸ": 3695,
      "è¯ģåĪ¸": 3696,
      "æīĢè°ĵ": 3697,
      "èĥ¸": 3698,
      "è¦ģæ³¨æĦı": 3699,
      "éĤĢ": 3700,
      "è§Ĥå¯Ł": 3701,
      "ä»ªåĻ¨": 3702,
      "å°ĸ": 3703,
      "æ³Ħ": 3704,
      "éĢĤå½ĵ": 3705,
      "åıĳè¡¨": 3706,
      "ä¿¡å¿ĥ": 3707,
      "å¿Ļ": 3708,
      "èĳ¡èĲĦ": 3709,
      "æīĢåľ¨": 3710,
      "å°½éĩı": 3711,
      "æĸ°æĬĢæľ¯": 3712,
      "æİ¨èįĲ": 3713,
      "åģ¶": 3714,
      "å¿§": 3715,
      "åŁ¹èĤ²": 3716,
      "éĢĨ": 3717,
      "è®ĵ": 3718,
      "çļĦæĸ¹æ³ķ": 3719,
      "çľŁå®ŀ": 3720,
      "éĶ»": 3721,
      "è³ĩ": 3722,
      "è°ĥèĬĤ": 3723,
      "åįĵ": 3724,
      "çĽ¾": 3725,
      "è¨Ń": 3726,
      "çĽ¸åĲĮ": 3727,
      "æİĴæĶ¾": 3728,
      "ç¢±": 3729,
      "çļĦä¸Ģä¸ª": 3730,
      "åºĶæĢ¥": 3731,
      "è§Ĵèī²": 3732,
      "è¢ĭ": 3733,
      "å®Įæķ´": 3734,
      "ä»¿": 3735,
      "éħ¯": 3736,
      "æįŁå¤±": 3737,
      "é«ĺæ¸©": 3738,
      "?âĢĿ": 3739,
      "å½¢åĬ¿": 3740,
      "å¹³è¡¡": 3741,
      "åĬŀåħ¬å®¤": 3742,
      "æµĭéĩı": 3743,
      "æĽ´å¥½çļĦ": 3744,
      "å¾Īå¤§çļĦ": 3745,
      "åĴĮåĽ½": 3746,
      "ä½łä»¬": 3747,
      "èĶ¬èıľ": 3748,
      "èħ¾": 3749,
      "æ¢¦è§ģ": 3750,
      "æĶ¯éĥ¨": 3751,
      "é¦ĸæ¬¡": 3752,
      "çĥ¦": 3753,
      "èģĮè´£": 3754,
      "æ´»æĢ§": 3755,
      "åŃ¦ä½į": 3756,
      "å£¤": 3757,
      "æĸ°åĨł": 3758,
      "åĽĬ": 3759,
      "éħįå¥Ĺ": 3760,
      "çļĦæĬĢæľ¯": 3761,
      "ä»£çĲĨ": 3762,
      "æĵ¦": 3763,
      "è·Į": 3764,
      "æĲº": 3765,
      "ä½©": 3766,
      "å¿ĹæĦ¿": 3767,
      "ç»´ä¿®": 3768,
      "éĤ®": 3769,
      "æł¡åĽŃ": 3770,
      "å±Ĥæ¬¡": 3771,
      "ç¥¥": 3772,
      "æķĮ": 3773,
      "éĻķ": 3774,
      "å°±èĥ½": 3775,
      "æĸĩåŃ¦": 3776,
      "æłĩå¿Ĺ": 3777,
      "ç¡«": 3778,
      "éĽĨä½ĵ": 3779,
      "æĻ¨": 3780,
      "èĩ´åĬĽ": 3781,
      "ä¿¡çĶ¨": 3782,
      "äºĨä¸Ģä¸ª": 3783,
      "è¡¥åħħ": 3784,
      "çŃīå¥ĸ": 3785,
      "åĶ¯ä¸Ģ": 3786,
      "èĿ": 3787,
      "æŃ£æĺ¯": 3788,
      "ä»Ļ": 3789,
      "ä¸Ģè·¯": 3790,
      "æıĲåĪ°": 3791,
      "ä½ĵåĪ¶": 3792,
      "éĶģ": 3793,
      "è§Ħå¾ĭ": 3794,
      "å¦Ĥæŀľä½ł": 3795,
      "æ¸Ĺ": 3796,
      "åľ¨ä¸Ģèµ·": 3797,
      "èĥľåĪ©": 3798,
      "çļĦçĥŃ": 3799,
      "éĥģ": 3800,
      "åĿļåĨ³": 3801,
      "æī°": 3802,
      "ä¸īå¹´": 3803,
      "å¸¦çĿĢ": 3804,
      "è¯ĬæĸŃ": 3805,
      "å¾Īå¥½çļĦ": 3806,
      "å®ħ": 3807,
      "æ¸łéģĵ": 3808,
      "åıĳä½ľ": 3809,
      "ç¾İä¸½": 3810,
      "åĬŀåŃ¦": 3811,
      "è´·æ¬¾": 3812,
      "æª": 3813,
      "æĢĿç»´": 3814,
      "å½¼": 3815,
      "éĵº": 3816,
      "å¿Į": 3817,
      "å¾ŀ": 3818,
      "æĦŁåıĹ": 3819,
      "æĹ¶çļĦ": 3820,
      "åįĢ": 3821,
      "åħ¬åĽŃ": 3822,
      "æĤ²": 3823,
      "èµ·åĪ°": 3824,
      "æ°Ķä½ĵ": 3825,
      "çļĦåīį": 3826,
      "ä½ľä¸ļ": 3827,
      "åľ¨çº¿": 3828,
      "åį³åı¯": 3829,
      "å®ĺæĸ¹": 3830,
      "å¿«ä¹Ĳ": 3831,
      "çłĶç©¶çĶŁ": 3832,
      "åĳĪçİ°": 3833,
      "èı²": 3834,
      "åįĹäº¬": 3835,
      "æ²³åĮĹ": 3836,
      "æ¨£": 3837,
      "æ±Ĺ": 3838,
      "ä¹Łèĥ½": 3839,
      "åĲĪéĩĳ": 3840,
      "å¯¹è±¡": 3841,
      "åĪ¶éĢłä¸ļ": 3842,
      "è®¨è®º": 3843,
      "æĢ»æĺ¯": 3844,
      "åħļä¸Ńå¤®": 3845,
      "æĻ®éģį": 3846,
      "ä¾ĿçĦ¶": 3847,
      "å´ĩ": 3848,
      "å®Ŀå®Ŀ": 3849,
      "åħ¨çľģ": 3850,
      "é¢Ħè®¡": 3851,
      "ä¸¦": 3852,
      "éĶ¦": 3853,
      "éĵ¶å±ĳ": 3854,
      "ä¸ĵéĹ¨": 3855,
      "è³ª": 3856,
      "æľĢè¿ĳ": 3857,
      "æĭĴç»Ŀ": 3858,
      "ä¸¤ç§į": 3859,
      "æ»ĭ": 3860,
      "å®ļä½į": 3861,
      "ç§Ĵ": 3862,
      "çīµ": 3863,
      "ç²Ĺ": 3864,
      "å¯¸": 3865,
      "æĭħä»»": 3866,
      "çĸı": 3867,
      "éĥŃ": 3868,
      "ä¸Ģèĩ´": 3869,
      "ç¾İçļĦ": 3870,
      "éĵ¶å±ĳçĹħ": 3871,
      "æĸ°èĥ½æºĲ": 3872,
      "å¦Īå¦Ī": 3873,
      "æĮĸ": 3874,
      "èĤª": 3875,
      "æĤŁ": 3876,
      "èį¯åĵģ": 3877,
      "åĩĢåĮĸ": 3878,
      "æ°¯": 3879,
      "ä¼Ĺå¤ļ": 3880,
      "èĦĤèĤª": 3881,
      "æ»¡æĦı": 3882,
      "åī²": 3883,
      "éĥ½åľ¨": 3884,
      "åŃ¦åİĨ": 3885,
      "çļĦæĥħåĨµä¸ĭ": 3886,
      "åĪ°åºķ": 3887,
      "æ©¡": 3888,
      "è¾½": 3889,
      "çºł": 3890,
      "ä¿Ŀåģ¥": 3891,
      "çī©çĲĨ": 3892,
      "çĤ¸": 3893,
      "éĢĤçĶ¨äºİ": 3894,
      "èĩ³ä»Ĭ": 3895,
      "åĬŁæķĪ": 3896,
      "éĩįçļĦ": 3897,
      "æĲľ": 3898,
      "éļľç¢į": 3899,
      "é«ĺè´¨éĩıåıĳå±ķ": 3900,
      "äººå¤§": 3901,
      "è¯´éģĵ": 3902,
      "åľ¨è¿Ļ": 3903,
      "çļĦæľįåĬ¡": 3904,
      "åºĶå¯¹": 3905,
      "åħ»èĢģ": 3906,
      "åĪĽå»º": 3907,
      "æĪªèĩ³": 3908,
      "äº©": 3909,
      "ä¸ĢåĲį": 3910,
      "é»ĳèī²": 3911,
      "ç¬¬äºĶ": 3912,
      "çļĨ": 3913,
      "åĩ¯": 3914,
      "äº§æĿĥ": 3915,
      "å°±è¦ģ": 3916,
      "éĥ¨ä½į": 3917,
      "å¾Īéļ¾": 3918,
      "è¯ļä¿¡": 3919,
      "è¿ĺåı¯ä»¥": 3920,
      "éĢĥ": 3921,
      "çģĮ": 3922,
      "éĺĢ": 3923,
      "æľīå¾Īå¤ļ": 3924,
      "å¹¶ä¸įæĺ¯": 3925,
      "äºĭé¡¹": 3926,
      "èŀįèµĦ": 3927,
      "å¼ĺ": 3928,
      "ä¸Ļ": 3929,
      "ä¸Ĭä¸ĭ": 3930,
      "èī¾": 3931,
      "å¸ĤåľºçļĦ": 3932,
      "1000": 3933,
      "æ£ĢéªĮ": 3934,
      "éĺĶ": 3935,
      "å®ļæľŁ": 3936,
      "ä¹ĭä¸Ń": 3937,
      "ä¸ĢæĿ¡": 3938,
      "éĹ®é¢ĺçļĦ": 3939,
      "å®¶çļĦ": 3940,
      "çĶµè¯Ŀ": 3941,
      "æĥħåĨµä¸ĭ": 3942,
      "ãĢĭãĢĬ": 3943,
      "åħ´è¶£": 3944,
      "æ°¸è¿ľ": 3945,
      "å¯º": 3946,
      "ä»¥åīį": 3947,
      "éĴĻ": 3948,
      "æ·»åĬł": 3949,
      "æ¬£": 3950,
      "æ¹ĸåĮĹ": 3951,
      "çł´åĿı": 3952,
      "éŁ©åĽ½": 3953,
      "åĪĨå¸ĥ": 3954,
      "åĨ»": 3955,
      "å¥³äºº": 3956,
      "åİŁçĲĨ": 3957,
      "è¡Ģæ¶²": 3958,
      "å±¥è¡Į": 3959,
      "ç¼Ŀ": 3960,
      "è¯ĳ": 3961,
      "æľīåı¯èĥ½": 3962,
      "äº¿ç¾İåħĥ": 3963,
      "å½¹": 3964,
      "ä¼ļè®¡": 3965,
      "åķĬ": 3966,
      "é¬": 3967,
      "èĬĤçĽ®": 3968,
      "ä¸įç®¡": 3969,
      "èµĭ": 3970,
      "èĥĢ": 3971,
      "éĿĴæĺ¥": 3972,
      "æľīåĪ©äºİ": 3973,
      "è¾ŀ": 3974,
      "ä¼łæī¿": 3975,
      "åŁĥ": 3976,
      "æ²Ī": 3977,
      "è¸ı": 3978,
      "Ġ(": 3979,
      "çĿĽ": 3980,
      "æī«": 3981,
      "ä¼ĺçĤ¹": 3982,
      "ä¸ĵé¡¹": 3983,
      "ä¹Łè¦ģ": 3984,
      "è¡Įä¸ļçļĦ": 3985,
      "å°±åĥı": 3986,
      "åºĶçĶ¨äºİ": 3987,
      "åĴĮè°Ĳ": 3988,
      "é½¿": 3989,
      "æĿŃ": 3990,
      "çºµ": 3991,
      "äººçī©": 3992,
      "èĻķ": 3993,
      "è¿Ī": 3994,
      "äººæ°ĳå¸ģ": 3995,
      "ä¸ŃåĽ½çļĦ": 3996,
      "ä¸ĬäºĨ": 3997,
      "ãĢĤãĢĬ": 3998,
      "æĻ¯åĮº": 3999,
      "å¼Ĥå¸¸": 4000,
      "çħ®": 4001,
      "éļıåĲİ": 4002,
      "ä¿¡æģ¯åĮĸ": 4003,
      "å¹¼åĦ¿": 4004,
      "å°ıçļĦ": 4005,
      "æĥľ": 4006,
      "åĪĨç±»": 4007,
      "ç¦»å¼Ģ": 4008,
      "è§£éĩĬ": 4009,
      "2013": 4010,
      "å¤±åİ»": 4011,
      "33": 4012,
      "å·¥åķĨ": 4013,
      "çĪ¶äº²": 4014,
      "èĩªè§ī": 4015,
      "çĶ·æĢ§": 4016,
      "èĢĥæł¸": 4017,
      "%;": 4018,
      "ä¸Ģåı¥": 4019,
      "å°Ŀ": 4020,
      "åľ¨æŃ¤": 4021,
      "è½¬åıĺ": 4022,
      "çĻ½çĻľé£İçļĦ": 4023,
      "åĲĬ": 4024,
      "å¥ı": 4025,
      "åįģå¹´": 4026,
      "èħ°": 4027,
      "è§ĦåĪĻ": 4028,
      "åĬłä¸Ĭ": 4029,
      "æ¯įäº²": 4030,
      "ç§įæ¤į": 4031,
      "æĦıæĢĿ": 4032,
      "ç³»ç»ŁçļĦ": 4033,
      "æĺ¯çĶ±": 4034,
      "çļĦåİĨåı²": 4035,
      "éĺ³åħī": 4036,
      "åģ¥åħ¨": 4037,
      "æµĨ": 4038,
      "æĹ¶åĪ»": 4039,
      "è¾ĸ": 4040,
      "å¸¦é¢Ĩ": 4041,
      "åĴĮç¤¾ä¼ļ": 4042,
      "èħ¿": 4043,
      "æĦıåĳ³çĿĢ": 4044,
      "åıĳèĤ²": 4045,
      "éĺ²æ²»": 4046,
      "å·¥åİĤ": 4047,
      "ä¸įå¥½": 4048,
      "ä½ıæĪ¿": 4049,
      "æĹģ": 4050,
      "è¡ĮçļĦ": 4051,
      "ç´¯è®¡": 4052,
      "æľºåľº": 4053,
      "èĩŃ": 4054,
      "éĢļä¿¡": 4055,
      "åĢ¡": 4056,
      "åĳ¨æľŁ": 4057,
      "æĭĽçĶŁ": 4058,
      "èĥ½éĩı": 4059,
      "æĪĺäºī": 4060,
      "ä¸įåĨį": 4061,
      "å®ĺç½ĳ": 4062,
      "å¤Ħç½ļ": 4063,
      "åĽŀåºĶ": 4064,
      "å¾Īå¥½": 4065,
      "åĽ½å®¶çº§": 4066,
      "èĢģäºº": 4067,
      "äºĳåįĹ": 4068,
      "åĽŀæĶ¶": 4069,
      "38": 4070,
      "åľºæ¯ĶèµĽ": 4071,
      "æ¶ĪåĮĸ": 4072,
      "éĤ¦": 4073,
      "æ··åĲĪ": 4074,
      "æ·±åº¦": 4075,
      "mm": 4076,
      "éĶĮ": 4077,
      "é«ĺç«¯": 4078,
      "åľŁå£¤": 4079,
      "æĭĨ": 4080,
      "æ³ķåĽ½": 4081,
      "åįĬå¹´": 4082,
      "åĮĢ": 4083,
      "çĻ½èī²": 4084,
      "çĽĨ": 4085,
      "è¾°": 4086,
      "åĮ»èį¯": 4087,
      "åħįè´¹": 4088,
      "è¾ĥä¸º": 4089,
      "åį°åĪ·": 4090,
      "é¸Ł": 4091,
      "å°Ĩåľ¨": 4092,
      "æ¿Ģç´ł": 4093,
      "è¿ĺä¼ļ": 4094,
      "åħħåĪĨåıĳæĮ¥": 4095,
      "ä¸ĩåĲ¨": 4096,
      "çİ°æľī": 4097,
      "åĽ½åĨħå¤ĸ": 4098,
      "å¼ķè¿Ľ": 4099,
      "è¨Ī": 4100,
      "æŀĿ": 4101,
      "è¾ĥå¤§": 4102,
      "æľĢå¥½çļĦ": 4103,
      "æ¼Ķåĳĺ": 4104,
      "æĽ´ä¸º": 4105,
      "ä¼ĺèī¯": 4106,
      "æĲ¬": 4107,
      "æĢª": 4108,
      "æķ¸": 4109,
      "èĩªä¿¡": 4110,
      "å®īåħ¨çĶŁäº§": 4111,
      "ä¸Ńåħ±": 4112,
      "!âĢĿ": 4113,
      "å·¥èµĦ": 4114,
      "åħ±åĴĮåĽ½": 4115,
      "ç«ĭåį³": 4116,
      "åħ©": 4117,
      "ç¢ĳ": 4118,
      "æıĴ": 4119,
      "è®¾å¤ĩçļĦ": 4120,
      "èĩªæ²»åĮº": 4121,
      "èĩ´åĬĽäºİ": 4122,
      "è®¤åı¯": 4123,
      "å¤įåĲĪ": 4124,
      "å¤©ä¸ĭ": 4125,
      "æµ·å¤ĸ": 4126,
      "éĥ¨ä»¶": 4127,
      "çĿĢåĬĽ": 4128,
      "èĸª": 4129,
      "çªģçĦ¶": 4130,
      "å§»": 4131,
      "çļĦç²¾ç¥ŀ": 4132,
      "å¹³æĹ¶": 4133,
      "é³": 4134,
      "å®ļçļĦ": 4135,
      "æłĳç«ĭ": 4136,
      "ç¾İæľ¯": 4137,
      "è°¨": 4138,
      "æĭħå½ĵ": 4139,
      "éĽ¾": 4140,
      "å¦Ļ": 4141,
      "æĺ¯ä¸ŃåĽ½": 4142,
      "åįģåĽĽ": 4143,
      "åŁºäºİ": 4144,
      "éĩĩè´Ń": 4145,
      "éĥ½è¦ģ": 4146,
      "è®ºæĸĩ": 4147,
      "åħ¨å¸Ĥ": 4148,
      "åħ¨ä¼ļ": 4149,
      "éº¼": 4150,
      "æĺĨ": 4151,
      "èĭ±è¯Ń": 4152,
      "ç¾İå¥½": 4153,
      "èĢĮä¸į": 4154,
      "çŁĽ": 4155,
      "å¿į": 4156,
      "åĳ¨åĽ´": 4157,
      "ç¡ķå£«": 4158,
      "æįŁå®³": 4159,
      "åĬłçĥŃ": 4160,
      "çº½": 4161,
      "å«Į": 4162,
      "åŁºåĽł": 4163,
      "ä¹Łåľ¨": 4164,
      "çľ¼çĿĽ": 4165,
      "åĪĿå¿ĥ": 4166,
      "æĭĵå±ķ": 4167,
      "äºļæ´²": 4168,
      "å¤©çļĦ": 4169,
      "ç¦»åŃĲ": 4170,
      "2012": 4171,
      "éĿ¢åĲĳ": 4172,
      "çºº": 4173,
      "èį£èªī": 4174,
      "åĻ¨çļĦ": 4175,
      "å·¥ä½ľäººåĳĺ": 4176,
      "æĿĥåĪ©": 4177,
      "æ¯ķä¸ļçĶŁ": 4178,
      "å²ģçļĦ": 4179,
      "åŃ©åŃĲçļĦ": 4180,
      "è¾Ī": 4181,
      "ç§ī": 4182,
      "å§ľ": 4183,
      "éħįç½®": 4184,
      "åĪ¤æĸŃ": 4185,
      "èĩ³å°ĳ": 4186,
      "åħģ": 4187,
      "çĮ«": 4188,
      "ä¿¡åı·": 4189,
      "å®£å¸ĥ": 4190,
      "æ¢¯": 4191,
      "èĴĤ": 4192,
      "åĽ½å¤ĸ": 4193,
      "çĤĴ": 4194,
      "æµģåĬ¨": 4195,
      "å½°": 4196,
      "æİĺ": 4197,
      "é¢ĨåŁŁçļĦ": 4198,
      "èĤ¿çĺ¤": 4199,
      "çµĲ": 4200,
      "åįģåħ«": 4201,
      "å®¶åħ·": 4202,
      "å¥ĳ": 4203,
      "é¡µ": 4204,
      "é©¬åħĭæĢĿä¸»ä¹ī": 4205,
      "èĲ¥ä¸ļ": 4206,
      "å½ĵä¸Ń": 4207,
      "å¾Īå®¹æĺĵ": 4208,
      "é¥±": 4209,
      "æ¿Ģåħī": 4210,
      "æĸĩåŃĹ": 4211,
      "è¡Ģåİĭ": 4212,
      "åħ¨åĬĽ": 4213,
      "ä¸įçŁ¥éģĵ": 4214,
      "æł¼å±Ģ": 4215,
      "ä¸Ģæ®µ": 4216,
      "éªĹ": 4217,
      "åıĤèĢĥ": 4218,
      "æľŁå¾ħ": 4219,
      "éķ¿æĹ¶éĹ´": 4220,
      "èĬ¯": 4221,
      "æĹ©æľŁ": 4222,
      "æĤ¬": 4223,
      "ä¸įéĶĻ": 4224,
      "è»Ĭ": 4225,
      "åĲĲ": 4226,
      "ç¬¬ä¸Ģæ¬¡": 4227,
      "åı¯ä»¥åľ¨": 4228,
      "åŃ¤": 4229,
      "æĥĳ": 4230,
      "37": 4231,
      "æľºéģĩ": 4232,
      "åī©": 4233,
      "èľľ": 4234,
      "ç»ıæµİåıĳå±ķ": 4235,
      "éĻª": 4236,
      "æĥħæĦŁ": 4237,
      "æ¦Ĥå¿µ": 4238,
      "ä½ľèĢħ": 4239,
      "çī§": 4240,
      "åŁºç¡Ģè®¾æĸ½": 4241,
      "åıĸå¾ĹäºĨ": 4242,
      "æĿ¡ä¾ĭ": 4243,
      "åĨ²åĩ»": 4244,
      "ç¨Ģ": 4245,
      "å®¡æŁ¥": 4246,
      "å¤įåħ´": 4247,
      "åĩºå¸Ń": 4248,
      "æįĲ": 4249,
      "ç»ŁçŃ¹": 4250,
      "èĩªåĬ¨åĮĸ": 4251,
      "æĪ¿åľ°äº§": 4252,
      "åĬłçĽŁ": 4253,
      "æĽ¹": 4254,
      "æĹ¥èµ·": 4255,
      "ç»ıåħ¸": 4256,
      "è§£åĨ³æĸ¹æ¡Ī": 4257,
      "éĻķè¥¿": 4258,
      "çĥĪçļĦ": 4259,
      "è¡¨æ¼Ķ": 4260,
      "æ¡Ĥ": 4261,
      "æıĲåīį": 4262,
      "åı¸æ³ķ": 4263,
      "è¯ķç®¡å©´åĦ¿": 4264,
      "æľīåĵªäºĽ": 4265,
      "çŁĽçĽ¾": 4266,
      "ä¹īåĬ¡": 4267,
      "åħ¸åŀĭ": 4268,
      "æĹ©å·²": 4269,
      "æµ·æ´ĭ": 4270,
      "å¾Īå¿«": 4271,
      "æħ¢æĢ§": 4272,
      "æĢ»ç»ıçĲĨ": 4273,
      "åħļå»º": 4274,
      "åĽŃåĮº": 4275,
      "è¯´çļĦ": 4276,
      "æĥ³åĪ°": 4277,
      "æĪĴ": 4278,
      "ä»¥ä¸º": 4279,
      "ä»ªå¼ı": 4280,
      "éĺħè¯»": 4281,
      "ãĢĭ(": 4282,
      "åħ¶æ¬¡": 4283,
      "éĻµ": 4284,
      "è´¯å½»èĲ½å®ŀ": 4285,
      "æķ´åĲĪ": 4286,
      "ä½ĵä¼ļ": 4287,
      "çĶ·äºº": 4288,
      "ä¸ĸçķĮä¸Ĭ": 4289,
      "æ°ĶåĢĻ": 4290,
      "ä¸Ńèį¯": 4291,
      "æĲŀ": 4292,
      "ä»°": 4293,
      "çĸ²": 4294,
      "å©ļå§»": 4295,
      "è®Ĭ": 4296,
      "æĬĢæľ¯çļĦ": 4297,
      "ç¡®å®ŀ": 4298,
      "æľīä¸Ģä¸ª": 4299,
      "34": 4300,
      "éķ¿çļĦ": 4301,
      "éĨ«": 4302,
      "å¹¶æ²¡æľī": 4303,
      "åŁİä¹¡": 4304,
      "æľīæķĪçļĦ": 4305,
      "åħ¬çĽĬ": 4306,
      "æŃ£è§Ħ": 4307,
      "äº§ä¸ļéĵ¾": 4308,
      "ä½İäºİ": 4309,
      "è®©æĪĳä»¬": 4310,
      "æĪĲçļĦ": 4311,
      "å·¥ä½ľä¸Ń": 4312,
      "é©¾é©¶": 4313,
      "PP": 4314,
      "æıĲéĨĴ": 4315,
      "æ°´çļĦ": 4316,
      "å¤©æ°Ķ": 4317,
      "åĲįåŃĹ": 4318,
      "å¾ĹåĪ°äºĨ": 4319,
      "å¸Ĥå§Ķ": 4320,
      "è¤": 4321,
      "å¤§æķ°æį®": 4322,
      "éĶĪéĴ¢": 4323,
      "é¢¨": 4324,
      "32": 4325,
      "ä¸Ģä»£": 4326,
      "åħ¶å®ĥ": 4327,
      "åĲĪéĢĤ": 4328,
      "èº«ä¸Ĭ": 4329,
      "å®īå¾½": 4330,
      "ä»ĸåľ¨": 4331,
      "æµģéĩı": 4332,
      "éĮ": 4333,
      "æµ¸": 4334,
      "éĤ£ä¸ª": 4335,
      "æ·ĭ": 4336,
      "èĦ¾": 4337,
      "èī²å½©": 4338,
      "æĿ¥æºĲ": 4339,
      "åħ³å¿ĥ": 4340,
      "åĺ´": 4341,
      "å¦Ĥä¸ĭ": 4342,
      "åĩłå¹´": 4343,
      "é¢ģ": 4344,
      "ä¸Ĭæ¶¨": 4345,
      "åįıåĲĮ": 4346,
      "ç»´æĮģ": 4347,
      "æ·Ģ": 4348,
      "æ°´æŀľ": 4349,
      "çºªå¿µ": 4350,
      "åłĨ": 4351,
      "èµĶ": 4352,
      "ç°": 4353,
      "å¯ĨåĪĩ": 4354,
      "éĥ½èĥ½": 4355,
      "èĩ£": 4356,
      "éķĢ": 4357,
      "æĦŁè°¢": 4358,
      "æ°¢": 4359,
      "éĶ»çĤ¼": 4360,
      "æľĢæĸ°": 4361,
      "é»İ": 4362,
      "æħĪ": 4363,
      "å·®å¼Ĥ": 4364,
      "è®¸åı¯": 4365,
      "åĩ¤": 4366,
      "éŃĶ": 4367,
      "æµħ": 4368,
      "æ²Ĵæľī": 4369,
      "ä¼Ļä¼´": 4370,
      "è§Ħå®ļçļĦ": 4371,
      "åįģä¸ī": 4372,
      "åģľæŃ¢": 4373,
      "å°Ĩä¼ļ": 4374,
      "éģĭ": 4375,
      "åŁİéķĩ": 4376,
      "éĻ¢éķ¿": 4377,
      "2010": 4378,
      "55": 4379,
      "åįļçī©": 4380,
      "ä¸Ģæī¹": 4381,
      "æ±ģ": 4382,
      "æĺ¯æľī": 4383,
      "48": 4384,
      "èĳ£äºĭéķ¿": 4385,
      "çĶŁåŃĺ": 4386,
      "æĶ¶çĽĬ": 4387,
      "è´«åĽ°": 4388,
      "____": 4389,
      "çĽĪ": 4390,
      "ç»ĦåĲĪ": 4391,
      "çļĦä¸»": 4392,
      "åĤ¬": 4393,
      "æıĲåĩºäºĨ": 4394,
      "çļĦåŁºæľ¬": 4395,
      "æĪ¿å±ĭ": 4396,
      "åĲĮæ¯Ķå¢ŀéķ¿": 4397,
      "å¤ļåħĥ": 4398,
      "----": 4399,
      "ä¸ĭäºĨ": 4400,
      "ar": 4401,
      "ç¦ıå»º": 4402,
      "ä½¿çĶ¨çļĦ": 4403,
      "ï¿": 4404,
      "æĪĳä»¬è¦ģ": 4405,
      "äºĮåįģå¤§": 4406,
      "åīĳ": 4407,
      "æĬ¥åĲį": 4408,
      "æ¢¦æĥ³": 4409,
      "çĶŁæ´»çļĦ": 4410,
      "æķĻèĤ²éĥ¨": 4411,
      "çĸ¼çĹĽ": 4412,
      "äº§éĩı": 4413,
      "çº¿ä¸Ĭ": 4414,
      "åľ°çļĦ": 4415,
      "ç»ıæµİç¤¾ä¼ļ": 4416,
      "åľ°ä¸ĭ": 4417,
      "åı¯è§ģ": 4418,
      "å®ŀéĻħä¸Ĭ": 4419,
      "çłĶç©¶éĻ¢": 4420,
      "æĿ¥åĪ°": 4421,
      "æĶ¯åĩº": 4422,
      "å¯Ħ": 4423,
      "èµĦè´¨": 4424,
      "æºª": 4425,
      "åŃ£åº¦": 4426,
      "ç¨į": 4427,
      "çī¹æĢ§": 4428,
      "ç¾½": 4429,
      "è£ħä¿®": 4430,
      "ç²¾å½©": 4431,
      "æ¤Ĵ": 4432,
      "çĩķ": 4433,
      "åīįçļĦ": 4434,
      "åľ¨ä¸į": 4435,
      "ä¹ĭè·¯": 4436,
      "åıĳåĬ¨": 4437,
      "äººæķ°": 4438,
      "æ¸¸å®¢": 4439,
      "æĸ¤": 4440,
      "2011": 4441,
      "åĪ¥": 4442,
      "çļĦçĶŁäº§": 4443,
      "è´§å¸ģ": 4444,
      "è®¤å®ļ": 4445,
      "59": 4446,
      "èĢĥå¯Ł": 4447,
      "çļĦéľĢæ±Ĥ": 4448,
      "åŁĭ": 4449,
      "åĩºçİ°äºĨ": 4450,
      "è¯ķçĤ¹": 4451,
      "éŃı": 4452,
      "ï¿½": 4453,
      "åĽŀåĪ°": 4454,
      "æ²ĥ": 4455,
      "èµ¢å¾Ĺ": 4456,
      "æľĪç»ı": 4457,
      "ä¸īæĺ¯": 4458,
      "å¤ļæł·": 4459,
      "å¸Ĥæ°ĳ": 4460,
      "æī§æ³ķ": 4461,
      "ä¸Ģä½į": 4462,
      "åħĦ": 4463,
      "åĲ¹": 4464,
      "æĸ¹ä½į": 4465,
      "æ£ī": 4466,
      "èĩªè¡Į": 4467,
      "åĽ½çļĦ": 4468,
      "ä»Ķ": 4469,
      "å·¨å¤§": 4470,
      "æĮĩæķ°": 4471,
      "æīĢæľīçļĦ": 4472,
      "å®¶äºº": 4473,
      "çķª": 4474,
      "å°Ĭéĩį": 4475,
      "è¾ĥé«ĺ": 4476,
      "çĲ´": 4477,
      "æĦ¿æĦı": 4478,
      "èĢķ": 4479,
      "æŁĲäºĽ": 4480,
      "çĸ«èĭĹ": 4481,
      "åĮºåĪ«": 4482,
      "å¼·": 4483,
      "å¤§å¹ħ": 4484,
      "å£³": 4485,
      "éŃĤ": 4486,
      "æ·ĺ": 4487,
      "å£°éŁ³": 4488,
      "æ»¨": 4489,
      "ç²¾åĩĨ": 4490,
      "å¹¶åľ¨": 4491,
      "åı°æ¹¾": 4492,
      "å¾¡": 4493,
      "å¸ĪçĶŁ": 4494,
      "åĩĮ": 4495,
      "éģ¸": 4496,
      "ç¢°": 4497,
      "å¹¿è¥¿": 4498,
      "å¸¦åĬ¨": 4499,
      "å°ıåŃ¦": 4500,
      "åĽ½æ°ĳ": 4501,
      "èģĮä¸ļæķĻèĤ²": 4502,
      "èĲ¥éĢł": 4503,
      "æµ¦": 4504,
      "ä½ľé£İ": 4505,
      "æĳ¸": 4506,
      "æīįæĺ¯": 4507,
      "ä¸Ģå¤©": 4508,
      "èµ´": 4509,
      "æĢĢåŃķ": 4510,
      "æ£®æŀĹ": 4511,
      "åĬłéĢŁ": 4512,
      "è¬": 4513,
      "åĲĪæ³ķ": 4514,
      "æ³ķæ²»": 4515,
      "å¯¹æŃ¤": 4516,
      "ç½©": 4517,
      "è¾©": 4518,
      "å¥¥è¿Ĳ": 4519,
      "æĸ°çĸĨ": 4520,
      "åĴĮåħ¶ä»ĸ": 4521,
      "åĻª": 4522,
      "ç¨¿": 4523,
      "åĬ¨ä½ľ": 4524,
      "åº·å¤į": 4525,
      "å¤§éĩıçļĦ": 4526,
      "çĻ¾åĪĨçĤ¹": 4527,
      "å¥Ķ": 4528,
      "è¿ĳæľŁ": 4529,
      "ä¸įéĶĪéĴ¢": 4530,
      "èĢĥçĶŁ": 4531,
      "åħĨ": 4532,
      "ç«ŀäºīåĬĽ": 4533,
      "è¿Ł": 4534,
      "å¯Ĩå°ģ": 4535,
      "å½¢æĪĲäºĨ": 4536,
      "æŁľ": 4537,
      "åı¯æĮģç»Ń": 4538,
      "åĦ¿åŃĲ": 4539,
      "æĽ´æĸ°": 4540,
      "ç§ĳæĬĢåĪĽæĸ°": 4541,
      "è´µå·ŀ": 4542,
      "éĶĻè¯¯": 4543,
      "èĵĦ": 4544,
      "æĳĩ": 4545,
      "èº«è¾¹": 4546,
      "åĬłéĩį": 4547,
      "èĬ³": 4548,
      "æĺ¯éĿŀå¸¸": 4549,
      "äººæ°ĳåħ±åĴĮåĽ½": 4550,
      "çļĦä½¿çĶ¨": 4551,
      "èĭ±éĽĦ": 4552,
      "39": 4553,
      "åīįè¿Ľ": 4554,
      "éĩĮéĿ¢": 4555,
      "çľģå§Ķ": 4556,
      "èŁ": 4557,
      "éĺ²æĬ¤": 4558,
      "çĽĳæİ§": 4559,
      "ç±»ä¼¼": 4560,
      "åĴĮå¹³": 4561,
      "æĿ¥äºĨ": 4562,
      "äººåĬĽ": 4563,
      "æ´»åĬĽ": 4564,
      "åį°åº¦": 4565,
      "æĶ»åĿļ": 4566,
      "è¥¿å®ī": 4567,
      "75": 4568,
      "ä¸¥éĩįçļĦ": 4569,
      "æ¡Į": 4570,
      "å®ĹæĹ¨": 4571,
      "ä¸Ģå¸¦": 4572,
      "å¦¹": 4573,
      "ç§¯ç´¯": 4574,
      "å¸«": 4575,
      "å»·": 4576,
      "æĸĹäºī": 4577,
      "ä»£è°¢": 4578,
      "ä¸ªçĻ¾åĪĨçĤ¹": 4579,
      "æīĵå¼Ģ": 4580,
      "å¹»": 4581,
      "ç»ĨèıĮ": 4582,
      "éĿĴå°ĳå¹´": 4583,
      "åĩŃåĢŁ": 4584,
      "ä¿Ĭ": 4585,
      "çĶŁæĢģçİ¯å¢ĥ": 4586,
      "éĦ": 4587,
      "å»ºè®¾çļĦ": 4588,
      "çĹħä¾ĭ": 4589,
      "æĮ¯åħ´": 4590,
      "é¢Ħç®Ĺ": 4591,
      "èĤºçĤİ": 4592,
      "æĴŀ": 4593,
      "ä¸Ńåįİäººæ°ĳåħ±åĴĮåĽ½": 4594,
      "ç½ĳåıĭ": 4595,
      "ç´§å¼ł": 4596,
      "çĶ³æĬ¥": 4597,
      "çļĦå¤ĸ": 4598,
      "æĿĥçĽĬ": 4599,
      "æĻ°": 4600,
      "æĮ¤": 4601,
      "çĪ·": 4602,
      "ä¸įçĶ¨": 4603,
      "äººæīįåŁ¹åħ»": 4604,
      "è¿ĳæĹ¥": 4605,
      "çĶµèĦĳ": 4606,
      "ä¸Ńæľī": 4607,
      "åĳ½è¿Ĳ": 4608,
      "çļĦé£Łçī©": 4609,
      "æĶ¹è¿Ľ": 4610,
      "çĸ«æĥħéĺ²æİ§": 4611,
      "è°ĥçłĶ": 4612,
      "å¾ĭå¸Ī": 4613,
      "è¿ĩæ»¤": 4614,
      "æ°ĽåĽ´": 4615,
      "å½¢æĢģ": 4616,
      "é©±åĬ¨": 4617,
      "ç¼ĵè§£": 4618,
      "å¸¦æĿ¥çļĦ": 4619,
      "æİ¨åĩº": 4620,
      "çĻ¾å§ĵ": 4621,
      "çĶµåķĨ": 4622,
      "äººç¾¤": 4623,
      "åĴĮåıĳå±ķ": 4624,
      "ä¸ĭåįĪ": 4625,
      "æ¸¡": 4626,
      "ä¹Łå°±": 4627,
      "æķ´æĶ¹": 4628,
      "æ¡Ĩ": 4629,
      "ä¸Ģç³»åĪĹ": 4630,
      "åĽ½å®¶çļĦ": 4631,
      "æĢ§æł¼": 4632,
      "çĭĤ": 4633,
      "è§Ĥå¿µ": 4634,
      "ä¸ĭåİ»": 4635,
      "å¼¯": 4636,
      "åģļæ³ķ": 4637,
      "èİ·åıĸ": 4638,
      "ç®Ģç§°": 4639,
      "åĬ©äºİ": 4640,
      "å©Ĩ": 4641,
      "ä¸ªæĢ§": 4642,
      "å¯»æī¾": 4643,
      "åķı": 4644,
      "æįķ": 4645,
      "è½¬ç§»": 4646,
      "ä¼ĳæģ¯": 4647,
      "åĬ£": 4648,
      "éĢĤçĶ¨": 4649,
      "æ··åĩĿ": 4650,
      "èĢĮåľ¨": 4651,
      "è¡ĵ": 4652,
      "åĲ¦åĪĻ": 4653,
      "ä¸įäºĨ": 4654,
      "äººä¸º": 4655,
      "åĮħåĲ«": 4656,
      "æľīä»Ģä¹Ī": 4657,
      "çļĦèĥ½åĬĽ": 4658,
      "è®ºåĿĽ": 4659,
      "éĸĢ": 4660,
      "è¥¿æĸ¹": 4661,
      "ç©ºè°ĥ": 4662,
      "å±ķè§Ī": 4663,
      "å¤±è´¥": 4664,
      "æĢ§è´¨": 4665,
      "å¸ħ": 4666,
      "éĴ»": 4667,
      "æ¼Ĥ": 4668,
      "å±ħä½ı": 4669,
      "åĶ®åĲİ": 4670,
      "è¿ĺèĥ½": 4671,
      "æĭħå¿ĥ": 4672,
      "ä»ĬåĲİ": 4673,
      "å¤§èµĽ": 4674,
      "é«ĺä¸Ń": 4675,
      "æľīæĹ¶": 4676,
      "ä¸»ç®¡éĥ¨éĹ¨": 4677,
      "åħ¬å¹³": 4678,
      "è¾ĵéĢģ": 4679,
      "äºĶå¹´": 4680,
      "ç©·": 4681,
      "çĻ½çĻľé£İæĤ£èĢħ": 4682,
      "èĬĿ": 4683,
      "å¦ĩå¥³": 4684,
      "éī´å®ļ": 4685,
      "æ¯ıä¸Ģä¸ª": 4686,
      "å®ŀçİ°äºĨ": 4687,
      "çĲĨäºĭ": 4688,
      "åīª": 4689,
      "æ©¡èĥ¶": 4690,
      "çĽ¸ç»ĵåĲĪ": 4691,
      "èĴĻåı¤": 4692,
      "å¤§åŃ¦çĶŁ": 4693,
      "ä»¬çļĦ": 4694,
      "å°İ": 4695,
      "å§¿": 4696,
      "æĻļä¸Ĭ": 4697,
      "å±±è¥¿": 4698,
      "æĺ¯åĽłä¸º": 4699,
      "éĢļéģĵ": 4700,
      "çºªå¾ĭ": 4701,
      "èģĬ": 4702,
      "èĤ©": 4703,
      "çĽ´æĴŃ": 4704,
      "å¼Ģæĭĵ": 4705,
      "çļĦä¸ĵä¸ļ": 4706,
      "2008": 4707,
      "ä¸ĵç§ĳ": 4708,
      "åĨĽäºĭ": 4709,
      "ç½ĳä¸Ĭ": 4710,
      "æŃ¤åīį": 4711,
      "çļĦä¸Ń": 4712,
      "ä¿±ä¹Ĳ": 4713,
      "åŀĤ": 4714,
      "åľ°çĲĥ": 4715,
      "49": 4716,
      "åŃ¦èĢħ": 4717,
      "sh": 4718,
      "ä¸įå¤Ł": 4719,
      "åħļåĴĮ": 4720,
      "åĨ¶": 4721,
      "æĻĴ": 4722,
      "çĥĤ": 4723,
      "åĬ©åĬĽ": 4724,
      "æŁ³": 4725,
      "ä¿±ä¹Ĳéĥ¨": 4726,
      "çĸ¹": 4727,
      "èµ«": 4728,
      "65": 4729,
      "âĢķ": 4730,
      "åĲĦä½į": 4731,
      "åıįå¤į": 4732,
      "å¯Ĩåº¦": 4733,
      "èĬĤçº¦": 4734,
      "å®ļåĪ¶": 4735,
      "é£İæľº": 4736,
      "æľ¬äºº": 4737,
      "å¹²åĩĢ": 4738,
      "åĭĥ": 4739,
      "æĺİçĻ½": 4740,
      "æģ°": 4741,
      "åħ¬ä¼Ĺ": 4742,
      "çĹħçļĦ": 4743,
      "å°ıç¼ĸ": 4744,
      "ä¸§": 4745,
      "æ°ĳéĹ´": 4746,
      "åĤ³": 4747,
      "éģĹä¼ł": 4748,
      "åİ¨": 4749,
      "èŀįåħ¥": 4750,
      "è¶³å¤Ł": 4751,
      "æĪĲæķĪ": 4752,
      "åĴĸ": 4753,
      "äºĭåĬ¡": 4754,
      "ä¼Ĳ": 4755,
      "ä¼łæĦŁ": 4756,
      "æİ¥ä¸ĭæĿ¥": 4757,
      "æĬĳåĪ¶": 4758,
      "èģĶçĽŁ": 4759,
      "æĶ¶éĽĨ": 4760,
      "èĤ¡ç¥¨": 4761,
      "æ±Łè¥¿": 4762,
      "æĦĽ": 4763,
      "éĺŁçļĦ": 4764,
      "è¦ĭ": 4765,
      "æ»ļ": 4766,
      "çŃīçº§": 4767,
      "èĤĸ": 4768,
      "ä¸Ģçº§": 4769,
      "éĤ»": 4770,
      "æ¯ģ": 4771,
      "åļ": 4772,
      "è¡Ĺéģĵ": 4773,
      "ä¼ļåĳĺ": 4774,
      "æķ°åŃ¦": 4775,
      "é¢Ĺç²Ĵ": 4776,
      "å¼Ĺ": 4777,
      "åĲĪæĪĲ": 4778,
      "çĶ¨éĢĶ": 4779,
      "çĸ¾çĹħçļĦ": 4780,
      "çİ©å®¶": 4781,
      "äºĨæĪĳ": 4782,
      "æĸ°æĹ¶ä»£ä¸ŃåĽ½çī¹èī²ç¤¾ä¼ļä¸»ä¹ī": 4783,
      "èī²çļĦ": 4784,
      "çº·çº·": 4785,
      "æľįçĶ¨": 4786,
      "åł¡": 4787,
      "æ¯ıä¸ªäºº": 4788,
      "åı¯ä»¥è¯´": 4789,
      "åĳ¨å¹´": 4790,
      "éĥ¨éķ¿": 4791,
      "å¥½å¥½": 4792,
      "æıŃ": 4793,
      "ç§įç±»": 4794,
      "ç½Ĳ": 4795,
      "æħ¢æħ¢": 4796,
      "åŃķå¦ĩ": 4797,
      "æ¢Ŀ": 4798,
      "åĨħæ¶µ": 4799,
      "å¤§ä¼Ĺ": 4800,
      "åĪĨç¦»": 4801,
      "è¾Ĳ": 4802,
      "çĨ±": 4803,
      "æĽ´å¥½åľ°": 4804,
      "æµ©": 4805,
      "æĹ¥åŃĲ": 4806,
      "åı¤ä»£": 4807,
      "çĽ²": 4808,
      "æĽ°": 4809,
      "å°Ī": 4810,
      "å¼ĺæī¬": 4811,
      "æĸĩçī©": 4812,
      "pp": 4813,
      "å¥īçĮ®": 4814,
      "å¤§çº¦": 4815,
      "ä»¥ä¸ĬçļĦ": 4816,
      "èİ·å¾ĹäºĨ": 4817,
      "æ¡ĳ": 4818,
      "è¾ħåĬ©": 4819,
      "æľĢä½İ": 4820,
      "å¨ĺ": 4821,
      "åıĳçļĦ": 4822,
      "æīĢå¾Ĺ": 4823,
      "æŃ¤æĹ¶": 4824,
      "æĪĺæĸĹ": 4825,
      "èĪªå¤©": 4826,
      "æīİå®ŀ": 4827,
      "åĳ¨è¾¹": 4828,
      "åİ¦": 4829,
      "å¯¹æīĭ": 4830,
      "ä¸īå¤§": 4831,
      "æ¶ĪéĻ¤": 4832,
      "åħļçļĦäºĮåįģå¤§": 4833,
      "ç£·": 4834,
      "æĬķèµĦèĢħ": 4835,
      "éľį": 4836,
      "ä¸īåĪĨ": 4837,
      "åħ¬åĳĬ": 4838,
      "åĽ¾ä¹¦": 4839,
      "çĥŃæ°´": 4840,
      "è¥¿éĥ¨": 4841,
      "çĽ´åĪ°": 4842,
      "è´¢äº§": 4843,
      "å¤¹": 4844,
      "çļĦåŁºç¡Ģä¸Ĭ": 4845,
      "éªĳ": 4846,
      "ç¼Ĩ": 4847,
      "æ¶Īæ¯Ĵ": 4848,
      "åĵªéĩĮ": 4849,
      "çĿ¡çľł": 4850,
      "çłĶç©¶æīĢ": 4851,
      "ç»Ŀå¯¹": 4852,
      "çľĭçľĭ": 4853,
      "èĮĥåĽ´åĨħ": 4854,
      "åĮºçļĦ": 4855,
      "ä¿®å¤į": 4856,
      "ç«ĭè¶³": 4857,
      "åīįåĪĹ": 4858,
      "çŁ¥è¯Ĩäº§æĿĥ": 4859,
      "äºĪä»¥": 4860,
      "åĨ·åį´": 4861,
      "çĪ±çļĦ": 4862,
      "åĽŀçŃĶ": 4863,
      "åīĬ": 4864,
      "åĩºæĿ¥çļĦ": 4865,
      "è®°å¿Ĩ": 4866,
      "éĻĦè¿ĳ": 4867,
      "èĤ¡ä»½æľīéĻĲåħ¬åı¸": 4868,
      "åįļçī©é¦Ĩ": 4869,
      "éłŃ": 4870,
      "åıĺæĪĲ": 4871,
      "ä¾¿åĪ©": 4872,
      "è§ĤçĤ¹": 4873,
      "ä¸ľåĮĹ": 4874,
      "çĶµæľº": 4875,
      "èĽĭçĻ½è´¨": 4876,
      "ä¸ŃåĮ»èį¯": 4877,
      "éĥ½åı¯ä»¥": 4878,
      "éĿŀæ³ķ": 4879,
      "æĸ°å¢ŀ": 4880,
      "äº§çĶŁçļĦ": 4881,
      "99": 4882,
      "åľ¨è¿Ļä¸ª": 4883,
      "ä¹Ļçĥ¯": 4884,
      "å®ª": 4885,
      "æĤ¦": 4886,
      "éĹª": 4887,
      "èµĽäºĭ": 4888,
      "æĺ¨": 4889,
      "å¸¸è§ģçļĦ": 4890,
      "ä¸Ī": 4891,
      "ä¸ĬåįĪ": 4892,
      "çĽ¸åºĶçļĦ": 4893,
      "è®©æĪĳ": 4894,
      "åĽ¾çīĩ": 4895,
      "æĮĩæĮ¥": 4896,
      "æįŁä¼¤": 4897,
      "åı¦ä¸Ģæĸ¹éĿ¢": 4898,
      "éŀĭ": 4899,
      "æ¯ıæ¬¡": 4900,
      "çµ¦": 4901,
      "èİ²": 4902,
      "æĭĸ": 4903,
      "çĽ¸åħ³çļĦ": 4904,
      "èµ°åĲĳ": 4905,
      "é«ĺäºİ": 4906,
      "æľŁæľĽ": 4907,
      "ä½Ĩåľ¨": 4908,
      "èµł": 4909,
      "æ¡Īä¾ĭ": 4910,
      "èĢĢ": 4911,
      "çĮĽ": 4912,
      "çĥĺ": 4913,
      "åĩºåıĳ": 4914,
      "åħ»æ®ĸ": 4915,
      "åĿĩåĮĢ": 4916,
      "çĥŃæĥħ": 4917,
      "è¦ı": 4918,
      "ä¹Łå¾Ī": 4919,
      "åŃĿ": 4920,
      "èĪŀåı°": 4921,
      "æŀª": 4922,
      "de": 4923,
      "çļĦåİŁåĪĻ": 4924,
      "åħļç»Ħç»ĩ": 4925,
      "éĽ¶åĶ®": 4926,
      "åľºæĻ¯": 4927,
      "åľ°çĲĨ": 4928,
      "çī©åĵģ": 4929,
      "çħ§çīĩ": 4930,
      "ä¸ļç»©": 4931,
      "æŁ´": 4932,
      "éĽĨæĪĲ": 4933,
      "è¯¾åłĤ": 4934,
      "ä¹Łåı¯": 4935,
      "åīįæĻ¯": 4936,
      "ç¬¬åħŃ": 4937,
      "æĪĸè®¸": 4938,
      "ç´§å¯Ĩ": 4939,
      "æĺ¯æľĢ": 4940,
      "å·¢": 4941,
      "åħ³èĬĤ": 4942,
      "èªį": 4943,
      "è´¤": 4944,
      "ç¡®è®¤": 4945,
      "ç¬¬ä¸Ģä¸ª": 4946,
      "æł¡éķ¿": 4947,
      "æłĳèĦĤ": 4948,
      "ä¼ĺåħĪ": 4949,
      "å¸¸å¸¸": 4950,
      "ç¦ģæŃ¢": 4951,
      "ä¹Łæ²¡æľī": 4952,
      "é¡Į": 4953,
      "åħģè®¸": 4954,
      "å·¨å¤§çļĦ": 4955,
      "åį±æľº": 4956,
      "èµļ": 4957,
      "éĿĴå²Ľ": 4958,
      "éģµå®Ī": 4959,
      "ä¸ĵçĶ¨": 4960,
      "åıĳè¡Į": 4961,
      "åĿª": 4962,
      "çĦĬæİ¥": 4963,
      "è´º": 4964,
      "èĭ¯": 4965,
      "ç¶²": 4966,
      "è¯ĨåĪ«": 4967,
      "éļĲæĤ£": 4968,
      "å®ĥæĺ¯": 4969,
      "åĪĽæĦı": 4970,
      "å¿ħçĦ¶": 4971,
      "ä¿¡å¿µ": 4972,
      "ä¸¤äºº": 4973,
      "ä¼łç»ŁçļĦ": 4974,
      "æĹłè®ºæĺ¯": 4975,
      "éĩĩè®¿": 4976,
      "æĮ¡": 4977,
      "ä¸ŃåŃ¦": 4978,
      "è¿Ļå°±æĺ¯": 4979,
      "æľīåħ³éĥ¨éĹ¨": 4980,
      "çıŃåŃĲ": 4981,
      "å¤§å°ı": 4982,
      "åĴĮæľįåĬ¡": 4983,
      "ç®Ń": 4984,
      "åıĳè¾¾": 4985,
      "æĲı": 4986,
      "88": 4987,
      "è£ķ": 4988,
      "ä¸ºæł¸å¿ĥ": 4989,
      "æĢĿè·¯": 4990,
      "åįłåľ°": 4991,
      "æĺĤ": 4992,
      "å¢ĵ": 4993,
      "æ¸ħæĻ°": 4994,
      "è¾Ĳå°Ħ": 4995,
      "400": 4996,
      "äººæ°ĳç¾¤ä¼Ĺ": 4997,
      "åºŁæ°´": 4998,
      "å¯¼åĲĳ": 4999,
      "ä¸ĵé¢ĺ": 5000,
      "ä¸ĢåĢĭ": 5001,
      "æµ´": 5002,
      "è¼ĥ": 5003,
      "é¡¹çĽ®çļĦ": 5004,
      "æĶ¹éĿ©å¼ĢæĶ¾": 5005,
      "ä¸ŃåĽ½äººæ°ĳ": 5006,
      "è¿Ļä¹Łæĺ¯": 5007,
      "éķ¿æ±Ł": 5008,
      "çĨŁæĤī": 5009,
      "ä½ĵåĨħ": 5010,
      "æĿŃå·ŀ": 5011,
      "æĻ¯è§Ĥ": 5012,
      "èľĤ": 5013,
      "åħ±æľī": 5014,
      "ä½ıå®ħ": 5015,
      "çĶ·åŃĲ": 5016,
      "2009": 5017,
      "åĩĿèģļ": 5018,
      "è¾¨": 5019,
      "å®¶éĩĮ": 5020,
      "æĶ¾å¼ĥ": 5021,
      "æħ°": 5022,
      "æľºåĻ¨äºº": 5023,
      "å¯ĵ": 5024,
      "å²Ń": 5025,
      "è¿Ŀåıį": 5026,
      "éĢłåŀĭ": 5027,
      "ä»¥åħį": 5028,
      "æ°ĳçĶŁ": 5029,
      "æµĵåº¦": 5030,
      "çº²": 5031,
      "æ··åĩĿåľŁ": 5032,
      "ç«ŀèµĽ": 5033,
      "è¿ĽçĲĥ": 5034,
      "çļĦæķĪæŀľ": 5035,
      "èĤ¡ä¸ľ": 5036,
      "å½»åºķ": 5037,
      "ç²¾åº¦": 5038,
      "è§Ģ": 5039,
      "æĪĲå¹´": 5040,
      "èī³": 5041,
      "ä¹Łè®¸": 5042,
      "çļĦè§Ħå®ļ": 5043,
      "è®¼": 5044,
      "èģļçĦ¦": 5045,
      "åĮ¹": 5046,
      "éĢīçĶ¨": 5047,
      "æĥ³è±¡": 5048,
      "é¤Ĳé¥®": 5049,
      "æĥ³æ³ķ": 5050,
      "çĶµæ°Ķ": 5051,
      "å¥³åĦ¿": 5052,
      "æľīå®³": 5053,
      "åıĳè¨Ģ": 5054,
      "46": 5055,
      "èĪĴéĢĤ": 5056,
      "åıĤè§Ĥ": 5057,
      "æ¡¶": 5058,
      "æĮº": 5059,
      "ä¸įå¾Ĺä¸į": 5060,
      "çī©èģĶç½ĳ": 5061,
      "åī¯ä¸»ä»»": 5062,
      "ä¸¤å¹´": 5063,
      "åłµ": 5064,
      "çĶ¨æ°´": 5065,
      "åŃŁ": 5066,
      "å¾®ä¿¡": 5067,
      "å°±åľ¨": 5068,
      "åĽłçĤº": 5069,
      "å·¥ç¨ĭå¸Ī": 5070,
      "åįıåĬ©": 5071,
      "è§£æĶ¾": 5072,
      "çļĦä¸ĢäºĽ": 5073,
      "æĭĮ": 5074,
      "å¤Ħç½®": 5075,
      "åĨħå¤ĸ": 5076,
      "ç§°åı·": 5077,
      "æĢİæł·": 5078,
      "éĭ": 5079,
      "..": 5080,
      "ç«Ļåľ¨": 5081,
      "é¼ł": 5082,
      "æĺ¯å¯¹": 5083,
      "ä¾Ŀæīĺ": 5084,
      "æ¯ķç«Ł": 5085,
      "éĤĵ": 5086,
      "å°ĳæķ°": 5087,
      "ç¾¤ä½ĵ": 5088,
      "åĲĮæĦı": 5089,
      "æĸĩåĮĸçļĦ": 5090,
      "èį£èİ·": 5091,
      "ãĢį,": 5092,
      "ä¾ĿéĿł": 5093,
      "ç¼ĸåĪ¶": 5094,
      "éĢļé£İ": 5095,
      "ç»Īäºİ": 5096,
      "åĬĽåĴĮ": 5097,
      "æ°´åĪ©": 5098,
      "çĶ¨èį¯": 5099,
      "å½±çīĩ": 5100,
      "ãĢģâĢľ": 5101,
      "è¢Ń": 5102,
      "åĿĬ": 5103,
      "æĹ¥çĽĬ": 5104,
      "ä¸ºå®¢æĪ·": 5105,
      "çĶŁèĤ²": 5106,
      "èĥº": 5107,
      "è°Ĭ": 5108,
      "è«ĭ": 5109,
      "éħ±": 5110,
      "åĸ®": 5111,
      "æľįè£ħ": 5112,
      "éĢıæĺİ": 5113,
      "çĶµåĻ¨": 5114,
      "åī¯ä¹¦è®°": 5115,
      "èĦ±è´«": 5116,
      "ä¼ļçļĦ": 5117,
      "éģĶ": 5118,
      "åĩıè½»": 5119,
      "åģļäºĨ": 5120,
      "çŃĭ": 5121,
      "è§Ĩè§ī": 5122,
      "éĴ¢ç®¡": 5123,
      "å°±æľī": 5124,
      "åľ°éĿ¢": 5125,
      "æķĻç»ĥ": 5126,
      "æµ·åįĹ": 5127,
      "çļĦåħ³éĶ®": 5128,
      "éħ¶": 5129,
      "å¿ĥéĩĮ": 5130,
      "åĪĻæĺ¯": 5131,
      "ç²®é£Ł": 5132,
      "åį°è±¡": 5133,
      "çĶ±æŃ¤": 5134,
      "çº¿è·¯": 5135,
      "é¸£": 5136,
      "æĽ´é«ĺ": 5137,
      "äº§ä¸ļåıĳå±ķ": 5138,
      "çļĦçİ¯å¢ĥ": 5139,
      "äº§åĵģè´¨éĩı": 5140,
      "åĩºåİ»": 5141,
      "è¯īè®¼": 5142,
      "åķ¡": 5143,
      "è¦ģæľī": 5144,
      "éĩįéĩı": 5145,
      "åĩºåı°": 5146,
      "çĨĬ": 5147,
      "æ³³": 5148,
      "æĤ¨çļĦ": 5149,
      "æĬĵä½ı": 5150,
      "ä¸ĬéĿ¢": 5151,
      "çľĭæĿ¥": 5152,
      "2023": 5153,
      "58": 5154,
      "æĺ¯ä¸ª": 5155,
      "æİ¥è¿ĳ": 5156,
      "èĢ¶": 5157,
      "æĸ°åĮº": 5158,
      "æ³ª": 5159,
      "çĹķ": 5160,
      "æ¯ħ": 5161,
      "èĮħ": 5162,
      "è¾ĥä½İ": 5163,
      "å¸ĪèĮĥ": 5164,
      "æķħéļľ": 5165,
      "æĪĳä»¬åľ¨": 5166,
      "ç¦ģåĮº": 5167,
      "ED": 5168,
      "åīĩ": 5169,
      "åĪĳäºĭ": 5170,
      "è®²è§£": 5171,
      "é«ĺèĢĥ": 5172,
      "åĬŁçİĩ": 5173,
      "å¤«å¦»": 5174,
      "çŁ©": 5175,
      "ä¸įä½Ĩ": 5176,
      "çģµæ´»": 5177,
      "çļĦä¸ŃåĽ½": 5178,
      "åĲįåįķ": 5179,
      "è¿Ľç¨ĭ": 5180,
      "çħĮ": 5181,
      "ä¸Ģæĸ¹éĿ¢": 5182,
      "å¯Įæľī": 5183,
      "èĥģ": 5184,
      "çļĦå®īåħ¨": 5185,
      "åıįå¯¹": 5186,
      "çĶ¨æĿ¥": 5187,
      "æĸ°æĹ¶ä»£ä¸ŃåĽ½çī¹èī²ç¤¾ä¼ļä¸»ä¹īæĢĿæĥ³": 5188,
      "ç¯Ģ": 5189,
      "å±Ģéĥ¨": 5190,
      "èº«ä½ĵåģ¥åº·": 5191,
      "çļĩå¸Ŀ": 5192,
      "é»Ħéĩĳ": 5193,
      "éĶ¡": 5194,
      "æĸ¹éĴĪ": 5195,
      "åħļåı²": 5196,
      "æĢĴ": 5197,
      "é¡ŀ": 5198,
      "åģ·": 5199,
      "åĲįç§°": 5200,
      "é¡¾å®¢": 5201,
      "åľ°åĮºçļĦ": 5202,
      "éĬ": 5203,
      "æ£ĭ": 5204,
      "æľµ": 5205,
      "å¹´åºķ": 5206,
      "æ¶ĪèĢĹ": 5207,
      "å·®è·Ŀ": 5208,
      "åĩºè¡Ģ": 5209,
      "å°½å¿«": 5210,
      "æī¶è´«": 5211,
      "æľīåĬĽ": 5212,
      "å¸¶": 5213,
      "åł±": 5214,
      "ch": 5215,
      "çĽĴ": 5216,
      "èĲ¬": 5217,
      "è´¢å¯Į": 5218,
      "åĬ¨æĢģ": 5219,
      "åłª": 5220,
      "åį¢": 5221,
      "å·©": 5222,
      "æĳĺ": 5223,
      "çĬ¹": 5224,
      "é¬¼": 5225,
      "åıī": 5226,
      "ä¼ļåľ¨": 5227,
      "å¥ĸåĬ±": 5228,
      "åİĺ": 5229,
      "çļĦç®¡çĲĨ": 5230,
      "éĺ²çģ«": 5231,
      "åįľ": 5232,
      "éĩĬæĶ¾": 5233,
      "åĮĹäº¬å¸Ĥ": 5234,
      "ä¹¦æ³ķ": 5235,
      "çĶ¨äºº": 5236,
      "å¾Īæľī": 5237,
      "å½±è§Ĩ": 5238,
      "ä¸įæĺĵ": 5239,
      "æ¸©æļĸ": 5240,
      "ç¥ĸåĽ½": 5241,
      "çļĦè¿ĩç¨ĭä¸Ń": 5242,
      "è¿ĩåº¦": 5243,
      "æıĲé«ĺäºĨ": 5244,
      "å¼ķèµ·çļĦ": 5245,
      "è·¯çº¿": 5246,
      "æľ´": 5247,
      "åĴĸåķ¡": 5248,
      "èĺ": 5249,
      "å¼ĢåĲ¯": 5250,
      "çļĦçłĶç©¶": 5251,
      "åİĮ": 5252,
      "äºĴåĬ¨": 5253,
      "åįĥä¸ĩ": 5254,
      "ä¸Ģçº¿": 5255,
      "äººæ°ĳæ³ķéĻ¢": 5256,
      "ç§ĺä¹¦": 5257,
      "or": 5258,
      "é¢ĩ": 5259,
      "æ°´æ³¥": 5260,
      "å°ºå¯¸": 5261,
      "å·¥äºº": 5262,
      "æº«": 5263,
      "æ£Ģå¯Ł": 5264,
      "æīĢéľĢ": 5265,
      "èª¿": 5266,
      "çº³åħ¥": 5267,
      "è´¾": 5268,
      "ä¿¡ä»»": 5269,
      "è¸ª": 5270,
      "çº³ç¨İ": 5271,
      "åİĭç¼©": 5272,
      "åģļçļĦ": 5273,
      "åİļçļĦ": 5274,
      "æĶ¶è´¹": 5275,
      "å®¡è®¡": 5276,
      "ä¹Ķ": 5277,
      "çļĦåĨħå®¹": 5278,
      "è¿Ľå±ķ": 5279,
      "æĭįæĳĦ": 5280,
      "èµģ": 5281,
      "æĺ¥èĬĤ": 5282,
      "å®ĹæķĻ": 5283,
      "ä¼ĳéĹ²": 5284,
      "å¹¶éĿŀ": 5285,
      "æ¿Ģåıĳ": 5286,
      "ç§Łèµģ": 5287,
      "çĶ¨åĵģ": 5288,
      "çŃĸçķ¥": 5289,
      "å±Ī": 5290,
      "çĴ°": 5291,
      "ä»ĸåĢĳ": 5292,
      "ç»ĵå©ļ": 5293,
      "è¢«åĳĬ": 5294,
      "ç³ĸå°¿": 5295,
      "é¢ĸ": 5296,
      "è¾½å®ģ": 5297,
      "åħļæĶ¯éĥ¨": 5298,
      "æ²¦": 5299,
      "ä¸ľæĸ¹": 5300,
      "æľīåĬ©äºİ": 5301,
      "æĬĽ": 5302,
      "çĶŁäº§çļĦ": 5303,
      "åĽ½å®¶åĴĮ": 5304,
      "éłħ": 5305,
      "å¼¥": 5306,
      "é¹ı": 5307,
      "æĶ¿åįı": 5308,
      "çļĦå¸Ĥåľº": 5309,
      "ä¸ŃéĹ´": 5310,
      "æ±¡æ°´å¤ĦçĲĨ": 5311,
      "æİĪæĿĥ": 5312,
      "åĲĪçī©": 5313,
      "éĺ´éģĵ": 5314,
      "ç¡®è¯Ĭ": 5315,
      "çļĦè®¾è®¡": 5316,
      "åħ¨èº«": 5317,
      "ç¼ĸè¾ĳ": 5318,
      "ä¸Ģä»½": 5319,
      "æĺ¯ä»¥": 5320,
      "ä»ĸè¯´": 5321,
      "å¼ºå¤§": 5322,
      "åīįå¾Ģ": 5323,
      "ä¸Ģåľº": 5324,
      "å°Ĩåħ¶": 5325,
      "çĤİçĹĩ": 5326,
      "ä¸įçŁ¥": 5327,
      "æĽ´æį¢": 5328,
      "çĹĽèĭ¦": 5329,
      "æĬĵå¥½": 5330,
      "çŃ¾è®¢": 5331,
      "çİĽ": 5332,
      "èµ¤": 5333,
      "ç¾İè§Ĥ": 5334,
      "æĺ¯ä¸Ģå®¶": 5335,
      "æĿĲæĸĻçļĦ": 5336,
      "åĪ°çļĦ": 5337,
      "âĹ": 5338,
      "æĽ´å¤§": 5339,
      "å¥³åŃĲ": 5340,
      "å¤ļå®¶": 5341,
      "è¿ĺåľ¨": 5342,
      "å¤ļå¹´çļĦ": 5343,
      "è¡£æľį": 5344,
      "æī¿åĮħ": 5345,
      "éĴ¢éĵģ": 5346,
      "äºŃ": 5347,
      "æķ´çĲĨ": 5348,
      "ç»´åº¦": 5349,
      "çĶµæºĲ": 5350,
      "ä¸ĵæ³¨": 5351,
      "é¢Ħæµĭ": 5352,
      "è½»æĿ¾": 5353,
      "å¹¿ä¸ľçľģ": 5354,
      "èį¡": 5355,
      "çĽĳå¯Ł": 5356,
      "åŃ©åŃĲä»¬": 5357,
      "éĶĲ": 5358,
      "éĻ¶çĵ·": 5359,
      "æĦıå¤ĸ": 5360,
      "åĮ»å¸Ī": 5361,
      "çŃīåľ°": 5362,
      "æĻºèĥ½åĮĸ": 5363,
      "çµ±": 5364,
      "èµ·éĩį": 5365,
      "æĿ±": 5366,
      "çľŁçĲĨ": 5367,
      "èĢĮä¸įæĺ¯": 5368,
      "æĤł": 5369,
      "åľ¨è¿ĻéĩĮ": 5370,
      "85": 5371,
      "ä¸Ģä½ĵåĮĸ": 5372,
      "è½¨éģĵ": 5373,
      "åį§": 5374,
      "ç¨İåĬ¡": 5375,
      "47": 5376,
      "æĪĸæĺ¯": 5377,
      "å¼Ħ": 5378,
      "å¢ŀéĢŁ": 5379,
      "è¯ŀ": 5380,
      "æķ¦": 5381,
      "è¿ĩäºİ": 5382,
      "ä¸īè§Ĵ": 5383,
      "æĽ´æľī": 5384,
      "é«ĺåİĭ": 5385,
      "ä¿®æĶ¹": 5386,
      "æ°Ł": 5387,
      "èĤ¢": 5388,
      "æĿĲè´¨": 5389,
      "çī¢è®°": 5390,
      "åĲĦèĩª": 5391,
      "éļ¾åº¦": 5392,
      "è´§çī©": 5393,
      "æĶ¾åħ¥": 5394,
      "95": 5395,
      "å½¼æŃ¤": 5396,
      "ä¾Ľç»Ļ": 5397,
      "éĤĢè¯·": 5398,
      "åĲĮåŃ¦ä»¬": 5399,
      "ç©Ĩ": 5400,
      "ä¸įéľĢè¦ģ": 5401,
      "èĲĿ": 5402,
      "æķĪåºĶ": 5403,
      "éľ¸": 5404,
      "éŁ§": 5405,
      "æĴ¤": 5406,
      "ä»²": 5407,
      "æĪĳæł¡": 5408,
      "è§Ħæł¼": 5409,
      "ä¿Ŀåħ»": 5410,
      "ä¸¾æİª": 5411,
      "æĸ°åħ´": 5412,
      "åĪĨéħį": 5413,
      "æĶ¶èİ·": 5414,
      "ä¼ĺæĥł": 5415,
      "æľºåºĬ": 5416,
      "é¥¼": 5417,
      "æī¿è¯º": 5418,
      "ç»ĨèĬĤ": 5419,
      "äºĭå®ŀä¸Ĭ": 5420,
      "çļĦçī¹çĤ¹": 5421,
      "66": 5422,
      "å¦»åŃĲ": 5423,
      "å®ŀçĶ¨": 5424,
      "åĵ²åŃ¦": 5425,
      "æĪĲäºº": 5426,
      "å»ºç«ĭäºĨ": 5427,
      "éļıæĹ¶": 5428,
      "çººç»ĩ": 5429,
      "ä¼ļéķ¿": 5430,
      "ç·ļ": 5431,
      "al": 5432,
      "è¦ģç´ł": 5433,
      "å¢ŀåĢ¼": 5434,
      "åĲįä¸º": 5435,
      "éģ¥": 5436,
      "åıĳæĺİ": 5437,
      "æĿĳæ°ĳ": 5438,
      "éĢĶå¾Ħ": 5439,
      "æĩĪ": 5440,
      "å¦Ĩ": 5441,
      "ä¼łæĦŁåĻ¨": 5442,
      "åĤĻ": 5443,
      "ç¸½": 5444,
      "æ¿ĢåĬ±": 5445,
      "æĵħ": 5446,
      "èĩ³äºİ": 5447,
      "èŃ°": 5448,
      "ä¸Ģä¸ªæĸ°çļĦ": 5449,
      "æļĳ": 5450,
      "åĳ³éģĵ": 5451,
      "ä»·åĢ¼è§Ĥ": 5452,
      "éŃħ": 5453,
      "å®¡æī¹": 5454,
      "å¤§æ°Ķ": 5455,
      "æĭ³": 5456,
      "ä¾¯": 5457,
      "42": 5458,
      "åŀ«": 5459,
      "æĦıå¤§åĪ©": 5460,
      "çĥ¤": 5461,
      "åĵŃ": 5462,
      "æľªæĿ¥çļĦ": 5463,
      "æ¼Ķåĩº": 5464,
      "çŃĽ": 5465,
      "éĺ²èĮĥ": 5466,
      "æŃ£ç¡®çļĦ": 5467,
      "æ¸´": 5468,
      "åŃĲå¥³": 5469,
      "éĺ²æ°´": 5470,
      "æ¶¯": 5471,
      "ä½¿çĶ¨å¯¿åĳ½": 5472,
      "äººæĸĩ": 5473,
      "äººå·¥æĻºèĥ½": 5474,
      "åĨ¬åŃ£": 5475,
      "åı¯èĥ½æĺ¯": 5476,
      "æ¶²ä½ĵ": 5477,
      "BA": 5478,
      "çĽĳçĿ£ç®¡çĲĨ": 5479,
      "å¹¿åľº": 5480,
      "å»¶éķ¿": 5481,
      "æĺİæĺŁ": 5482,
      "çļĦåĬĽéĩı": 5483,
      "è¿ĲåĬ¨åĳĺ": 5484,
      "åİī": 5485,
      "çļĦåıĳçĶŁ": 5486,
      "èĪŁ": 5487,
      "äºĭä¸ļåįķä½į": 5488,
      "åĭŁ": 5489,
      "æĭĽèģĺ": 5490,
      "é«ĺè¾¾": 5491,
      "ä¸įå¦Ĥ": 5492,
      "56": 5493,
      "ä¹ĭä¸ĭ": 5494,
      "èµ·äºĨ": 5495,
      "å®¢è§Ĥ": 5496,
      "è©²": 5497,
      "è¿ĩæķı": 5498,
      "åįĬåľº": 5499,
      "ä¹łè¿ĳå¹³æĸ°æĹ¶ä»£ä¸ŃåĽ½çī¹èī²ç¤¾ä¼ļä¸»ä¹īæĢĿæĥ³": 5500,
      "èĢģå¹´äºº": 5501,
      "è¦ĸ": 5502,
      "æĻĤéĸĵ": 5503,
      "197": 5504,
      "å¨ģèĥģ": 5505,
      "å¼ºå¤§çļĦ": 5506,
      "çĪ±åĽ½": 5507,
      "æĹ¥åīį": 5508,
      "çļĦè´¨éĩı": 5509,
      "äºĮçº§": 5510,
      "åıĺéĿ©": 5511,
      "æĸľ": 5512,
      "çļĦä¸ľè¥¿": 5513,
      "å½ĵå¹´": 5514,
      "æķ°åŃĹåĮĸ": 5515,
      "å®¡æł¸": 5516,
      "æ°®": 5517,
      "å·¥ä¼ļ": 5518,
      "ä¸ľåįĹ": 5519,
      "ä¿ĿåŃĺ": 5520,
      "å§Ķæīĺ": 5521,
      "å£ĵ": 5522,
      "éĺ²èħĲ": 5523,
      "å¯¼æ¼Ķ": 5524,
      "æĹłäºº": 5525,
      "å¤ļåĲĥ": 5526,
      "æµģè¡Į": 5527,
      "éĿ¢åīį": 5528,
      "èĲ½åľ°": 5529,
      "å·²æĪĲä¸º": 5530,
      "ä¸įå¿ĺ": 5531,
      "æŁ¥çľĭ": 5532,
      "ä¸įå¼Ģ": 5533,
      "æİ§èĤ¡": 5534,
      "æĽ¸": 5535,
      "è¿Ļä½į": 5536,
      "è£¡": 5537,
      "åĽłèĢĮ": 5538,
      "éĥİ": 5539,
      "è§£çŃĶ": 5540,
      "æĢ»ç»Ł": 5541,
      "om": 5542,
      "èįĴ": 5543,
      "å±ĢéĿ¢": 5544,
      "æķıæĦŁ": 5545,
      "æĺ¾çĦ¶": 5546,
      "éĩĳé¢Ŀ": 5547,
      "éĹ¹": 5548,
      "æľīåºı": 5549,
      "ç»µ": 5550,
      "åĲįçļĦ": 5551,
      "æ£ļ": 5552,
      "æłª": 5553,
      "ç»ıè´¹": 5554,
      "æ´»åĬ¨çļĦ": 5555,
      "èµĶåģ¿": 5556,
      "è£Ŀ": 5557,
      "æłĩåĩĨåĮĸ": 5558,
      "æĸ¯åĿ¦": 5559,
      "èĦĨ": 5560,
      "åħĪè¿ĽçļĦ": 5561,
      "åľ°è´¨": 5562,
      "ä»İä¸¥": 5563,
      "ĠâĢľ": 5564,
      "çĽĹ": 5565,
      "æł½": 5566,
      "æĬ«": 5567,
      "åįģäºĶ": 5568,
      "ä¿±": 5569,
      "åħ¨æĸ¹ä½į": 5570,
      "è¯¾é¢ĺ": 5571,
      "åºŁæ°Ķ": 5572,
      "æĲŃéħį": 5573,
      "IS": 5574,
      "åħļå§Ķä¹¦è®°": 5575,
      "ä½Ļäºº": 5576,
      "å¸ķ": 5577,
      "åĽŃæŀĹ": 5578,
      "æ®¿": 5579,
      "è·µè¡Į": 5580,
      "å¤ĸåĽ½": 5581,
      "æ¬ł": 5582,
      "å¸¸è§Ħ": 5583,
      "å½ķåıĸ": 5584,
      "éĥ¨çļĦ": 5585,
      "çĪ½": 5586,
      "èĩªèº«çļĦ": 5587,
      "éģµå¾ª": 5588,
      "å»ºéĢł": 5589,
      "å²³": 5590,
      "èĨı": 5591,
      "è¿Ļç±»": 5592,
      "è¯ģæį®": 5593,
      "çĨĶ": 5594,
      "èĤĮèĤī": 5595,
      "ç²¾åĵģ": 5596,
      "ä¸ĺ": 5597,
      "æīĩ": 5598,
      "ä¼ļå¯¼èĩ´": 5599,
      "çļĦéĢīæĭ©": 5600,
      "å¾Īå°ĳ": 5601,
      "æľ¬è´¨": 5602,
      "çľŁæŃ£çļĦ": 5603,
      "æĿĥå¨ģ": 5604,
      "ä¸Ģå¸¦ä¸Ģè·¯": 5605,
      "æĹ¥çļĦ": 5606,
      "æ¨Ĥ": 5607,
      "æĽ´å¤§çļĦ": 5608,
      "æĹłçĸĳ": 5609,
      "æīĵåį°": 5610,
      "èĥĸ": 5611,
      "æĽ¿ä»£": 5612,
      "æ¨Ļ": 5613,
      "ç§īæī¿": 5614,
      "å°Ŀè¯ķ": 5615,
      "åĨįçĶŁ": 5616,
      "æıĲäº¤": 5617,
      "ä¼łæŁĵ": 5618,
      "å¾Īé«ĺ": 5619,
      "çŃīé¢ĨåŁŁ": 5620,
      "çĩĥçĥ§": 5621,
      "åĪ°è¾¾": 5622,
      "éĢīæīĭ": 5623,
      "æĭĽæłĩ": 5624,
      "ä¸¢": 5625,
      "æ¶Īå¤±": 5626,
      "äºı": 5627,
      "åĲĮæľŁ": 5628,
      "æľĢéĩįè¦ģ": 5629,
      "æĬļ": 5630,
      "ä¹Łå°Ĩ": 5631,
      "èĥļ": 5632,
      "å¿ĥæĥħ": 5633,
      "ç¿¼": 5634,
      "éĢĢä¼ĳ": 5635,
      "ä¼Łå¤§å¤įåħ´": 5636,
      "æīŃ": 5637,
      "æĢ§å¥½": 5638,
      "åį³å°Ĩ": 5639,
      "è¦ģåľ¨": 5640,
      "è¿ĩçļĦ": 5641,
      "åħĦå¼Ł": 5642,
      "å¥ł": 5643,
      "èĶ¡": 5644,
      "èģĮèĥ½": 5645,
      "åħ¬åĬ¡": 5646,
      "æķĳæı´": 5647,
      "LED": 5648,
      "æ¶¦æ»ĳ": 5649,
      "è®©ä½ł": 5650,
      "è¹Ī": 5651,
      "å½ĵä»£": 5652,
      "èĳ±": 5653,
      "åħ¬æ°ĳ": 5654,
      "æĸ°é²ľ": 5655,
      "ä¼ª": 5656,
      "çµĦ": 5657,
      "ç¤¾ä¼ļçļĦ": 5658,
      "å¨ľ": 5659,
      "å¤ªå¤ļ": 5660,
      "ä¼łéĢĴ": 5661,
      "èģª": 5662,
      "ç§©": 5663,
      "éĢ»": 5664,
      "çĹħåĽł": 5665,
      "ç¨ĭåº¦ä¸Ĭ": 5666,
      "æµªè´¹": 5667,
      "é£ŀæľº": 5668,
      "çŃīå¾ħ": 5669,
      "æľįåĬ¡çļĦ": 5670,
      "æ¾³éĹ¨": 5671,
      "æĦıéĹ´": 5672,
      "é£İæĻ¯": 5673,
      "å¹½": 5674,
      "æīĵåĩ»": 5675,
      "ç³Ĭ": 5676,
      "åºĻ": 5677,
      "åĲĪçĲĨçļĦ": 5678,
      "æĺ¯ä¸įæĺ¯": 5679,
      "44": 5680,
      "è¥¿çıŃ": 5681,
      "åĽ¢ä½ĵ": 5682,
      "å¾ģç¨ĭ": 5683,
      "èĩªåŃ¦": 5684,
      "å°±ä¸į": 5685,
      "æķĻæĿĲ": 5686,
      "è¥¿çıŃçīĻ": 5687,
      "çºĮ": 5688,
      "æ§½": 5689,
      "äº§èĥ½": 5690,
      "æĹ¥èĩ³": 5691,
      "æĸĩèīº": 5692,
      "æŁı": 5693,
      "éľī": 5694,
      "ç¤¾äº¤": 5695,
      "è¡¥è´´": 5696,
      "å®ŀä¹ł": 5697,
      "ç³ĸå°¿çĹħ": 5698,
      "æ¶Į": 5699,
      "æķĻèĤ²çļĦ": 5700,
      "æĻ®åıĬ": 5701,
      "æĭ¨": 5702,
      "å¿«éĢŁå¢ŀéķ¿": 5703,
      "ç«Ń": 5704,
      "äºĴçĽ¸": 5705,
      "åıł": 5706,
      "ä¹Łä¸įä¼ļ": 5707,
      "éĨī": 5708,
      "åĽŀå®¶": 5709,
      "åĲĦåĽ½": 5710,
      "æķ°æį®æĺ¾ç¤º": 5711,
      "ç´Ħ": 5712,
      "åıĳåĩº": 5713,
      "åıĤèµĽ": 5714,
      "ç¢Ĺ": 5715,
      "æıĲåĪ°è¿ĩ": 5716,
      "èĬ½": 5717,
      "çĲĨçĶ±": 5718,
      "çĶŁçĲĨ": 5719,
      "ä¸Ĭå¹´": 5720,
      "è½¦éĹ´": 5721,
      "åĪ©äºļ": 5722,
      "æĸ¹çļĦ": 5723,
      "å¤ĸè§Ĥ": 5724,
      "è½´æī¿": 5725,
      "å·©åĽº": 5726,
      "çĻ¼å±ķ": 5727,
      "æ¶Ľ": 5728,
      "éĲ": 5729,
      "å®ŀåľ¨": 5730,
      "é¥°æ¼Ķ": 5731,
      "at": 5732,
      "åīµ": 5733,
      "å½¢çĬ¶": 5734,
      "åħĴ": 5735,
      "ä»¥å¤ĸ": 5736,
      "é¦Ī": 5737,
      "è¡Ķ": 5738,
      "çķľ": 5739,
      "åľ¨åħ¨åĽ½": 5740,
      "éĽ¢": 5741,
      "éĶĢéĩı": 5742,
      "3000": 5743,
      "åĴ³": 5744,
      "åĿļæĮģä»¥": 5745,
      "æĪĳæĥ³": 5746,
      "èĭ¹": 5747,
      "æĺ¾å¾Ĺ": 5748,
      "ç§©åºı": 5749,
      "éħįå¤ĩ": 5750,
      "çļĦäººçĶŁ": 5751,
      "é²ľæĺİ": 5752,
      "600": 5753,
      "æĬ¼": 5754,
      "å°ıè¯´": 5755,
      "çĭ¬çī¹çļĦ": 5756,
      "çĶµç¼Ĩ": 5757,
      "ä¸Ĭæľī": 5758,
      "æ£Ĵ": 5759,
      "å¥³åŃ©": 5760,
      "é¤Ĭ": 5761,
      "æī©æķ£": 5762,
      "é¹¿": 5763,
      "å·²æľī": 5764,
      "çħ¤çĤŃ": 5765,
      "æī®": 5766,
      "ä¸ºä¸Ńå¿ĥ": 5767,
      "çŃīå¤ļ": 5768,
      "é«ĺæĸ°æĬĢæľ¯": 5769,
      "éĤ£æł·": 5770,
      "çļĦç¤¾ä¼ļ": 5771,
      "å¢ŀåĬłäºĨ": 5772,
      "æ°ĳèĲ¥": 5773,
      "å·´è¥¿": 5774,
      "èĽĩ": 5775,
      "èĢĲç£¨": 5776,
      "å¿ĥèĦı": 5777,
      "ä¼ļåĩºçİ°": 5778,
      "çĭĢ": 5779,
      "å®ĮæĪĲäºĨ": 5780,
      "æĽ¾ç»ıæıĲåĪ°è¿ĩ": 5781,
      "æ·®": 5782,
      "åħħè¶³": 5783,
      "æ²«": 5784,
      "æ¨¡åŀĭ": 5785,
      "çħ§æĺİ": 5786,
      "è®¾æľī": 5787,
      "çļĦåħ³ç³»": 5788,
      "äººåĬĽèµĦæºĲ": 5789,
      "å¸ĤæĶ¿åºľ": 5790,
      "150": 5791,
      "åŁİåĮº": 5792,
      "å¾®çĶŁçī©": 5793,
      "éĢłæĪĲçļĦ": 5794,
      "ä¸»åľº": 5795,
      "è©±": 5796,
      "çºªå½ķ": 5797,
      "åıĺå½¢": 5798,
      "le": 5799,
      "è¾¦": 5800,
      "ä¸¸": 5801,
      "ãĢĤãĢį": 5802,
      "èĭ¹æŀľ": 5803,
      "çĺ¦": 5804,
      "éļ¾é¢ĺ": 5805,
      "åĨħå¿ĥ": 5806,
      "æĢ¨": 5807,
      "èĤ¡æĿĥ": 5808,
      "è¯»ä¹¦": 5809,
      "åħļçļĦåįģä¹Ŀ": 5810,
      "èŃ·": 5811,
      "èı©": 5812,
      "çŃĴ": 5813,
      "ç»ĻäºĨ": 5814,
      "éģ©": 5815,
      "åĲĦçķĮ": 5816,
      "çĶŁæ®ĸ": 5817,
      "æī¹è¯Ħ": 5818,
      "å³¡": 5819,
      "ä»İä¸ļ": 5820,
      "æĢ»éĥ¨": 5821,
      "ä¸ĭè½½": 5822,
      "æĢĿèĢĥè¿Ļä¸ªéĹ®é¢ĺ": 5823,
      "ä¸Ńåħ¨ä¼ļ": 5824,
      "2007": 5825,
      "çĶµè§Ĩåī§": 5826,
      "è¶ħå£°": 5827,
      "2006": 5828,
      "æĹħè¡Į": 5829,
      "ä½¿åħ¶": 5830,
      "äºĶè¡Įç¼º": 5831,
      "åħļåĳĺå¹²éĥ¨": 5832,
      "ä¸»æ¼Ķ": 5833,
      "æĹ¶å°ļ": 5834,
      "çľĭçĿĢ": 5835,
      "ä¾¿æĺ¯": 5836,
      "æķ´æ²»": 5837,
      "å±±ä¸ľçľģ": 5838,
      "è¯¸å¤ļ": 5839,
      "è¦º": 5840,
      "çļĦæķħäºĭ": 5841,
      "é¢ĦæľŁ": 5842,
      "åĬ©æĶ»": 5843,
      "éĢļæĬ¥": 5844,
      "æĥ©": 5845,
      "å¯¹åħ¶": 5846,
      "æľŁéĻĲ": 5847,
      "å±Ģéķ¿": 5848,
      "æĮĸæİĺ": 5849,
      "ç¥Ń": 5850,
      "å»ºè®¾åĴĮ": 5851,
      "èŃī": 5852,
      "120": 5853,
      "è¾ĥé«ĺçļĦ": 5854,
      "å¤ļå¹´æĿ¥": 5855,
      "çĻ½éħĴ": 5856,
      "è¥¿åįĹ": 5857,
      "éĽ£": 5858,
      "æĹ¥åħĥ": 5859,
      "æĢ»é¢Ŀ": 5860,
      "éª¤": 5861,
      "çĶŁäº§çº¿": 5862,
      "ä¸»åĬŀ": 5863,
      "æ³ķå®ļ": 5864,
      "å¯¹æİ¥": 5865,
      "éĩįå¤į": 5866,
      "ä¸įåľ¨": 5867,
      "èħĬ": 5868,
      "åĬŀäºĭ": 5869,
      "åľ°éľĩ": 5870,
      "åĪĿæŃ¥": 5871,
      "ç¼ºçĤ¹": 5872,
      "åŃ£èĬĤ": 5873,
      "çļĦæľºä¼ļ": 5874,
      "é»ĳèī²ç´ł": 5875,
      "åħ½": 5876,
      "çļĦè¿ĩç¨ĭ": 5877,
      "åŃĺåĤ¨": 5878,
      "æĬĬæĪĳä»¬": 5879,
      "éģĹäº§": 5880,
      "æķ°æİ§": 5881,
      "è½ī": 5882,
      "å®¶æĹı": 5883,
      "æ¡£æ¡Ī": 5884,
      "åįĵè¶Ĭ": 5885,
      "å¥Ī": 5886,
      "åĲĮæĹ¶ä¹Ł": 5887,
      "éĨĽ": 5888,
      "çĶŁåĬ¨": 5889,
      "çķĻä¸ĭ": 5890,
      "æĪĳä»¬åı¯ä»¥": 5891,
      "å¤§äºİ": 5892,
      "åĩºçĶŁäºİ": 5893,
      "è¯Ħè®º": 5894,
      "çİ°åľ¨çļĦ": 5895,
      "åįłæ¯Ķ": 5896,
      "æĵļ": 5897,
      "æĪĲä¸ºäºĨ": 5898,
      "43": 5899,
      "åĲķ": 5900,
      "å¿ħè¦ģçļĦ": 5901,
      "å¹¿æĴŃ": 5902,
      "å¯¹å¾ħ": 5903,
      "èĪ°": 5904,
      "å»Ĭ": 5905,
      "çľ¾": 5906,
      "åľĺ": 5907,
      "68": 5908,
      "å½ĵäºĭ": 5909,
      "è¿Ļå°±": 5910,
      "ç®¡çĲĨçļĦ": 5911,
      "æİĪäºĪ": 5912,
      "éĴł": 5913,
      "è§Ĥçľĭ": 5914,
      "è¨±": 5915,
      "æĪ¿åŃĲ": 5916,
      "å¿ĥä¸Ń": 5917,
      "ä¸įæĸŃæıĲé«ĺ": 5918,
      "å¸¦æĿ¥äºĨ": 5919,
      "çĶĺèĤĥ": 5920,
      "æ¹ĺ": 5921,
      "æĬ¥èŃ¦": 5922,
      "æ°´ä¸Ń": 5923,
      "æĶ¶åĪ°": 5924,
      "Ġå¹´": 5925,
      "æ°Ķè±¡": 5926,
      "ä¾ĽåºĶéĵ¾": 5927,
      "æ¯ıæĹ¥": 5928,
      "åĪĨè§£": 5929,
      "æ¾³å¤§åĪ©": 5930,
      "ä¸Īå¤«": 5931,
      "å¼µ": 5932,
      "éĴ¢ç»ĵæŀĦ": 5933,
      "ä¸įåĪ©": 5934,
      "ä¸ªä½ĵ": 5935,
      "æĺ¯æĪĳä»¬": 5936,
      "å±ĤéĿ¢": 5937,
      "ä½ĽæķĻ": 5938,
      "çģ¾å®³": 5939,
      "çļĦçĽ®çļĦ": 5940,
      "å¥¹ä»¬": 5941,
      "ç¨İæĶ¶": 5942,
      "çļĦåıĺåĮĸ": 5943,
      "å¸¸åĬ¡": 5944,
      "ãĢĤãĢĤ": 5945,
      "å¹³ç¨³": 5946,
      "æŁĲç§į": 5947,
      "èĬĤçľģ": 5948,
      "5000": 5949,
      "æĺ¯æĪĳ": 5950,
      "å¸½": 5951,
      "ä¹ĭæīĢä»¥": 5952,
      "çļĦçĽ®æłĩ": 5953,
      "æ¸ĹéĢı": 5954,
      "ç¯®æĿ¿": 5955,
      "çºªå§Ķ": 5956,
      "åıįèĢĮ": 5957,
      "æį®äºĨè§£": 5958,
      "ä¾Ŀèµĸ": 5959,
      "èĨ¨": 5960,
      "æį®æĤī": 5961,
      "ä¼ĺå¼Ĥ": 5962,
      "ä¸Ģä½ĵçļĦ": 5963,
      "æııè¿°": 5964,
      "è¶ħè¶Ĭ": 5965,
      "é¥®æĸĻ": 5966,
      "çĶµè·¯": 5967,
      "âĸ": 5968,
      "å¤ĸçķĮ": 5969,
      "52": 5970,
      "èķ´": 5971,
      "åİĨåı²ä¸Ĭ": 5972,
      "èĢĮæĪĲ": 5973,
      "ç®¡çĲĨä½ĵç³»": 5974,
      "çķı": 5975,
      "å®ŀä½ĵ": 5976,
      "ä¸İæŃ¤": 5977,
      "è¥¿åĮĹ": 5978,
      "åį¸": 5979,
      "å·¥ä½ľèĢħ": 5980,
      "æĽĿ": 5981,
      "æĮĩç¤º": 5982,
      "çĹĴ": 5983,
      "å¯¨": 5984,
      "äºīåıĸ": 5985,
      "å¥½å¤Ħ": 5986,
      "å¤ªéĺ³èĥ½": 5987,
      "éģ£": 5988,
      "å®¶å±ħ": 5989,
      "éĢīä¸¾": 5990,
      "åĶ®åĲİæľįåĬ¡": 5991,
      "ç²¾å¿ĥ": 5992,
      "æľįåĭĻ": 5993,
      "é»ı": 5994,
      "è¯±åıĳ": 5995,
      "æŀ¢": 5996,
      "èĪŀè¹Ī": 5997,
      "è¾ĵåĩº": 5998,
      "åħ¨å¹´": 5999,
      "äºĶè¡ĮåĪĨæŀĲ": 6000,
      "è¿ĺæ²¡æľī": 6001,
      "æ°´åĪĨ": 6002,
      "èħ»": 6003,
      "æī¿åıĹ": 6004,
      "çģ«çģ¾": 6005,
      "åİĺç±³": 6006,
      "åİĨç¨ĭ": 6007,
      "ä¿ĿçķĻ": 6008,
      "è½¬æį¢": 6009,
      "çģ£": 6010,
      "éĢĻåĢĭ": 6011,
      "ä¸įåıĹ": 6012,
      "è¦ģæĬĬ": 6013,
      "èģĮåĬ¡": 6014,
      "ä¸ĢçĶŁ": 6015,
      "41": 6016,
      "åįıä½ľ": 6017,
      "æĬ¥èĢĥ": 6018,
      "èĥ½åĬĽåĴĮ": 6019,
      "åĲĮä¸Ģ": 6020,
      "åİ¿çº§": 6021,
      "ä¸Ńåįİæ°ĳæĹıä¼Łå¤§å¤įåħ´": 6022,
      "æĤ¨åħ«åŃĹ": 6023,
      "åĭĺ": 6024,
      "å®Įç¾İ": 6025,
      "ç¬¬ä¸ĥ": 6026,
      "éļĶç¦»": 6027,
      "æĬĢå·§": 6028,
      "ç¢§": 6029,
      "åİŁæľ¬": 6030,
      "åįģä¸Ģ": 6031,
      "ä¸įä»ħä»ħ": 6032,
      "æ±°": 6033,
      "ä»¶äºĭ": 6034,
      "åģ¥èº«": 6035,
      "è´Łæĭħ": 6036,
      "å¸¦å¤´": 6037,
      "åįģå¤§": 6038,
      "çľī": 6039,
      "æľºç»Ħ": 6040,
      "åħ¥åı£": 6041,
      "éĳ": 6042,
      "æĥ§": 6043,
      "å°ıåĮº": 6044,
      "çľŁç©º": 6045,
      "äººåĴĮ": 6046,
      "å¾ħéģĩ": 6047,
      "è¿Ļä¸ĢçĤ¹": 6048,
      "æĸ°çĶŁ": 6049,
      "çļĦç¾İ": 6050,
      "æĢ¥æĢ§": 6051,
      "è¯Ħå®¡": 6052,
      "æ¾³å¤§åĪ©äºļ": 6053,
      "ä¸įç¦ģ": 6054,
      "ä¸ºæŃ¤": 6055,
      "éĺŁåĳĺ": 6056,
      "æĪĺèĥľ": 6057,
      "æ¸Ķ": 6058,
      "æķ£çĥŃ": 6059,
      "æľīå¤ļ": 6060,
      "å¦¥": 6061,
      "åĲ¸éĻĦ": 6062,
      "çļĦè¡Įä¸º": 6063,
      "çĻĤ": 6064,
      "èģļæ°¨": 6065,
      "å¸¦åĪ°äºĨ": 6066,
      "æĶ¶èĹı": 6067,
      "éĺĲ": 6068,
      "åĤħ": 6069,
      "çĩĥæĸĻ": 6070,
      "ä¸²": 6071,
      "èĳ¬": 6072,
      "ç¢º": 6073,
      "åıĥ": 6074,
      "Ġ1": 6075,
      "éĤ£éĩĮ": 6076,
      "æ¡¥æ¢ģ": 6077,
      "æĪĲç«ĭäºİ": 6078,
      "çī©æĸĻ": 6079,
      "åŃ¦æł¡çļĦ": 6080,
      ":ãĢĮ": 6081,
      "äº¤æį¢": 6082,
      "æ·±æĢĿ": 6083,
      "å®¢æĪ·çļĦ": 6084,
      "çłĶç©¶ä¸Ńå¿ĥ": 6085,
      "éħ·": 6086,
      "åľ°çĤ¹": 6087,
      "è¿Ŀè§Ħ": 6088,
      "ä»Ķç»Ĩ": 6089,
      "éĢļçĶ¨": 6090,
      "è®²è¿°": 6091,
      "æľĢä¸º": 6092,
      "éĹ´çļĦ": 6093,
      "åĩıèĤ¥": 6094,
      "æ²³åįĹçľģ": 6095,
      "åĨ²çªģ": 6096,
      "è¢«ç§°ä¸º": 6097,
      "çŃĶæ¡Ī": 6098,
      "æº¢": 6099,
      "æ¶µçĽĸ": 6100,
      "èµ°è¿Ľ": 6101,
      "çİĦ": 6102,
      "å¹´åīį": 6103,
      "æ±Łèĭıçľģ": 6104,
      "ing": 6105,
      "èĮĤ": 6106,
      "è¯ĬçĸĹ": 6107,
      "å¯¹æ¯Ķ": 6108,
      "çŃīéĹ®é¢ĺ": 6109,
      "æĢ»å±Ģ": 6110,
      "äºĮæ¬¡": 6111,
      "åħ¥éĢī": 6112,
      "éĹ¨çªĹ": 6113,
      "ç¤¾ä¼ļä¸»ä¹īçİ°ä»£åĮĸ": 6114,
      "åľ¨å¤§": 6115,
      "57": 6116,
      "è¨ĺ": 6117,
      "åľ°éĵģ": 6118,
      "äººå¿ĥ": 6119,
      "åı¹": 6120,
      "å¿½è§Ĩ": 6121,
      "è¿ĽèĢĮ": 6122,
      "åĦª": 6123,
      "æĿ¡ä»¶ä¸ĭ": 6124,
      "åİŁæĿ¥": 6125,
      "çľĭè§ģ": 6126,
      "åĪļåĪļ": 6127,
      "ç®ĢåįķçļĦ": 6128,
      "æľīæķĪåľ°": 6129,
      "æ»ŀ": 6130,
      "èĳĽ": 6131,
      "æĥħèĬĤ": 6132,
      "ç§įåŃĲ": 6133,
      "çŀ¬": 6134,
      "èµĲ": 6135,
      "æĦŁåıĹåĪ°": 6136,
      "åı¯ä»¥éĢļè¿ĩ": 6137,
      "ä¸¤æ¬¡": 6138,
      "åıĳçĶŁäºĨ": 6139,
      "et": 6140,
      "ç¨³å®ļæĢ§": 6141,
      "ä¸įä¸Ģæł·": 6142,
      "æĳĦå½±": 6143,
      "å¤ıåŃ£": 6144,
      "åº§è°Ī": 6145,
      "å¤§å¸Ī": 6146,
      "ç¨»": 6147,
      "åĲĮäºĭ": 6148,
      "æĲľç´¢": 6149,
      "ang": 6150,
      "å°Ĩäºİ": 6151,
      "ç¤¼çī©": 6152,
      "èĭıå·ŀ": 6153,
      "ä¼łç»ŁæĸĩåĮĸ": 6154,
      "æĪĪ": 6155,
      "å½ĵå¤©": 6156,
      "æĶ»åĩ»": 6157,
      "èģĮç§°": 6158,
      "ä¾¨": 6159,
      "éĢıéľ²": 6160,
      "éĢĬ": 6161,
      "å¤ļæķ°": 6162,
      "åĴ½": 6163,
      "åĬ¨çĶ»": 6164,
      "çİ°çĬ¶": 6165,
      "çļĦä»·æł¼": 6166,
      "é½Ĳåħ¨": 6167,
      "èģļæ°¨éħ¯": 6168,
      "ä¸Ĭä¸Ģ": 6169,
      "æĸ°åĨłèĤºçĤİ": 6170,
      "ç³ķ": 6171,
      "æ¸ħçĲĨ": 6172,
      "æįŁåĿı": 6173,
      "åĬłæĭ¿": 6174,
      "åĮł": 6175,
      "äººä»¬çļĦ": 6176,
      "éħ¬": 6177,
      "ç«ĭæ³ķ": 6178,
      "åħļç»Ħ": 6179,
      "??": 6180,
      "åĴĮæĬĢæľ¯": 6181,
      "æµģéĢļ": 6182,
      "æ¯ĶèµĽä¸Ń": 6183,
      "åģ¥åº·çļĦ": 6184,
      "åĥ¹": 6185,
      "éĢ²è¡Į": 6186,
      "å¹³å®ī": 6187,
      "èĬ¬": 6188,
      "é¾Ļå¤´": 6189,
      "éĥĳå·ŀ": 6190,
      "åİŁæĿĲæĸĻ": 6191,
      "æīĵçł´": 6192,
      "åĵįåºĶ": 6193,
      "çī©èµĦ": 6194,
      "è¶ħçº§": 6195,
      "ç´«å¤ĸ": 6196,
      "ä¸įä¹ħ": 6197,
      "æĩĤå¾Ĺ": 6198,
      "åĨĽéĺŁ": 6199,
      "åľ¨ä½¿çĶ¨": 6200,
      "éĢļè®¯": 6201,
      "æľĢéĩįè¦ģçļĦ": 6202,
      "æ°´å¹³çļĦ": 6203,
      "IP": 6204,
      "ç²¾å¯Ĩ": 6205,
      "è²»": 6206,
      "æĸ°åıĳå±ķ": 6207,
      "éħµ": 6208,
      "ä½İæ¸©": 6209,
      "å¸Ĥåľºä¸Ĭ": 6210,
      "åĲĮæŃ¥": 6211,
      "ä¾ĽåºĶåķĨ": 6212,
      "æľīçĤ¹": 6213,
      "çĪ¸çĪ¸": 6214,
      "çĨ¬": 6215,
      "æĪĳåľ¨": 6216,
      "ä¸ĩå¹³æĸ¹ç±³": 6217,
      "è¯´æ³ķ": 6218,
      "ç»ıæµİåŃ¦": 6219,
      "æ¼ł": 6220,
      "å¥½åĥı": 6221,
      "èı¯": 6222,
      "ç»¿åĮĸ": 6223,
      "çļĦåºĶçĶ¨": 6224,
      "ä¾Ŀçħ§": 6225,
      "åħ¹": 6226,
      "é¥²": 6227,
      "å¿ĥæĢģ": 6228,
      "èĩĤ": 6229,
      "åİ»éĻ¤": 6230,
      "æīĭç»Ń": 6231,
      "é¸¿": 6232,
      "ç²¤": 6233,
      "æ¬§åĨł": 6234,
      "æİ¥ç§į": 6235,
      "zh": 6236,
      "æīįä¼ļ": 6237,
      "å»£": 6238,
      "çļĦæł¸å¿ĥ": 6239,
      "ç¶Ń": 6240,
      "æħķ": 6241,
      "çĤ®": 6242,
      "é¼İ": 6243,
      "è¯Ī": 6244,
      "åĪĩåī²": 6245,
      "éĿŀæ´²": 6246,
      "51": 6247,
      "æĺİæĺ¾çļĦ": 6248,
      "76": 6249,
      "æĥħå½¢": 6250,
      "æ¬Ĭ": 6251,
      "æĶ¾æĿ¾": 6252,
      "å»ºæĿĲ": 6253,
      "æĶ¶è´Ń": 6254,
      "è®¤çŁ¥": 6255,
      "ä¸ºå¤§å®¶": 6256,
      "2005": 6257,
      "ä»ĭè´¨": 6258,
      "æĲŃå»º": 6259,
      "æĲħ": 6260,
      "é©°": 6261,
      "åĩ¸": 6262,
      "li": 6263,
      "ä¸įèµ·": 6264,
      "å®¹éĩı": 6265,
      "èĮ¨": 6266,
      "è¦ª": 6267,
      "é¢Ħç¤º": 6268,
      "è¾ĵåħ¥": 6269,
      "åĢºåĬ¡": 6270,
      "æŀģå¤§": 6271,
      "æĬĢæľ¯åĴĮ": 6272,
      "çŃīçļĦ": 6273,
      "å§ĳ": 6274,
      "èĮİ": 6275,
      "çĻ«çĹ«çĹħ": 6276,
      "ç»Ħå»º": 6277,
      "åħ±å»º": 6278,
      "æºĥ": 6279,
      "èĥİåĦ¿": 6280,
      "ç»´åº¦åİ»": 6281,
      "éŁ¦": 6282,
      "è¿ĩäºĨ": 6283,
      "å®«é¢Ī": 6284,
      "çļĦåħī": 6285,
      "å½Ń": 6286,
      "æĹ¥åľ¨": 6287,
      "ä»»æĦı": 6288,
      "å¼ºåĽ½": 6289,
      "å®ŀåľ°": 6290,
      "åįıåķĨ": 6291,
      "æĬĬæĪĳä»¬å¸¦åĪ°äºĨ": 6292,
      "æĶĢ": 6293,
      "æ³»": 6294,
      "è¥¿äºļ": 6295,
      "ä¸ºæĤ¨": 6296,
      "åı£èħĶ": 6297,
      "äºĮæ°§åĮĸ": 6298,
      "èŁ¹": 6299,
      "ä¸ºäºº": 6300,
      "è¿Ļåı¥è¯ĿæĬĬæĪĳä»¬å¸¦åĪ°äºĨ": 6301,
      "ä¸Ģä¸ªæĸ°çļĦç»´åº¦åİ»": 6302,
      "è¿Ļåı¥è¯ĿæĬĬæĪĳä»¬å¸¦åĪ°äºĨä¸Ģä¸ªæĸ°çļĦç»´åº¦åİ»": 6303,
      "%ãĢģ": 6304,
      "åıĳåĬ¨æľº": 6305,
      "æ±º": 6306,
      "æľįåĬ¡ä¸ļ": 6307,
      "èĮ¶åı¶": 6308,
      "å¿ĹæĦ¿èĢħ": 6309,
      "è¯Ħä¸º": 6310,
      "èº«å¿ĥ": 6311,
      "ä¹¡æĿĳæĮ¯åħ´": 6312,
      "çĲĥè¿·": 6313,
      "ç©¶ç«Ł": 6314,
      "ä¸¤åĽ½": 6315,
      "ä¸įå¤ļ": 6316,
      ");": 6317,
      "è¡·": 6318,
      "å®¡è§Ĩ": 6319,
      "æ³ķå¾ĭæ³ķè§Ħ": 6320,
      "æĹłæķ°": 6321,
      "éĢ¼": 6322,
      "ç¿»è¯ĳ": 6323,
      "app": 6324,
      "å¹¿æ³ĽåºĶçĶ¨äºİ": 6325,
      "äººéĥ½": 6326,
      "èĲĿåįľ": 6327,
      "åĽĽå¤§": 6328,
      "èĵ¬": 6329,
      "çĽ¸ä¼¼": 6330,
      "éĻ¢å£«": 6331,
      "è¿Ļä¹Ł": 6332,
      "åįģåħŃ": 6333,
      "ä¸ĵä¸ļæĬĢæľ¯": 6334,
      "åĲīæŀĹ": 6335,
      "ç»§æī¿": 6336,
      "åıĶ": 6337,
      "ç»ıæµİç¤¾ä¼ļåıĳå±ķ": 6338,
      "å¤§æ¦Ĥ": 6339,
      "å¦¨": 6340,
      "äººåĳĺçļĦ": 6341,
      "åµ": 6342,
      "æĬķæłĩ": 6343,
      "å®ł": 6344,
      "èĻ¾": 6345,
      "éŃħåĬĽ": 6346,
      "åĪĿæľŁ": 6347,
      "åĲİæŀľ": 6348,
      "çĶŁæ¶¯": 6349,
      "ç§ĳåŃ¦å®¶": 6350,
      "èĹ¥": 6351,
      "53": 6352,
      "æľ¬èµĽåŃ£": 6353,
      "åį»": 6354,
      "å¡ĺ": 6355,
      "åĸĦäºİ": 6356,
      "æ¹¿åº¦": 6357,
      "è¾ħå¯¼": 6358,
      "çŃĸåĪĴ": 6359,
      "è«ĸ": 6360,
      "å®ªæ³ķ": 6361,
      "åĨħåĪĨæ³Į": 6362,
      "åı£ç½©": 6363,
      "åĩºè¡Į": 6364,
      "è¦ģæĥ³": 6365,
      "å¤ĸéĥ¨": 6366,
      "çĶµåŃĲåķĨåĬ¡": 6367,
      "åľĸ": 6368,
      "çļĦåŃ¦ä¹ł": 6369,
      "å¥½äºĨ": 6370,
      "ä¹¾": 6371,
      "æ½ľåĬĽ": 6372,
      "è®¿éĹ®": 6373,
      "æ±¡æ³¥": 6374,
      "ç¿Ķ": 6375,
      "æİĴæ°´": 6376,
      "æĬµæĬĹ": 6377,
      "ç¨±": 6378,
      "å®Ļ": 6379,
      "åĪ¶åĨ·": 6380,
      "è¿Ļåı¥è¯ĿæĬĬæĪĳä»¬å¸¦åĪ°äºĨä¸Ģä¸ªæĸ°çļĦç»´åº¦åİ»æĢĿèĢĥè¿Ļä¸ªéĹ®é¢ĺ": 6381,
      "æĸ¯çī¹": 6382,
      "ä¸ŃåĴĮ": 6383,
      "æĬ¹": 6384,
      "ä¸ļåĨħ": 6385,
      "é¢Ĩå¯¼å¹²éĥ¨": 6386,
      "åıĤæķ°": 6387,
      "æ·ĺæ±°": 6388,
      "ÃĹ": 6389,
      "åĨħèĴĻåı¤": 6390,
      "éħ¿": 6391,
      "é£ĺ": 6392,
      "å®´": 6393,
      "ä¸ĢèĪ¬æĿ¥è¯´": 6394,
      "çĶ¨äººåįķä½į": 6395,
      "éĽ¶ä»¶": 6396,
      "ä½ĵè´¨": 6397,
      "åĲ¯åıĳ": 6398,
      "èģ¯": 6399,
      "ä¸įå®ľ": 6400,
      "ä¿¡ä»°": 6401,
      "éħįä»¶": 6402,
      "es": 6403,
      "çĥĺå¹²": 6404,
      "ç¡®ç«ĭ": 6405,
      "æ¡Ĩæŀ¶": 6406,
      "éģŃéģĩ": 6407,
      "è·¯ä¸Ĭ": 6408,
      "è´ª": 6409,
      "æĭĺ": 6410,
      "æ²¦ä¸º": 6411,
      "åįµå·¢": 6412,
      "æĹłéĻĲ": 6413,
      "ç¡¬åº¦": 6414,
      "ä¸įæĥ³": 6415,
      "åħįçĸ«åĬĽ": 6416,
      "å±¬": 6417,
      "å¤§æī¹": 6418,
      "ä¹ĭä¸º": 6419,
      "åŁºæľ¬ä¸Ĭ": 6420,
      "ä»¥å¾Ģ": 6421,
      "è¾¾æĪĲ": 6422,
      "å½±åĵįåĬĽ": 6423,
      "éĢ»è¾ĳ": 6424,
      "å¹¼åĦ¿åĽŃ": 6425,
      "çļĦæĦŁè§ī": 6426,
      "ä¼ĺç§ĢçļĦ": 6427,
      "çĩŁ": 6428,
      "è¿Ļéĥ¨": 6429,
      "å¤§éĻĨ": 6430,
      "æľĪçļĦ": 6431,
      "æ¸£": 6432,
      "çľĭèµ·æĿ¥": 6433,
      "ä½ĵçİ°äºĨ": 6434,
      "è¾īçħĮ": 6435,
      "åİ»äºĨ": 6436,
      "å¯ĮåĲ«": 6437,
      "ç®Ģä»ĭ": 6438,
      "åŃ¦ä¹łè´¯å½»": 6439,
      "å¤ıå¤©": 6440,
      "ç»³": 6441,
      "éģĵçĲĨ": 6442,
      "åıĳæĶ¾": 6443,
      "98": 6444,
      "çļĦçĽ¸åħ³": 6445,
      "æĺ¯å¾Ī": 6446,
      "è¿Ľåıĸ": 6447,
      "ä¸Ĭæµ·å¸Ĥ": 6448,
      "æĸ°åįİ": 6449,
      "æĻĤåĢĻ": 6450,
      "åĤ²": 6451,
      "æ°´è´¨": 6452,
      "å®ŀè·µä¸Ń": 6453,
      "åıĭè°Ĭ": 6454,
      "åĻ¨å®ĺ": 6455,
      "æĪĳå¸ĮæľĽ": 6456,
      "åĬłå¼ºå¯¹": 6457,
      "åĿļå®ŀ": 6458,
      "å»¶ä¼¸": 6459,
      "æ²»åħļ": 6460,
      "åıĤåĬłäºĨ": 6461,
      "çİ¯å¢ĥä¿ĿæĬ¤": 6462,
      "éģ®": 6463,
      "åıĸæ¶Ī": 6464,
      "åľ¨æł¡": 6465,
      "æĦī": 6466,
      "æ¬º": 6467,
      "æģ¨": 6468,
      "è¢ģ": 6469,
      "åĨ¯": 6470,
      "ç¹ģèį£": 6471,
      "ao": 6472,
      "å¤ķ": 6473,
      "åĽ½éĺ²": 6474,
      "çĭ¼": 6475,
      "æº¶æ¶²": 6476,
      "Ġåľ¨": 6477,
      "éĥ¨éĺŁ": 6478,
      "é¾Ļæ±Ł": 6479,
      "å®ŀè®Ń": 6480,
      "è¿ĩå¤ļ": 6481,
      "è¿ĺéľĢè¦ģ": 6482,
      "å®ŀæĹ¶": 6483,
      "ç´ļ": 6484,
      "å¹¾": 6485,
      "ç§ĳåŃ¦æĬĢæľ¯": 6486,
      "67": 6487,
      "åĦĴ": 6488,
      "æīĳ": 6489,
      "çŃīå¤ļç§į": 6490,
      "åĿļå¼º": 6491,
      "ä¸Ĭå¸Ĥåħ¬åı¸": 6492,
      "å¸¸å§Ķä¼ļ": 6493,
      "çĪ¬": 6494,
      "åŃĺåľ¨çļĦ": 6495,
      "èĻ¹": 6496,
      "åķıé¡Į": 6497,
      "å°ıå¿ĥ": 6498,
      "éĤª": 6499,
      "èĤļ": 6500,
      "çĻĮçĹĩ": 6501,
      "åħ±è®¡": 6502,
      "åıĳæĢ§": 6503,
      "éĩįè¦ģè®²è¯Ŀ": 6504,
      "éª¨å¹²": 6505,
      "èĳĹä½ľ": 6506,
      "æĿ¡ä»¶çļĦ": 6507,
      "æĦŁåĨĴ": 6508,
      "æ·±åıĹ": 6509,
      "çłĶåĪ¶": 6510,
      "åŁºç¡Ģä¸Ĭ": 6511,
      "å¾®éĩı": 6512,
      "åĲİæľŁ": 6513,
      "é«ĺè¡Ģåİĭ": 6514,
      "è¾Ł": 6515,
      "ä»ħä»ħ": 6516,
      "éĵŃ": 6517,
      "çłĶè®¨": 6518,
      "æĴĴ": 6519,
      "æ¤ħ": 6520,
      "æĪĲåŀĭ": 6521,
      "å®ļäºĨ": 6522,
      "å¼ºåĪ¶": 6523,
      "æĪĸèĢħæĺ¯": 6524,
      "æ³Ĭ": 6525,
      "ä»¤æĪĳ": 6526,
      "èµ·çĤ¹": 6527,
      "ç¿Ĵ": 6528,
      "èĥ½åľ¨": 6529,
      "èĪĮ": 6530,
      "æ»¿": 6531,
      "çļĦç¬¬ä¸Ģ": 6532,
      "è¿Ĳä½ľ": 6533,
      "æª¢": 6534,
      "å¤ĸäº¤": 6535,
      "ç¦ıåĪ©": 6536,
      "æŃ¦åĻ¨": 6537,
      "æŀ£": 6538,
      "ä¹ĥèĩ³": 6539,
      "åľ°ä¸Ĭ": 6540,
      "éŁµ": 6541,
      "éĢ¢": 6542,
      "å°Ĩç»§ç»Ń": 6543,
      "çĶ»éĿ¢": 6544,
      "æľĢæĹ©": 6545,
      "ä¸İæŃ¤åĲĮæĹ¶": 6546,
      "å¿łè¯ļ": 6547,
      "æľ¬å±Ĭ": 6548,
      "çº¿ä¸ĭ": 6549,
      "éĶĤ": 6550,
      "éĺ³å¸Ĥ": 6551,
      "éļĬ": 6552,
      "åĲĦå¤§": 6553,
      "é«ĺåº¦éĩįè§Ĩ": 6554,
      "çĸ²åĬ³": 6555,
      "ä»ĺåĩº": 6556,
      "èĬĤæĹ¥": 6557,
      "éĢ¾": 6558,
      "åİļåº¦": 6559,
      "å®īåħ¨æĢ§": 6560,
      "éĤ£å°±æĺ¯": 6561,
      "ä¸´æĹ¶": 6562,
      "æķ²": 6563,
      "çĪ±å¿ĥ": 6564,
      "è¡¥åģ¿": 6565,
      "æĤĶ": 6566,
      "æĭĽåķĨ": 6567,
      "åħĭæľį": 6568,
      "ä¸»è¦ģæľī": 6569,
      "æĳ©æĵ¦": 6570,
      "ç¥Ŀç¦ı": 6571,
      "çĶ¨ä½ľ": 6572,
      "éķ¿æ²Ļ": 6573,
      "è¾ĥå¤§çļĦ": 6574,
      "it": 6575,
      "å°ļæľª": 6576,
      "çĶµç«Ļ": 6577,
      "éļĻ": 6578,
      "åºŀ": 6579,
      "ç»ıæµİçļĦ": 6580,
      "é»Ħæ²³": 6581,
      "ä½ĵç§¯": 6582,
      "éĥ½æ²¡æľī": 6583,
      "æ¨¡åħ·": 6584,
      "Ġ2": 6585,
      "èĪĨ": 6586,
      "çī²": 6587,
      "54": 6588,
      "ä¸ĭåĪĹ": 6589,
      "åĬłæĭ¿å¤§": 6590,
      "DP": 6591,
      "å¢ŀè¿Ľ": 6592,
      "åħĶ": 6593,
      "äººä¸İ": 6594,
      "åįĹæĸ¹": 6595,
      "æĢĿæĥ³æĶ¿æ²»": 6596,
      "è®°è½½": 6597,
      "ç¦»å©ļ": 6598,
      "åıĳçĥŃ": 6599,
      "ç»Ħç»ĩçļĦ": 6600,
      "å°ĳçļĦ": 6601,
      "é«ĺéĵģ": 6602,
      "âĢĿ;": 6603,
      "èĻļæĭŁ": 6604,
      "ç»ıéĶĢ": 6605,
      "ä¸ĬåįĬå¹´": 6606,
      "å¥³å£«": 6607,
      "åĻ¨æ¢°": 6608,
      "å¦Ĥæŀľæĺ¯": 6609,
      "åĲĦéĥ¨éĹ¨": 6610,
      "çĶµåİĭ": 6611,
      "æĢ»è£ģ": 6612,
      "æĻķ": 6613,
      "äº«æľī": 6614,
      "ç»ıæĦıéĹ´": 6615,
      "å«©": 6616,
      "é¡½": 6617,
      "ç¼ºéĻ·": 6618,
      "01": 6619,
      "æĦıå¿Ĺ": 6620,
      "å®ĩå®Ļ": 6621,
      "åį«æĺŁ": 6622,
      "éĢ¸": 6623,
      "æ½ĺ": 6624,
      "æĸ°èĥ½æºĲæ±½è½¦": 6625,
      "å°ıåŀĭ": 6626,
      "åĬĩ": 6627,
      "æ¸¯æ¾³": 6628,
      "éŁ¿": 6629,
      "çļĦåĬŁèĥ½": 6630,
      "ä¸įåĬ¨": 6631,
      "è¿Ļä¸¤": 6632,
      "å®ļä¹ī": 6633,
      "æĶ¾å¿ĥ": 6634,
      "èģļéĽĨ": 6635,
      "ä¸Ģçīĩ": 6636,
      "):": 6637,
      "æĤ£æľī": 6638,
      "çĶµæµģ": 6639,
      "å¹´è½»äºº": 6640,
      "åĽĽå·Ŀçľģ": 6641,
      "æ¢¨": 6642,
      "å¼ºçĥĪ": 6643,
      "åĪĨæķ£": 6644,
      "800": 6645,
      "èĹĿ": 6646,
      "ä¼łè¾ĵ": 6647,
      "åįģåĽĽäºĶ": 6648,
      "ä»¥æŃ¤": 6649,
      "æºĸ": 6650,
      "åĪ©çİĩ": 6651,
      "åħ¬äº¤": 6652,
      "ç§ĳåŃ¦éĻ¢": 6653,
      "âĢĿ(": 6654,
      "å¼Ģå¹ķ": 6655,
      "èŃ¦æĸ¹": 6656,
      "å¸®æī¶": 6657,
      "åħ³éĹŃ": 6658,
      "çĪ±å¥½": 6659,
      "åı¦ä¸Ģä¸ª": 6660,
      "63": 6661,
      "çļĦåŃ¦çĶŁ": 6662,
      "å¸¸æĢģ": 6663,
      "ä¸Ģæ®µæĹ¶éĹ´": 6664,
      "åħ»çĶŁ": 6665,
      "çī©ä¸ļ": 6666,
      "ä¸Ģè¾¹": 6667,
      "åĬ¡å®ŀ": 6668,
      "æĳĦåħ¥": 6669,
      "åĮħçļ®": 6670,
      "å·¾": 6671,
      "æĹ¢çĦ¶": 6672,
      "åĸ»": 6673,
      "åħīä¼ı": 6674,
      "èħĲè´¥": 6675,
      "çļĦé«ĺåº¦": 6676,
      "çļĦä¿¡æģ¯": 6677,
      "ä¸įåºĶ": 6678,
      "äºĨå¾Īå¤ļ": 6679,
      "éĢ£": 6680,
      "ä¸įä½ı": 6681,
      "ç´§æĢ¥": 6682,
      "æĿĤå¿Ĺ": 6683,
      "ä¾¿æį·": 6684,
      "æ´»åĬ¨ä¸Ń": 6685,
      "èĥļèĥİ": 6686,
      "åĨ³å¿ĥ": 6687,
      "åĨľäº§åĵģ": 6688,
      "èĴľ": 6689,
      "ä¼ļå½±åĵį": 6690,
      "ä¹Ĳè§Ĥ": 6691,
      "åľºçļĦ": 6692,
      "åīįåĪĹèħº": 6693,
      "åı¯åľ¨": 6694,
      "å¸ĤæĶ¿": 6695,
      "ä¾µæĿĥ": 6696,
      "ç²¥": 6697,
      "å¹¿éĺĶ": 6698,
      "èĦĬ": 6699,
      "æĪ·å¤ĸ": 6700,
      "çļĦåı¯èĥ½": 6701,
      "ç§»æ¤į": 6702,
      "å¼¹æĢ§": 6703,
      "ä¸įéĢĤ": 6704,
      "64": 6705,
      "ç½ļæ¬¾": 6706,
      "çĪĨçĤ¸": 6707,
      "å¤ļäºº": 6708,
      "åľºä¸Ĭ": 6709,
      "ä¹¡éķĩ": 6710,
      "äºĨä¸ŃåĽ½": 6711,
      "ç§¯æŀģå¼Ģå±ķ": 6712,
      "å¼Ģè®¾": 6713,
      "æ°Ķæ¸©": 6714,
      "çĶŁæĪĲ": 6715,
      "å¼ķåħ¥": 6716,
      "åħ¬åħĥ": 6717,
      "ä¼ģä¸ļåĴĮ": 6718,
      "ou": 6719,
      "å¾Ĺä»¥": 6720,
      "èµĦåĬ©": 6721,
      "åıįé¦Ī": 6722,
      "ç§ĺä¹¦éķ¿": 6723,
      "åıĳå±ķåĴĮ": 6724,
      "ä½İç¢³": 6725,
      "çº¿çļĦ": 6726,
      "ç¼´çº³": 6727,
      "è½¬åĮĸä¸º": 6728,
      "å¼ıçļĦ": 6729,
      "è±¡å¾ģ": 6730,
      "ä¸Ńåľĭ": 6731,
      "æĸ°å»º": 6732,
      "çŁŃæľŁ": 6733,
      "el": 6734,
      "æĽ´å®¹æĺĵ": 6735,
      "åĮĸå¦Ĩ": 6736,
      "ä¼ļå¯¹": 6737,
      "å¸ĤåľºéľĢæ±Ĥ": 6738,
      "æģ¼": 6739,
      "åĴ¸": 6740,
      "å¢ŀå¤ļ": 6741,
      "ç»Īç«¯": 6742,
      "è¿ĩæĿ¥": 6743,
      "ç»Ļä½ł": 6744,
      "åĸľçĪ±": 6745,
      "77": 6746,
      "è¯´è¯Ŀ": 6747,
      "åŃ¦åĳĺ": 6748,
      "è½¬è®©": 6749,
      "èĭį": 6750,
      "åĮĹæĸ¹": 6751,
      "2004": 6752,
      "æĪ°": 6753,
      "å¤§èĦĳ": 6754,
      "è¿ĽæĶ»": 6755,
      "ç§ĳæĬĢæľīéĻĲåħ¬åı¸": 6756,
      "æĤ£èĢħåľ¨": 6757,
      "çļĦéĤ£": 6758,
      "å¤©çĦ¶æ°Ķ": 6759,
      "æ¯«ç±³": 6760,
      "ĠC": 6761,
      "åĪ°ä½į": 6762,
      "æľĪåºķ": 6763,
      "æ¥µ": 6764,
      "åĬłåĿ¡": 6765,
      "æĺ¯åı¯ä»¥": 6766,
      "ç¡¬ä»¶": 6767,
      "çĮ´": 6768,
      "çļĦå½¢å¼ı": 6769,
      "é¦¬": 6770,
      "æŃĮæĽ²": 6771,
      "èĤ²äºº": 6772,
      "åħ¨ä¸ĸçķĮ": 6773,
      "åĪ¶æĪĲ": 6774,
      "éĶħçĤī": 6775,
      "çļĦåĽ½å®¶": 6776,
      "ä¼ģä¸ļåľ¨": 6777,
      "åĬĿ": 6778,
      "æĪ¿éĹ´": 6779,
      "åĨ¶éĩĳ": 6780,
      "çļĦé¦ĸ": 6781,
      "åıĳæī¬": 6782,
      "å®¹åĻ¨": 6783,
      "åĮĸåĲĪçī©": 6784,
      "çļĦçĹĩçĬ¶": 6785,
      "åĬ³åĬ¨èĢħ": 6786,
      "æ³ģ": 6787,
      "éĨĭ": 6788,
      "åĿĿ": 6789,
      "2003": 6790,
      "æĸ·": 6791,
      "åĲĦé¡¹å·¥ä½ľ": 6792,
      "æİ¥å¾ħ": 6793,
      "åĮĸçĸĹ": 6794,
      "æľĢå¤ļ": 6795,
      "å±ķçİ°åĩº": 6796,
      "å®ĮåĸĦçļĦ": 6797,
      "69": 6798,
      "é¾Ł": 6799,
      "èģĶåĲĪåĽ½": 6800,
      "å¹´åĪĿ": 6801,
      "åĤ¨å¤ĩ": 6802,
      "ä¸įè¶ħè¿ĩ": 6803,
      "è®©ä»ĸ": 6804,
      "çªĿ": 6805,
      "æĢ»éĩı": 6806,
      "æŁ¥è¯¢": 6807,
      "éĢĤéĩı": 6808,
      "è®¤åĲĮ": 6809,
      "ä¹ĭå¤Ħ": 6810,
      "ç©´": 6811,
      "éľŀ": 6812,
      "éĩĩéĽĨ": 6813,
      "çŃ¾çº¦": 6814,
      "åĩ½": 6815,
      "ç§°ä¹ĭä¸º": 6816,
      "é£ŀè¡Į": 6817,
      "æŃ¥ä¼Ĳ": 6818,
      "èĥ½åĲ¦": 6819,
      "çļĦèĢģ": 6820,
      "çļĦç»ĵæŀľ": 6821,
      "ä¾ł": 6822,
      "ç¾İå®¹": 6823,
      "çľŁè¯ļ": 6824,
      "æľ¨æĿĲ": 6825,
      "ä»¥ä¸ĭç®Ģç§°": 6826,
      "çīĽå¥¶": 6827,
      "ç©į": 6828,
      "çĸĳæĥĳ": 6829,
      "ä»¥ä¾¿": 6830,
      "ç¨³å®ļçļĦ": 6831,
      "çĲĨå·¥": 6832,
      "ç²īä¸Ŀ": 6833,
      "æĿ¥è®²": 6834,
      "è¾ĥå¥½çļĦ": 6835,
      "å»īæĶ¿": 6836,
      "æľīåĪ©": 6837,
      "äº§åĢ¼": 6838,
      "è¿ĻæĹ¶": 6839,
      "æľ¬æĸĩ": 6840,
      "æĲºæīĭ": 6841,
      "å¦ĩç§ĳ": 6842,
      "åĩºçİ°åľ¨": 6843,
      "Ġ3": 6844,
      "ä¸ºå®¢æĪ·æıĲä¾Ľ": 6845,
      "ç´°": 6846,
      "è¸¢": 6847,
      "çĭ®": 6848,
      "å°¼æĸ¯": 6849,
      "çħ§é¡¾": 6850,
      "æ¨¡èĮĥ": 6851,
      "éĥ½å¸Ĥ": 6852,
      "ä¸īåįģ": 6853,
      "åľ¨æĸ°": 6854,
      "åĽ½äº§": 6855,
      "æĿ¿çļĦ": 6856,
      "èĤłéģĵ": 6857,
      "é«ĺéĢŁåħ¬è·¯": 6858,
      "æ´Ĵ": 6859,
      "çļĦæķ°æį®": 6860,
      "ä¸įåĲĥ": 6861,
      "ç¦½": 6862,
      "ç²¾åĬĽ": 6863,
      "æ²¸": 6864,
      "ä¸»å¯¼": 6865,
      "å³»": 6866,
      "çļĦåħ¨": 6867,
      "é¢ĳçİĩ": 6868,
      "çĽ¸åħ³éĥ¨éĹ¨": 6869,
      "è±«": 6870,
      "æ¯Ľæ³½": 6871,
      "åľ¨ä¸įç»ıæĦıéĹ´": 6872,
      "ĠS": 6873,
      "åĪĨåĪ«ä¸º": 6874,
      "èĲ§": 6875,
      "åĽŀå¿Ĩ": 6876,
      "ä»Ģéº¼": 6877,
      "çŃīå·¥ä½ľ": 6878,
      "çĮľ": 6879,
      "ç²¾ç»Ĩ": 6880,
      "éłĺ": 6881,
      "ä»£è¡¨å¤§ä¼ļ": 6882,
      "èİİ": 6883,
      "å®ŀè´¨": 6884,
      "çİ¯å¢ĥçļĦ": 6885,
      "åįłæľī": 6886,
      "æıĲåıĸ": 6887,
      "èĥĮåĲİ": 6888,
      "é¸Ń": 6889,
      "çĦ¦èĻĳ": 6890,
      "çĶ¨åľ°": 6891,
      "è¶ĬæĿ¥è¶Ĭå¤ļ": 6892,
      "ä»¥ä¸Ĭå°±æĺ¯": 6893,
      "çİĩåħĪ": 6894,
      "èī°èĭ¦": 6895,
      "æ¯Ľæ³½ä¸ľ": 6896,
      "çľĭåĩº": 6897,
      "è®°å¾Ĺ": 6898,
      "åĮ»éĻ¢çļĦ": 6899,
      "æ¸Ľ": 6900,
      "æĪĳæĺ¯": 6901,
      "çļĦæķĻèĤ²": 6902,
      "çºłçº·": 6903,
      "æ¶²åİĭ": 6904,
      "ç³»æķ°": 6905,
      "çį²": 6906,
      "æ¯Ķäºļ": 6907,
      "æ»©": 6908,
      "çļĦçİ°è±¡": 6909,
      "è¥¿èĹı": 6910,
      "åįİä¸º": 6911,
      "æľ¬åľ°": 6912,
      "å¸¸å§Ķ": 6913,
      "æ¨¡æĭŁ": 6914,
      "è¿Ļæł·è¯´è¿ĩ": 6915,
      "éĥ½çŁ¥éģĵ": 6916,
      "å¥¥è¿Ĳä¼ļ": 6917,
      "çļĦç»ıèĲ¥": 6918,
      "è³½": 6919,
      "é©Ĺ": 6920,
      "åĬŁå¤«": 6921,
      "å¾®åįļ": 6922,
      "çİ²": 6923,
      "æī©å±ķ": 6924,
      "è¾¾åĪ°äºĨ": 6925,
      "åĴ¬": 6926,
      "éĿĻçĶµ": 6927,
      "æ§ĭ": 6928,
      "åľºåľ°": 6929,
      "åĸī": 6930,
      "å¤§å±Ģ": 6931,
      "åĿļå®Ī": 6932,
      "è¡į": 6933,
      "æĪĳå°±": 6934,
      "é¡¯": 6935,
      "åĨħèĨľ": 6936,
      "æĪ¶": 6937,
      "è§Ĩéĩİ": 6938,
      "å«ģ": 6939,
      "åıĻ": 6940,
      "è¯ĦéĢī": 6941,
      "è´Ńçī©": 6942,
      "æŀĹä¸ļ": 6943,
      "ä¾ĿæĹ§": 6944,
      "çļĦäººåĳĺ": 6945,
      "çĶ¢åĵģ": 6946,
      "æī¿è®¤": 6947,
      "æĸĮ": 6948,
      "èģ·": 6949,
      "å¤ł": 6950,
      "èī°éļ¾": 6951,
      "æ±¡æŁĵçī©": 6952,
      "ä¸Ĭçº§": 6953,
      "æĽ¼èģĶ": 6954,
      "æłĭ": 6955,
      "æıĲç¤º": 6956,
      "ç¾İå¥½çļĦ": 6957,
      "åĤ¨åŃĺ": 6958,
      "ä¸Ńåħ±ä¸Ńå¤®": 6959,
      "åįłæį®": 6960,
      "åľ¨åĮĹäº¬": 6961,
      "çī¹å®ļ": 6962,
      "åĽŀå½Ĵ": 6963,
      "å½ĵäºĭäºº": 6964,
      "å¤§è¿ŀ": 6965,
      "çĶŁæĦı": 6966,
      "åĴĮç®¡çĲĨ": 6967,
      "äº¤éĢļè¿Ĳè¾ĵ": 6968,
      "PV": 6969,
      "éļĽ": 6970,
      "éĥ½å¾Ī": 6971,
      "åĩ¶": 6972,
      "æ°ĳä¼Ĺ": 6973,
      "åģľè½¦": 6974,
      "æµĻæ±Łçľģ": 6975,
      "æĪĲåĬŁçļĦ": 6976,
      "çģµéŃĤ": 6977,
      "ji": 6978,
      "ä¸įåı¯èĥ½": 6979,
      "ä¹Łå°±æĺ¯è¯´": 6980,
      "ä¸ĭä¸ĢæŃ¥": 6981,
      "çĶ¨çĶµ": 6982,
      "æ¯ĶåĪĨ": 6983,
      "å¯¼å¸Ī": 6984,
      "åįĩé«ĺ": 6985,
      "åĿĳ": 6986,
      "éĺ²çĸ«": 6987,
      "ic": 6988,
      "å¤ļé¡¹": 6989,
      "è¯´è¿ĩä¸Ģåı¥": 6990,
      "èģ²": 6991,
      "ç¾©": 6992,
      "æŃ¥éª¤": 6993,
      "æĪĳåħ¬åı¸": 6994,
      "å¢ŀåĢ¼ç¨İ": 6995,
      "æĺ¯è¦ģ": 6996,
      "æĬĳéĥģ": 6997,
      "æİ¥çĿĢ": 6998,
      "èıĬ": 6999,
      "éľĢè¦ģçļĦ": 7000,
      "åŁİå¸ĤçļĦ": 7001,
      "åľ¨ä¸įç»ıæĦıéĹ´è¿Ļæł·è¯´è¿ĩ": 7002,
      "çļĩé©¬": 7003,
      "åħ·æľīèī¯å¥½çļĦ": 7004,
      "çĢ": 7005,
      "è¿ľç¨ĭ": 7006,
      "æĢ§å¼º": 7007,
      "åĪ¶èį¯": 7008,
      "å¢ĥå¤ĸ": 7009,
      "ä»İæĿ¥": 7010,
      "ä¿¡æģ¯æĬĢæľ¯": 7011,
      "çķĻåŃ¦": 7012,
      "å¢ĥåĨħ": 7013,
      "è¡¨çİ°ä¸º": 7014,
      "å¤ĦçļĦ": 7015,
      "é«ĵ": 7016,
      "çļĦäººæīį": 7017,
      "åħ¬ç¤º": 7018,
      "å®¶ä¸Ń": 7019,
      "éľĢè¦ģæ³¨æĦı": 7020,
      "å¦Ĭ": 7021,
      "çĶ·å¥³": 7022,
      "ä½łåı¯ä»¥": 7023,
      "çļ®èĤ¤çĹħ": 7024,
      "ä¾¦": 7025,
      "å¯¹è¯Ŀ": 7026,
      "ç§ĺå¯Ĩ": 7027,
      "èĢĲèħĲèļĢ": 7028,
      "ç»ĦæĪĲéĥ¨åĪĨ": 7029,
      "è½¦çļĦ": 7030,
      "å®³æĢķ": 7031,
      "è§ĴéĢĲ": 7032,
      "æĹłéľĢ": 7033,
      "ç»Ļäºº": 7034,
      "é»ĳé¾Ļæ±Ł": 7035,
      "æ³¡æ²«": 7036,
      "ä¸Ļçĥ¯": 7037,
      "ä¿¡èªī": 7038,
      "è½¦ç«Ļ": 7039,
      "éĽ¶éĥ¨ä»¶": 7040,
      "å®ıè§Ĥ": 7041,
      "èĥ½åĬĽçļĦ": 7042,
      "æĿĥåĬĽ": 7043,
      "æľ¬åľŁ": 7044,
      "äºĨæĪĳçļĦ": 7045,
      "è´µçļĦ": 7046,
      "æĹ¶åħī": 7047,
      "ç¿°": 7048,
      "åıĸå¾ĹçļĦ": 7049,
      "æľīä¸Ģå®ļçļĦ": 7050,
      "åĩłå¤©": 7051,
      "éĢĻæ¨£": 7052,
      "æĺ¯æĪĳåĽ½": 7053,
      "æĬ¤æłı": 7054,
      "èĢĥèĻĳåĪ°": 7055,
      "ä¸ŃçŃī": 7056,
      "ç¬¬åħ«": 7057,
      "èĨĢ": 7058,
      "æ±ĩæĬ¥": 7059,
      "çļĦæĶ¿æ²»": 7060,
      "èºģ": 7061,
      "62": 7062,
      "åĲ¬åıĸ": 7063,
      "çĥŃçĪ±": 7064,
      "è°¨æħİ": 7065,
      "å®ŀäºĭ": 7066,
      "æłĵ": 7067,
      "åıĳå¸ĥçļĦ": 7068,
      "æ³¨å°Ħ": 7069,
      "ä¼łè¾¾": 7070,
      "å¨ł": 7071,
      "ä¸ľéĥ¨": 7072,
      "ä¸įæĩĪ": 7073,
      "å°ıåº·": 7074,
      "æĪĳä»¬å°Ĩ": 7075,
      "èł": 7076,
      "åħ¨éĿ¢ä»İä¸¥": 7077,
      "äºīè®®": 7078,
      "èŃĺ": 7079,
      "æ´»è·ĥ": 7080,
      "é¦ĸæī¹": 7081,
      "éļ¨": 7082,
      "æİ¢è®¨": 7083,
      "æĹĹä¸ĭ": 7084,
      "ä¸Ńæĸĩ": 7085,
      "æ¤İ": 7086,
      "ç±»çļĦ": 7087,
      "èİī": 7088,
      "èĲ½åĲİ": 7089,
      "å¦Ĭå¨ł": 7090,
      "è§£è¯»": 7091,
      "å¹²æī°": 7092,
      "é»Ħèī²": 7093,
      "åħ¬æĸ¤": 7094,
      "ç´łåħ»": 7095,
      "åıĹä¼¤": 7096,
      "çļĦèĬ±": 7097,
      "å¢ŀå¤§": 7098,
      "æħĭ": 7099,
      "ä¸įæķ¢": 7100,
      "çĭ±": 7101,
      "åĪĨæķ°": 7102,
      "ç´§ç´§": 7103,
      "å¤ĩæ¡Ī": 7104,
      "æħĪåĸĦ": 7105,
      "æľºåĬ¨": 7106,
      "å¼ĢåĪĽ": 7107,
      "ç»Ļå¤§å®¶": 7108,
      "äºĨè§£åĪ°": 7109,
      "ong": 7110,
      "ä¸īç§į": 7111,
      "åħ»æĪĲ": 7112,
      "æĬĸ": 7113,
      "äººæ°ĳçļĦ": 7114,
      "èŃ¦å¯Ł": 7115,
      "è¡¬": 7116,
      "å¨ĥ": 7117,
      "å¤ĸç§ĳ": 7118,
      "åħ¬æŃ£": 7119,
      "åĽºä½ĵ": 7120,
      "åĽŀæĿ¥": 7121,
      "å¾ĹäºĨ": 7122,
      "çŃ¾ç½²": 7123,
      "çªĦ": 7124,
      "å®ĺåĳĺ": 7125,
      "ç¥¨æĪ¿": 7126,
      "æīĢä»¥åľ¨": 7127,
      "åı¯è¾¾": 7128,
      "è¿ĺå°Ĩ": 7129,
      "åİŁå§ĭ": 7130,
      "è¼ķ": 7131,
      "æľºçĶµ": 7132,
      "é©¬ä¸Ĭ": 7133,
      "ä¸Ńå°ıä¼ģä¸ļ": 7134,
      "ä¸Ńå±±": 7135,
      "çŃīè¡Įä¸ļ": 7136,
      "æ¸¸æ³³": 7137,
      "åĽ¾ä¹¦é¦Ĩ": 7138,
      "æ¨¡åĿĹ": 7139,
      "ä¸ĢæĶ¯": 7140,
      "è®©ä»ĸä»¬": 7141,
      "å£®å¤§": 7142,
      "é«ĺå³°": 7143,
      "æŃ²": 7144,
      "ç¿©": 7145,
      "æ³ķäºº": 7146,
      "çļĦä¼ĺåĬ¿": 7147,
      "çĽ¸åıį": 7148,
      "æ¼Ĥäº®": 7149,
      "çĶµç½ĳ": 7150,
      "èĬĤå¥ı": 7151,
      "ä¹³èħº": 7152,
      "çİ¯æ°§": 7153,
      "æĲħæĭĮ": 7154,
      "åĵªä¸ª": 7155,
      "æľŁè´§": 7156,
      "èĢģåĮĸ": 7157,
      "åıĳå°Ħ": 7158,
      "å·´é»İ": 7159,
      "èªĵ": 7160,
      "åľ¨æĪĳ": 7161,
      "æ¬§çĽŁ": 7162,
      "è¿İæĿ¥": 7163,
      "è¯·æ±Ĥ": 7164,
      "åĪ°æĿ¥": 7165,
      "å®ŀéĻħæĥħåĨµ": 7166,
      "éĻĮ": 7167,
      "æĪĳä»¬å°±": 7168,
      "ä¸ºæŃ¢": 7169,
      "éĽķå¡ĳ": 7170,
      "å¼ºåĬ²": 7171,
      "ä»ĭç»įäºĨ": 7172,
      "éĵĿåĲĪéĩĳ": 7173,
      "è¡Ģç³ĸ": 7174,
      "ãĢįãĢĤ": 7175,
      "éĢĿ": 7176,
      "æŁĲæŁĲ": 7177,
      "ä¸ºä¼ģä¸ļ": 7178,
      "ä¾¿å®ľ": 7179,
      "å°ģéĹŃ": 7180,
      "ä»ªè¡¨": 7181,
      "å¼Ģå·¥": 7182,
      "ä¼ģæ¥Ń": 7183,
      "åĲ¬åĪ°": 7184,
      "åĪ«çļĦ": 7185,
      "ç§»æ°ĳ": 7186,
      "ç¯®çĲĥ": 7187,
      "åĤ¬åĮĸ": 7188,
      "å¾®éĩıåħĥç´ł": 7189,
      "çļĦå»ºè®¾": 7190,
      "âĢĿ,âĢľ": 7191,
      "æµİåįĹ": 7192,
      "å±¡": 7193,
      "åħħçĶµ": 7194,
      "åħ±èµ¢": 7195,
      "æī©å¼ł": 7196,
      "çļĦæĢģåº¦": 7197,
      "æĹ¬": 7198,
      "è¾ĥå¤ļ": 7199,
      "åĸĬ": 7200,
      "åĩıéĢŁ": 7201,
      "äººåĿĩ": 7202,
      "å¯¹æĪĳ": 7203,
      "åİ¦éĹ¨": 7204,
      "åįĹåĮĹ": 7205,
      "åıĪæľī": 7206,
      "å¤§è§Ħæ¨¡": 7207,
      "æłĩåĩĨçļĦ": 7208,
      "åĲĪéĢĤçļĦ": 7209,
      "å¸ĪèµĦ": 7210,
      "è½½ä½ĵ": 7211,
      "æľīåħ³è§Ħå®ļ": 7212,
      "çļĦåĬŁæķĪ": 7213,
      "å»ºçŃĳéĿ¢ç§¯": 7214,
      "æĸĩçĮ®": 7215,
      "çľģå¸Ĥ": 7216,
      "åĪĹåħ¥": 7217,
      "æļ¨": 7218,
      "å¼Ģå¿ĥ": 7219,
      "å¹³çŃī": 7220,
      "è´¢è¿Ĳ": 7221,
      "æ³°åĽ½": 7222,
      "æ³¢åĬ¨": 7223,
      "çļĦéķ¿": 7224,
      "çĸĹæ³ķ": 7225,
      "æľ¬æĿ¥": 7226,
      "æĹ¨åľ¨": 7227,
      "åŃ¦ä¹łæķĻèĤ²": 7228,
      "è¡¥åĬ©": 7229,
      "æĿ¿åĿĹ": 7230,
      "éľľ": 7231,
      "æ¯Ķéĩį": 7232,
      "åĭĩäºİ": 7233,
      "æĪĳä»¬å¿ħé¡»": 7234,
      "72": 7235,
      "ä¸ĳ": 7236,
      "æĸ°åĬłåĿ¡": 7237,
      "åıĳçĶŁçļĦ": 7238,
      "èĭ¥å¹²": 7239,
      "çİĩä¸º": 7240,
      "ä¸Ĭåİ»": 7241,
      "æİĴéĻ¤": 7242,
      "åħļåĴĮåĽ½å®¶": 7243,
      "çĲĨè´¢": 7244,
      "æĹ±": 7245,
      "åľ¨ä¸Ģ": 7246,
      "ä»½é¢Ŀ": 7247,
      "éķģ": 7248,
      "ä¸¤å¤§": 7249,
      "å°½åı¯èĥ½": 7250,
      "éļ§": 7251,
      "çĶŁäº§ç»ıèĲ¥": 7252,
      "çļĦå°±æĺ¯": 7253,
      "æºĲäºİ": 7254,
      "ä½ľçī©": 7255,
      "åľ¨è¿Ļç§į": 7256,
      "éħ®": 7257,
      "ä»ĸæĺ¯": 7258,
      "åĽŀæĬ¥": 7259,
      "æīģ": 7260,
      "é«ĺæ°´å¹³": 7261,
      "ä¸įå¿ĺåĪĿå¿ĥ": 7262,
      "é¦¨": 7263,
      "æĬĢæľ¯åĪĽæĸ°": 7264,
      "éłĲ": 7265,
      "78": 7266,
      "ä»ĬæĹ¥": 7267,
      "çī¢åĽº": 7268,
      "è·¨å¢ĥ": 7269,
      "ä¸»è§Ĵ": 7270,
      "ä¸įåıĺ": 7271,
      "åĲŀ": 7272,
      "çİīç±³": 7273,
      "çĹħåıĺ": 7274,
      "åıĪæĺ¯": 7275,
      "02": 7276,
      "äºĶä¸ª": 7277,
      "åºĨç¥Ŀ": 7278,
      "æīĭè¡¨": 7279,
      "åĢŁåĬ©": 7280,
      "åħ¬åı¸åľ¨": 7281,
      "ä¹Ĵ": 7282,
      "åŀ¢": 7283,
      "é¸¡èĽĭ": 7284,
      "æ¢³": 7285,
      "åħ´å¥ĭ": 7286,
      "åĬ³åĬ¡": 7287,
      "äº§çĶŁäºĨ": 7288,
      "çļĦæĸĩåĮĸ": 7289,
      "è¾ĥå¼ºçļĦ": 7290,
      "å¤įåıĳ": 7291,
      "æľīæĹ¶åĢĻ": 7292,
      "æµĩ": 7293,
      "å°¼äºļ": 7294,
      "èĥ½èĢĹ": 7295,
      "è½¬åŀĭåįĩçº§": 7296,
      "åĩłåįģ": 7297,
      "ç»ĻæĪĳ": 7298,
      "ĠçļĦ": 7299,
      "åįłåľ°éĿ¢ç§¯": 7300,
      "æĬ¬": 7301,
      "å¢ĥçķĮ": 7302,
      "âĺ": 7303,
      "2002": 7304,
      "æľĢåĪĿ": 7305,
      "åĻªéŁ³": 7306,
      "èĢĥéªĮ": 7307,
      "è¯´è¿ĩè¿Ļæł·": 7308,
      "åģļäºĭ": 7309,
      "è¿Ĳè½¬": 7310,
      "st": 7311,
      "åīįæ²¿": 7312,
      "çķĻåľ¨": 7313,
      "çĽĪåĪ©": 7314,
      "å¸Ĩ": 7315,
      "æŀļ": 7316,
      "å¿«éĢĴ": 7317,
      "éĩĳèŀįæľºæŀĦ": 7318,
      "èĦ±è´«æĶ»åĿļ": 7319,
      "ä½ĵéĩį": 7320,
      "åºķçº¿": 7321,
      "æī¶æĮģ": 7322,
      "çĶµç£ģ": 7323,
      "ä¸įå¤ª": 7324,
      "éĻ·åħ¥": 7325,
      "é»ĥ": 7326,
      "æµģäº§": 7327,
      "éĻĢ": 7328,
      "æİĴæŁ¥": 7329,
      "æ¸¯åı£": 7330,
      "çıįæĥľ": 7331,
      "éĭ¼": 7332,
      "å¿ĺè®°": 7333,
      "å±±æ°´": 7334,
      "éĺ¿éĩĮ": 7335,
      "ä¸įåŃķ": 7336,
      "å°±ç®Ĺ": 7337,
      "ä¸»è¦ģçĶ¨äºİ": 7338,
      "çĿ¡è§ī": 7339,
      "è¡¨å½°": 7340,
      "ç»¼åĲĪæĢ§": 7341,
      "CO": 7342,
      "è®¸åı¯è¯ģ": 7343,
      "å¤ļäºĨ": 7344,
      "ç¡Ŀ": 7345,
      "åįķåħĥ": 7346,
      "éĢĻäºĽ": 7347,
      "çİ°éĩĳ": 7348,
      "æľīçĽĬ": 7349,
      "çĶ¨å¿ĥ": 7350,
      "ç»ĺçĶ»": 7351,
      "åĪ®": 7352,
      "åĩºä¸Ģ": 7353,
      "ä½Ĳ": 7354,
      "åĬłä»¥": 7355,
      "é¢ĳç¹ģ": 7356,
      "æ¶Ĥå±Ĥ": 7357,
      "è´¢ç»ı": 7358,
      "PE": 7359,
      "NA": 7360,
      "éģĤ": 7361,
      "è¦ģæ±ĤçļĦ": 7362,
      "å½±éŁ¿": 7363,
      "é¡¾éĹ®": 7364,
      "éªĮæĶ¶": 7365,
      "æł·åŃĲ": 7366,
      "ç»ĵè®º": 7367,
      "èĴ¸æ±½": 7368,
      "åĿĩè¡¡": 7369,
      "åĲĪå¹¶": 7370,
      "ä¾¿äºİ": 7371,
      "ç´ħ": 7372,
      "é¢Ĩå¯¼çıŃåŃĲ": 7373,
      "æĺĨæĺİ": 7374,
      "cm": 7375,
      "ä¸ºä½ķ": 7376,
      "åįķä¸Ģ": 7377,
      "è¿Ļä¼¼ä¹İ": 7378,
      "âĢ¢": 7379,
      "äººäºĭ": 7380,
      "æļ´éľ²": 7381,
      "æ²»æĦĪ": 7382,
      "æĺ¯ä¸ºäºĨ": 7383,
      "å½ĵä»Ĭ": 7384,
      "ä¸įä¸Ĭ": 7385,
      "ä¸¥èĤĥ": 7386,
      "éĵħ": 7387,
      "ä»Ģä¹Īæĺ¯": 7388,
      "éĹ¸": 7389,
      "ä»ħæľī": 7390,
      "åĨľèį¯": 7391,
      "æ±ª": 7392,
      "ç®¡æİ§": 7393,
      "è®¢åįķ": 7394,
      "61": 7395,
      "çº¦ä¸º": 7396,
      "ä½łä¼ļ": 7397,
      "èİŀ": 7398,
      "ä¿®è®¢": 7399,
      "ä¸ĢçĽ´åľ¨": 7400,
      "çĮİ": 7401,
      "ç´Ĭ": 7402,
      "æŃ§": 7403,
      "ä¸įæĸŃçļĦ": 7404,
      "ä¹¦çĶ»": 7405,
      "åı¯æĮģç»Ńåıĳå±ķ": 7406,
      "ä¹Łä¸įèĥ½": 7407,
      "æŃ¦è£ħ": 7408,
      "æİĴåĩº": 7409,
      "çĶŁæĢģæĸĩæĺİ": 7410,
      "ç¤¾æľĥ": 7411,
      "æĹĭè½¬": 7412,
      "æĪĲå¹´äºº": 7413,
      "çĥ¹": 7414,
      "å¹¶æľª": 7415,
      "çĽ¼": 7416,
      "ä¸įåĩº": 7417,
      "å®īåħ¨çļĦ": 7418,
      "mg": 7419,
      "åīįæľŁ": 7420,
      "æ¸¬": 7421,
      "çģ«ç®Ń": 7422,
      "éħįéĢģ": 7423,
      "ISO": 7424,
      "éļıæĦı": 7425,
      "éĿ¢ä¸Ĭ": 7426,
      "çºªæ£Ģ": 7427,
      "å«Įçĸĳ": 7428,
      "éķĢéĶĮ": 7429,
      "å¡ĳéĢł": 7430,
      "æĺı": 7431,
      "æ´½": 7432,
      "åħ¨æ°ĳ": 7433,
      "åĩºç§Ł": 7434,
      "ä¸įå½ĵ": 7435,
      "èĬ¯çīĩ": 7436,
      "éĻ¤æŃ¤": 7437,
      "è¯Ńæĸĩ": 7438,
      "ç¿ł": 7439,
      "éĺģ": 7440,
      "å¯»æ±Ĥ": 7441,
      "çŃīæĸ¹å¼ı": 7442,
      "åıĭå¥½": 7443,
      "å¿ħéľĢ": 7444,
      "ç¼©çŁŃ": 7445,
      "åİĤæĪ¿": 7446,
      "å±±åĮº": 7447,
      "æĹºçĽĽ": 7448,
      "éĴ¢æĿ¿": 7449,
      "æ¸ħåįİ": 7450,
      "ä¸ºæł¸å¿ĥçļĦ": 7451,
      "çħİ": 7452,
      "æĹ¥ä¸ĬåįĪ": 7453,
      "çĬ¬": 7454,
      "æ®ĭçĸ¾": 7455,
      "è§£åĨ³éĹ®é¢ĺ": 7456,
      "æİ©": 7457,
      "åħ¨ç¨ĭ": 7458,
      "è¾ĥå¥½": 7459,
      "æ¸ħéĻ¤": 7460,
      "æĹ¥ä¸ĭåįĪ": 7461,
      "ç»Ŀç¼ĺ": 7462,
      "ä¸ĢçŃīå¥ĸ": 7463,
      "éļª": 7464,
      "æ¶īå«Į": 7465,
      "éĢĤå½ĵçļĦ": 7466,
      "å¼Ģåħ³": 7467,
      "æ³¨æĦıäºĭé¡¹": 7468,
      "åıĬä»¥ä¸Ĭ": 7469,
      "æĸ°ä¸Ģ": 7470,
      "é¤Ĳåİħ": 7471,
      "å¤±ä¸ļ": 7472,
      "å·²ç¶ĵ": 7473,
      "ä¸ºä¸ŃåĽ½": 7474,
      "è·¨è¶Ĭ": 7475,
      "æĪĲåĵģ": 7476,
      "æĭ¿åĪ°": 7477,
      "è¯»èĢħ": 7478,
      "å®¢åľº": 7479,
      "çĲ³": 7480,
      "åħīæĺİ": 7481,
      "çĪĨåıĳ": 7482,
      "æĢģåĬ¿": 7483,
      "èģªæĺİ": 7484,
      "éĽĨåĽ¢åħ¬åı¸": 7485,
      "ä¼Łå¤§çļĦ": 7486,
      "æŃ£å¸¸çļĦ": 7487,
      "ç²¾åŃĲ": 7488,
      "å¾ĪçŁŃ": 7489,
      "è§Ĵåº¦æĿ¥çľĭ": 7490,
      "ä½ĵæ£Ģ": 7491,
      "ä¸Ńæ¯Ĵ": 7492,
      "ç¦»ä¸įå¼Ģ": 7493,
      "åĮĸåĴĮ": 7494,
      "çĸ¯": 7495,
      "æħİéĩįçļĦ": 7496,
      "çļĦä¸ĸçķĮ": 7497,
      "æ¸Ĳæ¸Ĳ": 7498,
      "çļĦæ°Ķ": 7499,
      "æ²Īéĺ³": 7500,
      "æıĲä¾ĽçļĦ": 7501,
      "åī¥": 7502,
      "çļĦæĤ£èĢħ": 7503,
      "çīº": 7504,
      "è¿Ļä¸įç¦ģ": 7505,
      "èĴĭ": 7506,
      "åĲįè¨Ģ": 7507,
      "å½°æĺ¾": 7508,
      "åı¯ä»¥æł¹æį®": 7509,
      "å·²ç»ıæĪĲä¸º": 7510,
      "è°¦": 7511,
      "äº¤å¾Ģ": 7512,
      "éĻĨç»Ń": 7513,
      "éĻĦåĬł": 7514,
      "å¤©åľ°": 7515,
      "æıĲåĩºçļĦ": 7516,
      "åħ±è¯Ĩ": 7517,
      "æĴ°": 7518,
      "åį´æĺ¯": 7519,
      "åº¦åĴĮ": 7520,
      "çļĦé£İéĻ©": 7521,
      "ç½Ĺé©¬": 7522,
      "å¤ĸèµĦ": 7523,
      "æĲºå¸¦": 7524,
      "çķ«": 7525,
      "åľ¨åĽ½åĨħ": 7526,
      "è¿½ç©¶": 7527,
      "ä¸ºåŁºç¡Ģ": 7528,
      "æº¶åīĤ": 7529,
      "åįģä¸ĥ": 7530,
      "çļĦä¸ĢåĪĩ": 7531,
      "å§ļ": 7532,
      "çļĦç»Ħç»ĩ": 7533,
      "æĿ¥çľĭçľĭ": 7534,
      "900": 7535,
      "è¿Ľåĩºåı£": 7536,
      "èµ°åĩº": 7537,
      "åįµç®¡": 7538,
      "èģĶåĬ¨": 7539,
      "ä¸Ģéĥ¨åĪĨ": 7540,
      "æłĩè¯Ĩ": 7541,
      "æĹħå®¢": 7542,
      "åĭ¾": 7543,
      "çīºçī²": 7544,
      "ä¸Ģäºº": 7545,
      "èĥĮæĻ¯ä¸ĭ": 7546,
      "II": 7547,
      "åħļçļĦäºĮåįģå¤§ç²¾ç¥ŀ": 7548,
      "çĸ®": 7549,
      "åı£ç¢ĳ": 7550,
      "åľĨå½¢": 7551,
      "03": 7552,
      "ä¸Ģåº¦": 7553,
      "è°ĭåĪĴ": 7554,
      "ç®¡çĲĨå·¥ä½ľ": 7555,
      "çīµå¤´": 7556,
      "åĵĪå°Ķ": 7557,
      "æ¬£èµı": 7558,
      "ä¼ģä¸ļå®¶": 7559,
      "æĢ»çĲĨ": 7560,
      "ç»ıéĶĢåķĨ": 7561,
      "çĶ²éĨĽ": 7562,
      "çĽ²çĽ®": 7563,
      "å·´èĲ¨": 7564,
      "æĹ¥æĬ¥": 7565,
      "ä¸ĩäº¿åħĥ": 7566,
      "ä¸»å¼ł": 7567,
      "æľ¬ç«Ļ": 7568,
      "èĢĲå¿ĥ": 7569,
      "éĻĦå±ŀ": 7570,
      "èıĩ": 7571,
      "å°ĦéĹ¨": 7572,
      "æĹłçº¿": 7573,
      "è½¦åŀĭ": 7574,
      "çĶµä¿¡": 7575,
      "æľīä¸ĢäºĽ": 7576,
      "åĨħåľ°": 7577,
      "è¿Ļå¯¹": 7578,
      "èĩ³ä¸Ĭ": 7579,
      "ç½ķ": 7580,
      "æķĻèĤ²æķĻåŃ¦": 7581,
      "å¾©": 7582,
      "å½¢æĪĲçļĦ": 7583,
      "å¥ĭè¿Ľ": 7584,
      "çĭł": 7585,
      "å°±æ²¡æľī": 7586,
      "è¿İæİ¥": 7587,
      "éĢĤå®ľ": 7588,
      "å¦ĥ": 7589,
      "æľ¬ä¹¦": 7590,
      "ç»©æķĪ": 7591,
      "çĨĻ": 7592,
      "è¾£æ¤Ĵ": 7593,
      "èĲĮ": 7594,
      "æµģåŁŁ": 7595,
      "æī¿è½½": 7596,
      "åĲİç»Ń": 7597,
      "æĥħæĢĢ": 7598,
      "èĪī": 7599,
      "ç§ĳçĽ®": 7600,
      "æĿı": 7601,
      "æĦģ": 7602,
      "ä¼łåªĴ": 7603,
      "çº§çļĦ": 7604,
      "æķ¢äºİ": 7605,
      "è¾ĵåįµç®¡": 7606,
      "å¾ĴåĪĳ": 7607,
      "è¦ģåĿļæĮģ": 7608,
      "Ġ?": 7609,
      "ä¸Ģé¡¹": 7610,
      "å¤ļåĲį": 7611,
      "è¿Ļé¡¹": 7612,
      "æĹ©åľ¨": 7613,
      "ä½ľæĪĺ": 7614,
      "éĩįç»Ħ": 7615,
      "ä»İå°ı": 7616,
      "æĹ¢æľī": 7617,
      "èĻŁ": 7618,
      "å¤±æľĽ": 7619,
      "ç¡«éħ¸": 7620,
      "åĭ¿": 7621,
      "åĨĽäºº": 7622,
      "å¥½è¯Ħ": 7623,
      "ä¸Ńè¶ħ": 7624,
      "åīĸ": 7625,
      "æĸ°ä¸ŃåĽ½": 7626,
      "åľ°æĿ¿": 7627,
      "ç¾İé£Ł": 7628,
      "ç®¡çĲĨåĴĮ": 7629,
      "åĽ½éĻħåĮĸ": 7630,
      "ai": 7631,
      "éĸĭå§ĭ": 7632,
      "æĢİä¹ĪåĬŀ": 7633,
      "æī®æ¼Ķ": 7634,
      "èĨ¨èĥĢ": 7635,
      "å¸¦æľī": 7636,
      "çļĦåĩºçİ°": 7637,
      "æ²īæ·Ģ": 7638,
      "è¦ģä»¥": 7639,
      "å¯Įè£ķ": 7640,
      "æŀģä¸º": 7641,
      "éĽĨåĽ¢æľīéĻĲåħ¬åı¸": 7642,
      "ç»ĵæĿŁåĲİ": 7643,
      "èĪ¹èĪ": 7644,
      "æĽ´é«ĺçļĦ": 7645,
      "çŃīçī¹çĤ¹": 7646,
      "åĥħ": 7647,
      "çļĦæĢĿæĥ³": 7648,
      "ç½¢": 7649,
      "åĪ«äººçļĦ": 7650,
      "æĺŃ": 7651,
      "åĨ³è®®": 7652,
      "æŃ·": 7653,
      "åįģåħ«å¤§": 7654,
      "é³ŀ": 7655,
      "åĪĽç«ĭ": 7656,
      "æĺŁæľŁ": 7657,
      "é¹¤": 7658,
      "èµĭäºĪ": 7659,
      "å¹¶åıĳ": 7660,
      "é«ĺèģĮ": 7661,
      "çľĭåĪ°äºĨ": 7662,
      "çĥŃéĩı": 7663,
      "åĮ»çĸĹæľºæŀĦ": 7664,
      "ä¸İåħ¶ä»ĸ": 7665,
      "èµ·éĩįæľº": 7666,
      "æº¶è§£": 7667,
      "åĪĨå·¥": 7668,
      "è©¦": 7669,
      "åĲĦæĸ¹éĿ¢": 7670,
      "è§Ħç«ł": 7671,
      "æ¿ĢçĥĪ": 7672,
      "çļĦé£İ": 7673,
      "åİ¨æĪ¿": 7674,
      "åĲĪä½ľä¼Ļä¼´": 7675,
      "æĺİå¤©": 7676,
      "com": 7677,
      "çĿĲ": 7678,
      "è£ģåĪ¤": 7679,
      "ä¸ºæľ¬": 7680,
      "è´¦æĪ·": 7681,
      "åĢ¡å¯¼": 7682,
      "éĿ¢è¯ķ": 7683,
      "èĬ¦": 7684,
      "åıĸåĨ³": 7685,
      "æŃ¡": 7686,
      "èĢģæĿ¿": 7687,
      "èµĮ": 7688,
      "æ¯Ķä¸Ĭå¹´": 7689,
      "å¹¶å°Ĩ": 7690,
      "åĮ»æ²»": 7691,
      "åĢºåĪ¸": 7692,
      "æĸ°æĿĲæĸĻ": 7693,
      "å±ķä¼ļ": 7694,
      "èµ°äºĨ": 7695,
      "åľ¨å¤ĸ": 7696,
      "åľ¨æĪĳåĽ½": 7697,
      "ĠA": 7698,
      "æĮ«": 7699,
      "æłĩçŃ¾": 7700,
      "å½ĵä½ł": 7701,
      "ç»ĥä¹ł": 7702,
      "æł¡åĮº": 7703,
      "æĨ¾": 7704,
      "æĹ¶æľº": 7705,
      "åĽ¾åĥı": 7706,
      "æ¶¤": 7707,
      "å¼ĢåıĳåĮº": 7708,
      "æĮģæľī": 7709,
      "å¤ªå¹³": 7710,
      "åľ°åŁŁ": 7711,
      "çļĦäºĭå®ŀ": 7712,
      "èİ·å¥ĸ": 7713,
      "ç¬¬äºĮä¸ª": 7714,
      "åĮĸè§£": 7715,
      "è¢ĸ": 7716,
      "èĮĦ": 7717,
      "æ²³åĮĹçľģ": 7718,
      "åĽºåĮĸ": 7719,
      "éļ§éģĵ": 7720,
      "å¹¶å¯¹": 7721,
      "è¿ĺåĮħæĭ¬": 7722,
      "åħĭæĸ¯": 7723,
      "çļĦåīįæıĲ": 7724,
      "ç¼ºå°ĳ": 7725,
      "æ°ĶçļĦ": 7726,
      "ç«ĭæĸ¹": 7727,
      "æ½ľåľ¨": 7728,
      "åľ°è¯´": 7729,
      "çĽ¸å¤Ħ": 7730,
      "æĦŁåĴĮ": 7731,
      "èĳĹåĲįçļĦ": 7732,
      "ä½ľäºĨ": 7733,
      "åħ¶ä¸ŃçļĦ": 7734,
      "æľªèĥ½": 7735,
      "æĭ¼æĲı": 7736,
      "çļĦç»ıæµİ": 7737,
      "ç¨³æŃ¥": 7738,
      "è¾¹ç¼ĺ": 7739,
      "å®¡è®®": 7740,
      "è¶ħå£°æ³¢": 7741,
      "çļĦä¸įåĲĮ": 7742,
      "å°ĨåĨĽ": 7743,
      "åıĹçĲĨ": 7744,
      "éĩįè¦ģçļĦæĺ¯": 7745,
      "éļĶçĥŃ": 7746,
      "è®¾è®¡å¸Ī": 7747,
      "åľĴ": 7748,
      "åĬ¨åĳĺ": 7749,
      "æ¹ĸåĮĹçľģ": 7750,
      "æĮĩå¯¼ä¸ĭ": 7751,
      "è§Ĩä¸º": 7752,
      "äº§ä¸ļåĮĸ": 7753,
      "å¤¸": 7754,
      "éĽĸ": 7755,
      "ç§ĳåŃ¦çłĶç©¶": 7756,
      "èĢĮå·²": 7757,
      "éģĹåĿĢ": 7758,
      "åıĳéħµ": 7759,
      "çĳ°": 7760,
      "é«ĺçŃīæķĻèĤ²": 7761,
      "åĨħåľ¨": 7762,
      "å¸ĪèĮĥå¤§åŃ¦": 7763,
      "éĩİçĶŁ": 7764,
      "åĩºçı¾": 7765,
      "æľŁå¾ĴåĪĳ": 7766,
      "çī¹åĪ«æĺ¯åľ¨": 7767,
      "æĹ¶ä»£çļĦ": 7768,
      "åıĸåĨ³äºİ": 7769,
      "åĲĪèĤ¥": 7770,
      "97": 7771,
      "éº»çĥ¦": 7772,
      "æĸ°å¾ģç¨ĭ": 7773,
      "æīĵç®Ĺ": 7774,
      "æĹ¥å¸¸çĶŁæ´»ä¸Ń": 7775,
      "åıĹåĪ°äºĨ": 7776,
      "é¢Ħç¤ºçĿĢ": 7777,
      "æĶ¿çŃĸçļĦ": 7778,
      "Ġ;": 7779,
      "ä»£æĽ¿": 7780,
      "çī¹æ®ĬçļĦ": 7781,
      "ä¸Ģè¡Į": 7782,
      "åĬĳ": 7783,
      "çĻ»å½ķ": 7784,
      "å¯Ĥ": 7785,
      "GDP": 7786,
      "éĴ¾": 7787,
      "å¿«æį·": 7788,
      "ä¸įåı¯éģ¿åħį": 7789,
      "ä¼ļä½¿": 7790,
      "åĿİ": 7791,
      "æĥ¨": 7792,
      "å»¶ç»Ń": 7793,
      "å®¶çĶµ": 7794,
      "éħ°": 7795,
      "åĪĽæĸ°åĪĽä¸ļ": 7796,
      "åĨ³çŃĸéĥ¨ç½²": 7797,
      "è¶³å¤ŁçļĦ": 7798,
      "è¢«åĳĬäºº": 7799,
      "åľĨæ»¡": 7800,
      "ç§¯åĪĨ": 7801,
      "çĤ¹åĩ»": 7802,
      "åľ¨ä¸Ģä¸ª": 7803,
      "å°ĨæĿ¥": 7804,
      "ç®¡çĲĨéĥ¨éĹ¨": 7805,
      "åĽ½èµĦ": 7806,
      "åŃ¦çļĦ": 7807,
      "æĪĳä»¬è¿ĺè¦ģ": 7808,
      "åħ¬å®īæľºåħ³": 7809,
      "åĽŀé¡¾": 7810,
      "çĻ¾å¹´å¥ĭæĸĹ": 7811,
      "ä¸ĸçķĮçļĦ": 7812,
      "æ·±åľ³å¸Ĥ": 7813,
      "å£°æĺİ": 7814,
      "å¯¹éĺµ": 7815,
      "åħ¬ç§¯": 7816,
      "ç¼¸": 7817,
      "çļĦåģ¥åº·": 7818,
      "äºĮçŃīå¥ĸ": 7819,
      "ĈĈ": 7820,
      "ĠM": 7821,
      "åıĽ": 7822,
      "åĪ¶çļĦ": 7823,
      "èŃ¦åĳĬ": 7824,
      "éĽĮ": 7825,
      "äºĭçī©": 7826,
      "ä»ĸä»¬åľ¨": 7827,
      "é¥®çĶ¨": 7828,
      "ä»ĩ": 7829,
      "èĦĵ": 7830,
      "ä»£çłģ": 7831,
      "åĨ¬å¤©": 7832,
      "ä¼łè¯´": 7833,
      "åĩĢæ°´": 7834,
      "åħ¨åİ¿": 7835,
      "éĢĢåĩº": 7836,
      "å¿«éĢŁåıĳå±ķ": 7837,
      "AA": 7838,
      "çģ«éĶħ": 7839,
      "èĪ¹èĪ¶": 7840,
      "èĩº": 7841,
      "èĩ´çļĦ": 7842,
      "éĺ¿å°Ķ": 7843,
      "æŀ¯": 7844,
      "çĽ¸å½ĵäºİ": 7845,
      "åĬ¨èĦī": 7846,
      "åĶ¤": 7847,
      "è¶ĬåįĹ": 7848,
      "ä¸įè®º": 7849,
      "ä½ľå®¶": 7850,
      "æ¸Ŀ": 7851,
      "çļĦè¡¨çİ°": 7852,
      "æĹłç¼Ŀ": 7853,
      "æĪĳä¹Ł": 7854,
      "ä¸»æµģ": 7855,
      "åĵĢ": 7856,
      "ä¸»äºº": 7857,
      "ç§ĳæĻ®": 7858,
      "åı¯è°ĵ": 7859,
      "æ·±æ·±": 7860,
      "ac": 7861,
      ";(": 7862,
      "é¦ĸå¸Ń": 7863,
      "å½ĵä¸ĭ": 7864,
      "åŃĲå®«åĨħèĨľ": 7865,
      "æĺ¯ä¸º": 7866,
      "ç¦ħ": 7867,
      "æ°ĳäºĭ": 7868,
      "ä¸¤ä½į": 7869,
      "èĬĴ": 7870,
      "ä¸īçº§": 7871,
      "çĭŃ": 7872,
      "åįķçĭ¬": 7873,
      "åĨĻä½ľ": 7874,
      "ä»İè¿Ļä¸ª": 7875,
      "æĻ¯çĤ¹": 7876,
      "APP": 7877,
      "æŁ´æ²¹": 7878,
      "æ¯ıä¸Ģä½į": 7879,
      "åĬĽäºī": 7880,
      "ä¿Ŀå®ī": 7881,
      "åģıæĹº": 7882,
      "åŀĭåı·": 7883,
      "ç±»åŀĭçļĦ": 7884,
      "éĤ£ç§į": 7885,
      "æ¬¡æķ°": 7886,
      "èĢĥåı¤": 7887,
      "æ¼Ķè®²": 7888,
      "åı¯åĪĨä¸º": 7889,
      "åīįè¡Į": 7890,
      "æĪĲçĤº": 7891,
      "éªĦ": 7892,
      "çĶ¨æĪ·çļĦ": 7893,
      "æ´»åĭķ": 7894,
      "éĿĴçĿĲ": 7895,
      "åĲĥé¥Ń": 7896,
      "åħ³æĢĢ": 7897,
      "åī¯ä¸»å¸Ń": 7898,
      "èįīåİŁ": 7899,
      "æ¹ĸåįĹçľģ": 7900,
      "åĲ¾": 7901,
      "æĦŁåĬ¨": 7902,
      "æİ¨è¡Į": 7903,
      "ä¸ĭä¸Ģ": 7904,
      "åķĨå®¶": 7905,
      "é¦ĸéĥ½": 7906,
      "GB": 7907,
      "å¦Ĥæľī": 7908,
      "è¿ľç¦»": 7909,
      "ä¸įæĸŃæıĲåįĩ": 7910,
      "æĪĳå¸Ĥ": 7911,
      "çĵ£": 7912,
      "ä¹ĭéĻħ": 7913,
      "PC": 7914,
      "åĤ·": 7915,
      "åį³ä¾¿": 7916,
      "çĶ·åŃ©": 7917,
      "2001": 7918,
      "å»īæ´ģ": 7919,
      "å°ıäºİ": 7920,
      "å¸ľ": 7921,
      "éĥ½éľĢè¦ģ": 7922,
      "åıĳå±ķæĪĺçķ¥": 7923,
      "åħ¨åħļ": 7924,
      "åĨįåº¦": 7925,
      "éłĪ": 7926,
      "è¿ľè¿ľ": 7927,
      "çļĦå¤©": 7928,
      "åŃ¦å®¶": 7929,
      "ä¸ľèİŀ": 7930,
      "è®¾è®¡çļĦ": 7931,
      "åħ¬ç§¯éĩĳ": 7932,
      "èĩªå¾ĭ": 7933,
      "çī¹ç§į": 7934,
      "çļĦæľĭåıĭ": 7935,
      "åľ¨ç¾İåĽ½": 7936,
      "éĻ³": 7937,
      "åħĭåħ°": 7938,
      "ä¸Ģå®ļä¼ļ": 7939,
      "å¦Ĥæŀľä¸į": 7940,
      "è§£åĨ³äºĨ": 7941,
      "ç»ĵåĲĪèµ·æĿ¥": 7942,
      "éĹ·": 7943,
      "æĮ½": 7944,
      "åĩºåĶ®": 7945,
      "èī²ç´ł": 7946,
      "èĨĿ": 7947,
      "ç¬¬ä¸īæĸ¹": 7948,
      "åĬ³åĬ¨åĲĪåĲĮ": 7949,
      "äºĶè¡Įç¼ºä»Ģä¹Ī": 7950,
      "èįĨ": 7951,
      "åºĶè¯¥æĺ¯": 7952,
      "é¢ĦèŃ¦": 7953,
      "åİ¿å§Ķ": 7954,
      "åĴĮå·¥ä½ľ": 7955,
      "ç¬¼": 7956,
      "ç½ĳç»ľå®īåħ¨": 7957,
      "ol": 7958,
      "ä¹Łä¸įæĺ¯": 7959,
      "ä¸Ľ": 7960,
      "æĮ¯åĬ¨": 7961,
      "å®ģæ³¢": 7962,
      "--------": 7963,
      "æĮĩå®ļ": 7964,
      "çĩĥæ°Ķ": 7965,
      "åĪ¶éĢłåķĨ": 7966,
      "æļĤæĹ¶": 7967,
      "çĶµè§Ĩåı°": 7968,
      "ç¥¸": 7969,
      "æ½Ń": 7970,
      "åľ°åĿĢ": 7971,
      "éĳ«": 7972,
      "çº±": 7973,
      "ç§ĳåŃ¦çļĦ": 7974,
      "åĨįåĬłä¸Ĭ": 7975,
      "éħļ": 7976,
      "è¯µ": 7977,
      "åįĥçĵ¦": 7978,
      "çļĦé¡¹çĽ®": 7979,
      "è¿Ľè¡Įæ²»çĸĹ": 7980,
      "æĹŃ": 7981,
      "éĺ¿æĭī": 7982,
      "å¿ĥçģµ": 7983,
      "æ²ª": 7984,
      "çļĦéĩįå¤§": 7985,
      "è¿ĺåı¯": 7986,
      "çŀ¬éĹ´": 7987,
      "86": 7988,
      "å·¥ä»¶": 7989,
      "çĴ°å¢ĥ": 7990,
      "åºĵåŃĺ": 7991,
      "å·¥ä¼¤": 7992,
      "åĽĽå¹´": 7993,
      "ä¸įå¤§": 7994,
      "éĤĬ": 7995,
      "æľīæ²¡æľī": 7996,
      "ç«£": 7997,
      "ä¹¦éĿ¢": 7998,
      "åĥ§": 7999,
      "åĮ»çĸĹåĻ¨æ¢°": 8000,
      "æĹ¶éĹ´çļĦ": 8001,
      "èº«ä»½è¯ģ": 8002,
      "æĭľä»ģ": 8003,
      "èĮħåı°": 8004,
      "èµ¢å¾ĹäºĨ": 8005,
      "Ġ0": 8006,
      "äºŀ": 8007,
      "çļĦéĩįè¦ģæĢ§": 8008,
      "æ¹¿åľ°": 8009,
      "è¿ĶåĽŀ": 8010,
      "æľĢåĲİä¸Ģ": 8011,
      "åĵ²çĲĨ": 8012,
      "æ¬§åħĥ": 8013,
      "am": 8014,
      "äº²èĩª": 8015,
      "æķħæĦı": 8016,
      "è¶ħå¸Ĥ": 8017,
      "åįĳ": 8018,
      "æµ·ä¸Ĭ": 8019,
      "çļĦæīĭ": 8020,
      "åĪĨåħ¬åı¸": 8021,
      "è·¯å¾Ħ": 8022,
      "ç»´çĶŁç´łC": 8023,
      "è®©èĩªå·±": 8024,
      "åľºåĲĪ": 8025,
      "ä¾Ľæ°´": 8026,
      "çĶ¨è½¦": 8027,
      "éĥ¡": 8028,
      "å¯¼ä½ĵ": 8029,
      "åħ¨è¿ĩç¨ĭ": 8030,
      "é£Łåĵģå®īåħ¨": 8031,
      "åİĤåķĨ": 8032,
      "çµĤ": 8033,
      "åħ¨éĿ¢ä»İä¸¥æ²»åħļ": 8034,
      "æľŁåĪĬ": 8035,
      "å®¶å±ŀ": 8036,
      "æł¸éħ¸": 8037,
      "âĹı": 8038,
      "åħ¥åŃ¦": 8039,
      "çļĦå¤ļ": 8040,
      "æ³¨åħ¥": 8041,
      "ç´«å¤ĸçº¿": 8042,
      "æ¿Ģæĥħ": 8043,
      "æĵĩ": 8044,
      "çļĦçĬ¶æĢģ": 8045,
      "æ´¾éģ£": 8046,
      "æĿ¿æĿĲ": 8047,
      "ä¸ŃåĽ½äºº": 8048,
      "åıĳçĶŁåľ¨": 8049,
      "éĻ¤æŃ¤ä¹ĭå¤ĸ": 8050,
      "æ¢Ĺ": 8051,
      "äºĶå¤§": 8052,
      "ç«ŁçĦ¶": 8053,
      "æĪĳä¼ļ": 8054,
      "åĸĤ": 8055,
      "æ¸ħæ°´": 8056,
      "åľ¨åĨħçļĦ": 8057,
      "åħ¨å±Ģ": 8058,
      "ä¸ĭæ»ĳ": 8059,
      "åıĬåħ¶ä»ĸ": 8060,
      "å¥½å¥½åľ°": 8061,
      "åĽ¾æ¡Ī": 8062,
      "çļĦæľī": 8063,
      "ä¼ĬæľĹ": 8064,
      "æ¼ĶåĶ±": 8065,
      "å¼Ģå±ķäºĨ": 8066,
      "éĿĴæµ·": 8067,
      "æ¯ıæľĪ": 8068,
      "æĶ¾ç½®": 8069,
      "ç£¨æįŁ": 8070,
      "ä¸įç§»": 8071,
      "çļĦåħ·ä½ĵ": 8072,
      "çĽ´å¾Ħ": 8073,
      "Ľèµ·": 8074,
      "è£ħéħį": 8075,
      "ä¹ĭæĹ¥èµ·": 8076,
      "æķ·": 8077,
      "æĵİ": 8078,
      "äº¤åıī": 8079,
      "åħħåĪĨåĪ©çĶ¨": 8080,
      "èĨ³": 8081,
      "âĢķâĢķ": 8082,
      "ä¸įè§ģ": 8083,
      "ä¼łåĬ¨": 8084,
      "åį°åıĳ": 8085,
      "åŃĲåħ¬åı¸": 8086,
      "åĳĨ": 8087,
      "å®¶ä¹¡": 8088,
      "å¤ĦåĪĨ": 8089,
      "ä¸ĬçıŃ": 8090,
      "==": 8091,
      "çĶ³è¯·äºº": 8092,
      "æ°¯åĮĸ": 8093,
      "ä¼łå¥ĩ": 8094,
      "è¿Ļæ®µ": 8095,
      "è§£éĻ¤": 8096,
      "èĭ±è¶ħ": 8097,
      "å¥ĳæľº": 8098,
      "åĲĳä¸Ĭ": 8099,
      "éħĴç²¾": 8100,
      "çļĦæłĩåĩĨ": 8101,
      "é¢Ĩä¼ļ": 8102,
      "çŃīäºº": 8103,
      "ç²īæľ«": 8104,
      "åºŁçī©": 8105,
      "å¤§éģĵ": 8106,
      "æ±ŁåįĹ": 8107,
      "æĹ¥æľŁ": 8108,
      "è´Łèį·": 8109,
      "è¿Ļåľº": 8110,
      "é«ĺå±Ĥ": 8111,
      "å°ıåŃ©": 8112,
      "ä¸Ńå¤ĸ": 8113,
      "æ´¾åĩº": 8114,
      "åı£æĦŁ": 8115,
      "å¼ºçĥĪçļĦ": 8116,
      "ä»İæŃ¤": 8117,
      "åĪ¤åĨ³": 8118,
      "çĥŃçĤ¹": 8119,
      "éĺµå®¹": 8120,
      "ç¬¬ä¹Ŀ": 8121,
      "åī§æĥħ": 8122,
      "è¾±": 8123,
      "åīįåĲİ": 8124,
      "åħĪéĶĭ": 8125,
      "çŁ³åĮĸ": 8126,
      "ä¾µçĬ¯": 8127,
      "æĢ»æķ°": 8128,
      "åİ»ä¸ĸ": 8129,
      "å¤įæĿĤçļĦ": 8130,
      "æī³": 8131,
      "æĸĩåĮĸéģĹäº§": 8132,
      "ä¸ºä¸»é¢ĺ": 8133,
      "åĳķ": 8134,
      "æľįåĬ¡ä¸Ńå¿ĥ": 8135,
      "èĴ¸åıĳ": 8136,
      "çļĦä¸Ģéĥ¨åĪĨ": 8137,
      "åĪĿä¸Ń": 8138,
      "èµļéĴ±": 8139,
      "ç«ŀæĬĢ": 8140,
      "è¯¥åħ¬åı¸": 8141,
      "å¯ĨéĽĨ": 8142,
      "å®Įæķ´çļĦ": 8143,
      "87": 8144,
      "è²¬": 8145,
      "åĮĸå¦Ĩåĵģ": 8146,
      "æįī": 8147,
      "è¶Ĭå¤§": 8148,
      "é¢Ĩå¯¼ä¸ĭ": 8149,
      "å¿«çļĦ": 8150,
      "å·¡è§Ĩ": 8151,
      "ä¹łè¿ĳå¹³åĲĮå¿Ĺ": 8152,
      "æĮĩåįĹ": 8153,
      "ç»ĦæĪĲåĳĺ": 8154,
      "çĹ°": 8155,
      "ä¸ºä¾ĭ": 8156,
      "æŁ¯": 8157,
      "åĲīåĪ©": 8158,
      "åĨįè¡Į": 8159,
      "ä¸ļçļĦ": 8160,
      "éģł": 8161,
      "è°ĥçĲĨ": 8162,
      "æ°¨éħ¸": 8163,
      "äººå¤§å¸¸å§Ķä¼ļ": 8164,
      "æĪĳä¸į": 8165,
      "åĮ»çĶŁçļĦ": 8166,
      "åŃĶåŃĲ": 8167,
      "èı©èĲ¨": 8168,
      "éĩįè¦ģä½ľçĶ¨": 8169,
      "æ°´æĢ§": 8170,
      "æĺİå¹´": 8171,
      "æĹ¶éĹ´åĨħ": 8172,
      "å²ģæľĪ": 8173,
      "å¸¸çĶ¨çļĦ": 8174,
      "ä¸¥è°¨": 8175,
      "ä¸įä»ħæĺ¯": 8176,
      "ç£Ĭ": 8177,
      "çº¦æĿŁ": 8178,
      "çīĪæľ¬": 8179,
      "æļ´åĬĽ": 8180,
      "éĿĸ": 8181,
      "ä¿¡èµĸ": 8182,
      "çĽ®çļĦæĺ¯": 8183,
      "æ·»åĬłåīĤ": 8184,
      "ä¹ĭåľ°": 8185,
      "çŃīçĽ¸åħ³": 8186,
      "äºĨå¯¹": 8187,
      "åĽĽæĺ¯": 8188,
      "èīĩ": 8189,
      "åįĶ": 8190,
      "æĦ¤": 8191,
      "å¸Ĥéķ¿": 8192,
      "çļĦä½įç½®": 8193,
      "æĬĢè¡ĵ": 8194,
      "æ°¨åŁº": 8195,
      "æ¸Ĭ": 8196,
      "è·Łè¸ª": 8197,
      "æĶ¶ç¼©": 8198,
      "è¨Ńè¨Ī": 8199,
      "ä¹ĭäºº": 8200,
      "åĲµ": 8201,
      "ç¡¬åĮĸ": 8202,
      "NBA": 8203,
      "åĮĹéĥ¨": 8204,
      "ä½Ĩä»ĸ": 8205,
      "ä¸įåıĬ": 8206,
      "æĿĥçļĦ": 8207,
      "äº¬ä¸ľ": 8208,
      "èĶĵ": 8209,
      "æĸ©": 8210,
      "çĻ¼çı¾": 8211,
      "éĺ»çĩĥ": 8212,
      "æĻ´": 8213,
      "æº¯": 8214,
      "æ»¥": 8215,
      "éļ¶": 8216,
      "å¼¦": 8217,
      "è¯ģå®ŀ": 8218,
      "å·¥ç¨ĭå»ºè®¾": 8219,
      "çªģåıĳ": 8220,
      "ç®¡çĲĨäººåĳĺ": 8221,
      "ç¼ĵæħ¢": 8222,
      "æģ¶æĢ§": 8223,
      "éĻĲäºİ": 8224,
      "è®¤è¯ĨåĪ°": 8225,
      "å¹´ä»¥æĿ¥": 8226,
      "åĵģçīĮçļĦ": 8227,
      "çĸĹæķĪ": 8228,
      "çľģæĶ¿åºľ": 8229,
      "ä¸įå®¹æĺĵ": 8230,
      "æĪĳè§īå¾Ĺ": 8231,
      "ä¸Ģå¼ł": 8232,
      "ä¸Ģæ¬¡æĢ§": 8233,
      "é¡¹çĽ®å»ºè®¾": 8234,
      "æĺ¯ä»İ": 8235,
      "å¼Ĭ": 8236,
      "åĪĽéĢłäºĨ": 8237,
      "æĤĦ": 8238,
      "åı°çģ£": 8239,
      "æĬķè¯ī": 8240,
      "åĪł": 8241,
      "æ²§": 8242,
      "ä¸ĭè·Į": 8243,
      "åħ¨éĿ¢å»ºè®¾": 8244,
      "åĽ½æľīä¼ģä¸ļ": 8245,
      "å¹³éĿ¢": 8246,
      "è´§è¿Ĳ": 8247,
      "æİ¥åĪ°": 8248,
      "åı«åģļ": 8249,
      "æ£Ģå¯ŁéĻ¢": 8250,
      "å¤§åĽ½": 8251,
      "åĲĦæĸ¹": 8252,
      "ro": 8253,
      "åº¸": 8254,
      "å¸¦çĿĢè¿Ļåı¥è¯Ŀ": 8255,
      "èħ¾è®¯": 8256,
      "æĤ£ä¸Ĭ": 8257,
      "æĪĳä»¬è¿ĺè¦ģæĽ´åĬł": 8258,
      "96": 8259,
      "æľĪåĪĿ": 8260,
      "éĴī": 8261,
      "è½¬åħ¥": 8262,
      "åĲ¸çĥŁ": 8263,
      "æĿĢèıĮ": 8264,
      "åĨĢ": 8265,
      "ä¸ĩè¾Ĩ": 8266,
      "æł·åĵģ": 8267,
      "æ¿Ł": 8268,
      "åıĺæĽ´": 8269,
      "æľīäºĽäºº": 8270,
      "å½±åĵįåĪ°": 8271,
      "åļ´": 8272,
      "çļĦè´£ä»»": 8273,
      "ä¹¦ç±į": 8274,
      "æŃ¤åĲİ": 8275,
      "æĪĳä»¬åħļ": 8276,
      "ä¼ĺè¶Ĭ": 8277,
      "å¥¢": 8278,
      "CE": 8279,
      "çĽ®å½ķ": 8280,
      "æŀģå¤§çļĦ": 8281,
      "ä¸įæĸŃåľ°": 8282,
      "èĭ±æĸĩ": 8283,
      "åįķçº¯": 8284,
      "å¸Ĥçº§": 8285,
      "å®£è®²": 8286,
      "åĪĽå§ĭ": 8287,
      "ç»ıæµİæķĪçĽĬ": 8288,
      "åħ¨æĸ°çļĦ": 8289,
      "çļĦæĪĲç»©": 8290,
      "æĹ©ä¸Ĭ": 8291,
      "æĪĳè¦ģ": 8292,
      "ç«ĭåľº": 8293,
      "éķ¿æĺ¥": 8294,
      "åī¯ä½ľçĶ¨": 8295,
      "åĲ¯åıĳäºĨæĪĳ": 8296,
      "çĶŁè¾°": 8297,
      "åĿĲåľ¨": 8298,
      "ä¹ħçļĦ": 8299,
      "æ°ĳèŃ¦": 8300,
      "æī§æĶ¿": 8301,
      "è¿ĻåĲ¯åıĳäºĨæĪĳ": 8302,
      "å®¤å¤ĸ": 8303,
      "éķ¿è¿ľ": 8304,
      "è¢«è¯Ħä¸º": 8305,
      "é¢ĺæĿĲ": 8306,
      "ä¸įå¿ħ": 8307,
      "ç§ĳå®¤": 8308,
      "åıĹçĽĬ": 8309,
      "çªĳ": 8310,
      "è¯ŀçĶŁ": 8311,
      "ç¬¬äºĮæ¬¡": 8312,
      "çĿ£ä¿ĥ": 8313,
      "è§ĴçĲĥ": 8314,
      "æĦŁæģ©": 8315,
      "ä¸İåħ¶": 8316,
      "åħ¬åħ±æľįåĬ¡": 8317,
      "ç´Ĭä¹±": 8318,
      "æ¹Ľ": 8319,
      "å¾ĹåĪĨ": 8320,
      "åĲĮæĻĤ": 8321,
      "å¤´åıĳ": 8322,
      "å¤§äºĭ": 8323,
      "ä¸Ģä¸ªæľĪ": 8324,
      "åħ³çĪ±": 8325,
      "äººæµģ": 8326,
      "æĸ¥": 8327,
      "çľŁæĺ¯": 8328,
      "æįĲèµł": 8329,
      "æ¢ħè¥¿": 8330,
      "åı¯æł¹æį®": 8331,
      "èĢħåĴĮ": 8332,
      "åıĳèµ·": 8333,
      "æĶ¿åĬ¡": 8334,
      "äº®çĤ¹": 8335,
      "é«ĺåħ´": 8336,
      "åįĹéĥ¨": 8337,
      "åĳĬçŁ¥": 8338,
      "äº§ä¸ļçļĦ": 8339,
      "è¿Ļç§įæĥħåĨµ": 8340,
      "åĩºèī²": 8341,
      "éĢĢå½¹": 8342,
      "å¾ģæĶ¶": 8343,
      "ä»ĵåĤ¨": 8344,
      "æ¸ħåįķ": 8345,
      "è²ł": 8346,
      "æľºä½ĵ": 8347,
      "éģ¸æĵĩ": 8348,
      "éį": 8349,
      "å·²å®ĮæĪĲ": 8350,
      "å¸ĺ": 8351,
      "å¯¹åºĶ": 8352,
      "çļĦæĹ¶ä»£": 8353,
      "ç®¡çĲĨå±Ģ": 8354,
      "æĢ»æĬķèµĦ": 8355,
      "æĺ¨å¤©": 8356,
      "è´£ä»¤": 8357,
      "çĻ¾åº¦": 8358,
      "ç«ĭåĪ»": 8359,
      "å¤ĸåĩº": 8360,
      "æ¸´æľĽ": 8361,
      "åĩłç§į": 8362,
      "æīĢå¾Ĺç¨İ": 8363,
      "ä¸ĵæ³¨äºİ": 8364,
      "åĬłæ²¹": 8365,
      "è£¤": 8366,
      "çŁ¿å±±": 8367,
      "ä¹Łè¢«": 8368,
      "åģļåĩºäºĨ": 8369,
      "æ´»æĢ§çĤŃ": 8370,
      "æµĳ": 8371,
      "åıªä¸įè¿ĩ": 8372,
      "æĺ¯ä»Ģä¹Īåĳ¢": 8373,
      "çĲĨæĢ§": 8374,
      "åĲĪæ³ķæĿĥçĽĬ": 8375,
      "å±¤": 8376,
      "æģĴå¤§": 8377,
      "åĸĺ": 8378,
      "å¥³çĶŁ": 8379,
      "éĺĢéĹ¨": 8380,
      "ä¾¿ç§ĺ": 8381,
      "æĢ¡": 8382,
      "çĶµè§£": 8383,
      "èĲİ": 8384,
      "æħİéĩįçļĦå®¡è§Ĩ": 8385,
      "èĹ¤": 8386,
      "ç»Łæ²»": 8387,
      "å¹³æĸ¹åħ¬éĩĮ": 8388,
      "çªĹåı£": 8389,
      "åĹ½": 8390,
      "ç©ºä¸Ń": 8391,
      "åĽºéĨĩ": 8392,
      "æħİéĩįçļĦå®¡è§Ĩè¿Ļä¸ªéĹ®é¢ĺ": 8393,
      "é«ĺåĵģè´¨": 8394,
      "æİĴåįµ": 8395,
      "æĪĳä»¬è¿ĺè¦ģæĽ´åĬłæħİéĩįçļĦå®¡è§Ĩè¿Ļä¸ªéĹ®é¢ĺ": 8396,
      "05": 8397,
      "PS": 8398,
      "å°¸": 8399,
      "éĹ¨åı£": 8400,
      "æĮĩå¼ķ": 8401,
      "ç²¾ç¥ŀåĴĮ": 8402,
      "è°ĪåĪ¤": 8403,
      "ä¸ĩç¾İåħĥ": 8404,
      "PVC": 8405,
      "åıĸä»£": 8406,
      "åľĭå®¶": 8407,
      "èĸĦèĨľ": 8408,
      "æĺĵäºİ": 8409,
      "åĴĮä¸ªäºº": 8410,
      "æ´ģåĩĢ": 8411,
      "æľīæľĽ": 8412,
      "ä½łè¦ģ": 8413,
      "å·¥ç¨ĭæĬĢæľ¯": 8414,
      "åĩ»è´¥": 8415,
      "æĪıåī§": 8416,
      "èīºæľ¯å®¶": 8417,
      "å¾ĹçŁ¥": 8418,
      "çĶŁäº§ä¼ģä¸ļ": 8419,
      "ä¸įåĲ«": 8420,
      "æĢ»ä¹ĭ": 8421,
      "è§ģè¯ģ": 8422,
      "è´Ŀå°Ķ": 8423,
      "éĹ¨è¯Ĭ": 8424,
      "ç»ıæµİå¢ŀéķ¿": 8425,
      "ä¹Įåħĭåħ°": 8426,
      "å¯ĴåĨ·": 8427,
      "äººäºº": 8428,
      "åĭ¢": 8429,
      "åħļé£İ": 8430,
      "è¿Ļæĺ¯ä¸Ģä¸ª": 8431,
      "å®°": 8432,
      "ç¾İä¸½çļĦ": 8433,
      "çŃīçĹĩçĬ¶": 8434,
      "ç¼ł": 8435,
      "çĥ·": 8436,
      "å»ºçŃĳçī©": 8437,
      "æ²»åĽ½": 8438,
      "èº«ä½ĵçļĦ": 8439,
      "ä¸ŃæīĢ": 8440,
      "åº¦åģĩ": 8441,
      "åıĪç§°": 8442,
      "ç¹ģæ®ĸ": 8443,
      "åĬ«": 8444,
      "åı·çº¿": 8445,
      "è¯Ĺäºº": 8446,
      "å¼ĢäºĨ": 8447,
      "çĶŁæĹ¥": 8448,
      "æľĢåħ·": 8449,
      "æµªæ¼«": 8450,
      "æĪĳè®¤ä¸º": 8451,
      "å®¡ç¾İ": 8452,
      "ä»Ĭå¹´çļĦ": 8453,
      "åı¯çĶ¨": 8454,
      "æĬ¤å£«": 8455,
      "æł¼åħ°": 8456,
      "æīĢè°ĵçļĦ": 8457,
      "çī¹æľĹ": 8458,
      "æŀ¢çº½": 8459,
      "åĩºåľº": 8460,
      "æ®·": 8461,
      "è®²åº§": 8462,
      "çļĦåŃ©åŃĲ": 8463,
      "åĲīç¥¥": 8464,
      "å··": 8465,
      "çľģä»½": 8466,
      "ä¸ºä¸»è¦ģ": 8467,
      "ä¸ŃåĲ«æľī": 8468,
      "å¸ĥç½®": 8469,
      "è·ŁçĿĢ": 8470,
      "å¤´çĹĽ": 8471,
      "ä¸įåģľ": 8472,
      "å¼§": 8473,
      "åĽ½å®¶éĺŁ": 8474,
      "çŁ³å¢¨": 8475,
      "åĿļå®ļä¸įç§»": 8476,
      "ä¹Łæ²¡": 8477,
      "æĬĦ": 8478,
      "ç¥ŀç§ĺ": 8479,
      "æĢ§ä»·": 8480,
      "79": 8481,
      "å°±åĮ»": 8482,
      "æĪĳçľģ": 8483,
      "re": 8484,
      "å¤´çļĦ": 8485,
      "åĢ¾åĲĳ": 8486,
      "èħ¹æ³»": 8487,
      "83": 8488,
      "æħĮ": 8489,
      "ä¸Ńçº§": 8490,
      "åľ¨å®¶": 8491,
      "éĢļè¿ĩäºĨ": 8492,
      "å¾·éĩĮ": 8493,
      "å¸¸çĶ¨": 8494,
      "æī§ä¸ļ": 8495,
      "éĽĩ": 8496,
      "æĪĳéĻ¢": 8497,
      "æµ®æĥ³": 8498,
      "ä¸ĢæĹ¥": 8499,
      "ç²ª": 8500,
      "ä¹Łèĥ½å¥½å¥½åľ°": 8501,
      "èĢĮåĩº": 8502,
      "åĲĳåīį": 8503,
      "ä¿ĥä½¿": 8504,
      "åĮ¹éħį": 8505,
      "ä¸»èĲ¥": 8506,
      "é£İéĽ¨": 8507,
      "æ¸©å®¤": 8508,
      "èĹ»": 8509,
      "åĮĹäº¬æĹ¶éĹ´": 8510,
      "ä¸ªç¯®æĿ¿": 8511,
      "åŃ¦ä¹łçļĦ": 8512,
      "æł¡ä¼ģ": 8513,
      "åĪĽåĬŀ": 8514,
      "æĳĬ": 8515,
      "èĳ¡èĲĦéħĴ": 8516,
      "ç®¡çĲĨåĪ¶åº¦": 8517,
      "åŃĲéĩĮ": 8518,
      "æľīæľŁå¾ĴåĪĳ": 8519,
      "å·®åĪ«": 8520,
      "åįģä¸īäºĶ": 8521,
      "åĭĩæ°Ķ": 8522,
      "åłµå¡ŀ": 8523,
      "ä»Ģä¹Īæł·çļĦ": 8524,
      "è§Ĥèµı": 8525,
      "å¦Ĥæŀľæ²¡æľī": 8526,
      "èªŀ": 8527,
      "åŃ¦æľŁ": 8528,
      "çĶ¸": 8529,
      "åĴ³åĹ½": 8530,
      "è¿Ľåº¦": 8531,
      "éĺ²å¾¡": 8532,
      "åĴĮçĶŁæ´»": 8533,
      "é¹°": 8534,
      "ç±³çļĦ": 8535,
      "æĽĿåħī": 8536,
      "å¸¦ç»Ļ": 8537,
      "ä¸Ģæĸ¹": 8538,
      "è´ŁéĿ¢": 8539,
      "æī¹åıĳ": 8540,
      "å¥´": 8541,
      "1500": 8542,
      "ç½ĳåĿĢ": 8543,
      "åľ¨ä¸Ĭ": 8544,
      "åĻ¨ä»¶": 8545,
      "å¹³åĩ¡": 8546,
      "åįĥå¹´": 8547,
      "ä¹Łèĥ½å¥½å¥½åľ°ä½ĵä¼ļ": 8548,
      "åĸ·æ¶Ĥ": 8549,
      "ä¸ĬæĿ¥": 8550,
      "é¦ĸåħĪè¦ģ": 8551,
      "ç°¡": 8552,
      "èģĶç¿©": 8553,
      "ç¿ħ": 8554,
      "å¯¹ä¸ŃåĽ½": 8555,
      "éģŃåıĹ": 8556,
      "æľīæ¯Ĵ": 8557,
      "æľīéĻĲè´£ä»»": 8558,
      "çĽ¸ç»§": 8559,
      "èĬĤçĤ¹": 8560,
      "ç§įç§į": 8561,
      "èĪ±": 8562,
      "æµ®æĥ³èģĶç¿©": 8563,
      "æŃ£å¦Ĥ": 8564,
      "è©¹": 8565,
      "å°±ä¸įä¼ļ": 8566,
      "73": 8567,
      "åľ¨ä¸Ń": 8568,
      "èį·åħ°": 8569,
      "æĹłæľº": 8570,
      "å£¶": 8571,
      "æľīä¸ª": 8572,
      "åĩıæİĴ": 8573,
      "è¡Įé©¶": 8574,
      "éĺŁä¼įå»ºè®¾": 8575,
      "å¾Īå¼ºçļĦ": 8576,
      "çİ«": 8577,
      "æĺ¯æ¯Ķè¾ĥ": 8578,
      "æµĭå®ļ": 8579,
      "èĪĨè®º": 8580,
      "ä¿®åħ»": 8581,
      "æ°Ķç®¡": 8582,
      "å±ıå¹ķ": 8583,
      "çļĦä¸ī": 8584,
      "æľ¬çĿĢ": 8585,
      "äºĶéĩĳ": 8586,
      "æķ°åįģ": 8587,
      "çī¹æľĹæĻ®": 8588,
      "çļĦä¸Ģæ¬¡": 8589,
      "æĮĳéĢī": 8590,
      "ä¸»è¦ģåĮħæĭ¬": 8591,
      "åĳĢ": 8592,
      "åİķ": 8593,
      "Cç½Ĺ": 8594,
      "ä¸ĵä¸ļåĮĸ": 8595,
      "çıŃçº§": 8596,
      "æĹ¥æĻļ": 8597,
      "åľ°åĽ¾": 8598,
      "åĴ±": 8599,
      "å½¢å®¹": 8600,
      "èĪĴæľį": 8601,
      "89": 8602,
      "åĲĪä¼Ļ": 8603,
      "ä¸¾æĬ¥": 8604,
      "ä¸ĭæĿ¥çļĦ": 8605,
      "æ³ķçļĦ": 8606,
      "çŃīäºİ": 8607,
      "ç®¡çĲĨåĬŀæ³ķ": 8608,
      "åŃĺæ¬¾": 8609,
      "è°ĥè§£": 8610,
      "å¤ļå½©": 8611,
      "å¥³æĢ§çļĦ": 8612,
      "åĲİèĢħ": 8613,
      "è²¡": 8614,
      "æı´åĬ©": 8615,
      "å¤ĸä¼¤": 8616,
      "å¼ķæĵİ": 8617,
      "110": 8618,
      "æŀģåħ¶": 8619,
      "éģĬ": 8620,
      "è¾ĥå°ĳ": 8621,
      "èµĦæºĲçļĦ": 8622,
      "è½°": 8623,
      "ä¹Łä¸º": 8624,
      "ä¸ªæĢ§åĮĸ": 8625,
      "ç«ĭä½ĵ": 8626,
      "è¾ĸå¸Ĥ": 8627,
      "ä¸¤èĢħ": 8628,
      "æĿī": 8629,
      "è¾ĥå°ı": 8630,
      "åĺ±": 8631,
      "åĪĨåĪ«æĺ¯": 8632,
      "åĿĩä¸º": 8633,
      "åħ³ç³»çļĦ": 8634,
      "æĢİä¹Īæł·": 8635,
      "ä»ĵåºĵ": 8636,
      "åľ¨åħ¨çĲĥ": 8637,
      "éģĵçļĦ": 8638,
      "æī¾åĪ°äºĨ": 8639,
      "åħ³èģĶ": 8640,
      "ä¸¥å³»": 8641,
      "ä¼´æľī": 8642,
      "ä¸§å¤±": 8643,
      "å®ŀéĻħè¡ĮåĬ¨": 8644,
      "åħ±åĲĮä½ĵ": 8645,
      "ä½Ĩä»¤æĪĳ": 8646,
      "ä¹³æĪ¿": 8647,
      "æŃ£å½ĵ": 8648,
      "åı¸æľº": 8649,
      "åħĳ": 8650,
      "èºº": 8651,
      "äº®çĽ¸": 8652,
      "ç¦»å¿ĥ": 8653,
      "ç¡®è¯ĬçĹħä¾ĭ": 8654,
      "äººçĶŁçļĦ": 8655,
      "ç»Īèº«": 8656,
      "çĤ¹çĲĥ": 8657,
      "ç§¯æŀģæĢ§": 8658,
      "åĢ¼å¾Ĺä¸Ģ": 8659,
      "è´¯ç©¿": 8660,
      "æĬķç¥¨": 8661,
      "äº²åŃĲ": 8662,
      "çŃīå¤ļä¸ª": 8663,
      "éĽĻ": 8664,
      "åĲĦæĹı": 8665,
      "ä¸įå®ī": 8666,
      "éĻ½": 8667,
      "æĪĲäº¤": 8668,
      "çļĦå¤§åŀĭ": 8669,
      "åħļå»ºå·¥ä½ľ": 8670,
      "éĲĺ": 8671,
      "å¾ģæ±Ĥ": 8672,
      "ç»ıåİĨäºĨ": 8673,
      "74": 8674,
      "æĸĩåĮĸåĴĮ": 8675,
      "æĬ«éľ²": 8676,
      "è¿ĻäºĽéĹ®é¢ĺ": 8677,
      "åĬ©çĲĨ": 8678,
      "èĻ½çĦ¶å¾ĪçŁŃ": 8679,
      "åĮ»ä¿Ŀ": 8680,
      "ä»·åĢ¼çļĦ": 8681,
      "åĽ½ä¼ģ": 8682,
      "æľ¬åħ¬åı¸": 8683,
      "ä¸İä¼ļ": 8684,
      "å±ĤçļĦ": 8685,
      "çłĶç©¶åĳĺ": 8686,
      "æħ¨": 8687,
      "åıĺé¢ĳ": 8688,
      "å¤§æ¡¥": 8689,
      "åĵ¦": 8690,
      "è°ĥæİ§": 8691,
      "åĺīå®¾": 8692,
      "è´«è¡Ģ": 8693,
      "çĭĲ": 8694,
      "è¿Ļåı¥è¯Ŀè¯Ń": 8695,
      "ç¼ħ": 8696,
      "åķ¤": 8697,
      "èĶ½": 8698,
      "ä½Ĩä»¤æĪĳæµ®æĥ³èģĶç¿©": 8699,
      "è¿Ļåı¥è¯Ŀè¯ŃèĻ½çĦ¶å¾ĪçŁŃ": 8700,
      "åĽŀå¤´": 8701,
      "æ²»çĸĹçļĦ": 8702,
      "çĻ¾ä¸ĩ": 8703,
      "ä¸ªäººçļĦ": 8704,
      "åħ¬ä¸»": 8705,
      "æ³¼": 8706,
      "éĩĮç¨ĭ": 8707,
      "åŃ¦éĩĳ": 8708,
      "æĮīæĳ©": 8709,
      "åī§ä¸Ń": 8710,
      "åĩºçīĪç¤¾": 8711,
      "å¯¹èĩªå·±": 8712,
      "å§ĭç»ĪåĿļæĮģ": 8713,
      "è¯Ŀé¢ĺ": 8714,
      "ä»Ĺ": 8715,
      "éĿĻèĦī": 8716,
      "åľ¨åīį": 8717,
      "æµı": 8718,
      "çľĭäºĨ": 8719,
      "åį¿": 8720,
      "åı²ä¸Ĭ": 8721,
      "æ²¡æľīä»»ä½ķ": 8722,
      "è¶Ĭé«ĺ": 8723,
      "çĶ¨éĩı": 8724,
      "å¾Ĺå¾Ī": 8725,
      "æĪĳåĴĮ": 8726,
      "çĥ¦æģ¼": 8727,
      "å¤ļåħĥåĮĸ": 8728,
      "åħīæ»ĳ": 8729,
      "éĢģåĪ°": 8730,
      "åħ³éĶ®è¯į": 8731,
      "è¡Ķæİ¥": 8732,
      "IT": 8733,
      "åĮºåĪĨ": 8734,
      "ä¹Łèĥ½å¥½å¥½åľ°ä½ĵä¼ļè¿Ļåı¥è¯Ŀ": 8735,
      "å°±éľĢè¦ģ": 8736,
      "çĽ¸éĹľ": 8737,
      "ç³Ł": 8738,
      "èĩ´è¾ŀ": 8739,
      "èĬ±åĽŃ": 8740,
      "éĩįåºĨå¸Ĥ": 8741,
      "åĩºæ¼Ķ": 8742,
      "åķ¦": 8743,
      "èĢģçĻ¾å§ĵ": 8744,
      "åľ°åĿª": 8745,
      "æĪĲåĬŁçİĩ": 8746,
      "è¤Ĳ": 8747,
      "è§£çŃĶäºĨæĪĳçļĦ": 8748,
      "ä¸įç®¡æĺ¯": 8749,
      "è§£çŃĶäºĨæĪĳçļĦçĸĳæĥĳ": 8750,
      "è´®": 8751,
      "æīĵè¿Ľ": 8752,
      "å¿ħé¡»è¦ģ": 8753,
      "èĤĿèĦı": 8754,
      "è¾Ľèĭ¦": 8755,
      "æµģå¤±": 8756,
      "åĩºçİ°çļĦ": 8757,
      "å¤´éĥ¨": 8758,
      "å¤´èĦĳ": 8759,
      "æľīä¸Ģå®ļ": 8760,
      "åĪ¶çº¦": 8761,
      "æµģæ°´": 8762,
      "èĮ«": 8763,
      "åķĨä¼ļ": 8764,
      "éģĹæĨ¾": 8765,
      "çļĦåŁİå¸Ĥ": 8766,
      "æľīèī²": 8767,
      "éĻªä¼´": 8768,
      "çĻ¼çĶŁ": 8769,
      "æĺ¥å¤©": 8770,
      "åĢŁéī´": 8771,
      "ĠB": 8772,
      "åľ¨äºĨ": 8773,
      "ä¸Ģéĥ¨": 8774,
      "ä½ıéĻ¢": 8775,
      "æĺ¯ä½¿": 8776,
      "æľīåĬĽçļĦ": 8777,
      "çŃīåĽłç´ł": 8778,
      "äºĴèģĶ": 8779,
      "åħļçļĦåįģåħ«å¤§": 8780,
      "è»į": 8781,
      "è®¾å®ļ": 8782,
      "çº½çº¦": 8783,
      "å»ºç«ĭåģ¥åħ¨": 8784,
      "éĹ¯": 8785,
      "ç»Ļä»ĸ": 8786,
      "çĥŃæ°´åĻ¨": 8787,
      "åľ¨æľ¬": 8788,
      "èªīä¸º": 8789,
      "ç¥Ľ": 8790,
      "æ²»çĻĤ": 8791,
      "èĸ¯": 8792,
      "å§Ĩæĸ¯": 8793,
      "æ¡©": 8794,
      "éĥĬ": 8795,
      "ä¹ĭäºĭ": 8796,
      "ä¸¤å²¸": 8797,
      "4000": 8798,
      "å¤±è°ĥ": 8799,
      "çļĦåĲĪä½ľ": 8800,
      "è¿Ļæ¬¾": 8801,
      "äºĮæ°§åĮĸç¢³": 8802,
      "æĹ©æĹ¥": 8803,
      "æĵħéķ¿": 8804,
      "æ°´éĩı": 8805,
      "ãĢĭãĢģ": 8806,
      "çļĦçĲĨå¿µ": 8807,
      "ä¸ľäº¬": 8808,
      "è¿Ļä¼¼ä¹İè§£çŃĶäºĨæĪĳçļĦçĸĳæĥĳ": 8809,
      "æĪªæŃ¢": 8810,
      "å°±æĺ¯è¦ģ": 8811,
      "æģĭçĪ±": 8812,
      "æľĿé²ľ": 8813,
      "è§ĦèĮĥåĮĸ": 8814,
      "åłªç§°": 8815,
      "èĢĲçĶ¨": 8816,
      "æĪĲç«ĭäºĨ": 8817,
      "æ¹¾åĮº": 8818,
      "bo": 8819,
      "ä¹¦åĨĻ": 8820,
      "è®©åŃ©åŃĲ": 8821,
      "04": 8822,
      "æį¢çĥŃ": 8823,
      "èĤ¥èĥĸ": 8824,
      "æĶ¹éĿ©çļĦ": 8825,
      "åĬĥ": 8826,
      "çº¦å®ļ": 8827,
      "å¹´å¼Ģå§ĭ": 8828,
      "åīįæıĲ": 8829,
      "éĽĦåİļ": 8830,
      "éĿŀå¸¸çļĦ": 8831,
      "çĸ¡": 8832,
      "éĢīæĭĶ": 8833,
      "æĪ²": 8834,
      "1999": 8835,
      "è°ĥåĬ¨": 8836,
      "æľīä¸Ģå¤©": 8837,
      "ä¹ĭæĦı": 8838,
      "åħļçļĦåįģä¹Ŀå¤§": 8839,
      "èĥ°": 8840,
      "éªĮè¯ģ": 8841,
      "ç¨ĭåº¦çļĦ": 8842,
      "æ¬¡äºİ": 8843,
      "æķĪåĬĽ": 8844,
      "çĪ±ä½ł": 8845,
      "äººä½ĵçļĦ": 8846,
      "è¿Ļæĺ¯ä¸Ģ": 8847,
      "ä¾£": 8848,
      "äºĭä¸ļåıĳå±ķ": 8849,
      "åŀĭæĿĲ": 8850,
      "è´¿": 8851,
      "è´¨éĩıåĴĮ": 8852,
      "æĥħçļĦ": 8853,
      "æĹĹå¸ľ": 8854,
      "å¹«": 8855,
[...]
