{
  "version": "1.0",
  "truncation": null,
  "padding": null,
  "added_tokens": [
    {
      "id": 0,
      "content": "<unk>",
      "single_word": false,
      "lstrip": false,
      "rstrip": false,
      "normalized": false,
      "special": true
    },
    {
      "id": 1,
      "content": "<s>",
      "single_word": false,
      "lstrip": false,
      "rstrip": false,
      "normalized": false,
      "special": true
    },
    {
      "id": 2,
      "content": "</s>",
      "single_word": false,
      "lstrip": false,
      "rstrip": false,
      "normalized": false,
      "special": true
    },
    {
      "id": 3,
      "content": "<|im_start|>",
      "single_word": false,
      "lstrip": false,
      "rstrip": false,
      "normalized": false,
      "special": true
    },
    {
      "id": 4,
      "content": "<|im_end|>",
      "single_word": false,
      "lstrip": false,
      "rstrip": false,
      "normalized": false,
      "special": true
    },
    {
      "id": 5,
      "content": "<pad>",
      "single_word": false,
      "lstrip": false,
      "rstrip": false,
      "normalized": false,
      "special": true
    }
  ],
  "normalizer": {
    "type": "NFKC"
  },
  "pre_tokenizer": {
    "type": "ByteLevel",
    "add_prefix_space": false,
    "trim_offsets": true,
    "use_regex": true
  },
  "post_processor": {
    "type": "TemplateProcessing",
    "single": [
      {
        "Sequence": {
          "id": "A",
          "type_id": 0
        }
      }
    ],
    "pair": [
      {
        "Sequence": {
          "id": "A",
          "type_id": 0
        }
      },
      {
        "Sequence": {
          "id": "B",
          "type_id": 1
        }
      }
    ],
    "special_tokens": {}
  },
  "decoder": {
    "type": "ByteLevel",
    "add_prefix_space": true,
    "trim_offsets": true,
    "use_regex": true
  },
  "model": {
    "type": "BPE",
    "dropout": null,
    "unk_token": "<unk>",
    "continuing_subword_prefix": null,
    "end_of_word_suffix": null,
    "fuse_unk": false,
    "byte_fallback": false,
    "ignore_merges": false,
    "vocab": {
      "<unk>": 0,
      "<s>": 1,
      "</s>": 2,
      "<|im_start|>": 3,
      "<|im_end|>": 4,
      "<pad>": 5,
      "!": 6,
      "\"": 7,
      "#": 8,
      "$": 9,
      "%": 10,
      "&": 11,
      "'": 12,
      "(": 13,
      ")": 14,
      "*": 15,
      "+": 16,
      ",": 17,
      "-": 18,
      ".": 19,
      "/": 20,
      "0": 21,
      "1": 22,
      "2": 23,
      "3": 24,
      "4": 25,
      "5": 26,
      "6": 27,
      "7": 28,
      "8": 29,
      "9": 30,
      ":": 31,
      ";": 32,
      "<": 33,
      "=": 34,
      ">": 35,
      "?": 36,
      "@": 37,
      "A": 38,
      "B": 39,
      "C": 40,
      "D": 41,
      "E": 42,
      "F": 43,
      "G": 44,
      "H": 45,
      "I": 46,
      "J": 47,
      "K": 48,
      "L": 49,
      "M": 50,
      "N": 51,
      "O": 52,
      "P": 53,
      "Q": 54,
      "R": 55,
      "S": 56,
      "T": 57,
      "U": 58,
      "V": 59,
      "W": 60,
      "X": 61,
      "Y": 62,
      "Z": 63,
      "[": 64,
      "\\": 65,
      "]": 66,
      "^": 67,
      "_": 68,
      "`": 69,
      "a": 70,
      "b": 71,
      "c": 72,
      "d": 73,
      "e": 74,
      "f": 75,
      "g": 76,
      "h": 77,
      "i": 78,
      "j": 79,
      "k": 80,
      "l": 81,
      "m": 82,
      "n": 83,
      "o": 84,
      "p": 85,
      "q": 86,
      "r": 87,
      "s": 88,
      "t": 89,
      "u": 90,
      "v": 91,
      "w": 92,
      "x": 93,
      "y": 94,
      "z": 95,
      "{": 96,
      "|": 97,
      "}": 98,
      "~": 99,
      "¡": 100,
      "¢": 101,
      "£": 102,
      "¤": 103,
      "¥": 104,
      "¦": 105,
      "§": 106,
      "¨": 107,
      "©": 108,
      "ª": 109,
      "«": 110,
      "¬": 111,
      "®": 112,
      "¯": 113,
      "°": 114,
      "±": 115,
      "²": 116,
      "³": 117,
      "´": 118,
      "µ": 119,
      "¶": 120,
      "·": 121,
      "¸": 122,
      "¹": 123,
      "º": 124,
      "»": 125,
      "¼": 126,
      "½": 127,
      "¾": 128,
      "¿": 129,
      "À": 130,
      "Á": 131,
      "Â": 132,
      "Ã": 133,
      "Ä": 134,
      "Å": 135,
      "Æ": 136,
      "Ç": 137,
      "È": 138,
      "É": 139,
      "Ê": 140,
      "Ë": 141,
      "Ì": 142,
      "Í": 143,
      "Î": 144,
      "Ï": 145,
      "Ð": 146,
      "Ñ": 147,
      "Ò": 148,
      "Ó": 149,
      "Ô": 150,
      "Õ": 151,
      "Ö": 152,
      "×": 153,
      "Ø": 154,
      "Ù": 155,
      "Ú": 156,
      "Û": 157,
      "Ü": 158,
      "Ý": 159,
      "Þ": 160,
      "ß": 161,
      "à": 162,
      "á": 163,
      "â": 164,
      "ã": 165,
      "ä": 166,
      "å": 167,
      "æ": 168,
      "ç": 169,
      "è": 170,
      "é": 171,
      "ê": 172,
      "ë": 173,
      "ì": 174,
      "í": 175,
      "î": 176,
      "ï": 177,
      "ð": 178,
      "ñ": 179,
      "ò": 180,
      "ó": 181,
      "ô": 182,
      "õ": 183,
      "ö": 184,
      "÷": 185,
      "ø": 186,
      "ù": 187,
      "ú": 188,
      "û": 189,
      "ü": 190,
      "ý": 191,
      "þ": 192,
      "ÿ": 193,
      "Ā": 194,
      "ā": 195,
      "Ă": 196,
      "ă": 197,
      "Ą": 198,
      "ą": 199,
      "Ć": 200,
      "ć": 201,
      "Ĉ": 202,
      "ĉ": 203,
      "Ċ": 204,
      "ċ": 205,
      "Č": 206,
      "č": 207,
      "Ď": 208,
      "ď": 209,
      "Đ": 210,
      "đ": 211,
      "Ē": 212,
      "ē": 213,
      "Ĕ": 214,
      "ĕ": 215,
      "Ė": 216,
      "ė": 217,
      "Ę": 218,
      "ę": 219,
      "Ě": 220,
      "ě": 221,
      "Ĝ": 222,
      "ĝ": 223,
      "Ğ": 224,
      "ğ": 225,
      "Ġ": 226,
      "ġ": 227,
      "Ģ": 228,
      "ģ": 229,
      "Ĥ": 230,
      "ĥ": 231,
      "Ħ": 232,
      "ħ": 233,
      "Ĩ": 234,
      "ĩ": 235,
      "Ī": 236,
      "ī": 237,
      "Ĭ": 238,
      "ĭ": 239,
      "Į": 240,
      "į": 241,
      "İ": 242,
      "ı": 243,
      "Ĳ": 244,
      "ĳ": 245,
      "Ĵ": 246,
      "ĵ": 247,
      "Ķ": 248,
      "ķ": 249,
      "ĸ": 250,
      "Ĺ": 251,
      "ĺ": 252,
      "Ļ": 253,
      "ļ": 254,
      "Ľ": 255,
      "ľ": 256,
      "Ŀ": 257,
      "ŀ": 258,
      "Ł": 259,
      "ł": 260,
      "Ń": 261,
      "ä¸": 262,
      "ãĢ": 263,
      "çļ": 264,
      "çļĦ": 265,
      "äº": 266,
      "ãĢĤ": 267,
      "æľ": 268,
      "åı": 269,
      "åħ": 270,
      "ä»": 271,
      "å¤": 272,
      "ãĢģ": 273,
      "å®": 274,
      "åĪ": 275,
      "ä½": 276,
      "è¿": 277,
      "çĶ": 278,
      "åľ": 279,
      "åĲ": 280,
      "åĬ": 281,
      "æĺ": 282,
      "ç»": 283,
      "åĽ": 284,
      "æĪ": 285,
      "æĸ": 286,
      "ä¹": 287,
      "ä¼": 288,
      "ä¸Ģ": 289,
      "å¹": 290,
      "å°": 291,
      "æĺ¯": 292,
      "åŃ": 293,
      "è®": 294,
      "æĹ": 295,
      "åį": 296,
      "âĢ": 297,
      "å·": 298,
      "æľī": 299,
      "è¯": 300,
      "åľ¨": 301,
      "éĩ": 302,
      "æĿ": 303,
      "äºº": 304,
      "åĮ": 305,
      "ä¸į": 306,
      "å¸": 307,
      "åº": 308,
      "ä¸Ń": 309,
      "å¼": 310,
      "æī": 311,
      "éĢ": 312,
      "åĴ": 313,
      "è¡": 314,
      "å¾": 315,
      "åĨ": 316,
      "èĢ": 317,
      "å¯": 318,
      "åĴĮ": 319,
      "åĩ": 320,
      "äºĨ": 321,
      "æķ": 322,
      "å±": 323,
      "ĥ½": 324,
      "æĢ": 325,
      "å¤§": 326,
      "çĽ": 327,
      "æĬ": 328,
      "æ°": 329,
      "è´": 330,
      "ä¸º": 331,
      "ç§": 332,
      "æł": 333,
      "åĽ½": 334,
      "è§": 335,
      "çĶŁ": 336,
      "çİ": 337,
      "è¦": 338,
      "ä¸ļ": 339,
      "çī": 340,
      "èµ": 341,
      "ä»¥": 342,
      "å¥": 343,
      "æĶ": 344,
      "è¦ģ": 345,
      "å¿": 346,
      "éĻ": 347,
      "åŃ¦": 348,
      "éĿ": 349,
      "åıĳ": 350,
      "èĩ": 351,
      "å¹´": 352,
      "åİ": 353,
      "ä¼ļ": 354,
      "çĶ¨": 355,
      "æŃ": 356,
      "æ³": 357,
      "çŃ": 358,
      "çĲ": 359,
      "ä¿": 360,
      "å½": 361,
      "èĥ½": 362,
      "éĹ": 363,
      "æ²": 364,
      "çº": 365,
      "å·¥": 366,
      "ä¸Ĭ": 367,
      "ä½ľ": 368,
      "åĳ": 369,
      "æİ": 370,
      "æµ": 371,
      "æŀ": 372,
      "æĹ¶": 373,
      "ä¸ª": 374,
      "âĢľ": 375,
      "âĢĿ": 376,
      "æĪĲ": 377,
      "è¡Į": 378,
      "åĵ": 379,
      "è¿Ļ": 380,
      "åı¯": 381,
      "é¢": 382,
      "æĪĳ": 383,
      "åĪ°": 384,
      "æ¯": 385,
      "å¯¹": 386,
      "æĮ": 387,
      "åĩº": 388,
      "åŁ": 389,
      "æĥ": 390,
      "è¾": 391,
      "éĺ": 392,
      "é«": 393,
      "å®¶": 394,
      "äºİ": 395,
      "çĲĨ": 396,
      "çľ": 397,
      "åī": 398,
      "é«ĺ": 399,
      "èĤ": 400,
      "äº§": 401,
      "æĿ¥": 402,
      "æ±": 403,
      "çŃī": 404,
      "å¤ļ": 405,
      "åľ°": 406,
      "åĮĸ": 407,
      "æĦ": 408,
      "æĭ": 409,
      "æĸ¹": 410,
      "åħ¨": 411,
      "åĪĨ": 412,
      "åĬĽ": 413,
      "è¿Ľ": 414,
      "è½": 415,
      "èĩª": 416,
      "éģ": 417,
      "ä½ĵ": 418,
      "æĸ°": 419,
      "å»": 420,
      "ç®": 421,
      "æĢ§": 422,
      "ä¾": 423,
      "æ´": 424,
      "ç«": 425,
      "åĬ¨": 426,
      "å®ŀ": 427,
      "ç»ı": 428,
      "åħ¬": 429,
      "æ¸": 430,
      "ä¹Ł": 431,
      "è¿ĩ": 432,
      "çİ°": 433,
      "éĥ": 434,
      "ä»¬": 435,
      "å¦": 436,
      "ç¨": 437,
      "å°±": 438,
      "å±ķ": 439,
      "åĲİ": 440,
      "éķ": 441,
      "åĲĪ": 442,
      "ä¸»": 443,
      "çĤ": 444,
      "çĻ": 445,
      "åģ": 446,
      "ä¸ĭ": 447,
      "éĿ¢": 448,
      "æı": 449,
      "éĩį": 450,
      "é£": 451,
      "æ¬": 452,
      "ç½": 453,
      "æĽ": 454,
      "å»º": 455,
      "ä»ĸ": 456,
      "å®ļ": 457,
      "æľº": 458,
      "åĵģ": 459,
      "éĥ¨": 460,
      "åĲĮ": 461,
      "è®¾": 462,
      "å¥½": 463,
      "ä¸İ": 464,
      "é¡": 465,
      "èī": 466,
      "æ³ķ": 467,
      "åĬł": 468,
      "å¿ĥ": 469,
      "å¸Ĥ": 470,
      "ä¹ĭ": 471,
      "åº¦": 472,
      "æ°´": 473,
      "èģ": 474,
      "ç¤": 475,
      "èĢĮ": 476,
      "å¼Ģ": 477,
      "çĹ": 478,
      "éĽ": 479,
      "å¢": 480,
      "åŃĲ": 481,
      "æĻ": 482,
      "åħ¶": 483,
      "åĪ¶": 484,
      "æľ¬": 485,
      "å¾Ĺ": 486,
      "20": 487,
      "åĢ": 488,
      "éĩı": 489,
      "èĢħ": 490,
      "è¶": 491,
      "çĸ": 492,
      "ç¬": 493,
      "éķ¿": 494,
      "è·": 495,
      "çŁ": 496,
      "æıĲ": 497,
      "çī©": 498,
      "è°": 499,
      "å¦Ĥ": 500,
      "åĿ": 501,
      "åĬ¡": 502,
      "åħ³": 503,
      "ä¿Ŀ": 504,
      "æīĢ": 505,
      "äºĭ": 506,
      "ç®¡": 507,
      "åıĬ": 508,
      "ç¾": 509,
      "æĹ¥": 510,
      "åīį": 511,
      "åºĶ": 512,
      "éļ": 513,
      "æ¶": 514,
      "éĢļ": 515,
      "æį": 516,
      "åĨħ": 517,
      "éĥ½": 518,
      "çĿ": 519,
      "çĶµ": 520,
      "ç³": 521,
      "æķĻ": 522,
      "å§": 523,
      "çł": 524,
      "åľº": 525,
      "ç©": 526,
      "èĬ": 527,
      "æĥħ": 528,
      "ç§į": 529,
      "çķ": 530,
      "å°ı": 531,
      "åĽł": 532,
      "ç²": 533,
      "æľĪ": 534,
      "æŁ": 535,
      "æĸĩ": 536,
      "çĦ": 537,
      "å¤ĸ": 538,
      "ç¨ĭ": 539,
      "ç´": 540,
      "åĮº": 541,
      "æ°ĳ": 542,
      "åıĳå±ķ": 543,
      "èĲ": 544,
      "æľĢ": 545,
      "å¹³": 546,
      "æĬĢ": 547,
      "çĥ": 548,
      "éľ": 549,
      "èµĦ": 550,
      "éħ": 551,
      "ç§ĳ": 552,
      "æĽ´": 553,
      "çĽ®": 554,
      "éĹ´": 555,
      "çĽ¸": 556,
      "ä½į": 557,
      "è´¨": 558,
      "å¤©": 559,
      "åĳĺ": 560,
      "æĦı": 561,
      "å·¥ä½ľ": 562,
      "å°Ĩ": 563,
      "åħ¥": 564,
      "ä¸ŃåĽ½": 565,
      "æ¯Ķ": 566,
      "æľ¯": 567,
      "æľŁ": 568,
      "å¸¸": 569,
      "ç¡": 570,
      "çĤ¹": 571,
      "ç³»": 572,
      "å®ī": 573,
      "ç¬¬": 574,
      "ä»£": 575,
      "ä½¿": 576,
      "æĶ¿": 577,
      "ç±": 578,
      "Ĥ£": 579,
      "è¡¨": 580,
      "éĶ": 581,
      "è¯´": 582,
      "å¼º": 583,
      "å¾Ī": 584,
      "ä¸ī": 585,
      "èĥ": 586,
      "å½ĵ": 587,
      "æ·": 588,
      "åı¸": 589,
      "è¿ĺ": 590,
      "æ´»": 591,
      "éģĵ": 592,
      "çī¹": 593,
      "æŀľ": 594,
      "ä¼ģ": 595,
      "æ²»": 596,
      "éĩĳ": 597,
      "èµ·": 598,
      "ä»İ": 599,
      "åı¯ä»¥": 600,
      "å¹¶": 601,
      "èį": 602,
      "æģ": 603,
      "æĺİ": 604,
      "åĪ©": 605,
      "ç¥": 606,
      "æ¬¡": 607,
      "çĦ¶": 608,
      "èĪ": 609,
      "æŃ¤": 610,
      "çĿĢ": 611,
      "åŁº": 612,
      "ä¿¡": 613,
      "ãĢĭ": 614,
      "ãĢĬ": 615,
      "ä½Ĩ": 616,
      "ä¸ĵ": 617,
      "åĲĦ": 618,
      "éĴ": 619,
      "æĪĳä»¬": 620,
      "æĪĸ": 621,
      "è®¡": 622,
      "åħ¬åı¸": 623,
      "ä¼ģä¸ļ": 624,
      "éĻ¢": 625,
      "é£İ": 626,
      "åĲį": 627,
      "æĮģ": 628,
      "æľį": 629,
      "æķ°": 630,
      "éĵ": 631,
      "ç¾İ": 632,
      "çĹħ": 633,
      "æĹł": 634,
      "äºĽ": 635,
      "è§Ħ": 636,
      "åħļ": 637,
      "å¼ı": 638,
      "ä¸Ģä¸ª": 639,
      "çģ": 640,
      "èĭ": 641,
      "ä½ł": 642,
      "è§£": 643,
      "æŃ£": 644,
      "èĤ²": 645,
      "ç»ĵ": 646,
      "é¦": 647,
      "ç¼": 648,
      "è¢": 649,
      "è£": 650,
      "éĢł": 651,
      "å¯¼": 652,
      "éľĢ": 653,
      "åķ": 654,
      "èº": 655,
      "å£": 656,
      "æº": 657,
      "èī²": 658,
      "åŀ": 659,
      "äºĮ": 660,
      "ç¤¾": 661,
      "åĸ": 662,
      "æ¡": 663,
      "ä»»": 664,
      "çĪ": 665,
      "ç»Ł": 666,
      "æ±Ĥ": 667,
      "åħ·": 668,
      "æ°Ķ": 669,
      "é¢ĺ": 670,
      "èĦ": 671,
      "åĮ»": 672,
      "åģļ": 673,
      "åįģ": 674,
      "é¡¹": 675,
      "åĪĽ": 676,
      "çłĶ": 677,
      "çľĭ": 678,
      "åħĥ": 679,
      "00": 680,
      "éĩĮ": 681,
      "å¢ŀ": 682,
      "ç«ĭ": 683,
      "ç¦": 684,
      "èº«": 685,
      "æłĩ": 686,
      "æĦŁ": 687,
      "å¤Ħ": 688,
      "ç½ĳ": 689,
      "æķĪ": 690,
      "æĥ³": 691,
      "æį®": 692,
      "æµģ": 693,
      "æİ¥": 694,
      "çĶ±": 695,
      "è¿Ĳ": 696,
      "ç²¾": 697,
      "æīĭ": 698,
      "éĹ®": 699,
      "éĹ¨": 700,
      "ç»Ħ": 701,
      "ä»¶": 702,
      "ä¹Ī": 703,
      "åİ»": 704,
      "æł·": 705,
      "èĮ": 706,
      "è¢«": 707,
      "æł¡": 708,
      "è½¦": 709,
      "å·±": 710,
      "æĸĻ": 711,
      "çĲĥ": 712,
      "åĲĳ": 713,
      "ä¼ł": 714,
      "æ»": 715,
      "çĻ½": 716,
      "éª": 717,
      "åİŁ": 718,
      "æĬĢæľ¯": 719,
      "æĢ»": 720,
      "åıĹ": 721,
      "é¢Ĩ": 722,
      "è¥": 723,
      "å¤ĩ": 724,
      "å·²": 725,
      "æ²¡": 726,
      "çº§": 727,
      "èĩªå·±": 728,
      "åħ±": 729,
      "è·¯": 730,
      "äº¤": 731,
      "è¥¿": 732,
      "åķĨ": 733,
      "çİ¯": 734,
      "å½¢": 735,
      "æł¼": 736,
      "æµ·": 737,
      "åŀĭ": 738,
      "å½±": 739,
      "ä¸¤": 740,
      "çŁ¥": 741,
      "ç®¡çĲĨ": 742,
      "æ£": 743,
      "é©": 744,
      "æľįåĬ¡": 745,
      "çľģ": 746,
      "åįķ": 747,
      "éĺ²": 748,
      "åħĪ": 749,
      "é»": 750,
      "è¿Ľè¡Į": 751,
      "åıĺ": 752,
      "ç±»": 753,
      "è°ĥ": 754,
      "å°ĳ": 755,
      "ä¼ĺ": 756,
      "åĽ½å®¶": 757,
      "æİ¨": 758,
      "ä¸ĩ": 759,
      "éĽĨ": 760,
      "éĺŁ": 761,
      "æĶ¹": 762,
      "åĻ": 763,
      "èģĶ": 764,
      "èİ": 765,
      "æ¢": 766,
      "èĩ³": 767,
      "å¹¿": 768,
      "æ·±": 769,
      "èĻ": 770,
      "ä¸ĸ": 771,
      "ä¹ł": 772,
      "ç¤º": 773,
      "æĶ¶": 774,
      "éĤ£": 775,
      "è¾ĥ": 776,
      "äº§åĵģ": 777,
      "å¸Ī": 778,
      "æ®": 779,
      "åıª": 780,
      "å»ºè®¾": 781,
      "åŁİ": 782,
      "çĸĹ": 783,
      "æĮĩ": 784,
      "æŀĦ": 785,
      "æºĲ": 786,
      "æīį": 787,
      "æĸ½": 788,
      "æĬ¥": 789,
      "å±±": 790,
      "é£Ł": 791,
      "æĶ¾": 792,
      "ç¤¾ä¼ļ": 793,
      "å®Į": 794,
      "åįĹ": 795,
      "ä¸ľ": 796,
      "ä¹¦": 797,
      "åı£": 798,
      "èµĽ": 799,
      "ä¾Ľ": 800,
      "çĥŃ": 801,
      "åıĸ": 802,
      "éĢī": 803,
      "è®¤": 804,
      "çº¿": 805,
      "æ¨": 806,
      "åĻ¨": 807,
      "èĬĤ": 808,
      "è¾¾": 809,
      "æ³¨": 810,
      "èĲ¥": 811,
      "è®©": 812,
      "èĢģ": 813,
      "è®°": 814,
      "åĽĽ": 815,
      "æ¼": 816,
      "ä»·": 817,
      "å¸¦": 818,
      "è¿ĳ": 819,
      "ç¥ŀ": 820,
      "è£ħ": 821,
      "å®¹": 822,
      "éĿŀ": 823,
      "åĮĹ": 824,
      "çĬ": 825,
      "ç¡®": 826,
      "èĢĥ": 827,
      "æĪĺ": 828,
      "çķĮ": 829,
      "æĿ¡": 830,
      "åĩĨ": 831,
      "æĬ¤": 832,
      "åĪ«": 833,
      "éĹ®é¢ĺ": 834,
      "åħī": 835,
      "å§Ķ": 836,
      "åı°": 837,
      "æķĻèĤ²": 838,
      "èħ": 839,
      "è¯ģ": 840,
      "çħ": 841,
      "å²": 842,
      "åĽ¢": 843,
      "æ¯ı": 844,
      "åĨ³": 845,
      "å¢ĥ": 846,
      "ç´ł": 847,
      "æµİ": 848,
      "çĽ´": 849,
      "åĬŁ": 850,
      "æķ´": 851,
      "æīĵ": 852,
      "æĢĿ": 853,
      "æ²¡æľī": 854,
      "æĺĵ": 855,
      "æŃ¥": 856,
      "å¥³": 857,
      "è±": 858,
      "ä½İ": 859,
      "äºĶ": 860,
      "æĶ¯": 861,
      "201": 862,
      "æĬĬ": 863,
      "ç©º": 864,
      "åĶ": 865,
      "æ¸ħ": 866,
      "ä¹ī": 867,
      "æĿĲ": 868,
      "åĽŀ": 869,
      "ç©¶": 870,
      "åħ»": 871,
      "åĮħ": 872,
      "èģĮ": 873,
      "å±Ģ": 874,
      "ä½¿çĶ¨": 875,
      "ç»Ļ": 876,
      "è§Ĥ": 877,
      "çľŁ": 878,
      "åĭ": 879,
      "çĶŁäº§": 880,
      "æĬķ": 881,
      "å®ĥ": 882,
      "è§Ĩ": 883,
      "æ¶Ī": 884,
      "è´¹": 885,
      "æĪ·": 886,
      "åĬŀ": 887,
      "éĻħ": 888,
      "å¼ķ": 889,
      "éľĢè¦ģ": 890,
      "é¥": 891,
      "å¤´": 892,
      "ç»ıæµİ": 893,
      "æģ¯": 894,
      "å¿«": 895,
      "Ġ,": 896,
      "å¸Ĥåľº": 897,
      "è¯¥": 898,
      "èį¯": 899,
      "å¤į": 900,
      "ç§¯": 901,
      "çİĩ": 902,
      "æł¹": 903,
      "è¨": 904,
      "æŁ¥": 905,
      "åĬ©": 906,
      "ç»´": 907,
      "å°±æĺ¯": 908,
      "éĢļè¿ĩ": 909,
      "éĢŁ": 910,
      "è®®": 911,
      "åıĤ": 912,
      "ä»Ĭ": 913,
      "è¯Ĩ": 914,
      "åįĩ": 915,
      "èĩ´": 916,
      "è´£": 917,
      "è§ģ": 918,
      "æĢģ": 919,
      "åĨį": 920,
      "çĶŁæ´»": 921,
      "å¿ħ": 922,
      "éĩįè¦ģ": 923,
      "å¹²": 924,
      "æĤ£": 925,
      "åįİ": 926,
      "å¸ĥ": 927,
      "å®¢": 928,
      "è®º": 929,
      "åĿļ": 930,
      "çłĶç©¶": 931,
      "èı": 932,
      "æĤ": 933,
      "å®īåħ¨": 934,
      "çı": 935,
      "è½¬": 936,
      "éªĮ": 937,
      "åĦ": 938,
      "åĨµ": 939,
      "æĸŃ": 940,
      "æĸ¯": 941,
      "æŀģ": 942,
      "ç»Ń": 943,
      "åıį": 944,
      "åİĨ": 945,
      "ä¸»è¦ģ": 946,
      "ä¸ĵä¸ļ": 947,
      "è¶³": 948,
      "èĬ±": 949,
      "è¶Ĭ": 950,
      "æİ§": 951,
      "æ¸©": 952,
      "æħ": 953,
      "éĻĲ": 954,
      "åĳ½": 955,
      "éŁ": 956,
      "åģ¥": 957,
      "å¦Ĥæŀľ": 958,
      "10": 959,
      "åĵį": 960,
      "çĪ±": 961,
      "è¯Ŀ": 962,
      "æĹ¶éĹ´": 963,
      "å¡": 964,
      "å¾·": 965,
      "æ¹": 966,
      "æ£Ģ": 967,
      "æ¸¸": 968,
      "èĳ": 969,
      "ä¸Ķ": 970,
      "æĿĥ": 971,
      "ä½ķ": 972,
      "ç¢": 973,
      "å·ŀ": 974,
      "éĢĤ": 975,
      "æ¨¡": 976,
      "é¡¹çĽ®": 977,
      "çĭ": 978,
      "èĮĥ": 979,
      "åİĭ": 980,
      "è¯ķ": 981,
      "ä»ĸä»¬": 982,
      "åĢ¼": 983,
      "åĨľ": 984,
      "èİ·": 985,
      "æİĴ": 986,
      "çļĦäºº": 987,
      "çª": 988,
      "éĩĩ": 989,
      "éļ¾": 990,
      "è¶ħ": 991,
      "ä»Ģ": 992,
      "åŁŁ": 993,
      "æľª": 994,
      "å·¥ç¨ĭ": 995,
      "æ¡Ī": 996,
      "åĪĻ": 997,
      "é¦ĸ": 998,
      "æĸ¹éĿ¢": 999,
      "åº·": 1000,
      "åĳĬ": 1001,
      "åĬ¿": 1002,
      "æĸĩåĮĸ": 1003,
      "å§ĭ": 1004,
      "çĬ¶": 1005,
      "åĨĽ": 1006,
      "åı²": 1007,
      "è¡Ģ": 1008,
      "åŃĺ": 1009,
      "åħĭ": 1010,
      "ç§°": 1011,
      "äººæ°ĳ": 1012,
      "åĳ¨": 1013,
      "èŀ": 1014,
      "æ²¹": 1015,
      "âĢĿ,": 1016,
      "æ²»çĸĹ": 1017,
      "åıĪ": 1018,
      "ä¸¥": 1019,
      "ç³»ç»Ł": 1020,
      "ç»ĩ": 1021,
      "æĺ¾": 1022,
      "åĦ¿": 1023,
      "æµĭ": 1024,
      "ä¸ĸçķĮ": 1025,
      "é©¬": 1026,
      "åĪĴ": 1027,
      "çļ®": 1028,
      "è¦ģæ±Ĥ": 1029,
      "åħ·æľī": 1030,
      "ä¼Ĺ": 1031,
      "éĻ¤": 1032,
      "éħį": 1033,
      "å¥¹": 1034,
      "åŃ¦çĶŁ": 1035,
      "åŃĹ": 1036,
      "19": 1037,
      "æıĲä¾Ľ": 1038,
      "ä¾¿": 1039,
      "çİ¯å¢ĥ": 1040,
      "ä¹Ĳ": 1041,
      "å½±åĵį": 1042,
      "æ±Ł": 1043,
      "åı¯èĥ½": 1044,
      "æĥħåĨµ": 1045,
      "æĪ¿": 1046,
      "ä»Ģä¹Ī": 1047,
      "åŁ¹": 1048,
      "è¡Įä¸ļ": 1049,
      "è¿Ļä¸ª": 1050,
      "åĢĻ": 1051,
      "åĪĩ": 1052,
      "è´¨éĩı": 1053,
      "ç»Ĩ": 1054,
      "éĿĴ": 1055,
      "åįı": 1056,
      "èīº": 1057,
      "âĢĶ": 1058,
      "èĲ½": 1059,
      "çĽĳ": 1060,
      "å¥½çļĦ": 1061,
      "åĲĮæĹ¶": 1062,
      "åŃ¦ä¹ł": 1063,
      "çħ§": 1064,
      "ç«Ļ": 1065,
      "ç±³": 1066,
      "è®¾è®¡": 1067,
      "åĽłä¸º": 1068,
      "çĮ": 1069,
      "çīĩ": 1070,
      "è®¾å¤ĩ": 1071,
      "åľŁ": 1072,
      "çģ«": 1073,
      "çº¦": 1074,
      "æľĽ": 1075,
      "çİĭ": 1076,
      "å¼ł": 1077,
      "äº§ä¸ļ": 1078,
      "äº¬": 1079,
      "èĥ½åĬĽ": 1080,
      "çŁ³": 1081,
      "ãĢĤâĢĿ": 1082,
      "å±ŀ": 1083,
      "å±Ĥ": 1084,
      "æĴ": 1085,
      "é¾": 1086,
      "å£«": 1087,
      "å°Ķ": 1088,
      "æļ": 1089,
      "æīĢä»¥": 1090,
      "é¢Ħ": 1091,
      "å¤ª": 1092,
      "æ´»åĬ¨": 1093,
      "å¤±": 1094,
      "æĳ": 1095,
      "æī¿": 1096,
      "åĩł": 1097,
      "éĻį": 1098,
      "è±¡": 1099,
      "æ¥": 1100,
      "åºľ": 1101,
      "åį³": 1102,
      "éĶĢ": 1103,
      "åĪĽæĸ°": 1104,
      "æĺ¯ä¸Ģ": 1105,
      "çº¢": 1106,
      "æ®µ": 1107,
      "åĸĦ": 1108,
      "ä»¥åıĬ": 1109,
      "æĿ¿": 1110,
      "ä¾Ŀ": 1111,
      "éļı": 1112,
      "ç½®": 1113,
      "èµ°": 1114,
      "æ¼Ķ": 1115,
      "åħħ": 1116,
      "ç¦»": 1117,
      "æıĲé«ĺ": 1118,
      "çĻ¾": 1119,
      "ç»Ħç»ĩ": 1120,
      "çĽĬ": 1121,
      "æĤ£èĢħ": 1122,
      "æ»¡": 1123,
      "èŀį": 1124,
      "æł¸": 1125,
      "æĿĳ": 1126,
      "åħį": 1127,
      "ä¿¡æģ¯": 1128,
      "ä»ħ": 1129,
      "åĪĹ": 1130,
      "åĥ": 1131,
      "å®¤": 1132,
      "æĵ": 1133,
      "çļĦä¸Ģ": 1134,
      "å¨": 1135,
      "èī¯": 1136,
      "ä½ľä¸º": 1137,
      "åł": 1138,
      "çīĮ": 1139,
      "åĩı": 1140,
      "ä¸įåĲĮ": 1141,
      "å¤§çļĦ": 1142,
      "å¯Į": 1143,
      "æŀĹ": 1144,
      "æĻº": 1145,
      "éĤ": 1146,
      "éĻ©": 1147,
      "å¤Ł": 1148,
      "æĻ¯": 1149,
      "éĿ©": 1150,
      "äº¿": 1151,
      "å¾Ģ": 1152,
      "è¯Ħ": 1153,
      "è´Ł": 1154,
      "ç²¾ç¥ŀ": 1155,
      "æ¿": 1156,
      "ä¾ĭ": 1157,
      "çŃĸ": 1158,
      "ä¸Ńå¿ĥ": 1159,
      "äºī": 1160,
      "äººåĳĺ": 1161,
      "åŃ©": 1162,
      "è¿Ļæł·": 1163,
      "äººçļĦ": 1164,
      "æĪĲä¸º": 1165,
      "ä¸ŃçļĦ": 1166,
      "ä½ľçĶ¨": 1167,
      "è¨Ģ": 1168,
      "éĺ³": 1169,
      "äºļ": 1170,
      "åŃ¦æł¡": 1171,
      "å¾Īå¤ļ": 1172,
      "åĽ´": 1173,
      "ä¿®": 1174,
      "åİ¿": 1175,
      "å¾ĭ": 1176,
      "ç¾¤": 1177,
      "æĶ¿åºľ": 1178,
      "åı·": 1179,
      "å¿µ": 1180,
      "è®¸": 1181,
      "æĮī": 1182,
      "åĩºçİ°": 1183,
      "æĲ": 1184,
      "ä½ı": 1185,
      "åĽ½éĻħ": 1186,
      "å¿Ĺ": 1187,
      "ä¹Łæĺ¯": 1188,
      "æĭ©": 1189,
      "å¤§åŃ¦": 1190,
      "åĽ¾": 1191,
      "åĲ«": 1192,
      "åıĭ": 1193,
      "éĿŀå¸¸": 1194,
      "è¿ŀ": 1195,
      "åĽŃ": 1196,
      "å®ŀçİ°": 1197,
      "åĲĥ": 1198,
      "ç®Ĺ": 1199,
      "ç»Ī": 1200,
      "æĹ©": 1201,
      "æĿĲæĸĻ": 1202,
      "æĭī": 1203,
      "ä»½": 1204,
      "çĹĩ": 1205,
      "ç¬¬ä¸Ģ": 1206,
      "å®³": 1207,
      "æ²³": 1208,
      "âĢĿãĢĤ": 1209,
      "è¿ĻäºĽ": 1210,
      "ä¸Ģå®ļ": 1211,
      "ä¸ĢäºĽ": 1212,
      "å·²ç»ı": 1213,
      "åıĮ": 1214,
      "éĢīæĭ©": 1215,
      "ç§ĳåŃ¦": 1216,
      "èª": 1217,
      "çĽ¸åħ³": 1218,
      "åģ¥åº·": 1219,
      "è¯Ń": 1220,
      "å¯¹äºİ": 1221,
      "åĿĩ": 1222,
      "å¯Ĩ": 1223,
      "è¿ľ": 1224,
      "èĩªå·±çļĦ": 1225,
      "éħĴ": 1226,
      "åħ¨åĽ½": 1227,
      "ç§ĳæĬĢ": 1228,
      "äºĴ": 1229,
      "èĪ¬": 1230,
      "è§Ĵ": 1231,
      "æ¿Ģ": 1232,
      "æŁĵ": 1233,
      "åĤ": 1234,
      "è§ī": 1235,
      "è¿ĩç¨ĭ": 1236,
      "æĻ®": 1237,
      "åħ¶ä»ĸ": 1238,
      "èĤ¡": 1239,
      "åĲĪä½ľ": 1240,
      "é»Ħ": 1241,
      "éĴ¢": 1242,
      "åħ´": 1243,
      "æł¹æį®": 1244,
      "ä¸įæĸŃ": 1245,
      "æĹ¶åĢĻ": 1246,
      "åĽłæŃ¤": 1247,
      "è´¢": 1248,
      "çŃĳ": 1249,
      "å©": 1250,
      "é¡»": 1251,
      "çĽ®åīį": 1252,
      "è®²": 1253,
      "åĶ®": 1254,
      "ä½Ĩæĺ¯": 1255,
      "å¾®": 1256,
      "æĹı": 1257,
      "ĠãĢĤ": 1258,
      "ä»¥ä¸Ĭ": 1259,
      "è¯·": 1260,
      "å¤ĦçĲĨ": 1261,
      "ä¸įæĺ¯": 1262,
      "åŁİå¸Ĥ": 1263,
      "çĨ": 1264,
      "æĬķèµĦ": 1265,
      "åı¤": 1266,
      "ä¸įèĥ½": 1267,
      "åıĳçĶŁ": 1268,
      "æķħ": 1269,
      "åĲ¸": 1270,
      "æłĩåĩĨ": 1271,
      "åĪ°äºĨ": 1272,
      "12": 1273,
      "èĭ±": 1274,
      "è½»": 1275,
      "éĥ¨éĹ¨": 1276,
      "èŃ": 1277,
      "åįķä½į": 1278,
      "åĥı": 1279,
      "åŁºç¡": 1280,
      "åŃ©åŃĲ": 1281,
      "çľ¼": 1282,
      "ç¦ı": 1283,
      "éŁ³": 1284,
      "åŁºç¡Ģ": 1285,
      "ç¨³": 1286,
      "æĸ¹å¼ı": 1287,
      "éħ¸": 1288,
      "æī¹": 1289,
      "èĨ": 1290,
      "ä¸¾": 1291,
      "åĪĿ": 1292,
      "è¯¾": 1293,
      "çĸ«": 1294,
      "å±ħ": 1295,
      "éĥ¨åĪĨ": 1296,
      "æŃ¢": 1297,
      "æ¤": 1298,
      "å¤§å®¶": 1299,
      "è®Ń": 1300,
      "åŃ£": 1301,
      "åºĶçĶ¨": 1302,
      "æĿİ": 1303,
      "é¦Ļ": 1304,
      "è¾¹": 1305,
      "åĮ»éĻ¢": 1306,
      "çĵ": 1307,
      "è¡¨ç¤º": 1308,
      "éĵģ": 1309,
      "éĵ¶": 1310,
      "åī¯": 1311,
      "ä¼¤": 1312,
      "æľ¨": 1313,
      "åħ¶ä¸Ń": 1314,
      "200": 1315,
      "æ¬¾": 1316,
      "åĳ³": 1317,
      "æĬĹ": 1318,
      "ä¸»ä¹ī": 1319,
      "åİĤ": 1320,
      "æķ°æį®": 1321,
      "çĶ·": 1322,
      "çĩ": 1323,
      "ä¸ĢèĪ¬": 1324,
      "æĭ¬": 1325,
      "å°½": 1326,
      "èĥ½å¤Ł": 1327,
      "å»ºçŃĳ": 1328,
      "çºª": 1329,
      "éļľ": 1330,
      "èģļ": 1331,
      "çªģ": 1332,
      "åį«": 1333,
      "åİĨåı²": 1334,
      "çļĦæĺ¯": 1335,
      "éĥ½æĺ¯": 1336,
      "åºķ": 1337,
      "å£°": 1338,
      "è¾ĵ": 1339,
      "å®¡": 1340,
      "ç®Ģ": 1341,
      "å¥ĸ": 1342,
      "å·¥ä¸ļ": 1343,
      "æĭħ": 1344,
      "çķ¥": 1345,
      "11": 1346,
      "åħ«": 1347,
      "å¼Ģå§ĭ": 1348,
      "åīĤ": 1349,
      "åįĬ": 1350,
      "çł´": 1351,
      "æĸ¹æ³ķ": 1352,
      "æľīéĻĲ": 1353,
      "ç£": 1354,
      "åħ¨éĿ¢": 1355,
      "ä»ĭ": 1356,
      "æ½": 1357,
      "çıŃ": 1358,
      "é²": 1359,
      "å®Ŀ": 1360,
      ":âĢľ": 1361,
      "æ¶²": 1362,
      "çĻ½çĻ": 1363,
      "æĺŁ": 1364,
      "å®ĺ": 1365,
      "ľé£İ": 1366,
      "è¿Ļç§į": 1367,
      "æ±½": 1368,
      "å¼Ģå±ķ": 1369,
      "åĮħæĭ¬": 1370,
      "åĬŁèĥ½": 1371,
      "äº²": 1372,
      "çĻ½çĻľé£İ": 1373,
      "èµĦæºĲ": 1374,
      "ä¿ĥ": 1375,
      "å¸Į": 1376,
      "ĠãĢģ": 1377,
      "è¡¥": 1378,
      "åĸľ": 1379,
      "éĨ": 1380,
      "éĽĨåĽ¢": 1381,
      "é¾Ļ": 1382,
      "åĿļæĮģ": 1383,
      "å®£": 1384,
      "æĹħ": 1385,
      "æĪĸèĢħ": 1386,
      "è§Ħå®ļ": 1387,
      "åį°": 1388,
      "æ±¡": 1389,
      "èİ·å¾Ĺ": 1390,
      "å¿ħé¡»": 1391,
      "æĪĳåĽ½": 1392,
      "æ¯Ĵ": 1393,
      "ä¿ĿæĬ¤": 1394,
      "åľ°åĮº": 1395,
      "ç½Ĺ": 1396,
      "ç¼º": 1397,
      "çĶ±äºİ": 1398,
      "æ°´å¹³": 1399,
      "ç§¯æŀģ": 1400,
      "ç¿": 1401,
      "èĴ": 1402,
      "æĽ¾": 1403,
      "æĺ¥": 1404,
      "åį´": 1405,
      "ç»ĵæŀĦ": 1406,
      "åĨ·": 1407,
      "èĹ": 1408,
      "åįļ": 1409,
      "ä¸´": 1410,
      "å¢ŀéķ¿": 1411,
      "é¢ĨåŁŁ": 1412,
      "çķĻ": 1413,
      "çİ°åľ¨": 1414,
      "åħŃ": 1415,
      "ä»£è¡¨": 1416,
      "æıĲåįĩ": 1417,
      "åĮĹäº¬": 1418,
      "æľºæŀĦ": 1419,
      "æī§": 1420,
      "é¢Ĩå¯¼": 1421,
      "ç¾İåĽ½": 1422,
      "åī§": 1423,
      "æ¯Ķè¾ĥ": 1424,
      "30": 1425,
      "åĬłå¼º": 1426,
      "çĭ¬": 1427,
      "æ³¨æĦı": 1428,
      "202": 1429,
      "ç»§": 1430,
      "æŀĲ": 1431,
      "ä½Ļ": 1432,
      "çĶ»": 1433,
      "å·®": 1434,
      "ç¯": 1435,
      "ä¸ĢæŃ¥": 1436,
      "éĢģ": 1437,
      "åı¦": 1438,
      "å·´": 1439,
      "å¸®": 1440,
      "çĸ¾": 1441,
      "åįł": 1442,
      "ç´§": 1443,
      "éº": 1444,
      "15": 1445,
      "è´Ń": 1446,
      "æĹ¶ä»£": 1447,
      "ç¨İ": 1448,
      "å¢ŀåĬł": 1449,
      "äºĳ": 1450,
      "å¾ģ": 1451,
      "äºĨè§£": 1452,
      "åĽº": 1453,
      "åĬ³": 1454,
      "æİ§åĪ¶": 1455,
      "èĳĹ": 1456,
      "ç»¼": 1457,
      "ä¸ªäºº": 1458,
      "ä¹¡": 1459,
      "å¤®": 1460,
      "è´£ä»»": 1461,
      "åįĥ": 1462,
      "ä¸°": 1463,
      "æįŁ": 1464,
      "çĤİ": 1465,
      "é»ĳ": 1466,
      "åŁºæľ¬": 1467,
      "ç»ľ": 1468,
      "å¹³åı°": 1469,
      "ç»¿": 1470,
      "ç¬¬äºĮ": 1471,
      "å½¢æĪĲ": 1472,
      "å®¢æĪ·": 1473,
      "æ¦": 1474,
      "è¿ĺæĺ¯": 1475,
      "å¾ħ": 1476,
      "æķĻåŃ¦": 1477,
      "æŃ¦": 1478,
      "æ¹ĸ": 1479,
      "åĪ»": 1480,
      "çİ°ä»£": 1481,
      "åĵģçīĮ": 1482,
      "å®ĮæĪĲ": 1483,
      "æĢĿæĥ³": 1484,
      "å¼Ĥ": 1485,
      "å¹´çļĦ": 1486,
      "æ¬¢": 1487,
      "æŁĲ": 1488,
      "åŃ¦éĻ¢": 1489,
      "åħ³ç³»": 1490,
      "çĤº": 1491,
      "æ¸¯": 1492,
      "é¥®": 1493,
      "çº³": 1494,
      "æĶ¹éĿ©": 1495,
      "ä¸įä¼ļ": 1496,
      "åĨħå®¹": 1497,
      "å¯¼èĩ´": 1498,
      "èĢĮä¸Ķ": 1499,
      "é¸": 1500,
      "é¼": 1501,
      "çŁŃ": 1502,
      "æľīéĻĲåħ¬åı¸": 1503,
      "éľĢæ±Ĥ": 1504,
      "åĽ½åĨħ": 1505,
      "æĶ¿çŃĸ": 1506,
      "åºĹ": 1507,
      "è§£åĨ³": 1508,
      "å¯Ł": 1509,
      "æľīæķĪ": 1510,
      "æ¯į": 1511,
      "åĪ¶éĢł": 1512,
      "ç«ŀ": 1513,
      "èĮ¶": 1514,
      "äººæīį": 1515,
      "éķĩ": 1516,
      "åĩ»": 1517,
      "éĤ£ä¹Ī": 1518,
      "èĢĲ": 1519,
      "åıĳçİ°": 1520,
      "æłĳ": 1521,
      "åĪĨæŀĲ": 1522,
      "åį¡": 1523,
      "è®¤ä¸º": 1524,
      "é¢Ŀ": 1525,
      "èĥľ": 1526,
      "æĶ¿æ²»": 1527,
      "åĲĦç§į": 1528,
      "æī¾": 1529,
      "ä½ĵç³»": 1530,
      "è´§": 1531,
      "çĶ³": 1532,
      "æİ¨è¿Ľ": 1533,
      "åĨł": 1534,
      "æŃ»": 1535,
      "æĸ°çļĦ": 1536,
      "ä¸ĬçļĦ": 1537,
      "éģ¿": 1538,
      "åĲ¦": 1539,
      "æ¢¦": 1540,
      "ç»ıèĲ¥": 1541,
      "å°Ħ": 1542,
      "åı¥": 1543,
      "èĻ½": 1544,
      "å¸ĮæľĽ": 1545,
      "åĪ©çĶ¨": 1546,
      "äº§çĶŁ": 1547,
      "æĽ´åĬł": 1548,
      "éĩįçĤ¹": 1549,
      "æ³¢": 1550,
      "ä¸ºäºĨ": 1551,
      "æĮ¥": 1552,
      "åĨĻ": 1553,
      "ç»¼åĲĪ": 1554,
      "è¿Ļä¸Ģ": 1555,
      "èĩªçĦ¶": 1556,
      "æľīåħ³": 1557,
      "),": 1558,
      "çĹĽ": 1559,
      "ç½ĳç»ľ": 1560,
      "æĿ¥çļĦ": 1561,
      "å²ģ": 1562,
      "å®ŀæĸ½": 1563,
      "åĪ¶åº¦": 1564,
      "ç¼ĸ": 1565,
      "ç§»": 1566,
      "çĶ¨äºİ": 1567,
      "ä¼ļè®®": 1568,
      "æľĥ": 1569,
      ",âĢľ": 1570,
      "çĽ®æłĩ": 1571,
      "èĪª": 1572,
      "æį¢": 1573,
      "ç«¯": 1574,
      "éĴŁ": 1575,
      "ä¼łç»Ł": 1576,
      "åį±": 1577,
      "åħļçļĦ": 1578,
      "ç»Ŀ": 1579,
      "éĢłæĪĲ": 1580,
      "å¼Ģåıĳ": 1581,
      "éĩĩçĶ¨": 1582,
      "æİ¨åĬ¨": 1583,
      "åŃĺåľ¨": 1584,
      "éĺ¿": 1585,
      "å®¹æĺĵ": 1586,
      "åħ°": 1587,
      "æĭ¥": 1588,
      "éģĩ": 1589,
      "ä»¤": 1590,
      "æ±ī": 1591,
      "æĶ¯æĮģ": 1592,
      "èĭı": 1593,
      "åĲ¬": 1594,
      "ä¹¦è®°": 1595,
      "æ°§": 1596,
      "å½ķ": 1597,
      "åº§": 1598,
      "çīĽ": 1599,
      "ä¹ĭåĲİ": 1600,
      "ç§Ģ": 1601,
      "çī¹èī²": 1602,
      "æ¶Īè´¹": 1603,
      "çŁ¥éģĵ": 1604,
      "ä¸Ńå¤®": 1605,
      "æīĢæľī": 1606,
      "æĴŃ": 1607,
      "æĸĹ": 1608,
      "æ±½è½¦": 1609,
      "çļĦæĹ¶åĢĻ": 1610,
      "äºĨä¸Ģ": 1611,
      "çĸ¾çĹħ": 1612,
      "çŁ¥è¯Ĩ": 1613,
      "æĦ¿": 1614,
      "ä¸įä»ħ": 1615,
      "ç«ł": 1616,
      "æ¬§": 1617,
      "æķĪæŀľ": 1618,
      "èıľ": 1619,
      "æ´Ĺ": 1620,
      "æĤ¨": 1621,
      "æĭĽ": 1622,
      "å¦Ĥä½ķ": 1623,
      "è¯»": 1624,
      "åºŃ": 1625,
      "åĵª": 1626,
      "éĸ": 1627,
      "æĿ¡ä»¶": 1628,
      "èĽ": 1629,
      "åºĶè¯¥": 1630,
      "çī¹åĪ«": 1631,
      "æ¤į": 1632,
      "ä¸ļåĬ¡": 1633,
      "è¾¾åĪ°": 1634,
      "æĩ": 1635,
      "ä¹Ŀ": 1636,
      "ä¿ĿæĮģ": 1637,
      "å®Ī": 1638,
      "Â·": 1639,
      "å»ºç«ĭ": 1640,
      "åľ°æĸ¹": 1641,
      "æĪı": 1642,
      "éĢĲ": 1643,
      "çĮ®": 1644,
      "åĬª": 1645,
      "çīĪ": 1646,
      "äº¿åħĥ": 1647,
      "ç»ĵåĲĪ": 1648,
      "èĤī": 1649,
      "æĢ¥": 1650,
      "è¿Ľä¸ĢæŃ¥": 1651,
      "å®ŀéĻħ": 1652,
      "èįī": 1653,
      "èģĮä¸ļ": 1654,
      "å¤«": 1655,
      "çĶļ": 1656,
      "ä»·æł¼": 1657,
      "èŃ¦": 1658,
      "åĽ°": 1659,
      "å±Ĭ": 1660,
      "ç²ī": 1661,
      "é¢ĳ": 1662,
      "è´Łè´£": 1663,
      "100": 1664,
      "æĵį": 1665,
      "å³": 1666,
      "æĢİ": 1667,
      "ä»į": 1668,
      "åºı": 1669,
      "åºĬ": 1670,
      "èº«ä½ĵ": 1671,
      "å½©": 1672,
      "âĢĶâĢĶ": 1673,
      "%,": 1674,
      "è¿ĺæľī": 1675,
      "å·¦": 1676,
      "æĿ¥è¯´": 1677,
      "è¿°": 1678,
      "åĩĢ": 1679,
      "åĳ¢": 1680,
      "çĿ£": 1681,
      "è¿Ļæĺ¯": 1682,
      "50": 1683,
      "åĬªåĬĽ": 1684,
      "è·µ": 1685,
      "æĮģç»Ń": 1686,
      "æıĲåĩº": 1687,
      "ä¸įè¦ģ": 1688,
      "ä»ª": 1689,
      "èīºæľ¯": 1690,
      "æĻĤ": 1691,
      "è²": 1692,
      "ä¸Ģèµ·": 1693,
      "åħ¨çĲĥ": 1694,
      "ä¹ħ": 1695,
      "åıĸå¾Ĺ": 1696,
      "æİĪ": 1697,
      "åŁ¹åħ»": 1698,
      "ç»į": 1699,
      "é£ŀ": 1700,
      "åı³": 1701,
      "è½®": 1702,
      "çµ": 1703,
      "ä»·åĢ¼": 1704,
      "ä¹ĭä¸Ģ": 1705,
      "éĻĪ": 1706,
      "åª": 1707,
      "è½¯": 1708,
      "ãĢĮ": 1709,
      "ä¼ĺåĬ¿": 1710,
      "ä¹°": 1711,
      "åİŁåĽł": 1712,
      "æİª": 1713,
      "çĶ²": 1714,
      "æ¯ĶèµĽ": 1715,
      "é½": 1716,
      "æ´²": 1717,
      "å¡ĳ": 1718,
      "è¿½": 1719,
      "åģľ": 1720,
      "é¤": 1721,
      "æĶ»": 1722,
      "ä¿ĥè¿Ľ": 1723,
      "éĿł": 1724,
      "éĺ¶": 1725,
      "ä¸ĥ": 1726,
      "ãĢį": 1727,
      "æĻºèĥ½": 1728,
      "éĶĢåĶ®": 1729,
      "æ¢°": 1730,
      "ç¨³å®ļ": 1731,
      "èĻ½çĦ¶": 1732,
      "çĽ´æİ¥": 1733,
      "æĪĺçķ¥": 1734,
      "ä¸Ĭæµ·": 1735,
      "ä¿Ŀéļľ": 1736,
      "éĴĪ": 1737,
      "é¡º": 1738,
      "è®¡åĪĴ": 1739,
      "äººä»¬": 1740,
      "ç»©": 1741,
      "èĤ¤": 1742,
      "æĽ´å¤ļ": 1743,
      "å¸®åĬ©": 1744,
      "18": 1745,
      "æĪĲåĬŁ": 1746,
      "äºĭä¸ļ": 1747,
      "äºĪ": 1748,
      "æ£ĢæŁ¥": 1749,
      "å¸Ń": 1750,
      "è´µ": 1751,
      "æ©": 1752,
      "éĴ±": 1753,
      "å®ģ": 1754,
      "åıªæľī": 1755,
      "æĭ¥æľī": 1756,
      "èıĮ": 1757,
      "ç´¢": 1758,
      "å°¼": 1759,
      "è¿ĲåĬ¨": 1760,
      "è¿Ľåħ¥": 1761,
      "å¥ĩ": 1762,
      "èĸ": 1763,
      "é£Łåĵģ": 1764,
      "è¯Ĭ": 1765,
      "çĶŁæĢģ": 1766,
      "å¥Ĺ": 1767,
      "éĶ®": 1768,
      "è·Ł": 1769,
      "åħ¸": 1770,
      "æķ£": 1771,
      "åĨ²": 1772,
      "çĻ»": 1773,
      "å¥ĭ": 1774,
      "è¯ī": 1775,
      "éļıçĿĢ": 1776,
      "è½½": 1777,
      "æħ¢": 1778,
      "èĵ": 1779,
      "åıĤåĬł": 1780,
      "çĪ¶": 1781,
      "èĦĳ": 1782,
      "é¦Ĩ": 1783,
      "åħ±åĲĮ": 1784,
      "éĢı": 1785,
      "è§ĦåĪĴ": 1786,
      "æķĻå¸Ī": 1787,
      "èĦ±": 1788,
      "ç¶": 1789,
      "éĢĻ": 1790,
      "è¡Įä¸º": 1791,
      "ä¹ĭéĹ´": 1792,
      "ç»ĥ": 1793,
      "ä¼¼": 1794,
      "åĪĺ": 1795,
      "å§Ķåĳĺ": 1796,
      "éĢĢ": 1797,
      "æĻļ": 1798,
      "çĶ¨æĪ·": 1799,
      "èį£": 1800,
      "çĶļèĩ³": 1801,
      "åıĬæĹ¶": 1802,
      "ä»ĭç»į": 1803,
      "æ³Ľ": 1804,
      "è¿ĩç¨ĭä¸Ń": 1805,
      "èĲ½å®ŀ": 1806,
      "æī©": 1807,
      "éŃ": 1808,
      "èĭ¦": 1809,
      "æ°ĳæĹı": 1810,
      "åħħåĪĨ": 1811,
      "ä»ĺ": 1812,
      "éĩĳèŀį": 1813,
      "èĨľ": 1814,
      "äº¤éĢļ": 1815,
      "ä¸¥éĩį": 1816,
      "æĮīçħ§": 1817,
      "æ³ķå¾ĭ": 1818,
      "çĶµåŃĲ": 1819,
      "åıĳå±ķçļĦ": 1820,
      "æīĺ": 1821,
      "æİ¢": 1822,
      "éĶĻ": 1823,
      "åģĩ": 1824,
      "åĮ»çĸĹ": 1825,
      "çļĦåıĳå±ķ": 1826,
      "æĿ¾": 1827,
      "æ¯ķ": 1828,
      "æĢ§èĥ½": 1829,
      "å¥¥": 1830,
      "æĹħæ¸¸": 1831,
      "ç¬¬ä¸ī": 1832,
      "åĬłå·¥": 1833,
      "åı¶": 1834,
      "ç¥¨": 1835,
      "åĺ": 1836,
      "åŃķ": 1837,
      "åŁ¹è®Ń": 1838,
      "æĢ§çļĦ": 1839,
      "å®«": 1840,
      "ä»Ĭå¹´": 1841,
      "å©ļ": 1842,
      "16": 1843,
      "å¨ģ": 1844,
      "è³": 1845,
      "å¾ĹåĪ°": 1846,
      "ç»§ç»Ń": 1847,
      "æł¸å¿ĥ": 1848,
      "è´¯": 1849,
      "å»¶": 1850,
      "ä»»ä½ķ": 1851,
      "åħ³äºİ": 1852,
      "æľĿ": 1853,
      "ç½ª": 1854,
      "èĥ½æºĲ": 1855,
      "æ°¸": 1856,
      "åĩıå°ĳ": 1857,
      "æīįèĥ½": 1858,
      "ä¸ĢçĽ´": 1859,
      "æĬĵ": 1860,
      "äº«": 1861,
      "åºĨ": 1862,
      "å½»": 1863,
      "æĬ¥åĳĬ": 1864,
      "çĴ": 1865,
      "ä¸¤ä¸ª": 1866,
      "çĽĸ": 1867,
      "åĪĨéĴŁ": 1868,
      "ä¼Ł": 1869,
      "è¶ħè¿ĩ": 1870,
      "åİļ": 1871,
      "å®ĮåĸĦ": 1872,
      "èĥĮ": 1873,
      "åĢĭ": 1874,
      "åıĳæĮ¥": 1875,
      "æ²Ļ": 1876,
      "æĿĤ": 1877,
      "ä¹İ": 1878,
      "çģµ": 1879,
      "è°Ī": 1880,
      "ä¸°å¯Į": 1881,
      "ç¦ģ": 1882,
      "ä½³": 1883,
      "çĨŁ": 1884,
      "æķĳ": 1885,
      "ä»ĸçļĦ": 1886,
      "éĽ¨": 1887,
      "éģ¿åħį": 1888,
      "åĪ¤": 1889,
      "é²ľ": 1890,
      "æ¾": 1891,
      "%ãĢĤ": 1892,
      "æĸ¹æ¡Ī": 1893,
      "æľĭ": 1894,
      "å®ŀè·µ": 1895,
      "èĥ¶": 1896,
      "è§Ħæ¨¡": 1897,
      "çĺ": 1898,
      "ä¸ĵå®¶": 1899,
      "èĮĥåĽ´": 1900,
      "ç¤¾ä¼ļä¸»ä¹ī": 1901,
      "è¿İ": 1902,
      "14": 1903,
      "éĻĦ": 1904,
      "è¯ļ": 1905,
      "å¼ķèµ·": 1906,
      "æľªæĿ¥": 1907,
      "æĢĢ": 1908,
      "ä½Ľ": 1909,
      "èħĲ": 1910,
      "çļĦå¤§": 1911,
      "éł": 1912,
      "éª¨": 1913,
      "èĹı": 1914,
      "æĸ½å·¥": 1915,
      "èĭ¥": 1916,
      "æŃĮ": 1917,
      "ç³»åĪĹ": 1918,
      "13": 1919,
      "åªĴ": 1920,
      "æ¨¡å¼ı": 1921,
      "æĮĩå¯¼": 1922,
      "ç»ıè¿ĩ": 1923,
      "æ¯Ľ": 1924,
      "ä¸ĩåħĥ": 1925,
      "åħ³éĶ®": 1926,
      "éĩįå¤§": 1927,
      "å®Ĺ": 1928,
      "åıĹåĪ°": 1929,
      "èĻĳ": 1930,
      "å°¤": 1931,
      "æľºæ¢°": 1932,
      "æĪĲæľ¬": 1933,
      "å°ģ": 1934,
      "äº®": 1935,
      "åıĺåĮĸ": 1936,
      "ç³ĸ": 1937,
      "ç«¥": 1938,
      "å®¶åºŃ": 1939,
      "æĽ²": 1940,
      "åĲ¯": 1941,
      "åºĵ": 1942,
      "åºŁ": 1943,
      "çĲĨè®º": 1944,
      "çĶŁçī©": 1945,
      "è¡¨çİ°": 1946,
      "çļ®èĤ¤": 1947,
      "ä¸Ģæ¬¡": 1948,
      "ä¸įåı¯": 1949,
      "ä¸Ńåįİ": 1950,
      "æľĢåĲİ": 1951,
      "è®¸å¤ļ": 1952,
      "ç¡¬": 1953,
      "ç»ıéªĮ": 1954,
      "æĹ¢": 1955,
      "ä»¥ä¸ĭ": 1956,
      "å¹´æĿ¥": 1957,
      "éķ¿æľŁ": 1958,
      "ä¿Ŀè¯ģ": 1959,
      "åıĤä¸İ": 1960,
      "åĬĽéĩı": 1961,
      "åģļå¥½": 1962,
      "è¿Ŀ": 1963,
      "åĿĹ": 1964,
      "ä¾Ĩ": 1965,
      "å¤ı": 1966,
      "åĽłç´ł": 1967,
      "çĳ": 1968,
      "æĪĲç«ĭ": 1969,
      "ä»¥æĿ¥": 1970,
      "åĪļ": 1971,
      "ä½ĵèĤ²": 1972,
      "æı¡": 1973,
      "æľĭåıĭ": 1974,
      "é£İéĻ©": 1975,
      "æĭ¿": 1976,
      "èµ·æĿ¥": 1977,
      "æĿ¯": 1978,
      "æ¥¼": 1979,
      "éĿĻ": 1980,
      "çļĦéĩįè¦ģ": 1981,
      "éģĹ": 1982,
      "èģĶç½ĳ": 1983,
      "è¡ĮæĶ¿": 1984,
      "éĽ¶": 1985,
      "çĥĪ": 1986,
      "ä¸Ģç§į": 1987,
      "åºĶå½ĵ": 1988,
      "ä»»åĬ¡": 1989,
      "çłĶåıĳ": 1990,
      "çŃĶ": 1991,
      "æĪĳçļĦ": 1992,
      "é±": 1993,
      "äº¤æµģ": 1994,
      "èĥŀ": 1995,
      "ç¾¤ä¼Ĺ": 1996,
      "éĹ»": 1997,
      "éĵ¾": 1998,
      "æ´ģ": 1999,
      "æ£Ģæµĭ": 2000,
      "æ¶¦": 2001,
      "æľīçļĦ": 2002,
      "ç©ºéĹ´": 2003,
      "çĬ¯": 2004,
      "çĸĳ": 2005,
      "ç¹": 2006,
      "ä¸½": 2007,
      "æĺ¯ä¸Ģç§į": 2008,
      "æİªæĸ½": 2009,
      "å®ľ": 2010,
      "ç«ŀäºī": 2011,
      "ä¸Ģæł·": 2012,
      "éĻįä½İ": 2013,
      "é±¼": 2014,
      "æŀ¶": 2015,
      "åħĪè¿Ľ": 2016,
      "è´¸": 2017,
      "å¦ĩ": 2018,
      "è¿ĳå¹³": 2019,
      "çī¹çĤ¹": 2020,
      "èĦĤ": 2021,
      "ç¬¦": 2022,
      "æ¶Ĥ": 2023,
      "çŁ¿": 2024,
      "èĶ": 2025,
      "ä¹łè¿ĳå¹³": 2026,
      "å¹¿æ³Ľ": 2027,
      "åĨ³å®ļ": 2028,
      "æ¶ī": 2029,
      "æĵįä½ľ": 2030,
      "å·Ŀ": 2031,
      ")ãĢģ": 2032,
      "éĺ¶æ®µ": 2033,
      "åį«çĶŁ": 2034,
      "é¡¾": 2035,
      "åħ·ä½ĵ": 2036,
      "æĺ¾ç¤º": 2037,
      "åĢŁ": 2038,
      "å¹²éĥ¨": 2039,
      "æ¹¿": 2040,
      "æĺ¯åľ¨": 2041,
      "å¹¸": 2042,
      "çĩĥ": 2043,
      "çĸ«æĥħ": 2044,
      "æľŁéĹ´": 2045,
      "æŃ£å¸¸": 2046,
      "åĪº": 2047,
      ")ãĢĤ": 2048,
      "æ±¡æŁĵ": 2049,
      "çĥŁ": 2050,
      "æĢİä¹Ī": 2051,
      "çİ©": 2052,
      "å·¨": 2053,
      "é¤Ĳ": 2054,
      "ä¼ĺç§Ģ": 2055,
      "èĩªåĬ¨": 2056,
      "è´«": 2057,
      "åĨĮ": 2058,
      "é¥°": 2059,
      "æİ¥åıĹ": 2060,
      "å®£ä¼ł": 2061,
      "éĿ¢ç§¯": 2062,
      "å¢ŀå¼º": 2063,
      "åĬ³åĬ¨": 2064,
      "æ¸Ĳ": 2065,
      "éĵ¶è¡Į": 2066,
      "æ·±åħ¥": 2067,
      "åĬ±": 2068,
      "åĨľä¸ļ": 2069,
      "ä¸Ŀ": 2070,
      "âĢĿãĢģ": 2071,
      "éĺ´": 2072,
      "ç¤¼": 2073,
      "ç»ĵæŀľ": 2074,
      "æ´¾": 2075,
      "è°¢": 2076,
      "çī©è´¨": 2077,
      "çŃ¾": 2078,
      "ä½łçļĦ": 2079,
      "ç´¯": 2080,
      "æ··": 2081,
      "å»ºè®®": 2082,
      "çĹĩçĬ¶": 2083,
      "çļĦé«ĺ": 2084,
      "éļĶ": 2085,
      "èĽĭ": 2086,
      "æĦıè¯Ĩ": 2087,
      "æĸ¹åĲĳ": 2088,
      "è®¾æĸ½": 2089,
      "åıĳå¸ĥ": 2090,
      "ãĢĭ,": 2091,
      "ç»´æĬ¤": 2092,
      "åĤ¨": 2093,
      "æĹłæ³ķ": 2094,
      "å·¥èīº": 2095,
      "ä¼ĳ": 2096,
      "é¹": 2097,
      "å¤ľ": 2098,
      "ä¸įè¿ĩ": 2099,
      "ä»İèĢĮ": 2100,
      "å°±ä¼ļ": 2101,
      "æĶ¶åħ¥": 2102,
      "åĲī": 2103,
      "17": 2104,
      "ç¢³": 2105,
      "æĦıä¹ī": 2106,
      "25": 2107,
      "åłĤ": 2108,
      "æ±ł": 2109,
      "çļĦäºĭ": 2110,
      "æĺ¯åĲ¦": 2111,
      "æ¡¥": 2112,
      "æĮĩåĩº": 2113,
      "000": 2114,
      "ä¹Łæľī": 2115,
      "è´¥": 2116,
      "åİĭåĬĽ": 2117,
      "å¹¶ä¸Ķ": 2118,
      "å½¢å¼ı": 2119,
      "å¿ĥçĲĨ": 2120,
      "åĮºåŁŁ": 2121,
      "çĲĨå¿µ": 2122,
      "çĶ³è¯·": 2123,
      "å¿«éĢŁ": 2124,
      "å®ŀéªĮ": 2125,
      "æĪĳä»¬çļĦ": 2126,
      "éľ²": 2127,
      "æĺİç¡®": 2128,
      "è¡£": 2129,
      "çĽŁ": 2130,
      "é£Łçī©": 2131,
      "èļ": 2132,
      "ç©¿": 2133,
      "åİħ": 2134,
      "æī¬": 2135,
      "åĳĺå·¥": 2136,
      "è®¿": 2137,
      "çļĩ": 2138,
      "è®°èĢħ": 2139,
      "èľ": 2140,
      "çĶ°": 2141,
      "40": 2142,
      "ç®±": 2143,
      "æĿĢ": 2144,
      "å¼±": 2145,
      "ç£¨": 2146,
      "èµĦéĩĳ": 2147,
      "çİ°åľº": 2148,
      "åĽ¢éĺŁ": 2149,
      "çİī": 2150,
      "çº¸": 2151,
      "æ¸¸æĪı": 2152,
      "æ»ĳ": 2153,
      "æİĮ": 2154,
      "çĽĽ": 2155,
      "ä¼´": 2156,
      "è§¦": 2157,
      "èĪŀ": 2158,
      "åĲĹ": 2159,
      "è·Ŀ": 2160,
      "è¸": 2161,
      "åľĭ": 2162,
      "é«ĺçļĦ": 2163,
      "å®Įåħ¨": 2164,
      "å°ļ": 2165,
      "æĹ¥æľ¬": 2166,
      "çľĭåĪ°": 2167,
      "ä½ľåĵģ": 2168,
      "çĶµå½±": 2169,
      "èĤ¥": 2170,
      "åĩĿ": 2171,
      "æĺİæĺ¾": 2172,
      "çĽĺ": 2173,
      "çĶŁåĳ½": 2174,
      "ç¨ĭåº¦": 2175,
      "ç®Ģåįķ": 2176,
      "è®¡ç®Ĺ": 2177,
      "å¤§éĩı": 2178,
      "æĪĲæŀľ": 2179,
      "åħļåĳĺ": 2180,
      "ç¡®ä¿Ŀ": 2181,
      "é½Ĳ": 2182,
      "å¹ħ": 2183,
      "æ¸©åº¦": 2184,
      "ãĢĤâĢľ": 2185,
      "åħ¶å®ŀ": 2186,
      "è©": 2187,
      "çĽĳçĿ£": 2188,
      "è§ĦèĮĥ": 2189,
      "åĪĽéĢł": 2190,
      "éĩĬ": 2191,
      "åĨ¬": 2192,
      "åŃ¸": 2193,
      "å´": 2194,
      "æ»¡è¶³": 2195,
      "è¯¢": 2196,
      "çĦ¶åĲİ": 2197,
      "åĲĪçĲĨ": 2198,
      "å°į": 2199,
      "èĦļ": 2200,
      "æĳĦ": 2201,
      "å¼ĢæĶ¾": 2202,
      "ä¸įå¾Ĺ": 2203,
      "åįģåĪĨ": 2204,
      "ç¼©": 2205,
      "é¡¶": 2206,
      "ç½ĳç«Ļ": 2207,
      "çİ¯ä¿Ŀ": 2208,
      "è¯Ĺ": 2209,
      "çļĦæĥħåĨµ": 2210,
      "éĻ¤äºĨ": 2211,
      "å¸Ŀ": 2212,
      "å½Ĵ": 2213,
      "æļĸ": 2214,
      "éĽ·": 2215,
      "çļĦå·¥ä½ľ": 2216,
      "æľºåĪ¶": 2217,
      "ç»Ĩèĥŀ": 2218,
      "éĺ»": 2219,
      "èģĶåĲĪ": 2220,
      "åħµ": 2221,
      "èĩªèº«": 2222,
      "æī§è¡Į": 2223,
      "éģİ": 2224,
      "äººç±»": 2225,
      "çĻ¼": 2226,
      "åĩºäºĨ": 2227,
      "å¸ģ": 2228,
      "åĪĨåĪ«": 2229,
      "èī¯å¥½çļĦ": 2230,
      "è°ĥæķ´": 2231,
      "éĽĦ": 2232,
      "åĿı": 2233,
      "60": 2234,
      "å¥³æĢ§": 2235,
      "åĳ¼": 2236,
      "åĮĸçļĦ": 2237,
      "2020": 2238,
      "åĭĩ": 2239,
      "å³°": 2240,
      "çļĦè¯Ŀ": 2241,
      "åĢĳ": 2242,
      "åŁºåľ°": 2243,
      "è¡ĮåĬ¨": 2244,
      "å®īè£ħ": 2245,
      "è´¡": 2246,
      "å·¦åı³": 2247,
      "åĸľæ¬¢": 2248,
      "è´¯å½»": 2249,
      "éĢĶ": 2250,
      "å²Ĺ": 2251,
      "ä¹³": 2252,
      "ç¼ĵ": 2253,
      "é¼ĵ": 2254,
      "çīĻ": 2255,
      "è¡¨éĿ¢": 2256,
      "è¿Ĳè¡Į": 2257,
      "æ¯Ķå¦Ĥ": 2258,
      "éĩįè¦ģçļĦ": 2259,
      "è®¨": 2260,
      "åħ³æ³¨": 2261,
      "æĮĳ": 2262,
      "æĿ¨": 2263,
      "åģı": 2264,
      "çĬ¶æĢģ": 2265,
      "çļĦæĸ°": 2266,
      "ç»¿èī²": 2267,
      "äº¤æĺĵ": 2268,
      "æīĵéĢł": 2269,
      "å¦Ī": 2270,
      "--": 2271,
      "èªī": 2272,
      "å¡Ķ": 2273,
      "å²Ľ": 2274,
      "ç©ºæ°Ķ": 2275,
      "èĢĥèĻĳ": 2276,
      "è¿ĻéĩĮ": 2277,
      "ç»Łä¸Ģ": 2278,
      "ç¬ĳ": 2279,
      "åı«": 2280,
      "æľºåħ³": 2281,
      "æĺ¯ä¸Ģä¸ª": 2282,
      "ä¸»ä»»": 2283,
      "éĽª": 2284,
      "åĢĴ": 2285,
      "åįĪ": 2286,
      "è¯į": 2287,
      "èĻļ": 2288,
      "åĮĸåŃ¦": 2289,
      "æ¯ķä¸ļ": 2290,
      "ä½ĵçļĦ": 2291,
      "åħ¬åħ±": 2292,
      "æ³¡": 2293,
      "ä¸¥æł¼": 2294,
      "æ¦Ĥ": 2295,
      "èį¯çī©": 2296,
      "æħ§": 2297,
      "ç¬¦åĲĪ": 2298,
      "ç»ıå¸¸": 2299,
      "çļĦéĹ®é¢ĺ": 2300,
      "å°¤åħ¶": 2301,
      "èĢģå¸Ī": 2302,
      "è¯¯": 2303,
      "å§Ķåĳĺä¼ļ": 2304,
      "çĥ§": 2305,
      "å¸¦æĿ¥": 2306,
      "éĥ½æľī": 2307,
      "çģ¯": 2308,
      "æ±ĩ": 2309,
      "ç½²": 2310,
      "ä¹Łä¸į": 2311,
      "24": 2312,
      "æĸĩæĺİ": 2313,
      "çłģ": 2314,
      "è¶ĬæĿ¥": 2315,
      "æŃ¤å¤ĸ": 2316,
      "è¡Ĺ": 2317,
      "ç§ĳçłĶ": 2318,
      "ä»Ĭå¤©": 2319,
      "è¶ĬæĿ¥è¶Ĭ": 2320,
      "å¾ª": 2321,
      "ä¿ĿéĻ©": 2322,
      "æĸĳ": 2323,
      "æ´ĭ": 2324,
      "åĬłå¿«": 2325,
      "çģ¾": 2326,
      "åĲ§": 2327,
      "æĦŁæŁĵ": 2328,
      "åģļåĪ°": 2329,
      "ç¬Ķ": 2330,
      "çĻĮ": 2331,
      "å±ŀäºİ": 2332,
      "åŁºéĩĳ": 2333,
      "æĿŁ": 2334,
      "ä¸įåĲĮçļĦ": 2335,
      "ç»ĦæĪĲ": 2336,
      "æĮ¯": 2337,
      "å°¿": 2338,
      "æģ¶": 2339,
      "å°ıæĹ¶": 2340,
      "æĻ®éĢļ": 2341,
      "æķ°åŃĹ": 2342,
      "åĪ¶ä½ľ": 2343,
      "éĩĳå±ŀ": 2344,
      "ä¸ĭéĻį": 2345,
      "è®¢": 2346,
      "ç½ļ": 2347,
      "æ²ī": 2348,
      "èĪĩ": 2349,
      "åĿĲ": 2350,
      "åı¥è¯Ŀ": 2351,
      "äºĴèģĶç½ĳ": 2352,
      "æķı": 2353,
      "2021": 2354,
      "åľĨ": 2355,
      "æĭį": 2356,
      "æŃ£åľ¨": 2357,
      "æ³¨åĨĮ": 2358,
      "çĶŁçļĦ": 2359,
      "æ³°": 2360,
      "å¢Ļ": 2361,
      "åıªæĺ¯": 2362,
      "199": 2363,
      "æ½®": 2364,
      "è¶£": 2365,
      "é¦ĸåħĪ": 2366,
      "éĿĴå¹´": 2367,
      "åĳĪ": 2368,
      "ç§ģ": 2369,
      "è°ĥæŁ¥": 2370,
      "ç§ĭ": 2371,
      "äºĶè¡Į": 2372,
      "æĿ¥çľĭ": 2373,
      "æľīäºĽ": 2374,
      "è¾Ĩ": 2375,
      "å¡ŀ": 2376,
      "èĲ¥åħ»": 2377,
      "æ®Ĭ": 2378,
      "è¿Ĳè¾ĵ": 2379,
      "ç¹ģ": 2380,
      "åĦ¿ç«¥": 2381,
      "æķĪçİĩ": 2382,
      "çº·": 2383,
      "ä¸ºä¸»": 2384,
      "è´¡çĮ®": 2385,
      "éĻĨ": 2386,
      "å«": 2387,
      "æ°§åĮĸ": 2388,
      "è®¤çľŁ": 2389,
      "æľ«": 2390,
      "æĪĲç»©": 2391,
      "åİŁåĪĻ": 2392,
      "çĽ®çļĦ": 2393,
      "æ£®": 2394,
      "æ¥Ń": 2395,
      "åĨ°": 2396,
      "è±Ĩ": 2397,
      "å®½": 2398,
      "æĹ¶æľŁ": 2399,
      "çĪĨ": 2400,
      "ä¹ĭåīį": 2401,
      "æľºä¼ļ": 2402,
      "èĥĥ": 2403,
      "åªĴä½ĵ": 2404,
      "æ´¥": 2405,
      "åĵĪ": 2406,
      "å¾Ħ": 2407,
      "è´´": 2408,
      "åħļå§Ķ": 2409,
      "è¡¡": 2410,
      "çİ»": 2411,
      "åĨľæĿĳ": 2412,
      "æĶ¹åıĺ": 2413,
      "è®¤è¯Ĩ": 2414,
      "æļ´": 2415,
      "æľĢç»Ī": 2416,
      "çľŁæŃ£": 2417,
      "éĴĪå¯¹": 2418,
      "æĦıè§ģ": 2419,
      "æĸ°æĹ¶ä»£": 2420,
      "åŃ¦ç§ĳ": 2421,
      "åŃĶ": 2422,
      "çħ¤": 2423,
      "é¢ľ": 2424,
      "æ¢ħ": 2425,
      "æĺł": 2426,
      "ç¡®å®ļ": 2427,
      "2019": 2428,
      "åĬŀåħ¬": 2429,
      "æ¾³": 2430,
      "éĩİ": 2431,
      "ä¹Ļ": 2432,
      "80": 2433,
      "åı¦å¤ĸ": 2434,
      "è¼": 2435,
      "åĪĳ": 2436,
      "å¯¿": 2437,
      "æķħäºĭ": 2438,
      "an": 2439,
      "__": 2440,
      "çĿ¡": 2441,
      "åįµ": 2442,
      "çĦ¦": 2443,
      "åĪ¶å®ļ": 2444,
      "çº¯": 2445,
      "åĶĲ": 2446,
      "ä¼į": 2447,
      "æķ´ä¸ª": 2448,
      "ç¥ĸ": 2449,
      "ç§ĺ": 2450,
      "è·¨": 2451,
      "éļĲ": 2452,
      "çĴĥ": 2453,
      "éĢŁåº¦": 2454,
      "å°±ä¸ļ": 2455,
      "æĥł": 2456,
      "ä¹Łä¼ļ": 2457,
      "æķ´ä½ĵ": 2458,
      "æµĵ": 2459,
      "æĭĵ": 2460,
      "è¯¾ç¨ĭ": 2461,
      "å¹¿å¤§": 2462,
      "ä¸Ģä¸ĭ": 2463,
      "åĬĽçļĦ": 2464,
      "23": 2465,
      "äºĮåįģ": 2466,
      "çĽĲ": 2467,
      "éŁ©": 2468,
      "èĢĹ": 2469,
      "é¾Ħ": 2470,
      "èĪ¹": 2471,
      "éĿ¢å¯¹": 2472,
      "å¯»": 2473,
      "åıªè¦ģ": 2474,
      "æ¢ģ": 2475,
      "ç§Ł": 2476,
      "æĢķ": 2477,
      "éĽĨä¸Ń": 2478,
      "åĢį": 2479,
      "æĶ¹åĸĦ": 2480,
      "åĸĿ": 2481,
      "å¹ķ": 2482,
      "ä»İäºĭ": 2483,
      "æ³¥": 2484,
      "èµĦäº§": 2485,
      "æĸ¼": 2486,
      "ä¼°": 2487,
      "ç¶ĵ": 2488,
      "åįıä¼ļ": 2489,
      "2018": 2490,
      "æ¶Īè´¹èĢħ": 2491,
      "æĸ¹ä¾¿": 2492,
      "åı¬": 2493,
      "æ²»çĲĨ": 2494,
      "åĩºçļĦ": 2495,
      "æī¶": 2496,
      "éº»": 2497,
      "å¯Ĵ": 2498,
      "åĲİçļĦ": 2499,
      "ä¾§": 2500,
      "åķĨä¸ļ": 2501,
      "å¹¶ä¸į": 2502,
      "ç¯ĩ": 2503,
      "çī©æµģ": 2504,
      "åĪĽä¸ļ": 2505,
      "æľīä¸Ģ": 2506,
      "çī¢": 2507,
      "ä¾Ŀæ³ķ": 2508,
      "åħ±äº§": 2509,
      "åįĸ": 2510,
      "çİ»çĴĥ": 2511,
      "21": 2512,
      "ç»ķ": 2513,
      "èĢĥè¯ķ": 2514,
      "éĵĿ": 2515,
      "æĬĺ": 2516,
      "é¦Ļæ¸¯": 2517,
      "åĭķ": 2518,
      "å¦ĤæŃ¤": 2519,
      "è¿Ļæł·çļĦ": 2520,
      "å¾Į": 2521,
      "éĢĤåĲĪ": 2522,
      "æł¹æľ¬": 2523,
      "ä¹±": 2524,
      "å°Ĭ": 2525,
      "èĳ£": 2526,
      "åĽ°éļ¾": 2527,
      "å¥¶": 2528,
      "èĤ¿": 2529,
      "æĹĹ": 2530,
      "æİī": 2531,
      "å¤ļçļĦ": 2532,
      "âĢĿãĢģâĢľ": 2533,
      "çı¾": 2534,
      "å±ĭ": 2535,
      "åħ¨éĥ¨": 2536,
      "èĢ³": 2537,
      "è¿ĩåİ»": 2538,
      "éģĵè·¯": 2539,
      "éĩįè§Ĩ": 2540,
      "ä¿Ħ": 2541,
      "æģ¢": 2542,
      "å·¥ä½ľçļĦ": 2543,
      "åıįåºĶ": 2544,
      "çĶµè§Ĩ": 2545,
      "ä¼Ĭ": 2546,
      "2022": 2547,
      "æº¶": 2548,
      "å½ĵæĹ¶": 2549,
      "å¼ºè°ĥ": 2550,
      "éģį": 2551,
      "èµ¢": 2552,
      "åľĪ": 2553,
      "å¤ļç§į": 2554,
      "æ¥ļ": 2555,
      "æĥ¯": 2556,
      "ä¸įå°ĳ": 2557,
      "äº¡": 2558,
      "ç¾İåħĥ": 2559,
      "å½ĵåľ°": 2560,
      "æĹ§": 2561,
      "22": 2562,
      "åĬŀæ³ķ": 2563,
      "æĬĢèĥ½": 2564,
      "ä¸Ģå®ļè¦ģ": 2565,
      "éĹŃ": 2566,
      "è¿ĲèĲ¥": 2567,
      "ãĢģãĢĬ": 2568,
      "æĹ¥å¸¸": 2569,
      "åĲ¨": 2570,
      "æ²Ł": 2571,
      "éĺµ": 2572,
      "èĴĻ": 2573,
      "èĥİ": 2574,
      "å§ĭç»Ī": 2575,
      "éĿ©åĳ½": 2576,
      "æĿ¥èĩª": 2577,
      "ä¸ªæľĪ": 2578,
      "æĦŁè§ī": 2579,
      "è·ĳ": 2580,
      "æŃ£ç¡®": 2581,
      "èĤĿ": 2582,
      "è¯º": 2583,
      "çī¹æ®Ĭ": 2584,
      "æ¡£": 2585,
      "é«ĺè´¨éĩı": 2586,
      "çĲĨè§£": 2587,
      "è´¹çĶ¨": 2588,
      "æģ©": 2589,
      "æµª": 2590,
      "èĤº": 2591,
      "çĲĥéĺŁ": 2592,
      "éĥ½ä¼ļ": 2593,
      "çĽ¸å¯¹": 2594,
      "èĤł": 2595,
      "æ²¿": 2596,
      "è¿·": 2597,
      "ä¸Ģå®ļçļĦ": 2598,
      "è¦Ĩ": 2599,
      "éĩĩåıĸ": 2600,
      "éĢļå¸¸": 2601,
      "éī": 2602,
      "ä¼ģä¸ļçļĦ": 2603,
      "åĩĨå¤ĩ": 2604,
      "æĻºæħ§": 2605,
      "è¯¦": 2606,
      "èĥ¡": 2607,
      "çªĹ": 2608,
      "é¸¡": 2609,
      "èĤ¯": 2610,
      "è½¯ä»¶": 2611,
      "ç²Ĵ": 2612,
      "èĲ¨": 2613,
      "èħ¹": 2614,
      "åĮħè£ħ": 2615,
      "å¼ºåĮĸ": 2616,
      "çŃ¹": 2617,
      "è¶ĭ": 2618,
      "ä¾µ": 2619,
      "åĲĦç±»": 2620,
      "æĪª": 2621,
      "±ä¹Ĳ": 2622,
      "çĽ¸ä¿¡": 2623,
      "ç¼ĺ": 2624,
      "é¥®é£Ł": 2625,
      "é«ĺåº¦": 2626,
      "å¼¹": 2627,
      "ä¸ŃåĮ»": 2628,
      "åŃĻ": 2629,
      "ç¯®": 2630,
      "æķĻæİĪ": 2631,
      "èģĶç³»": 2632,
      "70": 2633,
      "é«Ķ": 2634,
      "éľĩ": 2635,
      "å®ĥçļĦ": 2636,
      "å¿ĺ": 2637,
      "å±±ä¸ľ": 2638,
      "çĵ¦": 2639,
      "è¿ħ": 2640,
      "åĵģè´¨": 2641,
      "æģ¢å¤į": 2642,
      "éŁ³ä¹Ĳ": 2643,
      "éĨĴ": 2644,
      "æŃ¤æ¬¡": 2645,
      "çĽĳç®¡": 2646,
      "çİ°è±¡": 2647,
      "çŀ": 2648,
      "å®īæİĴ": 2649,
      "å¤§ä¼ļ": 2650,
      "ç²ĺ": 2651,
      "æ¯ıå¤©": 2652,
      "åĪ·": 2653,
      "æ³½": 2654,
      "ä¾ĽåºĶ": 2655,
      "æŃ£å¼ı": 2656,
      "é«ĺæł¡": 2657,
      "é¢Ħéĺ²": 2658,
      "èĩªçĶ±": 2659,
      "åĩºåı£": 2660,
      "éķľ": 2661,
      "ä¼ĺè´¨": 2662,
      "èŀįåĲĪ": 2663,
      "åĲĦé¡¹": 2664,
      "è§īå¾Ĺ": 2665,
      "åħ·å¤ĩ": 2666,
      "ä»ģ": 2667,
      "åĮ»çĶŁ": 2668,
      "ä¸ľè¥¿": 2669,
      "è¾ħ": 2670,
      "å¹¼": 2671,
      "åıĮæĸ¹": 2672,
      "æ¯«": 2673,
      "æ´Ľ": 2674,
      "ãĢĲ": 2675,
      "æ®ĸ": 2676,
      "èĤĮ": 2677,
      "åĪ¸": 2678,
      "ãĢĳ": 2679,
      "çİ°ä»£åĮĸ": 2680,
      "æ½ľ": 2681,
      "ç¿»": 2682,
      "28": 2683,
      "å¤§å¤ļ": 2684,
      "«çĹ": 2685,
      "éī´": 2686,
      "ä¸»é¢ĺ": 2687,
      "åħ¼": 2688,
      "åĢº": 2689,
      "åĴ¨": 2690,
      "å¥ĭæĸĹ": 2691,
      "æīĭæľ¯": 2692,
      "æı´": 2693,
      "ç«Ł": 2694,
      "èµĦæľ¬": 2695,
      "æĬķåħ¥": 2696,
      "æīİ": 2697,
      "èĵĿ": 2698,
      "åĲĮæ¯Ķ": 2699,
      "éĽħ": 2700,
      "éĶħ": 2701,
      "ä¸įè¶³": 2702,
      "èĢĮæĺ¯": 2703,
      "èªª": 2704,
      "è¯¸": 2705,
      "åĲĪåĲĮ": 2706,
      "åĲĮå¿Ĺ": 2707,
      "æ¤įçī©": 2708,
      "å°ĺ": 2709,
      "çĤ¼": 2710,
      "åĬ¨åĬĽ": 2711,
      "åĪĨä¸º": 2712,
      "çĶĺ": 2713,
      "å¹³æĸ¹": 2714,
      "ä¸ĭæĿ¥": 2715,
      "è£ģ": 2716,
      "in": 2717,
      "æ©Ł": 2718,
      "åħ¬éĩĮ": 2719,
      "æķ¬": 2720,
      "èĭĹ": 2721,
      "æĲŃ": 2722,
      "å¹¸ç¦ı": 2723,
      "èµµ": 2724,
      "åĬłåħ¥": 2725,
      "çĪ¶æ¯į": 2726,
      "åķĨåĵģ": 2727,
      "åĶ¯": 2728,
      "éĺ²æŃ¢": 2729,
      "æ·¡": 2730,
      "æĹłè®º": 2731,
      "ä¸įåĪ°": 2732,
      "é²ģ": 2733,
      "éķ·": 2734,
      "ä¸ŃåĽ½çī¹èī²": 2735,
      "ä½įäºİ": 2736,
      "æ¹¾": 2737,
      "æĽ¾ç»ı": 2738,
      "åį·": 2739,
      "äººä½ĵ": 2740,
      "åľ³": 2741,
      "åĩºæĿ¥": 2742,
      "æĳ©": 2743,
      "åĪ©çĽĬ": 2744,
      "å¹¿ä¸ľ": 2745,
      "åĨħçļĦ": 2746,
      "è°ĵ": 2747,
      "26": 2748,
      "åĲ´": 2749,
      "çº¤": 2750,
      "åĭ¤": 2751,
      "æ·±åľ³": 2752,
      "çĻ«çĹ": 2753,
      "è§Ĩé¢ĳ": 2754,
      "çĻ«çĹ«": 2755,
      "èµĦæĸĻ": 2756,
      "æ¶¨": 2757,
      "èĦī": 2758,
      "åĴ¨è¯¢": 2759,
      "ä¸´åºĬ": 2760,
      "å¿ħè¦ģ": 2761,
      "æĸ°éĹ»": 2762,
      "ä¹Į": 2763,
      "è´·": 2764,
      "æĢ§åĴĮ": 2765,
      "æł·çļĦ": 2766,
      "åĨįæ¬¡": 2767,
      "ä¹łæĥ¯": 2768,
      "èģĮå·¥": 2769,
      "ä¸ĢåĪĩ": 2770,
      "åĮ»åŃ¦": 2771,
      "æķ¢": 2772,
      "ç¤¾åĮº": 2773,
      "è°ģ": 2774,
      "éĺŁä¼į": 2775,
      "è¾Ľ": 2776,
      "å½ĵçĦ¶": 2777,
      "ä»¥åĲİ": 2778,
      "èħº": 2779,
      "æµĻ": 2780,
      "è´¸æĺĵ": 2781,
      "ç·": 2782,
      "æľīæīĢ": 2783,
      "è¯´è¿ĩ": 2784,
      "é¥Ń": 2785,
      "åĵªäºĽ": 2786,
      "ä½įç½®": 2787,
      "æīĭæľº": 2788,
      "æĢ»ä¹¦è®°": 2789,
      "è½´": 2790,
      "è¿ª": 2791,
      "çĳŀ": 2792,
      "æķ°éĩı": 2793,
      "2017": 2794,
      "çĶŁç´ł": 2795,
      "Â°": 2796,
      "çļĦå°ı": 2797,
      "ä½ĵçİ°": 2798,
      "ä¹ı": 2799,
      "çĹħæ¯Ĵ": 2800,
      "æĽ¿": 2801,
      "çŃīæĸ¹éĿ¢": 2802,
      "çĦ¶èĢĮ": 2803,
      "æī©å¤§": 2804,
      "åĵ¥": 2805,
      "ç¬¬åįģ": 2806,
      "æľĹ": 2807,
      "ä¸ģ": 2808,
      "è¯Ħä»·": 2809,
      "æĽ´å¥½": 2810,
      "æľīæľº": 2811,
      "æŀĦå»º": 2812,
      "æĤī": 2813,
      "å®ĥä»¬": 2814,
      "èĸĦ": 2815,
      "äº¦": 2816,
      "éģµ": 2817,
      "ä¸»åĬ¨": 2818,
      "ç´łè´¨": 2819,
      "çĻ£": 2820,
      "æĪĲéķ¿": 2821,
      "éĢĲæ¸Ĳ": 2822,
      "ãĢĭãĢģãĢĬ": 2823,
      "å©´": 2824,
      "äº§åĵģçļĦ": 2825,
      "ä¹ĺ": 2826,
      "ç¨ĭåºı": 2827,
      "å¢¨": 2828,
      "å®ĭ": 2829,
      "è£Ĥ": 2830,
      "å¤§åŀĭ": 2831,
      "åĩ¡": 2832,
      "å½¢è±¡": 2833,
      "ç´«": 2834,
      "èļĢ": 2835,
      "ä¿Ĺ": 2836,
      "è¿Ľè¡ĮäºĨ": 2837,
      "èµĽåŃ£": 2838,
      "ä¼Łå¤§": 2839,
      "è«": 2840,
      "åľŁåľ°": 2841,
      "è§Ī": 2842,
      "åĶ±": 2843,
      "åĪºæ¿Ģ": 2844,
      "åı¦ä¸Ģ": 2845,
      "æĽ¼": 2846,
      "çļĦä¸»è¦ģ": 2847,
      "å£®": 2848,
      "å¤ļä¸ª": 2849,
      "è¿ŀç»Ń": 2850,
      "ä¹Łåı¯ä»¥": 2851,
      "åĸ·": 2852,
      "æľĢå¤§çļĦ": 2853,
      "éĢĤåºĶ": 2854,
      "å¦»": 2855,
      "å¤º": 2856,
      "èĩªæĪĳ": 2857,
      "æ·»": 2858,
      "çļĦä½ľçĶ¨": 2859,
      "é¡¿": 2860,
      "27": 2861,
      "ä¸»å¸Ń": 2862,
      "çªģçł´": 2863,
      "èģĺ": 2864,
      "çıł": 2865,
      "èĪĴ": 2866,
      "æ®ĭ": 2867,
      "åºĦ": 2868,
      "æĬµ": 2869,
      "æ¶µ": 2870,
      "ä¼ĺåĮĸ": 2871,
      "è°·": 2872,
      "åĲĮåŃ¦": 2873,
      "æľĢå¤§": 2874,
      "ç¬¬åĽĽ": 2875,
      "å¼ĥ": 2876,
      "å¾Ģå¾Ģ": 2877,
      "ç»ª": 2878,
      "çĺ¤": 2879,
      "æĥ³è¦ģ": 2880,
      "åľ£": 2881,
      "æĬ½": 2882,
      "çīĽçļ®": 2883,
      "æ¯ıä¸ª": 2884,
      "æĥĬ": 2885,
      "æĭŁ": 2886,
      "å¼ºåº¦": 2887,
      "çļĦå½±åĵį": 2888,
      "åįĩçº§": 2889,
      "å¼Ł": 2890,
      "èµĦæł¼": 2891,
      "å¤Ħäºİ": 2892,
      "äººåı£": 2893,
      "æ°ı": 2894,
      "500": 2895,
      "æģĴ": 2896,
      "å¤įæĿĤ": 2897,
      "åİĤå®¶": 2898,
      "æī¿æĭħ": 2899,
      "ç¤ºèĮĥ": 2900,
      "å¼ķå¯¼": 2901,
      "èĦı": 2902,
      "æĹ¦": 2903,
      "éĥĳ": 2904,
      "ä¸ĸçºª": 2905,
      "éĸĵ": 2906,
      "è¿¹": 2907,
      "æĬ¥éģĵ": 2908,
      "èĽĭçĻ½": 2909,
      "ä»įçĦ¶": 2910,
      "çĹħæĥħ": 2911,
      "ä¸ĭçļĦ": 2912,
      "ä¾ĭå¦Ĥ": 2913,
      "è¯´æĺİ": 2914,
      "ç¥Ŀ": 2915,
      "ç»Łè®¡": 2916,
      "æµ®": 2917,
      "å¡ĳæĸĻ": 2918,
      "æİĮæı¡": 2919,
      "è¿Ļåı¥è¯Ŀ": 2920,
      "ä½ĵéªĮ": 2921,
      "èİ«": 2922,
      "ä¸ºä»Ģä¹Ī": 2923,
      "åĳĬè¯ī": 2924,
      "ä»ĸä»¬çļĦ": 2925,
      "å¹¿å·ŀ": 2926,
      "èĬĤèĥ½": 2927,
      "æľīäºĨ": 2928,
      "ä¼Ļ": 2929,
      "åĿļå®ļ": 2930,
      "æľ±": 2931,
      "æ§": 2932,
      "å®ŀåĬĽ": 2933,
      "çªģåĩº": 2934,
      "æ·±åĪ»": 2935,
      "æĿ°": 2936,
      "è¿ĺè¦ģ": 2937,
      "é©¾": 2938,
      "åı¯èĥ½ä¼ļ": 2939,
      "éĤ£äºĽ": 2940,
      "éĵľ": 2941,
      "åħįçĸ«": 2942,
      "æĺ¯ä»Ģä¹Ī": 2943,
      "æ¶īåıĬ": 2944,
      "æľīäºº": 2945,
      "è´Ńä¹°": 2946,
      "çĲĨæĥ³": 2947,
      "æ¼«": 2948,
      "åĮĸå·¥": 2949,
      "åĩŃ": 2950,
      "ä¼¦": 2951,
      "å®ĩ": 2952,
      "å£ģ": 2953,
      "å¹´åº¦": 2954,
      "åģ¿": 2955,
      "å±ķç¤º": 2956,
      "çĬ¯ç½ª": 2957,
      "åĪĢ": 2958,
      "çĶ¨çļĦ": 2959,
      "å§ĵ": 2960,
      "æĪĲåĳĺ": 2961,
      "å¯¦": 2962,
      "èĦ¸": 2963,
      "åĨħéĥ¨": 2964,
      "çķ¶": 2965,
      "å±ħæ°ĳ": 2966,
      "åıªèĥ½": 2967,
      "åĪ©äºİ": 2968,
      "90": 2969,
      "è®¯": 2970,
      "çĮª": 2971,
      "å±¥": 2972,
      "çļĦäº§åĵģ": 2973,
      "å¸¸è§ģ": 2974,
      "çĽ¸æ¯Ķ": 2975,
      "éĢ²": 2976,
      "å»ī": 2977,
      "ä¸ŃåĽ½çī¹èī²ç¤¾ä¼ļä¸»ä¹ī": 2978,
      "çīĽçļ®çĻ£": 2979,
      "è¯ģæĺİ": 2980,
      "åįıè°ĥ": 2981,
      "æĪĲäºĨ": 2982,
      "éĶĭ": 2983,
      "éĹľ": 2984,
      "æĮĳæĪĺ": 2985,
      "æľ¬æ¬¡": 2986,
      "çī¹åĪ«æĺ¯": 2987,
      "çĦ¡": 2988,
      "éĩıçļĦ": 2989,
      "æľĢé«ĺ": 2990,
      "ä¸Ģä½ĵ": 2991,
      "æ±¤": 2992,
      "åİ»å¹´": 2993,
      "è´¢æĶ¿": 2994,
      "åħ¬å¼Ģ": 2995,
      "ä¸Ĭå¸Ĥ": 2996,
      "è°ĭ": 2997,
      "ä¸¹": 2998,
      "å¿ł": 2999,
      "åĲ«æľī": 3000,
      "æ³ī": 3001,
      "æĸĩä»¶": 3002,
      "é¢ĨåħĪ": 3003,
      "é«ĺéĢŁ": 3004,
      "å¾Ĳ": 3005,
      "çģ°": 3006,
      "å¹´è½»": 3007,
      "æĻ¶": 3008,
      "ç§°ä¸º": 3009,
      "èĻ«": 3010,
      "åħ§": 3011,
      "èĴ¸": 3012,
      "ä¸īä¸ª": 3013,
      "å·§": 3014,
      "èħĶ": 3015,
      "åĬ¨çī©": 3016,
      "æ»¤": 3017,
      "å®¶éķ¿": 3018,
      "çıį": 3019,
      "æľºåĻ¨": 3020,
      "éģŃ": 3021,
      "èĩªä¸»": 3022,
      "35": 3023,
      "æľīçĿĢ": 3024,
      "åħĪçĶŁ": 3025,
      "çİ°å®ŀ": 3026,
      "éĥ¨ç½²": 3027,
      "è¿½æ±Ĥ": 3028,
      "æµĻæ±Ł": 3029,
      "ç¾Ĭ": 3030,
      "è»": 3031,
      "è´Łè´£äºº": 3032,
      "äºĭä»¶": 3033,
      "æ°¨": 3034,
      "ç¢į": 3035,
      "éĸĭ": 3036,
      "åĽ½åĬ¡": 3037,
      "æİ¥è§¦": 3038,
      "çģŃ": 3039,
      "è¿ĽæŃ¥": 3040,
      "å±ı": 3041,
      "ä¸Ģå¹´": 3042,
      "èī¯å¥½": 3043,
      "å½ĵåīį": 3044,
      ")(": 3045,
      "æİ¢ç´¢": 3046,
      "çŃīçŃī": 3047,
      "æĮĤ": 3048,
      "å¾ªçİ¯": 3049,
      "æĢĿèĢĥ": 3050,
      "æĪ´": 3051,
      "åľ°ä½į": 3052,
      "æĶ¯ä»ĺ": 3053,
      "çĩ¥": 3054,
      "åĪĨåŃĲ": 3055,
      "ä¸¾åĬŀ": 3056,
      "å²Ĺä½į": 3057,
      "éĽ»": 3058,
      "æİ¨å¹¿": 3059,
      "èĳ£äºĭ": 3060,
      "è§Ĵåº¦": 3061,
      "ç£ģ": 3062,
      "å¼ºçļĦ": 3063,
      "2016": 3064,
      "è¿ħéĢŁ": 3065,
      "æĭľ": 3066,
      "å¦Ĥä»Ĭ": 3067,
      "ç¨®": 3068,
      "å±ĳ": 3069,
      "æ·±åĮĸ": 3070,
      "çĶµæ±ł": 3071,
      "æ¬²": 3072,
      "æĬĳ": 3073,
      "ä½¿åĳ½": 3074,
      "åĺī": 3075,
      "çĶŁæ´»ä¸Ń": 3076,
      "ç±»åŀĭ": 3077,
      "èĤ¡ä»½": 3078,
      "æ¯ıå¹´": 3079,
      "èį·": 3080,
      "æĩī": 3081,
      "ä¼łæĴŃ": 3082,
      "åĩºçĶŁ": 3083,
      "çļĦåŁºç¡Ģ": 3084,
      "å¹³åĿĩ": 3085,
      "æĢ»ç»ĵ": 3086,
      "ç»ıåİĨ": 3087,
      "æĹº": 3088,
      "æĺĮ": 3089,
      "çĲĥåĳĺ": 3090,
      "ç»ıçĲĨ": 3091,
      "åħ±äº§åħļ": 3092,
      "çļĦæĹ¶éĹ´": 3093,
      "è¿ĲçĶ¨": 3094,
      "åıĬåħ¶": 3095,
      "èĤ¾": 3096,
      "æ³ķéĻ¢": 3097,
      "æĴĳ": 3098,
      "å¤§åĬĽ": 3099,
      "29": 3100,
      "è¯ķéªĮ": 3101,
      "åħ¨ä½ĵ": 3102,
      "ä¸¾è¡Į": 3103,
      "è´Ŀ": 3104,
      "å°¤åħ¶æĺ¯": 3105,
      "ç»ĵæĿŁ": 3106,
      "å²¸": 3107,
      "æ²³åįĹ": 3108,
      "åĨłåĨĽ": 3109,
      "éĻ¶": 3110,
      "çĶŁéķ¿": 3111,
      "è´¦": 3112,
      "è¯Ńè¨Ģ": 3113,
      "çļĦæ²»çĸĹ": 3114,
      "åŃ¦æľ¯": 3115,
      "éĤĦ": 3116,
      "ç²®": 3117,
      "ç»´çĶŁç´ł": 3118,
      "è®¾ç½®": 3119,
      "é»ĺ": 3120,
      "è½¨": 3121,
      "ä¹ĭéĹ´çļĦ": 3122,
      "çĭ¬ç«ĭ": 3123,
      "äººå·¥": 3124,
      "éĺħ": 3125,
      "åĽ½åĬ¡éĻ¢": 3126,
      "çĽ¸å½ĵ": 3127,
      "åĽĽå·Ŀ": 3128,
      "éĿ¢ä¸´": 3129,
      "åĲĦåľ°": 3130,
      "èĢĮè¨Ģ": 3131,
      "åĿĢ": 3132,
      "å§Ĩ": 3133,
      "æĦĪ": 3134,
      "äºĭæķħ": 3135,
      "ä¸Ńå°ı": 3136,
      "çĶ¢": 3137,
      "ä¸»ä½ĵ": 3138,
      "å°±åı¯ä»¥": 3139,
      "æĭĴ": 3140,
      "åĲ¸å¼ķ": 3141,
      "åį±å®³": 3142,
      "éĿ¢çļĦ": 3143,
      "äººå£«": 3144,
      "å¤ªéĺ³": 3145,
      "è®Ńç»ĥ": 3146,
      "çĥ¯": 3147,
      "æħİ": 3148,
      "çĽ¸åºĶ": 3149,
      "è¿Ļä¸ªéĹ®é¢ĺ": 3150,
      "è±ª": 3151,
      "æŁĶ": 3152,
      "æ¦ľ": 3153,
      "ç§¦": 3154,
      "èĢħçļĦ": 3155,
      "å®ı": 3156,
      "on": 3157,
      "åħ¬åı¸çļĦ": 3158,
      "è¿ĳå¹´æĿ¥": 3159,
      "éĩįåºĨ": 3160,
      "åį³ä½¿": 3161,
      "ä¼¯": 3162,
      "åĲĽ": 3163,
      "åĢ¼å¾Ĺ": 3164,
      "èµŀ": 3165,
      "çŁ¥åĲį": 3166,
      "åĽ´ç»ķ": 3167,
      "äºĭæĥħ": 3168,
      "æĺ¯æĮĩ": 3169,
      "æ±Łèĭı": 3170,
      "ä¿Ŀæ¸©": 3171,
      "è§Ĥä¼Ĺ": 3172,
      "é¢Ĺ": 3173,
      "æ¬§æ´²": 3174,
      "æĥħç»ª": 3175,
      "æ¡ĥ": 3176,
      "çĬ¶åĨµ": 3177,
      "éħįåĲĪ": 3178,
      "æ¬¢è¿İ": 3179,
      "å¤ļå°ĳ": 3180,
      "2015": 3181,
      "æµĭè¯ķ": 3182,
      "è·³": 3183,
      "è¾ĳ": 3184,
      "åŁºå±Ĥ": 3185,
      "è¡Ģç®¡": 3186,
      "åĲ¸æĶ¶": 3187,
      "éĢĴ": 3188,
      "ç»ĻäºĪ": 3189,
      "æĹ¨": 3190,
      "äºĭå®ŀ": 3191,
      "åķĨæłĩ": 3192,
      "ç½Ĺæĸ¯": 3193,
      "èİ±": 3194,
      "åĭĴ": 3195,
      "æĿĨ": 3196,
      "å¡«": 3197,
      "ç±į": 3198,
      "åħĥç´ł": 3199,
      "æį·": 3200,
      "å¹¿åĳĬ": 3201,
      "âĢĿâĢľ": 3202,
      "éŀ": 3203,
      "éĽķ": 3204,
      "æľºçļĦ": 3205,
      "è¿«": 3206,
      "æĩĤ": 3207,
      "æľ¬èº«": 3208,
      "è®²è¯Ŀ": 3209,
      "çļĦå¿ĥ": 3210,
      "ä»¤äºº": 3211,
      "æĬ¢": 3212,
      "å±ķå¼Ģ": 3213,
      "åĩĨç¡®": 3214,
      "èĲ¥éĶĢ": 3215,
      "æİĴåĲį": 3216,
      "æĪĲå°±": 3217,
      "èĢģå¹´": 3218,
      "éĵģè·¯": 3219,
      "è¾ī": 3220,
      "åħĪåĲİ": 3221,
      "èķ": 3222,
      "å¾Īå¤§": 3223,
      "è¶ĭåĬ¿": 3224,
      "æ³Į": 3225,
      "èģĶèµĽ": 3226,
      "çĤī": 3227,
      "æŁ±": 3228,
      "é«ĺæķĪ": 3229,
      "èĤ¯å®ļ": 3230,
      "åĿ¦": 3231,
      "çĵľ": 3232,
      "ä¸»æĮģ": 3233,
      "å¥ī": 3234,
      "æ³µ": 3235,
      "er": 3236,
      "æıı": 3237,
      "ç¥ŀç»ı": 3238,
      "198": 3239,
      "æĳĨ": 3240,
      "æŃ¦æ±ī": 3241,
      "åŃĲçļĦ": 3242,
      "çº¤ç»´": 3243,
      "æ±¡æ°´": 3244,
      "äººçĶŁ": 3245,
      "é£ŁçĶ¨": 3246,
      "å¾·åĽ½": 3247,
      "éĶĪ": 3248,
      "è¦ĨçĽĸ": 3249,
      "é¼ĵåĬ±": 3250,
      "æī¾åĪ°": 3251,
      "éħĴåºĹ": 3252,
      "éĻ·": 3253,
      "æĹĭ": 3254,
      "æ°ĳä¸»": 3255,
      "æļĹ": 3256,
      "æ´ŀ": 3257,
      "å®ŀè¡Į": 3258,
      "æīĭæ®µ": 3259,
      "å°ĳå¹´": 3260,
      ",ãĢĬ": 3261,
      "ä¸°å¯ĮçļĦ": 3262,
      "å·¥åħ·": 3263,
      "åįıè®®": 3264,
      "å¤©çĦ¶": 3265,
      "çļĦæĸ¹å¼ı": 3266,
      "åį±éĻ©": 3267,
      "è¹": 3268,
      "åŀĥ": 3269,
      "éĢļçŁ¥": 3270,
      "åľ¾": 3271,
      "èĭ±åĽ½": 3272,
      "æ¨ª": 3273,
      "çļĦä¸į": 3274,
      "çº¹": 3275,
      "èĩªæ²»": 3276,
      "çĽ¸äºĴ": 3277,
      "åįļå£«": 3278,
      "éº¦": 3279,
      "åŀĥåľ¾": 3280,
      "èĻİ": 3281,
      "æ¯ıä¸Ģ": 3282,
      "æĭĶ": 3283,
      "åħ¬è·¯": 3284,
      "æľ¬ç§ĳ": 3285,
      "åĲ«éĩı": 3286,
      "èµı": 3287,
      "å¸ĥå±Ģ": 3288,
      "çį": 3289,
      "å¹³æĸ¹ç±³": 3290,
      "åĬłå¤§": 3291,
      "åĽ¢ç»ĵ": 3292,
      "åĪ«äºº": 3293,
      "ä¹łè¿ĳå¹³æĢ»ä¹¦è®°": 3294,
      "åı¬å¼Ģ": 3295,
      "è¿Ķ": 3296,
      "è£ħå¤ĩ": 3297,
      "é¢ľèī²": 3298,
      "æĻĵ": 3299,
      "è½¦è¾Ĩ": 3300,
      "çļĦåľ°æĸ¹": 3301,
      "é©±": 3302,
      "ä¹¡æĿĳ": 3303,
      "çļĦä¼ģä¸ļ": 3304,
      "æ¯Ķä¾ĭ": 3305,
      "é©¬åħĭ": 3306,
      "é¡ºåĪ©": 3307,
      "åĪĩå®ŀ": 3308,
      "åĿĽ": 3309,
      "æ³ķè§Ħ": 3310,
      "çĽĳæµĭ": 3311,
      "ä¼ı": 3312,
      "å¯¿åĳ½": 3313,
      "é©¶": 3314,
      "å¤ļå¹´": 3315,
      "å®ŀéªĮå®¤": 3316,
      "ä¸ĢçĤ¹": 3317,
      "ç¡ķ": 3318,
      "å°ĩ": 3319,
      "æ¸ł": 3320,
      "å±ķçİ°": 3321,
      "åķĨåĬ¡": 3322,
      "æĸ°åŀĭ": 3323,
      "31": 3324,
      "çĶµåĬĽ": 3325,
      "åŃ¦ä¼ļ": 3326,
      "æĽ´æĺ¯": 3327,
      "ç§»åĬ¨": 3328,
      "çĶľ": 3329,
      "ä¸»ç®¡": 3330,
      "èįĲ": 3331,
      "çİ¯èĬĤ": 3332,
      "å®¤åĨħ": 3333,
      "æĽ´å¤ļçļĦ": 3334,
      "çĵ¶": 3335,
      "è¿Ļä¹Ī": 3336,
      "æĶ¯æĴĳ": 3337,
      "è¯¦ç»Ĩ": 3338,
      "èĳĹåĲį": 3339,
      "äººåľ¨": 3340,
      "å¿½": 3341,
      "ä¸Ĭåįĩ": 3342,
      "ä¼¸": 3343,
      "éĩįæĸ°": 3344,
      "èĶ¬": 3345,
      "æī£": 3346,
      "è½¬åŀĭ": 3347,
      "åĹ": 3348,
      "å©´åĦ¿": 3349,
      "åĵ²": 3350,
      "åıĺå¾Ĺ": 3351,
      "æĭ¼": 3352,
      "å·ŀå¸Ĥ": 3353,
      "é£İæł¼": 3354,
      "å¤§å¤§": 3355,
      "ãĢĤ(": 3356,
      "åı¯éĿł": 3357,
      "æĸ¹éĿ¢çļĦ": 3358,
      "æ¼ı": 3359,
      "æ³¨éĩį": 3360,
      "çº¢èī²": 3361,
      "è¶³çĲĥ": 3362,
      "å®¾": 3363,
      "æļĤ": 3364,
      "çķħ": 3365,
      "çļĦçĶŁæ´»": 3366,
      "å¤ļæ¬¡": 3367,
      "ä¸Ģæĺ¯": 3368,
      "èħĲèļĢ": 3369,
      "èĪªç©º": 3370,
      "å¹´é¾Ħ": 3371,
      "æĶ¾åľ¨": 3372,
      "ä¸ĭéĿ¢": 3373,
      "éļĨ": 3374,
      "å¿Ĩ": 3375,
      "è£ħé¥°": 3376,
      "ç«¹": 3377,
      "æľĢä½³": 3378,
      "ä¼¼ä¹İ": 3379,
      "çļĦåĲĮæĹ¶": 3380,
      "æıĲä¾ĽäºĨ": 3381,
      "æ²Ĵ": 3382,
      "æĶ¹éĢł": 3383,
      "æĬĬæı¡": 3384,
      "åıĳçĹħ": 3385,
      "è·Ŀç¦»": 3386,
      "èī°": 3387,
      "çĵ·": 3388,
      "æĪĳåĢĳ": 3389,
      "é«ĺçŃī": 3390,
      "æĬ¤çĲĨ": 3391,
      "è¯ģä¹¦": 3392,
      "åĪ¶åĵģ": 3393,
      "èº«ä»½": 3394,
      "æľĪä»½": 3395,
      "çľŁçļĦ": 3396,
      "åĩī": 3397,
      "éĺ²æİ§": 3398,
      "éĻĲåĪ¶": 3399,
      "éĩĮçļĦ": 3400,
      "æ´ª": 3401,
      "çĻ½æĸĳ": 3402,
      "âĢĻ": 3403,
      "æĿľ": 3404,
      "çľł": 3405,
      "åĲĦçº§": 3406,
      "çļĦè¦ģæ±Ĥ": 3407,
      "äºķ": 3408,
      "ä½ľåĩº": 3409,
      "æģĲ": 3410,
      "çĻ»è®°": 3411,
      "æŀĦæĪĲ": 3412,
      "è¿Ļæ¬¡": 3413,
      "æ¶Īæģ¯": 3414,
      "æ¶Īéĺ²": 3415,
      "æģĭ": 3416,
      "åľ¨ä¸ŃåĽ½": 3417,
      "æĺ¯ä¸į": 3418,
      "åĽĽä¸ª": 3419,
      "åĵ¡": 3420,
      "åĩłä¹İ": 3421,
      "éĻ¢æł¡": 3422,
      "èŀº": 3423,
      "ä¿Ħç½Ĺæĸ¯": 3424,
      "é¢Ī": 3425,
      "åıįæĺł": 3426,
      "çĸ¼": 3427,
      "æĪĲåĪĨ": 3428,
      "éģĵå¾·": 3429,
      "ä¸ĵåĪ©": 3430,
      "ä¸ĵä¸ļçļĦ": 3431,
      "å²©": 3432,
      "è¿ŀæİ¥": 3433,
      "çĻ¾å¹´": 3434,
      "æī¹åĩĨ": 3435,
      "æĪĲçĨŁ": 3436,
      "å»ºæĪĲ": 3437,
      "ä¹ĭå¤ĸ": 3438,
      "en": 3439,
      "çļĦå¥½": 3440,
      "è®¤è¯ģ": 3441,
      "æľĢå¥½": 3442,
      "æ²ŁéĢļ": 3443,
      "èĳ¡": 3444,
      "å§Ķä¼ļ": 3445,
      "ä¸Ĭè¿°": 3446,
      "åĿ¡": 3447,
      "ä¸Ńåįİæ°ĳæĹı": 3448,
      "æĪĲéĥ½": 3449,
      "å°º": 3450,
      "è¿ģ": 3451,
      "æ¸ħæ´ģ": 3452,
      "æĻĭ": 3453,
      "ä¼ļæľī": 3454,
      "è¯Ħä¼°": 3455,
      "è®°å½ķ": 3456,
      "æ¸ħæ¥ļ": 3457,
      "ç¸": 3458,
      "è®©äºº": 3459,
      "å¿ĥçļĦ": 3460,
      "å¼ķé¢Ĩ": 3461,
      "è¡¨è¾¾": 3462,
      "åĩºçīĪ": 3463,
      "ä¸»è¦ģæĺ¯": 3464,
      "ä»ĸäºº": 3465,
      "ä¼ļä¸Ĭ": 3466,
      "ç¢İ": 3467,
      "è°±": 3468,
      "çļĦä¸Ģç§į": 3469,
      "çĦĬ": 3470,
      "äº«åıĹ": 3471,
      "åĨ³çŃĸ": 3472,
      "éĢĲæŃ¥": 3473,
      "è¯ķç®¡": 3474,
      "çĶµåĬ¨": 3475,
      "äºİæĺ¯": 3476,
      "é©»": 3477,
      "ç¼´": 3478,
      "åľ°äº§": 3479,
      "ç¼ºä¹ı": 3480,
      "éļ¾ä»¥": 3481,
      "äººæ°ĳæĶ¿åºľ": 3482,
      "æĸĩç«ł": 3483,
      "2000": 3484,
      "åľ¨äºİ": 3485,
      "è²Į": 3486,
      "åĢ¾": 3487,
      "é¼»": 3488,
      "è¿Ŀæ³ķ": 3489,
      "âĢĺ": 3490,
      "æŃ»äº¡": 3491,
      "45": 3492,
      "çĤŃ": 3493,
      "ä¸įèī¯": 3494,
      "è¡°": 3495,
      "äºĮæĺ¯": 3496,
      "éĥ½ä¸į": 3497,
      "æ°Ľ": 3498,
      "åĲĦä¸ª": 3499,
      "çľģçº§": 3500,
      "åĽºå®ļ": 3501,
      "è·ĥ": 3502,
      "ä½¿å¾Ĺ": 3503,
      "æĢģåº¦": 3504,
      "çĭĹ": 3505,
      "èĥĨ": 3506,
      "ä¹ĥ": 3507,
      "æĢ»ä½ĵ": 3508,
      "å·¡": 3509,
      "çĪ±æĥħ": 3510,
      "éĨĩ": 3511,
      "å®¿": 3512,
      "è°Ĳ": 3513,
      "å°¾": 3514,
      "å¼ķåıĳ": 3515,
      "å¤§åĪ©": 3516,
      "æĮĩæłĩ": 3517,
      "åİŁæĸĻ": 3518,
      "çī¹å¾ģ": 3519,
      "åĨĴ": 3520,
      "çŁ³æ²¹": 3521,
      "æĤ£èĢħçļĦ": 3522,
      "ä¸ĢæĹ¦": 3523,
      "è£ħç½®": 3524,
      "èµĸ": 3525,
      "é»ŀ": 3526,
      "36": 3527,
      "çī©çļĦ": 3528,
      "ä¾Ŀæį®": 3529,
      "è®¡ç®Ĺæľº": 3530,
      "éģĩåĪ°": 3531,
      "çĸĨ": 3532,
      "å§Ĳ": 3533,
      "éĹ²": 3534,
      "è¾£": 3535,
      "çļĦäºĭæĥħ": 3536,
      "æĨ": 3537,
      "å¾½": 3538,
      "åĪĨæ³Į": 3539,
      "åı¯æĺ¯": 3540,
      "å¤©æ´¥": 3541,
      "ä¸Ģä¸ªäºº": 3542,
      "çĪ¸": 3543,
      "æĦıåĳ³": 3544,
      "é«ĺçº§": 3545,
      "å¤§å¤ļæķ°": 3546,
      "å¹²çĩ¥": 3547,
      "æĦŁåĪ°": 3548,
      "åĨľæ°ĳ": 3549,
      "åĪĽä½ľ": 3550,
      "åĬ²": 3551,
      "ä¸ŃåĽ½åħ±äº§åħļ": 3552,
      "æ°£": 3553,
      "åŃĲå®«": 3554,
      "èĪį": 3555,
      "åħ¬å¸ĥ": 3556,
      "çĭ¬çī¹": 3557,
      "é©¬åħĭæĢĿ": 3558,
      "ãĢĭãĢĤ": 3559,
      "åĪ©æ¶¦": 3560,
      "çļĦåİŁåĽł": 3561,
      "å¤§éĥ¨åĪĨ": 3562,
      "æķĪçĽĬ": 3563,
      "å¹´ä»£": 3564,
      "åĬŀçĲĨ": 3565,
      "åĪĬ": 3566,
      "å¨±ä¹Ĳ": 3567,
      "è®¾ç«ĭ": 3568,
      "åł´": 3569,
      "åº¦çļĦ": 3570,
      "ç¡ħ": 3571,
      "åħ¬å®ī": 3572,
      "åįģäºĮ": 3573,
      "è´¢åĬ¡": 3574,
      "æ»´": 3575,
      "æĬ±": 3576,
      "åĳ¼åĲ¸": 3577,
      "æĦŁæĥħ": 3578,
      "åĩłä¸ª": 3579,
      "è¡¨æĺİ": 3580,
      "èĥĮæĻ¯": 3581,
      "æ¶ĤæĸĻ": 3582,
      "åĵģç§į": 3583,
      "300": 3584,
      "èµ¶": 3585,
      "åıĳçĶµ": 3586,
      "åĭĻ": 3587,
      "åħ±äº«": 3588,
      "åĲĪæł¼": 3589,
      "æłı": 3590,
      "è¿Ľåı£": 3591,
      "åģļåĩº": 3592,
      "çłĤ": 3593,
      "çĹħäºº": 3594,
      "å¾Ĵ": 3595,
      "æ¡Īä»¶": 3596,
      "åĲİæĿ¥": 3597,
      "æľŁçļĦ": 3598,
      "åįģä¹Ŀ": 3599,
      "ç»ĺ": 3600,
      "èĲĦ": 3601,
      "ä¸ĸçķĮæĿ¯": 3602,
      "åĨ³èµĽ": 3603,
      "åľºæīĢ": 3604,
      "å°½ç®¡": 3605,
      "ä»ĵ": 3606,
      "æ¸ħæ´Ĺ": 3607,
      "ä¹Łå°±æĺ¯": 3608,
      "æ¼Ĩ": 3609,
      "æ¹ĸåįĹ": 3610,
      "æµģç¨ĭ": 3611,
      "åŃ¦çĶŁçļĦ": 3612,
      "åĲ¯åĬ¨": 3613,
      "ä¸ĩäºº": 3614,
      "çĻ¾åĪĨ": 3615,
      "çłĸ": 3616,
      "éĵ¸": 3617,
      "ä¸Ģæµģ": 3618,
      "ä¸Ģå®¶": 3619,
      "å¾Īå¤ļäºº": 3620,
      "çļĦæ°´": 3621,
      "è¯±": 3622,
      "å¥¹çļĦ": 3623,
      "åĲĮæł·": 3624,
      "ç®¡éģĵ": 3625,
      "å¯¹æĸ¹": 3626,
      "åħ«åŃĹ": 3627,
      "åĽ½æľī": 3628,
      "åĬĽåº¦": 3629,
      "èĤĥ": 3630,
      "å¯¹å¤ĸ": 3631,
      "ä¼¤å®³": 3632,
      "æĺ¾èĳĹ": 3633,
      "åħħæ»¡": 3634,
      "2014": 3635,
      "å°ıç»Ħ": 3636,
      "è½¬åĮĸ": 3637,
      "è¯ģåĪ¸": 3638,
      "æīĢè°ĵ": 3639,
      "èĥ¸": 3640,
      "è¦ģæ³¨æĦı": 3641,
      "éĤĢ": 3642,
      "è§Ĥå¯Ł": 3643,
      "ä»ªåĻ¨": 3644,
      "å°ĸ": 3645,
      "æ³Ħ": 3646,
      "éĢĤå½ĵ": 3647,
      "åıĳè¡¨": 3648,
      "ä¿¡å¿ĥ": 3649,
      "å¿Ļ": 3650,
      "èĳ¡èĲĦ": 3651,
      "æīĢåľ¨": 3652,
      "å°½éĩı": 3653,
      "æĸ°æĬĢæľ¯": 3654,
      "æİ¨èįĲ": 3655,
      "åģ¶": 3656,
      "å¿§": 3657,
      "åŁ¹èĤ²": 3658,
      "éĢĨ": 3659,
      "è®ĵ": 3660,
      "çļĦæĸ¹æ³ķ": 3661,
      "çľŁå®ŀ": 3662,
      "éĶ»": 3663,
      "è³ĩ": 3664,
      "è°ĥèĬĤ": 3665,
      "åįĵ": 3666,
      "çĽ¾": 3667,
      "è¨Ń": 3668,
      "çĽ¸åĲĮ": 3669,
      "æİĴæĶ¾": 3670,
      "ç¢±": 3671,
      "çļĦä¸Ģä¸ª": 3672,
      "åºĶæĢ¥": 3673,
      "è§Ĵèī²": 3674,
      "è¢ĭ": 3675,
      "å®Įæķ´": 3676,
      "ä»¿": 3677,
      "éħ¯": 3678,
      "æįŁå¤±": 3679,
      "é«ĺæ¸©": 3680,
      "?âĢĿ": 3681,
      "å½¢åĬ¿": 3682,
      "å¹³è¡¡": 3683,
      "åĬŀåħ¬å®¤": 3684,
      "æµĭéĩı": 3685,
      "æĽ´å¥½çļĦ": 3686,
      "å¾Īå¤§çļĦ": 3687,
      "åĴĮåĽ½": 3688,
      "ä½łä»¬": 3689,
      "èĶ¬èıľ": 3690,
      "èħ¾": 3691,
      "æ¢¦è§ģ": 3692,
      "æĶ¯éĥ¨": 3693,
      "é¦ĸæ¬¡": 3694,
      "çĥ¦": 3695,
      "èģĮè´£": 3696,
      "æ´»æĢ§": 3697,
      "åŃ¦ä½į": 3698,
      "å£¤": 3699,
      "æĸ°åĨł": 3700,
      "åĽĬ": 3701,
      "éħįå¥Ĺ": 3702,
      "çļĦæĬĢæľ¯": 3703,
      "ä»£çĲĨ": 3704,
      "æĵ¦": 3705,
      "è·Į": 3706,
      "æĲº": 3707,
      "ä½©": 3708,
      "å¿ĹæĦ¿": 3709,
      "ç»´ä¿®": 3710,
      "éĤ®": 3711,
      "æł¡åĽŃ": 3712,
      "å±Ĥæ¬¡": 3713,
      "ç¥¥": 3714,
      "æķĮ": 3715,
      "éĻķ": 3716,
      "å°±èĥ½": 3717,
      "æĸĩåŃ¦": 3718,
      "æłĩå¿Ĺ": 3719,
      "ç¡«": 3720,
      "éĽĨä½ĵ": 3721,
      "æĻ¨": 3722,
      "èĩ´åĬĽ": 3723,
      "ä¿¡çĶ¨": 3724,
      "äºĨä¸Ģä¸ª": 3725,
      "è¡¥åħħ": 3726,
      "çŃīå¥ĸ": 3727,
      "åĶ¯ä¸Ģ": 3728,
      "èĿ": 3729,
      "æŃ£æĺ¯": 3730,
      "ä»Ļ": 3731,
      "ä¸Ģè·¯": 3732,
      "æıĲåĪ°": 3733,
      "ä½ĵåĪ¶": 3734,
      "éĶģ": 3735,
      "è§Ħå¾ĭ": 3736,
      "å¦Ĥæŀľä½ł": 3737,
      "æ¸Ĺ": 3738,
      "åľ¨ä¸Ģèµ·": 3739,
      "èĥľåĪ©": 3740,
      "çļĦçĥŃ": 3741,
      "éĥģ": 3742,
      "åĿļåĨ³": 3743,
      "æī°": 3744,
      "ä¸īå¹´": 3745,
      "å¸¦çĿĢ": 3746,
      "è¯ĬæĸŃ": 3747,
      "å¾Īå¥½çļĦ": 3748,
      "å®ħ": 3749,
      "æ¸łéģĵ": 3750,
      "åıĳä½ľ": 3751,
      "ç¾İä¸½": 3752,
      "åĬŀåŃ¦": 3753,
      "è´·æ¬¾": 3754,
      "æª": 3755,
      "æĢĿç»´": 3756,
      "å½¼": 3757,
      "éĵº": 3758,
      "å¿Į": 3759,
      "å¾ŀ": 3760,
      "æĦŁåıĹ": 3761,
      "æĹ¶çļĦ": 3762,
      "åįĢ": 3763,
      "åħ¬åĽŃ": 3764,
      "æĤ²": 3765,
      "èµ·åĪ°": 3766,
      "æ°Ķä½ĵ": 3767,
      "çļĦåīį": 3768,
      "ä½ľä¸ļ": 3769,
      "åľ¨çº¿": 3770,
      "åį³åı¯": 3771,
      "å®ĺæĸ¹": 3772,
      "å¿«ä¹Ĳ": 3773,
      "çłĶç©¶çĶŁ": 3774,
      "åĳĪçİ°": 3775,
      "èı²": 3776,
      "åįĹäº¬": 3777,
      "æ²³åĮĹ": 3778,
      "æ¨£": 3779,
      "æ±Ĺ": 3780,
      "ä¹Łèĥ½": 3781,
      "åĲĪéĩĳ": 3782,
      "å¯¹è±¡": 3783,
      "åĪ¶éĢłä¸ļ": 3784,
      "è®¨è®º": 3785,
      "æĢ»æĺ¯": 3786,
      "åħļä¸Ńå¤®": 3787,
      "æĻ®éģį": 3788,
      "ä¾ĿçĦ¶": 3789,
      "å´ĩ": 3790,
      "å®Ŀå®Ŀ": 3791,
      "åħ¨çľģ": 3792,
      "é¢Ħè®¡": 3793,
      "ä¸¦": 3794,
      "éĶ¦": 3795,
      "éĵ¶å±ĳ": 3796,
      "ä¸ĵéĹ¨": 3797,
      "è³ª": 3798,
      "æľĢè¿ĳ": 3799,
      "æĭĴç»Ŀ": 3800,
      "ä¸¤ç§į": 3801,
      "æ»ĭ": 3802,
      "å®ļä½į": 3803,
      "ç§Ĵ": 3804,
      "çīµ": 3805,
      "ç²Ĺ": 3806,
      "å¯¸": 3807,
      "æĭħä»»": 3808,
      "çĸı": 3809,
      "éĥŃ": 3810,
      "ä¸Ģèĩ´": 3811,
      "ç¾İçļĦ": 3812,
      "éĵ¶å±ĳçĹħ": 3813,
      "æĸ°èĥ½æºĲ": 3814,
      "å¦Īå¦Ī": 3815,
      "æĮĸ": 3816,
      "èĤª": 3817,
      "æĤŁ": 3818,
      "èį¯åĵģ": 3819,
      "åĩĢåĮĸ": 3820,
      "æ°¯": 3821,
      "ä¼Ĺå¤ļ": 3822,
      "èĦĤèĤª": 3823,
      "æ»¡æĦı": 3824,
      "åī²": 3825,
      "éĥ½åľ¨": 3826,
      "åŃ¦åİĨ": 3827,
      "çļĦæĥħåĨµä¸ĭ": 3828,
      "åĪ°åºķ": 3829,
      "æ©¡": 3830,
      "è¾½": 3831,
      "çºł": 3832,
      "ä¿Ŀåģ¥": 3833,
      "çī©çĲĨ": 3834,
      "çĤ¸": 3835,
      "éĢĤçĶ¨äºİ": 3836,
      "èĩ³ä»Ĭ": 3837,
      "åĬŁæķĪ": 3838,
      "éĩįçļĦ": 3839,
      "æĲľ": 3840,
      "éļľç¢į": 3841,
      "é«ĺè´¨éĩıåıĳå±ķ": 3842,
      "äººå¤§": 3843,
      "è¯´éģĵ": 3844,
      "åľ¨è¿Ļ": 3845,
      "çļĦæľįåĬ¡": 3846,
      "åºĶå¯¹": 3847,
      "åħ»èĢģ": 3848,
      "åĪĽå»º": 3849,
      "æĪªèĩ³": 3850,
      "äº©": 3851,
      "ä¸ĢåĲį": 3852,
      "é»ĳèī²": 3853,
      "ç¬¬äºĶ": 3854,
      "çļĨ": 3855,
      "åĩ¯": 3856,
      "äº§æĿĥ": 3857,
      "å°±è¦ģ": 3858,
      "éĥ¨ä½į": 3859,
      "å¾Īéļ¾": 3860,
      "è¯ļä¿¡": 3861,
      "è¿ĺåı¯ä»¥": 3862,
      "éĢĥ": 3863,
      "çģĮ": 3864,
      "éĺĢ": 3865,
      "æľīå¾Īå¤ļ": 3866,
      "å¹¶ä¸įæĺ¯": 3867,
      "äºĭé¡¹": 3868,
      "èŀįèµĦ": 3869,
      "å¼ĺ": 3870,
      "ä¸Ļ": 3871,
      "ä¸Ĭä¸ĭ": 3872,
      "èī¾": 3873,
      "å¸ĤåľºçļĦ": 3874,
      "1000": 3875,
      "æ£ĢéªĮ": 3876,
      "éĺĶ": 3877,
      "å®ļæľŁ": 3878,
      "ä¹ĭä¸Ń": 3879,
      "ä¸ĢæĿ¡": 3880,
      "éĹ®é¢ĺçļĦ": 3881,
      "å®¶çļĦ": 3882,
      "çĶµè¯Ŀ": 3883,
      "æĥħåĨµä¸ĭ": 3884,
      "ãĢĭãĢĬ": 3885,
      "åħ´è¶£": 3886,
      "æ°¸è¿ľ": 3887,
      "å¯º": 3888,
      "ä»¥åīį": 3889,
      "éĴĻ": 3890,
      "æ·»åĬł": 3891,
      "æ¬£": 3892,
      "æ¹ĸåĮĹ": 3893,
      "çł´åĿı": 3894,
      "éŁ©åĽ½": 3895,
      "åĪĨå¸ĥ": 3896,
      "åĨ»": 3897,
      "å¥³äºº": 3898,
      "åİŁçĲĨ": 3899,
      "è¡Ģæ¶²": 3900,
      "å±¥è¡Į": 3901,
      "ç¼Ŀ": 3902,
      "è¯ĳ": 3903,
      "æľīåı¯èĥ½": 3904,
      "äº¿ç¾İåħĥ": 3905,
      "å½¹": 3906,
      "ä¼ļè®¡": 3907,
      "åķĬ": 3908,
      "é¬": 3909,
      "èĬĤçĽ®": 3910,
      "ä¸įç®¡": 3911,
      "èµĭ": 3912,
      "èĥĢ": 3913,
      "éĿĴæĺ¥": 3914,
      "æľīåĪ©äºİ": 3915,
      "è¾ŀ": 3916,
      "ä¼łæī¿": 3917,
      "åŁĥ": 3918,
      "æ²Ī": 3919,
      "è¸ı": 3920,
      "Ġ(": 3921,
      "çĿĽ": 3922,
      "æī«": 3923,
      "ä¼ĺçĤ¹": 3924,
      "ä¸ĵé¡¹": 3925,
      "ä¹Łè¦ģ": 3926,
      "è¡Įä¸ļçļĦ": 3927,
      "å°±åĥı": 3928,
      "åºĶçĶ¨äºİ": 3929,
      "åĴĮè°Ĳ": 3930,
      "é½¿": 3931,
      "æĿŃ": 3932,
      "çºµ": 3933,
      "äººçī©": 3934,
      "èĻķ": 3935,
      "è¿Ī": 3936,
      "äººæ°ĳå¸ģ": 3937,
      "ä¸ŃåĽ½çļĦ": 3938,
      "ä¸ĬäºĨ": 3939,
      "ãĢĤãĢĬ": 3940,
      "æĻ¯åĮº": 3941,
      "å¼Ĥå¸¸": 3942,
      "çħ®": 3943,
      "éļıåĲİ": 3944,
      "ä¿¡æģ¯åĮĸ": 3945,
      "å¹¼åĦ¿": 3946,
      "å°ıçļĦ": 3947,
      "æĥľ": 3948,
      "åĪĨç±»": 3949,
      "ç¦»å¼Ģ": 3950,
      "è§£éĩĬ": 3951,
      "2013": 3952,
      "å¤±åİ»": 3953,
      "33": 3954,
      "å·¥åķĨ": 3955,
      "çĪ¶äº²": 3956,
      "èĩªè§ī": 3957,
      "çĶ·æĢ§": 3958,
      "èĢĥæł¸": 3959,
      "%;": 3960,
      "ä¸Ģåı¥": 3961,
      "å°Ŀ": 3962,
      "åľ¨æŃ¤": 3963,
      "è½¬åıĺ": 3964,
      "çĻ½çĻľé£İçļĦ": 3965,
      "åĲĬ": 3966,
      "å¥ı": 3967,
      "åįģå¹´": 3968,
      "èħ°": 3969,
      "è§ĦåĪĻ": 3970,
      "åĬłä¸Ĭ": 3971,
      "æ¯įäº²": 3972,
      "ç§įæ¤į": 3973,
      "æĦıæĢĿ": 3974,
      "ç³»ç»ŁçļĦ": 3975,
      "æĺ¯çĶ±": 3976,
      "çļĦåİĨåı²": 3977,
      "éĺ³åħī": 3978,
      "åģ¥åħ¨": 3979,
      "æµĨ": 3980,
      "æĹ¶åĪ»": 3981,
      "è¾ĸ": 3982,
      "å¸¦é¢Ĩ": 3983,
      "åĴĮç¤¾ä¼ļ": 3984,
      "èħ¿": 3985,
      "æĦıåĳ³çĿĢ": 3986,
      "åıĳèĤ²": 3987,
      "éĺ²æ²»": 3988,
      "å·¥åİĤ": 3989,
      "ä¸įå¥½": 3990,
      "ä½ıæĪ¿": 3991,
      "æĹģ": 3992,
      "è¡ĮçļĦ": 3993,
      "ç´¯è®¡": 3994,
      "æľºåľº": 3995,
      "èĩŃ": 3996,
      "éĢļä¿¡": 3997,
      "åĢ¡": 3998,
      "åĳ¨æľŁ": 3999,
      "æĭĽçĶŁ": 4000,
      "èĥ½éĩı": 4001,
      "æĪĺäºī": 4002,
      "ä¸įåĨį": 4003,
      "å®ĺç½ĳ": 4004,
      "å¤Ħç½ļ": 4005,
      "åĽŀåºĶ": 4006,
      "å¾Īå¥½": 4007,
      "åĽ½å®¶çº§": 4008,
      "èĢģäºº": 4009,
      "äºĳåįĹ": 4010,
      "åĽŀæĶ¶": 4011,
      "38": 4012,
      "åľºæ¯ĶèµĽ": 4013,
      "æ¶ĪåĮĸ": 4014,
      "éĤ¦": 4015,
      "æ··åĲĪ": 4016,
      "æ·±åº¦": 4017,
      "mm": 4018,
      "éĶĮ": 4019,
      "é«ĺç«¯": 4020,
      "åľŁå£¤": 4021,
      "æĭĨ": 4022,
      "æ³ķåĽ½": 4023,
      "åįĬå¹´": 4024,
      "åĮĢ": 4025,
      "çĻ½èī²": 4026,
      "çĽĨ": 4027,
      "è¾°": 4028,
      "åĮ»èį¯": 4029,
      "åħįè´¹": 4030,
      "è¾ĥä¸º": 4031,
      "åį°åĪ·": 4032,
      "é¸Ł": 4033,
      "å°Ĩåľ¨": 4034,
      "æ¿Ģç´ł": 4035,
      "è¿ĺä¼ļ": 4036,
      "åħħåĪĨåıĳæĮ¥": 4037,
      "ä¸ĩåĲ¨": 4038,
      "çİ°æľī": 4039,
      "åĽ½åĨħå¤ĸ": 4040,
      "å¼ķè¿Ľ": 4041,
      "è¨Ī": 4042,
      "æŀĿ": 4043,
      "è¾ĥå¤§": 4044,
      "æľĢå¥½çļĦ": 4045,
      "æ¼Ķåĳĺ": 4046,
      "æĽ´ä¸º": 4047,
      "ä¼ĺèī¯": 4048,
      "æĲ¬": 4049,
      "æĢª": 4050,
      "æķ¸": 4051,
      "èĩªä¿¡": 4052,
      "å®īåħ¨çĶŁäº§": 4053,
      "ä¸Ńåħ±": 4054,
      "!âĢĿ": 4055,
      "å·¥èµĦ": 4056,
      "åħ±åĴĮåĽ½": 4057,
      "ç«ĭåį³": 4058,
      "åħ©": 4059,
      "ç¢ĳ": 4060,
      "æıĴ": 4061,
      "è®¾å¤ĩçļĦ": 4062,
      "èĩªæ²»åĮº": 4063,
      "èĩ´åĬĽäºİ": 4064,
      "è®¤åı¯": 4065,
      "å¤įåĲĪ": 4066,
      "å¤©ä¸ĭ": 4067,
      "æµ·å¤ĸ": 4068,
      "éĥ¨ä»¶": 4069,
      "çĿĢåĬĽ": 4070,
      "èĸª": 4071,
      "çªģçĦ¶": 4072,
      "å§»": 4073,
      "çļĦç²¾ç¥ŀ": 4074,
      "å¹³æĹ¶": 4075,
      "é³": 4076,
      "å®ļçļĦ": 4077,
      "æłĳç«ĭ": 4078,
      "ç¾İæľ¯": 4079,
      "è°¨": 4080,
      "æĭħå½ĵ": 4081,
      "éĽ¾": 4082,
      "å¦Ļ": 4083,
      "æĺ¯ä¸ŃåĽ½": 4084,
      "åįģåĽĽ": 4085,
      "åŁºäºİ": 4086,
      "éĩĩè´Ń": 4087,
      "éĥ½è¦ģ": 4088,
      "è®ºæĸĩ": 4089,
      "åħ¨å¸Ĥ": 4090,
      "åħ¨ä¼ļ": 4091,
      "éº¼": 4092,
      "æĺĨ": 4093,
      "èĭ±è¯Ń": 4094,
      "ç¾İå¥½": 4095,
      "èĢĮä¸į": 4096,
      "çŁĽ": 4097,
      "å¿į": 4098,
      "åĳ¨åĽ´": 4099,
      "ç¡ķå£«": 4100,
      "æįŁå®³": 4101,
      "åĬłçĥŃ": 4102,
      "çº½": 4103,
      "å«Į": 4104,
      "åŁºåĽł": 4105,
      "ä¹Łåľ¨": 4106,
      "çľ¼çĿĽ": 4107,
      "åĪĿå¿ĥ": 4108,
      "æĭĵå±ķ": 4109,
      "äºļæ´²": 4110,
      "å¤©çļĦ": 4111,
      "ç¦»åŃĲ": 4112,
      "2012": 4113,
      "éĿ¢åĲĳ": 4114,
      "çºº": 4115,
      "èį£èªī": 4116,
      "åĻ¨çļĦ": 4117,
      "å·¥ä½ľäººåĳĺ": 4118,
      "æĿĥåĪ©": 4119,
      "æ¯ķä¸ļçĶŁ": 4120,
      "å²ģçļĦ": 4121,
      "åŃ©åŃĲçļĦ": 4122,
      "è¾Ī": 4123,
      "ç§ī": 4124,
      "å§ľ": 4125,
      "éħįç½®": 4126,
      "åĪ¤æĸŃ": 4127,
      "èĩ³å°ĳ": 4128,
      "åħģ": 4129,
      "çĮ«": 4130,
      "ä¿¡åı·": 4131,
      "å®£å¸ĥ": 4132,
      "æ¢¯": 4133,
      "èĴĤ": 4134,
      "åĽ½å¤ĸ": 4135,
      "çĤĴ": 4136,
      "æµģåĬ¨": 4137,
      "å½°": 4138,
      "æİĺ": 4139,
      "é¢ĨåŁŁçļĦ": 4140,
      "èĤ¿çĺ¤": 4141,
      "çµĲ": 4142,
      "åįģåħ«": 4143,
      "å®¶åħ·": 4144,
      "å¥ĳ": 4145,
      "é¡µ": 4146,
      "é©¬åħĭæĢĿä¸»ä¹ī": 4147,
      "èĲ¥ä¸ļ": 4148,
      "å½ĵä¸Ń": 4149,
      "å¾Īå®¹æĺĵ": 4150,
      "é¥±": 4151,
      "æ¿Ģåħī": 4152,
      "æĸĩåŃĹ": 4153,
      "è¡Ģåİĭ": 4154,
      "åħ¨åĬĽ": 4155,
      "ä¸įçŁ¥éģĵ": 4156,
      "æł¼å±Ģ": 4157,
      "ä¸Ģæ®µ": 4158,
      "éªĹ": 4159,
      "åıĤèĢĥ": 4160,
      "æľŁå¾ħ": 4161,
      "éķ¿æĹ¶éĹ´": 4162,
      "èĬ¯": 4163,
      "æĹ©æľŁ": 4164,
      "æĤ¬": 4165,
      "ä¸įéĶĻ": 4166,
      "è»Ĭ": 4167,
      "åĲĲ": 4168,
      "ç¬¬ä¸Ģæ¬¡": 4169,
      "åı¯ä»¥åľ¨": 4170,
      "åŃ¤": 4171,
      "æĥĳ": 4172,
      "37": 4173,
      "æľºéģĩ": 4174,
      "åī©": 4175,
      "èľľ": 4176,
      "ç»ıæµİåıĳå±ķ": 4177,
      "éĻª": 4178,
      "æĥħæĦŁ": 4179,
      "æ¦Ĥå¿µ": 4180,
      "ä½ľèĢħ": 4181,
      "çī§": 4182,
      "åŁºç¡Ģè®¾æĸ½": 4183,
      "åıĸå¾ĹäºĨ": 4184,
      "æĿ¡ä¾ĭ": 4185,
      "åĨ²åĩ»": 4186,
      "ç¨Ģ": 4187,
      "å®¡æŁ¥": 4188,
      "å¤įåħ´": 4189,
      "åĩºå¸Ń": 4190,
      "æįĲ": 4191,
      "ç»ŁçŃ¹": 4192,
      "èĩªåĬ¨åĮĸ": 4193,
      "æĪ¿åľ°äº§": 4194,
      "åĬłçĽŁ": 4195,
      "æĽ¹": 4196,
      "æĹ¥èµ·": 4197,
      "ç»ıåħ¸": 4198,
      "è§£åĨ³æĸ¹æ¡Ī": 4199,
      "éĻķè¥¿": 4200,
      "çĥĪçļĦ": 4201,
      "è¡¨æ¼Ķ": 4202,
      "æ¡Ĥ": 4203,
      "æıĲåīį": 4204,
      "åı¸æ³ķ": 4205,
      "è¯ķç®¡å©´åĦ¿": 4206,
      "æľīåĵªäºĽ": 4207,
      "çŁĽçĽ¾": 4208,
      "ä¹īåĬ¡": 4209,
      "åħ¸åŀĭ": 4210,
      "æĹ©å·²": 4211,
      "æµ·æ´ĭ": 4212,
      "å¾Īå¿«": 4213,
      "æħ¢æĢ§": 4214,
      "æĢ»ç»ıçĲĨ": 4215,
      "åħļå»º": 4216,
      "åĽŃåĮº": 4217,
      "è¯´çļĦ": 4218,
      "æĥ³åĪ°": 4219,
      "æĪĴ": 4220,
      "ä»¥ä¸º": 4221,
      "ä»ªå¼ı": 4222,
      "éĺħè¯»": 4223,
      "ãĢĭ(": 4224,
      "åħ¶æ¬¡": 4225,
      "éĻµ": 4226,
      "è´¯å½»èĲ½å®ŀ": 4227,
      "æķ´åĲĪ": 4228,
      "ä½ĵä¼ļ": 4229,
      "çĶ·äºº": 4230,
      "ä¸ĸçķĮä¸Ĭ": 4231,
      "æ°ĶåĢĻ": 4232,
      "ä¸Ńèį¯": 4233,
      "æĲŀ": 4234,
      "ä»°": 4235,
      "çĸ²": 4236,
      "å©ļå§»": 4237,
      "è®Ĭ": 4238,
      "æĬĢæľ¯çļĦ": 4239,
      "ç¡®å®ŀ": 4240,
      "æľīä¸Ģä¸ª": 4241,
      "34": 4242,
      "éķ¿çļĦ": 4243,
      "éĨ«": 4244,
      "å¹¶æ²¡æľī": 4245,
      "åŁİä¹¡": 4246,
      "æľīæķĪçļĦ": 4247,
      "åħ¬çĽĬ": 4248,
      "æŃ£è§Ħ": 4249,
      "äº§ä¸ļéĵ¾": 4250,
      "ä½İäºİ": 4251,
      "è®©æĪĳä»¬": 4252,
      "æĪĲçļĦ": 4253,
      "å·¥ä½ľä¸Ń": 4254,
      "é©¾é©¶": 4255,
      "PP": 4256,
      "æıĲéĨĴ": 4257,
      "æ°´çļĦ": 4258,
      "å¤©æ°Ķ": 4259,
      "åĲįåŃĹ": 4260,
      "å¾ĹåĪ°äºĨ": 4261,
      "å¸Ĥå§Ķ": 4262,
      "è¤": 4263,
      "å¤§æķ°æį®": 4264,
      "éĶĪéĴ¢": 4265,
      "é¢¨": 4266,
      "32": 4267,
      "ä¸Ģä»£": 4268,
      "åħ¶å®ĥ": 4269,
      "åĲĪéĢĤ": 4270,
      "èº«ä¸Ĭ": 4271,
      "å®īå¾½": 4272,
      "ä»ĸåľ¨": 4273,
      "æµģéĩı": 4274,
      "éĮ": 4275,
      "æµ¸": 4276,
      "éĤ£ä¸ª": 4277,
      "æ·ĭ": 4278,
      "èĦ¾": 4279,
      "èī²å½©": 4280,
      "æĿ¥æºĲ": 4281,
      "åħ³å¿ĥ": 4282,
      "åĺ´": 4283,
      "å¦Ĥä¸ĭ": 4284,
      "åĩłå¹´": 4285,
      "é¢ģ": 4286,
      "ä¸Ĭæ¶¨": 4287,
      "åįıåĲĮ": 4288,
      "ç»´æĮģ": 4289,
      "æ·Ģ": 4290,
      "æ°´æŀľ": 4291,
      "çºªå¿µ": 4292,
      "åłĨ": 4293,
      "èµĶ": 4294,
      "ç°": 4295,
      "å¯ĨåĪĩ": 4296,
      "éĥ½èĥ½": 4297,
      "èĩ£": 4298,
      "éķĢ": 4299,
      "æĦŁè°¢": 4300,
      "æ°¢": 4301,
      "éĶ»çĤ¼": 4302,
      "æľĢæĸ°": 4303,
      "é»İ": 4304,
      "æħĪ": 4305,
      "å·®å¼Ĥ": 4306,
      "è®¸åı¯": 4307,
      "åĩ¤": 4308,
      "éŃĶ": 4309,
      "æµħ": 4310,
      "æ²Ĵæľī": 4311,
      "ä¼Ļä¼´": 4312,
      "è§Ħå®ļçļĦ": 4313,
      "åįģä¸ī": 4314,
      "åģľæŃ¢": 4315,
      "å°Ĩä¼ļ": 4316,
      "éģĭ": 4317,
      "åŁİéķĩ": 4318,
      "éĻ¢éķ¿": 4319,
      "2010": 4320,
      "55": 4321,
      "åįļçī©": 4322,
      "ä¸Ģæī¹": 4323,
      "æ±ģ": 4324,
      "æĺ¯æľī": 4325,
      "48": 4326,
      "èĳ£äºĭéķ¿": 4327,
      "çĶŁåŃĺ": 4328,
      "æĶ¶çĽĬ": 4329,
      "è´«åĽ°": 4330,
      "____": 4331,
      "çĽĪ": 4332,
      "ç»ĦåĲĪ": 4333,
      "çļĦä¸»": 4334,
      "åĤ¬": 4335,
      "æıĲåĩºäºĨ": 4336,
      "çļĦåŁºæľ¬": 4337,
      "æĪ¿å±ĭ": 4338,
      "åĲĮæ¯Ķå¢ŀéķ¿": 4339,
      "å¤ļåħĥ": 4340,
      "----": 4341,
      "ä¸ĭäºĨ": 4342,
      "ar": 4343,
      "ç¦ıå»º": 4344,
      "ä½¿çĶ¨çļĦ": 4345,
      "ï¿": 4346,
      "æĪĳä»¬è¦ģ": 4347,
      "äºĮåįģå¤§": 4348,
      "åīĳ": 4349,
      "æĬ¥åĲį": 4350,
      "æ¢¦æĥ³": 4351,
      "çĶŁæ´»çļĦ": 4352,
      "æķĻèĤ²éĥ¨": 4353,
      "çĸ¼çĹĽ": 4354,
      "äº§éĩı": 4355,
      "çº¿ä¸Ĭ": 4356,
      "åľ°çļĦ": 4357,
      "ç»ıæµİç¤¾ä¼ļ": 4358,
      "åľ°ä¸ĭ": 4359,
      "åı¯è§ģ": 4360,
      "å®ŀéĻħä¸Ĭ": 4361,
      "çłĶç©¶éĻ¢": 4362,
      "æĿ¥åĪ°": 4363,
      "æĶ¯åĩº": 4364,
      "å¯Ħ": 4365,
      "èµĦè´¨": 4366,
      "æºª": 4367,
      "åŃ£åº¦": 4368,
      "ç¨į": 4369,
      "çī¹æĢ§": 4370,
      "ç¾½": 4371,
      "è£ħä¿®": 4372,
      "ç²¾å½©": 4373,
      "æ¤Ĵ": 4374,
      "çĩķ": 4375,
      "åīįçļĦ": 4376,
      "åľ¨ä¸į": 4377,
      "ä¹ĭè·¯": 4378,
      "åıĳåĬ¨": 4379,
      "äººæķ°": 4380,
      "æ¸¸å®¢": 4381,
      "æĸ¤": 4382,
      "2011": 4383,
      "åĪ¥": 4384,
      "çļĦçĶŁäº§": 4385,
      "è´§å¸ģ": 4386,
      "è®¤å®ļ": 4387,
      "59": 4388,
      "èĢĥå¯Ł": 4389,
      "çļĦéľĢæ±Ĥ": 4390,
      "åŁĭ": 4391,
      "åĩºçİ°äºĨ": 4392,
      "è¯ķçĤ¹": 4393,
      "éŃı": 4394,
      "ï¿½": 4395,
      "åĽŀåĪ°": 4396,
      "æ²ĥ": 4397,
      "èµ¢å¾Ĺ": 4398,
      "æľĪç»ı": 4399,
      "ä¸īæĺ¯": 4400,
      "å¤ļæł·": 4401,
      "å¸Ĥæ°ĳ": 4402,
      "æī§æ³ķ": 4403,
      "ä¸Ģä½į": 4404,
      "åħĦ": 4405,
      "åĲ¹": 4406,
      "æĸ¹ä½į": 4407,
      "æ£ī": 4408,
      "èĩªè¡Į": 4409,
      "åĽ½çļĦ": 4410,
      "ä»Ķ": 4411,
      "å·¨å¤§": 4412,
      "æĮĩæķ°": 4413,
      "æīĢæľīçļĦ": 4414,
      "å®¶äºº": 4415,
      "çķª": 4416,
      "å°Ĭéĩį": 4417,
      "è¾ĥé«ĺ": 4418,
      "çĲ´": 4419,
      "æĦ¿æĦı": 4420,
      "èĢķ": 4421,
      "æŁĲäºĽ": 4422,
      "çĸ«èĭĹ": 4423,
      "åĮºåĪ«": 4424,
      "å¼·": 4425,
      "å¤§å¹ħ": 4426,
      "å£³": 4427,
      "éŃĤ": 4428,
      "æ·ĺ": 4429,
      "å£°éŁ³": 4430,
      "æ»¨": 4431,
      "ç²¾åĩĨ": 4432,
      "å¹¶åľ¨": 4433,
      "åı°æ¹¾": 4434,
      "å¾¡": 4435,
      "å¸ĪçĶŁ": 4436,
      "åĩĮ": 4437,
      "éģ¸": 4438,
      "ç¢°": 4439,
      "å¹¿è¥¿": 4440,
      "å¸¦åĬ¨": 4441,
      "å°ıåŃ¦": 4442,
      "åĽ½æ°ĳ": 4443,
      "èģĮä¸ļæķĻèĤ²": 4444,
      "èĲ¥éĢł": 4445,
      "æµ¦": 4446,
      "ä½ľé£İ": 4447,
      "æĳ¸": 4448,
      "æīįæĺ¯": 4449,
      "ä¸Ģå¤©": 4450,
      "èµ´": 4451,
      "æĢĢåŃķ": 4452,
      "æ£®æŀĹ": 4453,
      "åĬłéĢŁ": 4454,
      "è¬": 4455,
      "åĲĪæ³ķ": 4456,
      "æ³ķæ²»": 4457,
      "å¯¹æŃ¤": 4458,
      "ç½©": 4459,
      "è¾©": 4460,
      "å¥¥è¿Ĳ": 4461,
      "æĸ°çĸĨ": 4462,
      "åĴĮåħ¶ä»ĸ": 4463,
      "åĻª": 4464,
      "ç¨¿": 4465,
      "åĬ¨ä½ľ": 4466,
      "åº·å¤į": 4467,
      "å¤§éĩıçļĦ": 4468,
      "çĻ¾åĪĨçĤ¹": 4469,
      "å¥Ķ": 4470,
      "è¿ĳæľŁ": 4471,
      "ä¸įéĶĪéĴ¢": 4472,
      "èĢĥçĶŁ": 4473,
      "åħĨ": 4474,
      "ç«ŀäºīåĬĽ": 4475,
      "è¿Ł": 4476,
      "å¯Ĩå°ģ": 4477,
      "å½¢æĪĲäºĨ": 4478,
      "æŁľ": 4479,
      "åı¯æĮģç»Ń": 4480,
      "åĦ¿åŃĲ": 4481,
      "æĽ´æĸ°": 4482,
      "ç§ĳæĬĢåĪĽæĸ°": 4483,
      "è´µå·ŀ": 4484,
      "éĶĻè¯¯": 4485,
      "èĵĦ": 4486,
      "æĳĩ": 4487,
      "èº«è¾¹": 4488,
      "åĬłéĩį": 4489,
      "èĬ³": 4490,
      "æĺ¯éĿŀå¸¸": 4491,
      "äººæ°ĳåħ±åĴĮåĽ½": 4492,
      "çļĦä½¿çĶ¨": 4493,
      "èĭ±éĽĦ": 4494,
      "39": 4495,
      "åīįè¿Ľ": 4496,
      "éĩĮéĿ¢": 4497,
      "çľģå§Ķ": 4498,
      "èŁ": 4499,
      "éĺ²æĬ¤": 4500,
      "çĽĳæİ§": 4501,
      "ç±»ä¼¼": 4502,
      "åĴĮå¹³": 4503,
      "æĿ¥äºĨ": 4504,
      "äººåĬĽ": 4505,
      "æ´»åĬĽ": 4506,
      "åį°åº¦": 4507,
      "æĶ»åĿļ": 4508,
      "è¥¿å®ī": 4509,
      "75": 4510,
      "ä¸¥éĩįçļĦ": 4511,
      "æ¡Į": 4512,
      "å®ĹæĹ¨": 4513,
      "ä¸Ģå¸¦": 4514,
      "å¦¹": 4515,
      "ç§¯ç´¯": 4516,
      "å¸«": 4517,
      "å»·": 4518,
      "æĸĹäºī": 4519,
      "ä»£è°¢": 4520,
      "ä¸ªçĻ¾åĪĨçĤ¹": 4521,
      "æīĵå¼Ģ": 4522,
      "å¹»": 4523,
      "ç»ĨèıĮ": 4524,
      "éĿĴå°ĳå¹´": 4525,
      "åĩŃåĢŁ": 4526,
      "ä¿Ĭ": 4527,
      "çĶŁæĢģçİ¯å¢ĥ": 4528,
      "éĦ": 4529,
      "å»ºè®¾çļĦ": 4530,
      "çĹħä¾ĭ": 4531,
      "æĮ¯åħ´": 4532,
      "é¢Ħç®Ĺ": 4533,
      "èĤºçĤİ": 4534,
      "æĴŀ": 4535,
      "ä¸Ńåįİäººæ°ĳåħ±åĴĮåĽ½": 4536,
      "ç½ĳåıĭ": 4537,
      "ç´§å¼ł": 4538,
      "çĶ³æĬ¥": 4539,
      "çļĦå¤ĸ": 4540,
      "æĿĥçĽĬ": 4541,
      "æĻ°": 4542,
      "æĮ¤": 4543,
      "çĪ·": 4544,
      "ä¸įçĶ¨": 4545,
      "äººæīįåŁ¹åħ»": 4546,
      "è¿ĳæĹ¥": 4547,
      "çĶµèĦĳ": 4548,
      "ä¸Ńæľī": 4549,
      "åĳ½è¿Ĳ": 4550,
      "çļĦé£Łçī©": 4551,
      "æĶ¹è¿Ľ": 4552,
      "çĸ«æĥħéĺ²æİ§": 4553,
      "è°ĥçłĶ": 4554,
      "å¾ĭå¸Ī": 4555,
      "è¿ĩæ»¤": 4556,
      "æ°ĽåĽ´": 4557,
      "å½¢æĢģ": 4558,
      "é©±åĬ¨": 4559,
      "ç¼ĵè§£": 4560,
      "å¸¦æĿ¥çļĦ": 4561,
      "æİ¨åĩº": 4562,
      "çĻ¾å§ĵ": 4563,
      "çĶµåķĨ": 4564,
      "äººç¾¤": 4565,
      "åĴĮåıĳå±ķ": 4566,
      "ä¸ĭåįĪ": 4567,
      "æ¸¡": 4568,
      "ä¹Łå°±": 4569,
      "æķ´æĶ¹": 4570,
      "æ¡Ĩ": 4571,
      "ä¸Ģç³»åĪĹ": 4572,
      "åĽ½å®¶çļĦ": 4573,
      "æĢ§æł¼": 4574,
      "çĭĤ": 4575,
      "è§Ĥå¿µ": 4576,
      "ä¸ĭåİ»": 4577,
      "å¼¯": 4578,
      "åģļæ³ķ": 4579,
      "èİ·åıĸ": 4580,
      "ç®Ģç§°": 4581,
      "åĬ©äºİ": 4582,
      "å©Ĩ": 4583,
      "ä¸ªæĢ§": 4584,
      "å¯»æī¾": 4585,
      "åķı": 4586,
      "æįķ": 4587,
      "è½¬ç§»": 4588,
      "ä¼ĳæģ¯": 4589,
      "åĬ£": 4590,
      "éĢĤçĶ¨": 4591,
      "æ··åĩĿ": 4592,
      "èĢĮåľ¨": 4593,
      "è¡ĵ": 4594,
      "åĲ¦åĪĻ": 4595,
      "ä¸įäºĨ": 4596,
      "äººä¸º": 4597,
      "åĮħåĲ«": 4598,
      "æľīä»Ģä¹Ī": 4599,
      "çļĦèĥ½åĬĽ": 4600,
      "è®ºåĿĽ": 4601,
      "éĸĢ": 4602,
      "è¥¿æĸ¹": 4603,
      "ç©ºè°ĥ": 4604,
      "å±ķè§Ī": 4605,
      "å¤±è´¥": 4606,
      "æĢ§è´¨": 4607,
      "å¸ħ": 4608,
      "éĴ»": 4609,
      "æ¼Ĥ": 4610,
      "å±ħä½ı": 4611,
      "åĶ®åĲİ": 4612,
      "è¿ĺèĥ½": 4613,
      "æĭħå¿ĥ": 4614,
      "ä»ĬåĲİ": 4615,
      "å¤§èµĽ": 4616,
      "é«ĺä¸Ń": 4617,
      "æľīæĹ¶": 4618,
      "ä¸»ç®¡éĥ¨éĹ¨": 4619,
      "åħ¬å¹³": 4620,
      "è¾ĵéĢģ": 4621,
      "äºĶå¹´": 4622,
      "ç©·": 4623,
      "çĻ½çĻľé£İæĤ£èĢħ": 4624,
      "èĬĿ": 4625,
      "å¦ĩå¥³": 4626,
      "éī´å®ļ": 4627,
      "æ¯ıä¸Ģä¸ª": 4628,
      "å®ŀçİ°äºĨ": 4629,
      "çĲĨäºĭ": 4630,
      "åīª": 4631,
      "æ©¡èĥ¶": 4632,
      "çĽ¸ç»ĵåĲĪ": 4633,
      "èĴĻåı¤": 4634,
      "å¤§åŃ¦çĶŁ": 4635,
      "ä»¬çļĦ": 4636,
      "å°İ": 4637,
      "å§¿": 4638,
      "æĻļä¸Ĭ": 4639,
      "å±±è¥¿": 4640,
      "æĺ¯åĽłä¸º": 4641,
      "éĢļéģĵ": 4642,
      "çºªå¾ĭ": 4643,
      "èģĬ": 4644,
      "èĤ©": 4645,
      "çĽ´æĴŃ": 4646,
      "å¼Ģæĭĵ": 4647,
      "çļĦä¸ĵä¸ļ": 4648,
      "2008": 4649,
      "ä¸ĵç§ĳ": 4650,
      "åĨĽäºĭ": 4651,
      "ç½ĳä¸Ĭ": 4652,
      "æŃ¤åīį": 4653,
      "çļĦä¸Ń": 4654,
      "ä¿±ä¹Ĳ": 4655,
      "åŀĤ": 4656,
      "åľ°çĲĥ": 4657,
      "49": 4658,
      "åŃ¦èĢħ": 4659,
      "sh": 4660,
      "ä¸įå¤Ł": 4661,
      "åħļåĴĮ": 4662,
      "åĨ¶": 4663,
      "æĻĴ": 4664,
      "çĥĤ": 4665,
      "åĬ©åĬĽ": 4666,
      "æŁ³": 4667,
      "ä¿±ä¹Ĳéĥ¨": 4668,
      "çĸ¹": 4669,
      "èµ«": 4670,
      "65": 4671,
      "âĢķ": 4672,
      "åĲĦä½į": 4673,
      "åıįå¤į": 4674,
      "å¯Ĩåº¦": 4675,
      "èĬĤçº¦": 4676,
      "å®ļåĪ¶": 4677,
      "é£İæľº": 4678,
      "æľ¬äºº": 4679,
      "å¹²åĩĢ": 4680,
      "åĭĥ": 4681,
      "æĺİçĻ½": 4682,
      "æģ°": 4683,
      "åħ¬ä¼Ĺ": 4684,
      "çĹħçļĦ": 4685,
      "å°ıç¼ĸ": 4686,
      "ä¸§": 4687,
      "æ°ĳéĹ´": 4688,
      "åĤ³": 4689,
      "éģĹä¼ł": 4690,
      "åİ¨": 4691,
      "èŀįåħ¥": 4692,
      "è¶³å¤Ł": 4693,
      "æĪĲæķĪ": 4694,
      "åĴĸ": 4695,
      "äºĭåĬ¡": 4696,
      "ä¼Ĳ": 4697,
      "ä¼łæĦŁ": 4698,
      "æİ¥ä¸ĭæĿ¥": 4699,
      "æĬĳåĪ¶": 4700,
      "èģĶçĽŁ": 4701,
      "æĶ¶éĽĨ": 4702,
      "èĤ¡ç¥¨": 4703,
      "æ±Łè¥¿": 4704,
      "æĦĽ": 4705,
      "éĺŁçļĦ": 4706,
      "è¦ĭ": 4707,
      "æ»ļ": 4708,
      "çŃīçº§": 4709,
      "èĤĸ": 4710,
      "ä¸Ģçº§": 4711,
      "éĤ»": 4712,
      "æ¯ģ": 4713,
      "åļ": 4714,
      "è¡Ĺéģĵ": 4715,
      "ä¼ļåĳĺ": 4716,
      "æķ°åŃ¦": 4717,
      "é¢Ĺç²Ĵ": 4718,
      "å¼Ĺ": 4719,
      "åĲĪæĪĲ": 4720,
      "çĶ¨éĢĶ": 4721,
      "çĸ¾çĹħçļĦ": 4722,
      "çİ©å®¶": 4723,
      "äºĨæĪĳ": 4724,
      "æĸ°æĹ¶ä»£ä¸ŃåĽ½çī¹èī²ç¤¾ä¼ļä¸»ä¹ī": 4725,
      "èī²çļĦ": 4726,
      "çº·çº·": 4727,
      "æľįçĶ¨": 4728,
      "åł¡": 4729,
      "æ¯ıä¸ªäºº": 4730,
      "åı¯ä»¥è¯´": 4731,
      "åĳ¨å¹´": 4732,
      "éĥ¨éķ¿": 4733,
      "å¥½å¥½": 4734,
      "æıŃ": 4735,
      "ç§įç±»": 4736,
      "ç½Ĳ": 4737,
      "æħ¢æħ¢": 4738,
      "åŃķå¦ĩ": 4739,
      "æ¢Ŀ": 4740,
      "åĨħæ¶µ": 4741,
      "å¤§ä¼Ĺ": 4742,
      "åĪĨç¦»": 4743,
      "è¾Ĳ": 4744,
      "çĨ±": 4745,
      "æĽ´å¥½åľ°": 4746,
      "æµ©": 4747,
      "æĹ¥åŃĲ": 4748,
      "åı¤ä»£": 4749,
      "çĽ²": 4750,
      "æĽ°": 4751,
      "å°Ī": 4752,
      "å¼ĺæī¬": 4753,
      "æĸĩçī©": 4754,
      "pp": 4755,
      "å¥īçĮ®": 4756,
      "å¤§çº¦": 4757,
      "ä»¥ä¸ĬçļĦ": 4758,
      "èİ·å¾ĹäºĨ": 4759,
      "æ¡ĳ": 4760,
      "è¾ħåĬ©": 4761,
      "æľĢä½İ": 4762,
      "å¨ĺ": 4763,
      "åıĳçļĦ": 4764,
      "æīĢå¾Ĺ": 4765,
      "æŃ¤æĹ¶": 4766,
      "æĪĺæĸĹ": 4767,
      "èĪªå¤©": 4768,
      "æīİå®ŀ": 4769,
      "åĳ¨è¾¹": 4770,
      "åİ¦": 4771,
      "å¯¹æīĭ": 4772,
      "ä¸īå¤§": 4773,
      "æ¶ĪéĻ¤": 4774,
      "åħļçļĦäºĮåįģå¤§": 4775,
      "ç£·": 4776,
      "æĬķèµĦèĢħ": 4777,
      "éľį": 4778,
      "ä¸īåĪĨ": 4779,
      "åħ¬åĳĬ": 4780,
      "åĽ¾ä¹¦": 4781,
      "çĥŃæ°´": 4782,
      "è¥¿éĥ¨": 4783,
      "çĽ´åĪ°": 4784,
      "è´¢äº§": 4785,
      "å¤¹": 4786,
      "çļĦåŁºç¡Ģä¸Ĭ": 4787,
      "éªĳ": 4788,
      "ç¼Ĩ": 4789,
      "æ¶Īæ¯Ĵ": 4790,
      "åĵªéĩĮ": 4791,
      "çĿ¡çľł": 4792,
      "çłĶç©¶æīĢ": 4793,
      "ç»Ŀå¯¹": 4794,
      "çľĭçľĭ": 4795,
      "èĮĥåĽ´åĨħ": 4796,
      "åĮºçļĦ": 4797,
      "ä¿®å¤į": 4798,
      "ç«ĭè¶³": 4799,
      "åīįåĪĹ": 4800,
      "çŁ¥è¯Ĩäº§æĿĥ": 4801,
      "äºĪä»¥": 4802,
      "åĨ·åį´": 4803,
      "çĪ±çļĦ": 4804,
      "åĽŀçŃĶ": 4805,
      "åīĬ": 4806,
      "åĩºæĿ¥çļĦ": 4807,
      "è®°å¿Ĩ": 4808,
      "éĻĦè¿ĳ": 4809,
      "èĤ¡ä»½æľīéĻĲåħ¬åı¸": 4810,
      "åįļçī©é¦Ĩ": 4811,
      "éłŃ": 4812,
      "åıĺæĪĲ": 4813,
      "ä¾¿åĪ©": 4814,
      "è§ĤçĤ¹": 4815,
      "ä¸ľåĮĹ": 4816,
      "çĶµæľº": 4817,
      "èĽĭçĻ½è´¨": 4818,
      "ä¸ŃåĮ»èį¯": 4819,
      "éĥ½åı¯ä»¥": 4820,
      "éĿŀæ³ķ": 4821,
      "æĸ°å¢ŀ": 4822,
      "äº§çĶŁçļĦ": 4823,
      "99": 4824,
      "åľ¨è¿Ļä¸ª": 4825,
      "ä¹Ļçĥ¯": 4826,
      "å®ª": 4827,
      "æĤ¦": 4828,
      "éĹª": 4829,
      "èµĽäºĭ": 4830,
      "æĺ¨": 4831,
      "å¸¸è§ģçļĦ": 4832,
      "ä¸Ī": 4833,
      "ä¸ĬåįĪ": 4834,
      "çĽ¸åºĶçļĦ": 4835,
      "è®©æĪĳ": 4836,
      "åĽ¾çīĩ": 4837,
      "æĮĩæĮ¥": 4838,
      "æįŁä¼¤": 4839,
      "åı¦ä¸Ģæĸ¹éĿ¢": 4840,
      "éŀĭ": 4841,
      "æ¯ıæ¬¡": 4842,
      "çµ¦": 4843,
      "èİ²": 4844,
      "æĭĸ": 4845,
      "çĽ¸åħ³çļĦ": 4846,
      "èµ°åĲĳ": 4847,
      "é«ĺäºİ": 4848,
      "æľŁæľĽ": 4849,
      "ä½Ĩåľ¨": 4850,
      "èµł": 4851,
      "æ¡Īä¾ĭ": 4852,
      "èĢĢ": 4853,
      "çĮĽ": 4854,
      "çĥĺ": 4855,
      "åĩºåıĳ": 4856,
      "åħ»æ®ĸ": 4857,
      "åĿĩåĮĢ": 4858,
      "çĥŃæĥħ": 4859,
      "è¦ı": 4860,
      "ä¹Łå¾Ī": 4861,
      "åŃĿ": 4862,
      "èĪŀåı°": 4863,
      "æŀª": 4864,
      "de": 4865,
      "çļĦåİŁåĪĻ": 4866,
      "åħļç»Ħç»ĩ": 4867,
      "éĽ¶åĶ®": 4868,
      "åľºæĻ¯": 4869,
      "åľ°çĲĨ": 4870,
      "çī©åĵģ": 4871,
      "çħ§çīĩ": 4872,
      "ä¸ļç»©": 4873,
      "æŁ´": 4874,
      "éĽĨæĪĲ": 4875,
      "è¯¾åłĤ": 4876,
      "ä¹Łåı¯": 4877,
      "åīįæĻ¯": 4878,
      "ç¬¬åħŃ": 4879,
      "æĪĸè®¸": 4880,
      "ç´§å¯Ĩ": 4881,
      "æĺ¯æľĢ": 4882,
      "å·¢": 4883,
      "åħ³èĬĤ": 4884,
      "èªį": 4885,
      "è´¤": 4886,
      "ç¡®è®¤": 4887,
      "ç¬¬ä¸Ģä¸ª": 4888,
      "æł¡éķ¿": 4889,
      "æłĳèĦĤ": 4890,
      "ä¼ĺåħĪ": 4891,
      "å¸¸å¸¸": 4892,
      "ç¦ģæŃ¢": 4893,
      "ä¹Łæ²¡æľī": 4894,
      "é¡Į": 4895,
      "åħģè®¸": 4896,
      "å·¨å¤§çļĦ": 4897,
      "åį±æľº": 4898,
      "èµļ": 4899,
      "éĿĴå²Ľ": 4900,
      "éģµå®Ī": 4901,
      "ä¸ĵçĶ¨": 4902,
      "åıĳè¡Į": 4903,
      "åĿª": 4904,
      "çĦĬæİ¥": 4905,
      "è´º": 4906,
      "èĭ¯": 4907,
      "ç¶²": 4908,
      "è¯ĨåĪ«": 4909,
      "éļĲæĤ£": 4910,
      "å®ĥæĺ¯": 4911,
      "åĪĽæĦı": 4912,
      "å¿ħçĦ¶": 4913,
      "ä¿¡å¿µ": 4914,
      "ä¸¤äºº": 4915,
      "ä¼łç»ŁçļĦ": 4916,
      "æĹłè®ºæĺ¯": 4917,
      "éĩĩè®¿": 4918,
      "æĮ¡": 4919,
      "ä¸ŃåŃ¦": 4920,
      "è¿Ļå°±æĺ¯": 4921,
      "æľīåħ³éĥ¨éĹ¨": 4922,
      "çıŃåŃĲ": 4923,
      "å¤§å°ı": 4924,
      "åĴĮæľįåĬ¡": 4925,
      "ç®Ń": 4926,
      "åıĳè¾¾": 4927,
      "æĲı": 4928,
      "88": 4929,
      "è£ķ": 4930,
      "ä¸ºæł¸å¿ĥ": 4931,
      "æĢĿè·¯": 4932,
      "åįłåľ°": 4933,
      "æĺĤ": 4934,
      "å¢ĵ": 4935,
      "æ¸ħæĻ°": 4936,
      "è¾Ĳå°Ħ": 4937,
      "400": 4938,
      "äººæ°ĳç¾¤ä¼Ĺ": 4939,
      "åºŁæ°´": 4940,
      "å¯¼åĲĳ": 4941,
      "ä¸ĵé¢ĺ": 4942,
      "ä¸ĢåĢĭ": 4943,
      "æµ´": 4944,
      "è¼ĥ": 4945,
      "é¡¹çĽ®çļĦ": 4946,
      "æĶ¹éĿ©å¼ĢæĶ¾": 4947,
      "ä¸ŃåĽ½äººæ°ĳ": 4948,
      "è¿Ļä¹Łæĺ¯": 4949,
      "éķ¿æ±Ł": 4950,
      "çĨŁæĤī": 4951,
      "ä½ĵåĨħ": 4952,
      "æĿŃå·ŀ": 4953,
      "æĻ¯è§Ĥ": 4954,
      "èľĤ": 4955,
      "åħ±æľī": 4956,
      "ä½ıå®ħ": 4957,
      "çĶ·åŃĲ": 4958,
      "2009": 4959,
      "åĩĿèģļ": 4960,
      "è¾¨": 4961,
      "å®¶éĩĮ": 4962,
      "æĶ¾å¼ĥ": 4963,
      "æħ°": 4964,
      "æľºåĻ¨äºº": 4965,
      "å¯ĵ": 4966,
      "å²Ń": 4967,
      "è¿Ŀåıį": 4968,
      "éĢłåŀĭ": 4969,
      "ä»¥åħį": 4970,
      "æ°ĳçĶŁ": 4971,
      "æµĵåº¦": 4972,
      "çº²": 4973,
      "æ··åĩĿåľŁ": 4974,
      "ç«ŀèµĽ": 4975,
      "è¿ĽçĲĥ": 4976,
      "çļĦæķĪæŀľ": 4977,
      "èĤ¡ä¸ľ": 4978,
      "å½»åºķ": 4979,
      "ç²¾åº¦": 4980,
      "è§Ģ": 4981,
      "æĪĲå¹´": 4982,
      "èī³": 4983,
      "ä¹Łè®¸": 4984,
      "çļĦè§Ħå®ļ": 4985,
      "è®¼": 4986,
      "èģļçĦ¦": 4987,
      "åĮ¹": 4988,
      "éĢīçĶ¨": 4989,
      "æĥ³è±¡": 4990,
      "é¤Ĳé¥®": 4991,
      "æĥ³æ³ķ": 4992,
      "çĶµæ°Ķ": 4993,
      "å¥³åĦ¿": 4994,
      "æľīå®³": 4995,
      "åıĳè¨Ģ": 4996,
      "46": 4997,
      "èĪĴéĢĤ": 4998,
      "åıĤè§Ĥ": 4999,
      "æ¡¶": 5000,
      "æĮº": 5001,
      "ä¸įå¾Ĺä¸į": 5002,
      "çī©èģĶç½ĳ": 5003,
      "åī¯ä¸»ä»»": 5004,
      "ä¸¤å¹´": 5005,
      "åłµ": 5006,
      "çĶ¨æ°´": 5007,
      "åŃŁ": 5008,
      "å¾®ä¿¡": 5009,
      "å°±åľ¨": 5010,
      "åĽłçĤº": 5011,
      "å·¥ç¨ĭå¸Ī": 5012,
      "åįıåĬ©": 5013,
      "è§£æĶ¾": 5014,
      "çļĦä¸ĢäºĽ": 5015,
      "æĭĮ": 5016,
      "å¤Ħç½®": 5017,
      "åĨħå¤ĸ": 5018,
      "ç§°åı·": 5019,
      "æĢİæł·": 5020,
      "éĭ": 5021,
      "..": 5022,
      "ç«Ļåľ¨": 5023,
      "é¼ł": 5024,
      "æĺ¯å¯¹": 5025,
      "ä¾Ŀæīĺ": 5026,
      "æ¯ķç«Ł": 5027,
      "éĤĵ": 5028,
      "å°ĳæķ°": 5029,
      "ç¾¤ä½ĵ": 5030,
      "åĲĮæĦı": 5031,
      "æĸĩåĮĸçļĦ": 5032,
      "èį£èİ·": 5033,
      "ãĢį,": 5034,
      "ä¾ĿéĿł": 5035,
      "ç¼ĸåĪ¶": 5036,
      "éĢļé£İ": 5037,
      "ç»Īäºİ": 5038,
      "åĬĽåĴĮ": 5039,
      "æ°´åĪ©": 5040,
      "çĶ¨èį¯": 5041,
      "å½±çīĩ": 5042,
      "ãĢģâĢľ": 5043,
      "è¢Ń": 5044,
      "åĿĬ": 5045,
      "æĹ¥çĽĬ": 5046,
      "ä¸ºå®¢æĪ·": 5047,
      "çĶŁèĤ²": 5048,
      "èĥº": 5049,
      "è°Ĭ": 5050,
      "è«ĭ": 5051,
      "éħ±": 5052,
      "åĸ®": 5053,
      "æľįè£ħ": 5054,
      "éĢıæĺİ": 5055,
      "çĶµåĻ¨": 5056,
      "åī¯ä¹¦è®°": 5057,
      "èĦ±è´«": 5058,
      "ä¼ļçļĦ": 5059,
      "éģĶ": 5060,
      "åĩıè½»": 5061,
      "åģļäºĨ": 5062,
      "çŃĭ": 5063,
      "è§Ĩè§ī": 5064,
      "éĴ¢ç®¡": 5065,
      "å°±æľī": 5066,
      "åľ°éĿ¢": 5067,
      "æķĻç»ĥ": 5068,
      "æµ·åįĹ": 5069,
      "çļĦåħ³éĶ®": 5070,
      "éħ¶": 5071,
      "å¿ĥéĩĮ": 5072,
      "åĪĻæĺ¯": 5073,
      "ç²®é£Ł": 5074,
      "åį°è±¡": 5075,
      "çĶ±æŃ¤": 5076,
      "çº¿è·¯": 5077,
      "é¸£": 5078,
      "æĽ´é«ĺ": 5079,
      "äº§ä¸ļåıĳå±ķ": 5080,
      "çļĦçİ¯å¢ĥ": 5081,
      "äº§åĵģè´¨éĩı": 5082,
      "åĩºåİ»": 5083,
      "è¯īè®¼": 5084,
      "åķ¡": 5085,
      "è¦ģæľī": 5086,
      "éĩįéĩı": 5087,
      "åĩºåı°": 5088,
      "çĨĬ": 5089,
      "æ³³": 5090,
      "æĤ¨çļĦ": 5091,
      "æĬĵä½ı": 5092,
      "ä¸ĬéĿ¢": 5093,
      "çľĭæĿ¥": 5094,
      "2023": 5095,
      "58": 5096,
      "æĺ¯ä¸ª": 5097,
      "æİ¥è¿ĳ": 5098,
      "èĢ¶": 5099,
      "æĸ°åĮº": 5100,
      "æ³ª": 5101,
      "çĹķ": 5102,
      "æ¯ħ": 5103,
      "èĮħ": 5104,
      "è¾ĥä½İ": 5105,
      "å¸ĪèĮĥ": 5106,
      "æķħéļľ": 5107,
      "æĪĳä»¬åľ¨": 5108,
      "ç¦ģåĮº": 5109,
      "ED": 5110,
      "åīĩ": 5111,
      "åĪĳäºĭ": 5112,
      "è®²è§£": 5113,
      "é«ĺèĢĥ": 5114,
      "åĬŁçİĩ": 5115,
      "å¤«å¦»": 5116,
      "çŁ©": 5117,
      "ä¸įä½Ĩ": 5118,
      "çģµæ´»": 5119,
      "çļĦä¸ŃåĽ½": 5120,
      "åĲįåįķ": 5121,
      "è¿Ľç¨ĭ": 5122,
      "çħĮ": 5123,
      "ä¸Ģæĸ¹éĿ¢": 5124,
      "å¯Įæľī": 5125,
      "èĥģ": 5126,
      "çļĦå®īåħ¨": 5127,
      "åıįå¯¹": 5128,
      "çĶ¨æĿ¥": 5129,
      "æĸ°æĹ¶ä»£ä¸ŃåĽ½çī¹èī²ç¤¾ä¼ļä¸»ä¹īæĢĿæĥ³": 5130,
      "ç¯Ģ": 5131,
      "å±Ģéĥ¨": 5132,
      "èº«ä½ĵåģ¥åº·": 5133,
      "çļĩå¸Ŀ": 5134,
      "é»Ħéĩĳ": 5135,
      "éĶ¡": 5136,
      "æĸ¹éĴĪ": 5137,
      "åħļåı²": 5138,
      "æĢĴ": 5139,
      "é¡ŀ": 5140,
      "åģ·": 5141,
      "åĲįç§°": 5142,
      "é¡¾å®¢": 5143,
      "åľ°åĮºçļĦ": 5144,
      "éĬ": 5145,
      "æ£ĭ": 5146,
      "æľµ": 5147,
      "å¹´åºķ": 5148,
      "æ¶ĪèĢĹ": 5149,
      "å·®è·Ŀ": 5150,
      "åĩºè¡Ģ": 5151,
      "å°½å¿«": 5152,
      "æī¶è´«": 5153,
      "æľīåĬĽ": 5154,
      "å¸¶": 5155,
      "åł±": 5156,
      "ch": 5157,
      "çĽĴ": 5158,
      "èĲ¬": 5159,
      "è´¢å¯Į": 5160,
      "åĬ¨æĢģ": 5161,
      "åłª": 5162,
      "åį¢": 5163,
      "å·©": 5164,
      "æĳĺ": 5165,
      "çĬ¹": 5166,
      "é¬¼": 5167,
      "åıī": 5168,
      "ä¼ļåľ¨": 5169,
      "å¥ĸåĬ±": 5170,
      "åİĺ": 5171,
      "çļĦç®¡çĲĨ": 5172,
      "éĺ²çģ«": 5173,
      "åįľ": 5174,
      "éĩĬæĶ¾": 5175,
      "åĮĹäº¬å¸Ĥ": 5176,
      "ä¹¦æ³ķ": 5177,
      "çĶ¨äºº": 5178,
      "å¾Īæľī": 5179,
      "å½±è§Ĩ": 5180,
      "ä¸įæĺĵ": 5181,
      "æ¸©æļĸ": 5182,
      "ç¥ĸåĽ½": 5183,
      "çļĦè¿ĩç¨ĭä¸Ń": 5184,
      "è¿ĩåº¦": 5185,
      "æıĲé«ĺäºĨ": 5186,
      "å¼ķèµ·çļĦ": 5187,
      "è·¯çº¿": 5188,
      "æľ´": 5189,
      "åĴĸåķ¡": 5190,
      "èĺ": 5191,
      "å¼ĢåĲ¯": 5192,
      "çļĦçłĶç©¶": 5193,
      "åİĮ": 5194,
      "äºĴåĬ¨": 5195,
      "åįĥä¸ĩ": 5196,
      "ä¸Ģçº¿": 5197,
      "äººæ°ĳæ³ķéĻ¢": 5198,
      "ç§ĺä¹¦": 5199,
      "or": 5200,
      "é¢ĩ": 5201,
      "æ°´æ³¥": 5202,
      "å°ºå¯¸": 5203,
      "å·¥äºº": 5204,
      "æº«": 5205,
      "æ£Ģå¯Ł": 5206,
      "æīĢéľĢ": 5207,
      "èª¿": 5208,
      "çº³åħ¥": 5209,
      "è´¾": 5210,
      "ä¿¡ä»»": 5211,
      "è¸ª": 5212,
      "çº³ç¨İ": 5213,
      "åİĭç¼©": 5214,
      "åģļçļĦ": 5215,
      "åİļçļĦ": 5216,
      "æĶ¶è´¹": 5217,
      "å®¡è®¡": 5218,
      "ä¹Ķ": 5219,
      "çļĦåĨħå®¹": 5220,
      "è¿Ľå±ķ": 5221,
      "æĭįæĳĦ": 5222,
      "èµģ": 5223,
      "æĺ¥èĬĤ": 5224,
      "å®ĹæķĻ": 5225,
      "ä¼ĳéĹ²": 5226,
      "å¹¶éĿŀ": 5227,
      "æ¿Ģåıĳ": 5228,
      "ç§Łèµģ": 5229,
      "çĶ¨åĵģ": 5230,
      "çŃĸçķ¥": 5231,
      "å±Ī": 5232,
      "çĴ°": 5233,
      "ä»ĸåĢĳ": 5234,
      "ç»ĵå©ļ": 5235,
      "è¢«åĳĬ": 5236,
      "ç³ĸå°¿": 5237,
      "é¢ĸ": 5238,
      "è¾½å®ģ": 5239,
      "åħļæĶ¯éĥ¨": 5240,
      "æ²¦": 5241,
      "ä¸ľæĸ¹": 5242,
      "æľīåĬ©äºİ": 5243,
      "æĬĽ": 5244,
      "çĶŁäº§çļĦ": 5245,
      "åĽ½å®¶åĴĮ": 5246,
      "éłħ": 5247,
      "å¼¥": 5248,
      "é¹ı": 5249,
      "æĶ¿åįı": 5250,
      "çļĦå¸Ĥåľº": 5251,
      "ä¸ŃéĹ´": 5252,
      "æ±¡æ°´å¤ĦçĲĨ": 5253,
      "æİĪæĿĥ": 5254,
      "åĲĪçī©": 5255,
      "éĺ´éģĵ": 5256,
      "ç¡®è¯Ĭ": 5257,
      "çļĦè®¾è®¡": 5258,
      "åħ¨èº«": 5259,
      "ç¼ĸè¾ĳ": 5260,
      "ä¸Ģä»½": 5261,
      "æĺ¯ä»¥": 5262,
      "ä»ĸè¯´": 5263,
      "å¼ºå¤§": 5264,
      "åīįå¾Ģ": 5265,
      "ä¸Ģåľº": 5266,
      "å°Ĩåħ¶": 5267,
      "çĤİçĹĩ": 5268,
      "ä¸įçŁ¥": 5269,
      "æĽ´æį¢": 5270,
      "çĹĽèĭ¦": 5271,
      "æĬĵå¥½": 5272,
      "çŃ¾è®¢": 5273,
      "çİĽ": 5274,
      "èµ¤": 5275,
      "ç¾İè§Ĥ": 5276,
      "æĺ¯ä¸Ģå®¶": 5277,
      "æĿĲæĸĻçļĦ": 5278,
      "åĪ°çļĦ": 5279,
      "âĹ": 5280,
      "æĽ´å¤§": 5281,
      "å¥³åŃĲ": 5282,
      "å¤ļå®¶": 5283,
      "è¿ĺåľ¨": 5284,
      "å¤ļå¹´çļĦ": 5285,
      "è¡£æľį": 5286,
      "æī¿åĮħ": 5287,
      "éĴ¢éĵģ": 5288,
      "äºŃ": 5289,
      "æķ´çĲĨ": 5290,
      "ç»´åº¦": 5291,
      "çĶµæºĲ": 5292,
      "ä¸ĵæ³¨": 5293,
      "é¢Ħæµĭ": 5294,
      "è½»æĿ¾": 5295,
      "å¹¿ä¸ľçľģ": 5296,
      "èį¡": 5297,
      "çĽĳå¯Ł": 5298,
      "åŃ©åŃĲä»¬": 5299,
      "éĶĲ": 5300,
      "éĻ¶çĵ·": 5301,
      "æĦıå¤ĸ": 5302,
      "åĮ»å¸Ī": 5303,
      "çŃīåľ°": 5304,
      "æĻºèĥ½åĮĸ": 5305,
      "çµ±": 5306,
      "èµ·éĩį": 5307,
      "æĿ±": 5308,
      "çľŁçĲĨ": 5309,
      "èĢĮä¸įæĺ¯": 5310,
      "æĤł": 5311,
      "åľ¨è¿ĻéĩĮ": 5312,
      "85": 5313,
      "ä¸Ģä½ĵåĮĸ": 5314,
      "è½¨éģĵ": 5315,
      "åį§": 5316,
      "ç¨İåĬ¡": 5317,
      "47": 5318,
      "æĪĸæĺ¯": 5319,
      "å¼Ħ": 5320,
      "å¢ŀéĢŁ": 5321,
      "è¯ŀ": 5322,
      "æķ¦": 5323,
      "è¿ĩäºİ": 5324,
      "ä¸īè§Ĵ": 5325,
      "æĽ´æľī": 5326,
      "é«ĺåİĭ": 5327,
      "ä¿®æĶ¹": 5328,
      "æ°Ł": 5329,
      "èĤ¢": 5330,
      "æĿĲè´¨": 5331,
      "çī¢è®°": 5332,
      "åĲĦèĩª": 5333,
      "éļ¾åº¦": 5334,
      "è´§çī©": 5335,
      "æĶ¾åħ¥": 5336,
      "95": 5337,
      "å½¼æŃ¤": 5338,
      "ä¾Ľç»Ļ": 5339,
      "éĤĢè¯·": 5340,
      "åĲĮåŃ¦ä»¬": 5341,
      "ç©Ĩ": 5342,
      "ä¸įéľĢè¦ģ": 5343,
      "èĲĿ": 5344,
      "æķĪåºĶ": 5345,
      "éľ¸": 5346,
      "éŁ§": 5347,
      "æĴ¤": 5348,
      "ä»²": 5349,
      "æĪĳæł¡": 5350,
      "è§Ħæł¼": 5351,
      "ä¿Ŀåħ»": 5352,
      "ä¸¾æİª": 5353,
      "æĸ°åħ´": 5354,
      "åĪĨéħį": 5355,
      "æĶ¶èİ·": 5356,
      "ä¼ĺæĥł": 5357,
      "æľºåºĬ": 5358,
      "é¥¼": 5359,
      "æī¿è¯º": 5360,
      "ç»ĨèĬĤ": 5361,
      "äºĭå®ŀä¸Ĭ": 5362,
      "çļĦçī¹çĤ¹": 5363,
      "66": 5364,
      "å¦»åŃĲ": 5365,
      "å®ŀçĶ¨": 5366,
      "åĵ²åŃ¦": 5367,
      "æĪĲäºº": 5368,
      "å»ºç«ĭäºĨ": 5369,
      "éļıæĹ¶": 5370,
      "çººç»ĩ": 5371,
      "ä¼ļéķ¿": 5372,
      "ç·ļ": 5373,
      "al": 5374,
      "è¦ģç´ł": 5375,
      "å¢ŀåĢ¼": 5376,
      "åĲįä¸º": 5377,
      "éģ¥": 5378,
      "åıĳæĺİ": 5379,
      "æĿĳæ°ĳ": 5380,
      "éĢĶå¾Ħ": 5381,
      "æĩĪ": 5382,
      "å¦Ĩ": 5383,
      "ä¼łæĦŁåĻ¨": 5384,
      "åĤĻ": 5385,
      "ç¸½": 5386,
      "æ¿ĢåĬ±": 5387,
      "æĵħ": 5388,
      "èĩ³äºİ": 5389,
      "èŃ°": 5390,
      "ä¸Ģä¸ªæĸ°çļĦ": 5391,
      "æļĳ": 5392,
      "åĳ³éģĵ": 5393,
      "ä»·åĢ¼è§Ĥ": 5394,
      "éŃħ": 5395,
      "å®¡æī¹": 5396,
      "å¤§æ°Ķ": 5397,
      "æĭ³": 5398,
      "ä¾¯": 5399,
      "42": 5400,
      "åŀ«": 5401,
      "æĦıå¤§åĪ©": 5402,
      "çĥ¤": 5403,
      "åĵŃ": 5404,
      "æľªæĿ¥çļĦ": 5405,
      "æ¼Ķåĩº": 5406,
      "çŃĽ": 5407,
      "éĺ²èĮĥ": 5408,
      "æŃ£ç¡®çļĦ": 5409,
      "æ¸´": 5410,
      "åŃĲå¥³": 5411,
      "éĺ²æ°´": 5412,
      "æ¶¯": 5413,
      "ä½¿çĶ¨å¯¿åĳ½": 5414,
      "äººæĸĩ": 5415,
      "äººå·¥æĻºèĥ½": 5416,
      "åĨ¬åŃ£": 5417,
      "åı¯èĥ½æĺ¯": 5418,
      "æ¶²ä½ĵ": 5419,
      "BA": 5420,
      "çĽĳçĿ£ç®¡çĲĨ": 5421,
      "å¹¿åľº": 5422,
      "å»¶éķ¿": 5423,
      "æĺİæĺŁ": 5424,
      "çļĦåĬĽéĩı": 5425,
      "è¿ĲåĬ¨åĳĺ": 5426,
      "åİī": 5427,
      "çļĦåıĳçĶŁ": 5428,
      "èĪŁ": 5429,
      "äºĭä¸ļåįķä½į": 5430,
      "åĭŁ": 5431,
      "æĭĽèģĺ": 5432,
      "é«ĺè¾¾": 5433,
      "ä¸įå¦Ĥ": 5434,
      "56": 5435,
      "ä¹ĭä¸ĭ": 5436,
      "èµ·äºĨ": 5437,
      "å®¢è§Ĥ": 5438,
      "è©²": 5439,
      "è¿ĩæķı": 5440,
      "åįĬåľº": 5441,
      "ä¹łè¿ĳå¹³æĸ°æĹ¶ä»£ä¸ŃåĽ½çī¹èī²ç¤¾ä¼ļä¸»ä¹īæĢĿæĥ³": 5442,
      "èĢģå¹´äºº": 5443,
      "è¦ĸ": 5444,
      "æĻĤéĸĵ": 5445,
      "197": 5446,
      "å¨ģèĥģ": 5447,
      "å¼ºå¤§çļĦ": 5448,
      "çĪ±åĽ½": 5449,
      "æĹ¥åīį": 5450,
      "çļĦè´¨éĩı": 5451,
      "äºĮçº§": 5452,
      "åıĺéĿ©": 5453,
      "æĸľ": 5454,
      "çļĦä¸ľè¥¿": 5455,
      "å½ĵå¹´": 5456,
      "æķ°åŃĹåĮĸ": 5457,
      "å®¡æł¸": 5458,
      "æ°®": 5459,
      "å·¥ä¼ļ": 5460,
      "ä¸ľåįĹ": 5461,
      "ä¿ĿåŃĺ": 5462,
      "å§Ķæīĺ": 5463,
      "å£ĵ": 5464,
      "éĺ²èħĲ": 5465,
      "å¯¼æ¼Ķ": 5466,
      "æĹłäºº": 5467,
      "å¤ļåĲĥ": 5468,
      "æµģè¡Į": 5469,
      "éĿ¢åīį": 5470,
      "èĲ½åľ°": 5471,
      "å·²æĪĲä¸º": 5472,
      "ä¸įå¿ĺ": 5473,
      "æŁ¥çľĭ": 5474,
      "ä¸įå¼Ģ": 5475,
      "æİ§èĤ¡": 5476,
      "æĽ¸": 5477,
      "è¿Ļä½į": 5478,
      "è£¡": 5479,
      "åĽłèĢĮ": 5480,
      "éĥİ": 5481,
      "è§£çŃĶ": 5482,
      "æĢ»ç»Ł": 5483,
      "om": 5484,
      "èįĴ": 5485,
      "å±ĢéĿ¢": 5486,
      "æķıæĦŁ": 5487,
      "æĺ¾çĦ¶": 5488,
      "éĩĳé¢Ŀ": 5489,
      "éĹ¹": 5490,
      "æľīåºı": 5491,
      "ç»µ": 5492,
      "åĲįçļĦ": 5493,
      "æ£ļ": 5494,
      "æłª": 5495,
      "ç»ıè´¹": 5496,
      "æ´»åĬ¨çļĦ": 5497,
      "èµĶåģ¿": 5498,
      "è£Ŀ": 5499,
      "æłĩåĩĨåĮĸ": 5500,
      "æĸ¯åĿ¦": 5501,
      "èĦĨ": 5502,
      "åħĪè¿ĽçļĦ": 5503,
      "åľ°è´¨": 5504,
      "ä»İä¸¥": 5505,
      "ĠâĢľ": 5506,
      "çĽĹ": 5507,
      "æł½": 5508,
      "æĬ«": 5509,
      "åįģäºĶ": 5510,
      "ä¿±": 5511,
      "åħ¨æĸ¹ä½į": 5512,
      "è¯¾é¢ĺ": 5513,
      "åºŁæ°Ķ": 5514,
      "æĲŃéħį": 5515,
      "IS": 5516,
      "åħļå§Ķä¹¦è®°": 5517,
      "ä½Ļäºº": 5518,
      "å¸ķ": 5519,
      "åĽŃæŀĹ": 5520,
      "æ®¿": 5521,
      "è·µè¡Į": 5522,
      "å¤ĸåĽ½": 5523,
      "æ¬ł": 5524,
      "å¸¸è§Ħ": 5525,
      "å½ķåıĸ": 5526,
      "éĥ¨çļĦ": 5527,
      "çĪ½": 5528,
      "èĩªèº«çļĦ": 5529,
      "éģµå¾ª": 5530,
      "å»ºéĢł": 5531,
      "å²³": 5532,
      "èĨı": 5533,
      "è¿Ļç±»": 5534,
      "è¯ģæį®": 5535,
      "çĨĶ": 5536,
      "èĤĮèĤī": 5537,
      "ç²¾åĵģ": 5538,
      "ä¸ĺ": 5539,
      "æīĩ": 5540,
      "ä¼ļå¯¼èĩ´": 5541,
      "çļĦéĢīæĭ©": 5542,
      "å¾Īå°ĳ": 5543,
      "æľ¬è´¨": 5544,
      "çľŁæŃ£çļĦ": 5545,
      "æĿĥå¨ģ": 5546,
      "ä¸Ģå¸¦ä¸Ģè·¯": 5547,
      "æĹ¥çļĦ": 5548,
      "æ¨Ĥ": 5549,
      "æĽ´å¤§çļĦ": 5550,
      "æĹłçĸĳ": 5551,
      "æīĵåį°": 5552,
      "èĥĸ": 5553,
      "æĽ¿ä»£": 5554,
      "æ¨Ļ": 5555,
      "ç§īæī¿": 5556,
      "å°Ŀè¯ķ": 5557,
      "åĨįçĶŁ": 5558,
      "æıĲäº¤": 5559,
      "ä¼łæŁĵ": 5560,
      "å¾Īé«ĺ": 5561,
      "çŃīé¢ĨåŁŁ": 5562,
      "çĩĥçĥ§": 5563,
      "åĪ°è¾¾": 5564,
      "éĢīæīĭ": 5565,
      "æĭĽæłĩ": 5566,
      "ä¸¢": 5567,
      "æ¶Īå¤±": 5568,
      "äºı": 5569,
      "åĲĮæľŁ": 5570,
      "æľĢéĩįè¦ģ": 5571,
      "æĬļ": 5572,
      "ä¹Łå°Ĩ": 5573,
      "èĥļ": 5574,
      "å¿ĥæĥħ": 5575,
      "ç¿¼": 5576,
      "éĢĢä¼ĳ": 5577,
      "ä¼Łå¤§å¤įåħ´": 5578,
      "æīŃ": 5579,
      "æĢ§å¥½": 5580,
      "åį³å°Ĩ": 5581,
      "è¦ģåľ¨": 5582,
      "è¿ĩçļĦ": 5583,
      "åħĦå¼Ł": 5584,
      "å¥ł": 5585,
      "èĶ¡": 5586,
      "èģĮèĥ½": 5587,
      "åħ¬åĬ¡": 5588,
      "æķĳæı´": 5589,
      "LED": 5590,
      "æ¶¦æ»ĳ": 5591,
      "è®©ä½ł": 5592,
      "è¹Ī": 5593,
      "å½ĵä»£": 5594,
      "èĳ±": 5595,
      "åħ¬æ°ĳ": 5596,
      "æĸ°é²ľ": 5597,
      "ä¼ª": 5598,
      "çµĦ": 5599,
      "ç¤¾ä¼ļçļĦ": 5600,
      "å¨ľ": 5601,
      "å¤ªå¤ļ": 5602,
      "ä¼łéĢĴ": 5603,
      "èģª": 5604,
      "ç§©": 5605,
      "éĢ»": 5606,
      "çĹħåĽł": 5607,
      "ç¨ĭåº¦ä¸Ĭ": 5608,
      "æµªè´¹": 5609,
      "é£ŀæľº": 5610,
      "çŃīå¾ħ": 5611,
      "æľįåĬ¡çļĦ": 5612,
      "æ¾³éĹ¨": 5613,
      "æĦıéĹ´": 5614,
      "é£İæĻ¯": 5615,
      "å¹½": 5616,
      "æīĵåĩ»": 5617,
      "ç³Ĭ": 5618,
      "åºĻ": 5619,
      "åĲĪçĲĨçļĦ": 5620,
      "æĺ¯ä¸įæĺ¯": 5621,
      "44": 5622,
      "è¥¿çıŃ": 5623,
      "åĽ¢ä½ĵ": 5624,
      "å¾ģç¨ĭ": 5625,
      "èĩªåŃ¦": 5626,
      "å°±ä¸į": 5627,
      "æķĻæĿĲ": 5628,
      "è¥¿çıŃçīĻ": 5629,
      "çºĮ": 5630,
      "æ§½": 5631,
      "äº§èĥ½": 5632,
      "æĹ¥èĩ³": 5633,
      "æĸĩèīº": 5634,
      "æŁı": 5635,
      "éľī": 5636,
      "ç¤¾äº¤": 5637,
      "è¡¥è´´": 5638,
      "å®ŀä¹ł": 5639,
      "ç³ĸå°¿çĹħ": 5640,
      "æ¶Į": 5641,
      "æķĻèĤ²çļĦ": 5642,
      "æĻ®åıĬ": 5643,
      "æĭ¨": 5644,
      "å¿«éĢŁå¢ŀéķ¿": 5645,
      "ç«Ń": 5646,
      "äºĴçĽ¸": 5647,
      "åıł": 5648,
      "ä¹Łä¸įä¼ļ": 5649,
      "éĨī": 5650,
      "åĽŀå®¶": 5651,
      "åĲĦåĽ½": 5652,
      "æķ°æį®æĺ¾ç¤º": 5653,
      "ç´Ħ": 5654,
      "åıĳåĩº": 5655,
      "åıĤèµĽ": 5656,
      "ç¢Ĺ": 5657,
      "æıĲåĪ°è¿ĩ": 5658,
      "èĬ½": 5659,
      "çĲĨçĶ±": 5660,
      "çĶŁçĲĨ": 5661,
      "ä¸Ĭå¹´": 5662,
      "è½¦éĹ´": 5663,
      "åĪ©äºļ": 5664,
      "æĸ¹çļĦ": 5665,
      "å¤ĸè§Ĥ": 5666,
      "è½´æī¿": 5667,
      "å·©åĽº": 5668,
      "çĻ¼å±ķ": 5669,
      "æ¶Ľ": 5670,
      "éĲ": 5671,
      "å®ŀåľ¨": 5672,
      "é¥°æ¼Ķ": 5673,
      "at": 5674,
      "åīµ": 5675,
      "å½¢çĬ¶": 5676,
      "åħĴ": 5677,
      "ä»¥å¤ĸ": 5678,
      "é¦Ī": 5679,
      "è¡Ķ": 5680,
      "çķľ": 5681,
      "åľ¨åħ¨åĽ½": 5682,
      "éĽ¢": 5683,
      "éĶĢéĩı": 5684,
      "3000": 5685,
      "åĴ³": 5686,
      "åĿļæĮģä»¥": 5687,
      "æĪĳæĥ³": 5688,
      "èĭ¹": 5689,
      "æĺ¾å¾Ĺ": 5690,
      "ç§©åºı": 5691,
      "éħįå¤ĩ": 5692,
      "çļĦäººçĶŁ": 5693,
      "é²ľæĺİ": 5694,
      "600": 5695,
      "æĬ¼": 5696,
      "å°ıè¯´": 5697,
      "çĭ¬çī¹çļĦ": 5698,
      "çĶµç¼Ĩ": 5699,
      "ä¸Ĭæľī": 5700,
      "æ£Ĵ": 5701,
      "å¥³åŃ©": 5702,
      "é¤Ĭ": 5703,
      "æī©æķ£": 5704,
      "é¹¿": 5705,
      "å·²æľī": 5706,
      "çħ¤çĤŃ": 5707,
      "æī®": 5708,
      "ä¸ºä¸Ńå¿ĥ": 5709,
      "çŃīå¤ļ": 5710,
      "é«ĺæĸ°æĬĢæľ¯": 5711,
      "éĤ£æł·": 5712,
      "çļĦç¤¾ä¼ļ": 5713,
      "å¢ŀåĬłäºĨ": 5714,
      "æ°ĳèĲ¥": 5715,
      "å·´è¥¿": 5716,
      "èĽĩ": 5717,
      "èĢĲç£¨": 5718,
      "å¿ĥèĦı": 5719,
      "ä¼ļåĩºçİ°": 5720,
      "çĭĢ": 5721,
      "å®ĮæĪĲäºĨ": 5722,
      "æĽ¾ç»ıæıĲåĪ°è¿ĩ": 5723,
      "æ·®": 5724,
      "åħħè¶³": 5725,
      "æ²«": 5726,
      "æ¨¡åŀĭ": 5727,
      "çħ§æĺİ": 5728,
      "è®¾æľī": 5729,
      "çļĦåħ³ç³»": 5730,
      "äººåĬĽèµĦæºĲ": 5731,
      "å¸ĤæĶ¿åºľ": 5732,
      "150": 5733,
      "åŁİåĮº": 5734,
      "å¾®çĶŁçī©": 5735,
      "éĢłæĪĲçļĦ": 5736,
      "ä¸»åľº": 5737,
      "è©±": 5738,
      "çºªå½ķ": 5739,
      "åıĺå½¢": 5740,
      "le": 5741,
      "è¾¦": 5742,
      "ä¸¸": 5743,
      "ãĢĤãĢį": 5744,
      "èĭ¹æŀľ": 5745,
      "çĺ¦": 5746,
      "éļ¾é¢ĺ": 5747,
      "åĨħå¿ĥ": 5748,
      "æĢ¨": 5749,
      "èĤ¡æĿĥ": 5750,
      "è¯»ä¹¦": 5751,
      "åħļçļĦåįģä¹Ŀ": 5752,
      "èŃ·": 5753,
      "èı©": 5754,
      "çŃĴ": 5755,
      "ç»ĻäºĨ": 5756,
      "éģ©": 5757,
      "åĲĦçķĮ": 5758,
      "çĶŁæ®ĸ": 5759,
      "æī¹è¯Ħ": 5760,
      "å³¡": 5761,
      "ä»İä¸ļ": 5762,
      "æĢ»éĥ¨": 5763,
      "ä¸ĭè½½": 5764,
      "æĢĿèĢĥè¿Ļä¸ªéĹ®é¢ĺ": 5765,
      "ä¸Ńåħ¨ä¼ļ": 5766,
      "2007": 5767,
      "çĶµè§Ĩåī§": 5768,
      "è¶ħå£°": 5769,
      "2006": 5770,
      "æĹħè¡Į": 5771,
      "ä½¿åħ¶": 5772,
      "äºĶè¡Įç¼º": 5773,
      "åħļåĳĺå¹²éĥ¨": 5774,
      "ä¸»æ¼Ķ": 5775,
      "æĹ¶å°ļ": 5776,
      "çľĭçĿĢ": 5777,
      "ä¾¿æĺ¯": 5778,
      "æķ´æ²»": 5779,
      "å±±ä¸ľçľģ": 5780,
      "è¯¸å¤ļ": 5781,
      "è¦º": 5782,
      "çļĦæķħäºĭ": 5783,
      "é¢ĦæľŁ": 5784,
      "åĬ©æĶ»": 5785,
      "éĢļæĬ¥": 5786,
      "æĥ©": 5787,
      "å¯¹åħ¶": 5788,
      "æľŁéĻĲ": 5789,
      "å±Ģéķ¿": 5790,
      "æĮĸæİĺ": 5791,
      "ç¥Ń": 5792,
      "å»ºè®¾åĴĮ": 5793,
      "èŃī": 5794,
      "120": 5795,
      "è¾ĥé«ĺçļĦ": 5796,
      "å¤ļå¹´æĿ¥": 5797,
      "çĻ½éħĴ": 5798,
      "è¥¿åįĹ": 5799,
      "éĽ£": 5800,
      "æĹ¥åħĥ": 5801,
      "æĢ»é¢Ŀ": 5802,
      "éª¤": 5803,
      "çĶŁäº§çº¿": 5804,
      "ä¸»åĬŀ": 5805,
      "æ³ķå®ļ": 5806,
      "å¯¹æİ¥": 5807,
      "éĩįå¤į": 5808,
      "ä¸įåľ¨": 5809,
      "èħĬ": 5810,
      "åĬŀäºĭ": 5811,
      "åľ°éľĩ": 5812,
      "åĪĿæŃ¥": 5813,
      "ç¼ºçĤ¹": 5814,
      "åŃ£èĬĤ": 5815,
      "çļĦæľºä¼ļ": 5816,
      "é»ĳèī²ç´ł": 5817,
      "åħ½": 5818,
      "çļĦè¿ĩç¨ĭ": 5819,
      "åŃĺåĤ¨": 5820,
      "æĬĬæĪĳä»¬": 5821,
      "éģĹäº§": 5822,
      "æķ°æİ§": 5823,
      "è½ī": 5824,
      "å®¶æĹı": 5825,
      "æ¡£æ¡Ī": 5826,
      "åįĵè¶Ĭ": 5827,
      "å¥Ī": 5828,
      "åĲĮæĹ¶ä¹Ł": 5829,
      "éĨĽ": 5830,
      "çĶŁåĬ¨": 5831,
      "çķĻä¸ĭ": 5832,
      "æĪĳä»¬åı¯ä»¥": 5833,
      "å¤§äºİ": 5834,
      "åĩºçĶŁäºİ": 5835,
      "è¯Ħè®º": 5836,
      "çİ°åľ¨çļĦ": 5837,
      "åįłæ¯Ķ": 5838,
      "æĵļ": 5839,
      "æĪĲä¸ºäºĨ": 5840,
      "43": 5841,
      "åĲķ": 5842,
      "å¿ħè¦ģçļĦ": 5843,
      "å¹¿æĴŃ": 5844,
      "å¯¹å¾ħ": 5845,
      "èĪ°": 5846,
      "å»Ĭ": 5847,
      "çľ¾": 5848,
      "åľĺ": 5849,
      "68": 5850,
      "å½ĵäºĭ": 5851,
      "è¿Ļå°±": 5852,
      "ç®¡çĲĨçļĦ": 5853,
      "æİĪäºĪ": 5854,
      "éĴł": 5855,
      "è§Ĥçľĭ": 5856,
      "è¨±": 5857,
      "æĪ¿åŃĲ": 5858,
      "å¿ĥä¸Ń": 5859,
      "ä¸įæĸŃæıĲé«ĺ": 5860,
      "å¸¦æĿ¥äºĨ": 5861,
      "çĶĺèĤĥ": 5862,
      "æ¹ĺ": 5863,
      "æĬ¥èŃ¦": 5864,
      "æ°´ä¸Ń": 5865,
      "æĶ¶åĪ°": 5866,
      "Ġå¹´": 5867,
      "æ°Ķè±¡": 5868,
      "ä¾ĽåºĶéĵ¾": 5869,
      "æ¯ıæĹ¥": 5870,
      "åĪĨè§£": 5871,
      "æ¾³å¤§åĪ©": 5872,
      "ä¸Īå¤«": 5873,
      "å¼µ": 5874,
      "éĴ¢ç»ĵæŀĦ": 5875,
      "ä¸įåĪ©": 5876,
      "ä¸ªä½ĵ": 5877,
      "æĺ¯æĪĳä»¬": 5878,
      "å±ĤéĿ¢": 5879,
      "ä½ĽæķĻ": 5880,
      "çģ¾å®³": 5881,
      "çļĦçĽ®çļĦ": 5882,
      "å¥¹ä»¬": 5883,
      "ç¨İæĶ¶": 5884,
      "çļĦåıĺåĮĸ": 5885,
      "å¸¸åĬ¡": 5886,
      "ãĢĤãĢĤ": 5887,
      "å¹³ç¨³": 5888,
      "æŁĲç§į": 5889,
      "èĬĤçľģ": 5890,
      "5000": 5891,
      "æĺ¯æĪĳ": 5892,
      "å¸½": 5893,
      "ä¹ĭæīĢä»¥": 5894,
      "çļĦçĽ®æłĩ": 5895,
      "æ¸ĹéĢı": 5896,
      "ç¯®æĿ¿": 5897,
      "çºªå§Ķ": 5898,
      "åıįèĢĮ": 5899,
      "æį®äºĨè§£": 5900,
      "ä¾Ŀèµĸ": 5901,
      "èĨ¨": 5902,
      "æį®æĤī": 5903,
      "ä¼ĺå¼Ĥ": 5904,
      "ä¸Ģä½ĵçļĦ": 5905,
      "æııè¿°": 5906,
      "è¶ħè¶Ĭ": 5907,
      "é¥®æĸĻ": 5908,
      "çĶµè·¯": 5909,
      "âĸ": 5910,
      "å¤ĸçķĮ": 5911,
      "52": 5912,
      "èķ´": 5913,
      "åİĨåı²ä¸Ĭ": 5914,
      "èĢĮæĪĲ": 5915,
      "ç®¡çĲĨä½ĵç³»": 5916,
      "çķı": 5917,
      "å®ŀä½ĵ": 5918,
      "ä¸İæŃ¤": 5919,
      "è¥¿åĮĹ": 5920,
      "åį¸": 5921,
      "å·¥ä½ľèĢħ": 5922,
      "æĽĿ": 5923,
      "æĮĩç¤º": 5924,
      "çĹĴ": 5925,
      "å¯¨": 5926,
      "äºīåıĸ": 5927,
      "å¥½å¤Ħ": 5928,
      "å¤ªéĺ³èĥ½": 5929,
      "éģ£": 5930,
      "å®¶å±ħ": 5931,
      "éĢīä¸¾": 5932,
      "åĶ®åĲİæľįåĬ¡": 5933,
      "ç²¾å¿ĥ": 5934,
      "æľįåĭĻ": 5935,
      "é»ı": 5936,
      "è¯±åıĳ": 5937,
      "æŀ¢": 5938,
      "èĪŀè¹Ī": 5939,
      "è¾ĵåĩº": 5940,
      "åħ¨å¹´": 5941,
      "äºĶè¡ĮåĪĨæŀĲ": 5942,
      "è¿ĺæ²¡æľī": 5943,
      "æ°´åĪĨ": 5944,
      "èħ»": 5945,
      "æī¿åıĹ": 5946,
      "çģ«çģ¾": 5947,
      "åİĺç±³": 5948,
      "åİĨç¨ĭ": 5949,
      "ä¿ĿçķĻ": 5950,
      "è½¬æį¢": 5951,
      "çģ£": 5952,
      "éĢĻåĢĭ": 5953,
      "ä¸įåıĹ": 5954,
      "è¦ģæĬĬ": 5955,
      "èģĮåĬ¡": 5956,
      "ä¸ĢçĶŁ": 5957,
      "41": 5958,
      "åįıä½ľ": 5959,
      "æĬ¥èĢĥ": 5960,
      "èĥ½åĬĽåĴĮ": 5961,
      "åĲĮä¸Ģ": 5962,
      "åİ¿çº§": 5963,
      "ä¸Ńåįİæ°ĳæĹıä¼Łå¤§å¤įåħ´": 5964,
      "æĤ¨åħ«åŃĹ": 5965,
      "åĭĺ": 5966,
      "å®Įç¾İ": 5967,
      "ç¬¬ä¸ĥ": 5968,
      "éļĶç¦»": 5969,
      "æĬĢå·§": 5970,
      "ç¢§": 5971,
      "åİŁæľ¬": 5972,
      "åįģä¸Ģ": 5973,
      "ä¸įä»ħä»ħ": 5974,
      "æ±°": 5975,
      "ä»¶äºĭ": 5976,
      "åģ¥èº«": 5977,
      "è´Łæĭħ": 5978,
      "å¸¦å¤´": 5979,
      "åįģå¤§": 5980,
      "çľī": 5981,
      "æľºç»Ħ": 5982,
      "åħ¥åı£": 5983,
      "éĳ": 5984,
      "æĥ§": 5985,
      "å°ıåĮº": 5986,
      "çľŁç©º": 5987,
      "äººåĴĮ": 5988,
      "å¾ħéģĩ": 5989,
      "è¿Ļä¸ĢçĤ¹": 5990,
      "æĸ°çĶŁ": 5991,
      "çļĦç¾İ": 5992,
      "æĢ¥æĢ§": 5993,
      "è¯Ħå®¡": 5994,
      "æ¾³å¤§åĪ©äºļ": 5995,
      "ä¸įç¦ģ": 5996,
      "ä¸ºæŃ¤": 5997,
      "éĺŁåĳĺ": 5998,
      "æĪĺèĥľ": 5999,
      "æ¸Ķ": 6000,
      "æķ£çĥŃ": 6001,
      "æľīå¤ļ": 6002,
      "å¦¥": 6003,
      "åĲ¸éĻĦ": 6004,
      "çļĦè¡Įä¸º": 6005,
      "çĻĤ": 6006,
      "èģļæ°¨": 6007,
      "å¸¦åĪ°äºĨ": 6008,
      "æĶ¶èĹı": 6009,
      "éĺĲ": 6010,
      "åĤħ": 6011,
      "çĩĥæĸĻ": 6012,
      "ä¸²": 6013,
      "èĳ¬": 6014,
      "ç¢º": 6015,
      "åıĥ": 6016,
      "Ġ1": 6017,
      "éĤ£éĩĮ": 6018,
      "æ¡¥æ¢ģ": 6019,
      "æĪĲç«ĭäºİ": 6020,
      "çī©æĸĻ": 6021,
      "åŃ¦æł¡çļĦ": 6022,
      ":ãĢĮ": 6023,
      "äº¤æį¢": 6024,
      "æ·±æĢĿ": 6025,
      "å®¢æĪ·çļĦ": 6026,
      "çłĶç©¶ä¸Ńå¿ĥ": 6027,
      "éħ·": 6028,
      "åľ°çĤ¹": 6029,
      "è¿Ŀè§Ħ": 6030,
      "ä»Ķç»Ĩ": 6031,
      "éĢļçĶ¨": 6032,
      "è®²è¿°": 6033,
      "æľĢä¸º": 6034,
      "éĹ´çļĦ": 6035,
      "åĩıèĤ¥": 6036,
      "æ²³åįĹçľģ": 6037,
      "åĨ²çªģ": 6038,
      "è¢«ç§°ä¸º": 6039,
      "çŃĶæ¡Ī": 6040,
      "æº¢": 6041,
      "æ¶µçĽĸ": 6042,
      "èµ°è¿Ľ": 6043,
      "çİĦ": 6044,
      "å¹´åīį": 6045,
      "æ±Łèĭıçľģ": 6046,
      "ing": 6047,
      "èĮĤ": 6048,
      "è¯ĬçĸĹ": 6049,
      "å¯¹æ¯Ķ": 6050,
      "çŃīéĹ®é¢ĺ": 6051,
      "æĢ»å±Ģ": 6052,
      "äºĮæ¬¡": 6053,
      "åħ¥éĢī": 6054,
      "éĹ¨çªĹ": 6055,
      "ç¤¾ä¼ļä¸»ä¹īçİ°ä»£åĮĸ": 6056,
      "åľ¨å¤§": 6057,
      "57": 6058,
      "è¨ĺ": 6059,
      "åľ°éĵģ": 6060,
      "äººå¿ĥ": 6061,
      "åı¹": 6062,
      "å¿½è§Ĩ": 6063,
      "è¿ĽèĢĮ": 6064,
      "åĦª": 6065,
      "æĿ¡ä»¶ä¸ĭ": 6066,
      "åİŁæĿ¥": 6067,
      "çľĭè§ģ": 6068,
      "åĪļåĪļ": 6069,
      "ç®ĢåįķçļĦ": 6070,
      "æľīæķĪåľ°": 6071,
      "æ»ŀ": 6072,
      "èĳĽ": 6073,
      "æĥħèĬĤ": 6074,
      "ç§įåŃĲ": 6075,
      "çŀ¬": 6076,
      "èµĲ": 6077,
      "æĦŁåıĹåĪ°": 6078,
      "åı¯ä»¥éĢļè¿ĩ": 6079,
      "ä¸¤æ¬¡": 6080,
      "åıĳçĶŁäºĨ": 6081,
      "et": 6082,
      "ç¨³å®ļæĢ§": 6083,
      "ä¸įä¸Ģæł·": 6084,
      "æĳĦå½±": 6085,
      "å¤ıåŃ£": 6086,
      "åº§è°Ī": 6087,
      "å¤§å¸Ī": 6088,
      "ç¨»": 6089,
      "åĲĮäºĭ": 6090,
      "æĲľç´¢": 6091,
      "ang": 6092,
      "å°Ĩäºİ": 6093,
      "ç¤¼çī©": 6094,
      "èĭıå·ŀ": 6095,
      "ä¼łç»ŁæĸĩåĮĸ": 6096,
      "æĪĪ": 6097,
      "å½ĵå¤©": 6098,
      "æĶ»åĩ»": 6099,
      "èģĮç§°": 6100,
      "ä¾¨": 6101,
      "éĢıéľ²": 6102,
      "éĢĬ": 6103,
      "å¤ļæķ°": 6104,
      "åĴ½": 6105,
      "åĬ¨çĶ»": 6106,
      "çİ°çĬ¶": 6107,
      "çļĦä»·æł¼": 6108,
      "é½Ĳåħ¨": 6109,
      "èģļæ°¨éħ¯": 6110,
      "ä¸Ĭä¸Ģ": 6111,
      "æĸ°åĨłèĤºçĤİ": 6112,
      "ç³ķ": 6113,
      "æ¸ħçĲĨ": 6114,
      "æįŁåĿı": 6115,
      "åĬłæĭ¿": 6116,
      "åĮł": 6117,
      "äººä»¬çļĦ": 6118,
      "éħ¬": 6119,
      "ç«ĭæ³ķ": 6120,
      "åħļç»Ħ": 6121,
      "??": 6122,
      "åĴĮæĬĢæľ¯": 6123,
      "æµģéĢļ": 6124,
      "æ¯ĶèµĽä¸Ń": 6125,
      "åģ¥åº·çļĦ": 6126,
      "åĥ¹": 6127,
      "éĢ²è¡Į": 6128,
      "å¹³å®ī": 6129,
      "èĬ¬": 6130,
      "é¾Ļå¤´": 6131,
      "éĥĳå·ŀ": 6132,
      "åİŁæĿĲæĸĻ": 6133,
      "æīĵçł´": 6134,
      "åĵįåºĶ": 6135,
      "çī©èµĦ": 6136,
      "è¶ħçº§": 6137,
      "ç´«å¤ĸ": 6138,
      "ä¸įä¹ħ": 6139,
      "æĩĤå¾Ĺ": 6140,
      "åĨĽéĺŁ": 6141,
      "åľ¨ä½¿çĶ¨": 6142,
      "éĢļè®¯": 6143,
      "æľĢéĩįè¦ģçļĦ": 6144,
      "æ°´å¹³çļĦ": 6145,
      "IP": 6146,
      "ç²¾å¯Ĩ": 6147,
      "è²»": 6148,
      "æĸ°åıĳå±ķ": 6149,
      "éħµ": 6150,
      "ä½İæ¸©": 6151,
      "å¸Ĥåľºä¸Ĭ": 6152,
      "åĲĮæŃ¥": 6153,
      "ä¾ĽåºĶåķĨ": 6154,
      "æľīçĤ¹": 6155,
      "çĪ¸çĪ¸": 6156,
      "çĨ¬": 6157,
      "æĪĳåľ¨": 6158,
      "ä¸ĩå¹³æĸ¹ç±³": 6159,
      "è¯´æ³ķ": 6160,
      "ç»ıæµİåŃ¦": 6161,
      "æ¼ł": 6162,
      "å¥½åĥı": 6163,
      "èı¯": 6164,
      "ç»¿åĮĸ": 6165,
      "çļĦåºĶçĶ¨": 6166,
      "ä¾Ŀçħ§": 6167,
      "åħ¹": 6168,
      "é¥²": 6169,
      "å¿ĥæĢģ": 6170,
      "èĩĤ": 6171,
      "åİ»éĻ¤": 6172,
      "æīĭç»Ń": 6173,
      "é¸¿": 6174,
      "ç²¤": 6175,
      "æ¬§åĨł": 6176,
      "æİ¥ç§į": 6177,
      "zh": 6178,
      "æīįä¼ļ": 6179,
      "å»£": 6180,
      "çļĦæł¸å¿ĥ": 6181,
      "ç¶Ń": 6182,
      "æħķ": 6183,
      "çĤ®": 6184,
      "é¼İ": 6185,
      "è¯Ī": 6186,
      "åĪĩåī²": 6187,
      "éĿŀæ´²": 6188,
      "51": 6189,
      "æĺİæĺ¾çļĦ": 6190,
      "76": 6191,
      "æĥħå½¢": 6192,
      "æ¬Ĭ": 6193,
      "æĶ¾æĿ¾": 6194,
      "å»ºæĿĲ": 6195,
      "æĶ¶è´Ń": 6196,
      "è®¤çŁ¥": 6197,
      "ä¸ºå¤§å®¶": 6198,
      "2005": 6199,
      "ä»ĭè´¨": 6200,
      "æĲŃå»º": 6201,
      "æĲħ": 6202,
      "é©°": 6203,
      "åĩ¸": 6204,
      "li": 6205,
      "ä¸įèµ·": 6206,
      "å®¹éĩı": 6207,
      "èĮ¨": 6208,
      "è¦ª": 6209,
      "é¢Ħç¤º": 6210,
      "è¾ĵåħ¥": 6211,
      "åĢºåĬ¡": 6212,
      "æŀģå¤§": 6213,
      "æĬĢæľ¯åĴĮ": 6214,
      "çŃīçļĦ": 6215,
      "å§ĳ": 6216,
      "èĮİ": 6217,
      "çĻ«çĹ«çĹħ": 6218,
      "ç»Ħå»º": 6219,
      "åħ±å»º": 6220,
      "æºĥ": 6221,
      "èĥİåĦ¿": 6222,
      "ç»´åº¦åİ»": 6223,
      "éŁ¦": 6224,
      "è¿ĩäºĨ": 6225,
      "å®«é¢Ī": 6226,
      "çļĦåħī": 6227,
      "å½Ń": 6228,
      "æĹ¥åľ¨": 6229,
      "ä»»æĦı": 6230,
      "å¼ºåĽ½": 6231,
      "å®ŀåľ°": 6232,
      "åįıåķĨ": 6233,
      "æĬĬæĪĳä»¬å¸¦åĪ°äºĨ": 6234,
      "æĶĢ": 6235,
      "æ³»": 6236,
      "è¥¿äºļ": 6237,
      "ä¸ºæĤ¨": 6238,
      "åı£èħĶ": 6239,
      "äºĮæ°§åĮĸ": 6240,
      "èŁ¹": 6241,
      "ä¸ºäºº": 6242,
      "è¿Ļåı¥è¯ĿæĬĬæĪĳä»¬å¸¦åĪ°äºĨ": 6243,
      "ä¸Ģä¸ªæĸ°çļĦç»´åº¦åİ»": 6244,
      "è¿Ļåı¥è¯ĿæĬĬæĪĳä»¬å¸¦åĪ°äºĨä¸Ģä¸ªæĸ°çļĦç»´åº¦åİ»": 6245,
      "%ãĢģ": 6246,
      "åıĳåĬ¨æľº": 6247,
      "æ±º": 6248,
      "æľįåĬ¡ä¸ļ": 6249,
      "èĮ¶åı¶": 6250,
      "å¿ĹæĦ¿èĢħ": 6251,
      "è¯Ħä¸º": 6252,
      "èº«å¿ĥ": 6253,
      "ä¹¡æĿĳæĮ¯åħ´": 6254,
      "çĲĥè¿·": 6255,
      "ç©¶ç«Ł": 6256,
      "ä¸¤åĽ½": 6257,
      "ä¸įå¤ļ": 6258,
      ");": 6259,
      "è¡·": 6260,
      "å®¡è§Ĩ": 6261,
      "æ³ķå¾ĭæ³ķè§Ħ": 6262,
      "æĹłæķ°": 6263,
      "éĢ¼": 6264,
      "ç¿»è¯ĳ": 6265,
      "app": 6266,
      "å¹¿æ³ĽåºĶçĶ¨äºİ": 6267,
      "äººéĥ½": 6268,
      "èĲĿåįľ": 6269,
      "åĽĽå¤§": 6270,
      "èĵ¬": 6271,
      "çĽ¸ä¼¼": 6272,
      "éĻ¢å£«": 6273,
      "è¿Ļä¹Ł": 6274,
      "åįģåħŃ": 6275,
      "ä¸ĵä¸ļæĬĢæľ¯": 6276,
      "åĲīæŀĹ": 6277,
      "ç»§æī¿": 6278,
      "åıĶ": 6279,
      "ç»ıæµİç¤¾ä¼ļåıĳå±ķ": 6280,
      "å¤§æ¦Ĥ": 6281,
      "å¦¨": 6282,
      "äººåĳĺçļĦ": 6283,
      "åµ": 6284,
      "æĬķæłĩ": 6285,
      "å®ł": 6286,
      "èĻ¾": 6287,
      "éŃħåĬĽ": 6288,
      "åĪĿæľŁ": 6289,
      "åĲİæŀľ": 6290,
      "çĶŁæ¶¯": 6291,
      "ç§ĳåŃ¦å®¶": 6292,
      "èĹ¥": 6293,
      "53": 6294,
      "æľ¬èµĽåŃ£": 6295,
      "åį»": 6296,
      "å¡ĺ": 6297,
      "åĸĦäºİ": 6298,
      "æ¹¿åº¦": 6299,
      "è¾ħå¯¼": 6300,
      "çŃĸåĪĴ": 6301,
      "è«ĸ": 6302,
      "å®ªæ³ķ": 6303,
      "åĨħåĪĨæ³Į": 6304,
      "åı£ç½©": 6305,
      "åĩºè¡Į": 6306,
      "è¦ģæĥ³": 6307,
      "å¤ĸéĥ¨": 6308,
      "çĶµåŃĲåķĨåĬ¡": 6309,
      "åľĸ": 6310,
      "çļĦåŃ¦ä¹ł": 6311,
      "å¥½äºĨ": 6312,
      "ä¹¾": 6313,
      "æ½ľåĬĽ": 6314,
      "è®¿éĹ®": 6315,
      "æ±¡æ³¥": 6316,
      "ç¿Ķ": 6317,
      "æİĴæ°´": 6318,
      "æĬµæĬĹ": 6319,
      "ç¨±": 6320,
      "å®Ļ": 6321,
      "åĪ¶åĨ·": 6322,
      "è¿Ļåı¥è¯ĿæĬĬæĪĳä»¬å¸¦åĪ°äºĨä¸Ģä¸ªæĸ°çļĦç»´åº¦åİ»æĢĿèĢĥè¿Ļä¸ªéĹ®é¢ĺ": 6323,
      "æĸ¯çī¹": 6324,
      "ä¸ŃåĴĮ": 6325,
      "æĬ¹": 6326,
      "ä¸ļåĨħ": 6327,
      "é¢Ĩå¯¼å¹²éĥ¨": 6328,
      "åıĤæķ°": 6329,
      "æ·ĺæ±°": 6330,
      "ÃĹ": 6331,
      "åĨħèĴĻåı¤": 6332,
      "éħ¿": 6333,
      "é£ĺ": 6334,
      "å®´": 6335,
      "ä¸ĢèĪ¬æĿ¥è¯´": 6336,
      "çĶ¨äººåįķä½į": 6337,
      "éĽ¶ä»¶": 6338,
      "ä½ĵè´¨": 6339,
      "åĲ¯åıĳ": 6340,
      "èģ¯": 6341,
      "ä¸įå®ľ": 6342,
      "ä¿¡ä»°": 6343,
      "éħįä»¶": 6344,
      "es": 6345,
      "çĥĺå¹²": 6346,
      "ç¡®ç«ĭ": 6347,
      "æ¡Ĩæŀ¶": 6348,
      "éģŃéģĩ": 6349,
      "è·¯ä¸Ĭ": 6350,
      "è´ª": 6351,
      "æĭĺ": 6352,
      "æ²¦ä¸º": 6353,
      "åįµå·¢": 6354,
      "æĹłéĻĲ": 6355,
      "ç¡¬åº¦": 6356,
      "ä¸įæĥ³": 6357,
      "åħįçĸ«åĬĽ": 6358,
      "å±¬": 6359,
      "å¤§æī¹": 6360,
      "ä¹ĭä¸º": 6361,
      "åŁºæľ¬ä¸Ĭ": 6362,
      "ä»¥å¾Ģ": 6363,
      "è¾¾æĪĲ": 6364,
      "å½±åĵįåĬĽ": 6365,
      "éĢ»è¾ĳ": 6366,
      "å¹¼åĦ¿åĽŃ": 6367,
      "çļĦæĦŁè§ī": 6368,
      "ä¼ĺç§ĢçļĦ": 6369,
      "çĩŁ": 6370,
      "è¿Ļéĥ¨": 6371,
      "å¤§éĻĨ": 6372,
      "æľĪçļĦ": 6373,
      "æ¸£": 6374,
      "çľĭèµ·æĿ¥": 6375,
      "ä½ĵçİ°äºĨ": 6376,
      "è¾īçħĮ": 6377,
      "åİ»äºĨ": 6378,
      "å¯ĮåĲ«": 6379,
      "ç®Ģä»ĭ": 6380,
      "åŃ¦ä¹łè´¯å½»": 6381,
      "å¤ıå¤©": 6382,
      "ç»³": 6383,
      "éģĵçĲĨ": 6384,
      "åıĳæĶ¾": 6385,
      "98": 6386,
      "çļĦçĽ¸åħ³": 6387,
      "æĺ¯å¾Ī": 6388,
      "è¿Ľåıĸ": 6389,
      "ä¸Ĭæµ·å¸Ĥ": 6390,
      "æĸ°åįİ": 6391,
      "æĻĤåĢĻ": 6392,
      "åĤ²": 6393,
      "æ°´è´¨": 6394,
      "å®ŀè·µä¸Ń": 6395,
      "åıĭè°Ĭ": 6396,
      "åĻ¨å®ĺ": 6397,
      "æĪĳå¸ĮæľĽ": 6398,
      "åĬłå¼ºå¯¹": 6399,
      "åĿļå®ŀ": 6400,
      "å»¶ä¼¸": 6401,
      "æ²»åħļ": 6402,
      "åıĤåĬłäºĨ": 6403,
      "çİ¯å¢ĥä¿ĿæĬ¤": 6404,
      "éģ®": 6405,
      "åıĸæ¶Ī": 6406,
      "åľ¨æł¡": 6407,
      "æĦī": 6408,
      "æ¬º": 6409,
      "æģ¨": 6410,
      "è¢ģ": 6411,
      "åĨ¯": 6412,
      "ç¹ģèį£": 6413,
      "ao": 6414,
      "å¤ķ": 6415,
      "åĽ½éĺ²": 6416,
      "çĭ¼": 6417,
      "æº¶æ¶²": 6418,
      "Ġåľ¨": 6419,
      "éĥ¨éĺŁ": 6420,
      "é¾Ļæ±Ł": 6421,
      "å®ŀè®Ń": 6422,
      "è¿ĩå¤ļ": 6423,
      "è¿ĺéľĢè¦ģ": 6424,
      "å®ŀæĹ¶": 6425,
      "ç´ļ": 6426,
      "å¹¾": 6427,
      "ç§ĳåŃ¦æĬĢæľ¯": 6428,
      "67": 6429,
      "åĦĴ": 6430,
      "æīĳ": 6431,
      "çŃīå¤ļç§į": 6432,
      "åĿļå¼º": 6433,
      "ä¸Ĭå¸Ĥåħ¬åı¸": 6434,
      "å¸¸å§Ķä¼ļ": 6435,
      "çĪ¬": 6436,
      "åŃĺåľ¨çļĦ": 6437,
      "èĻ¹": 6438,
      "åķıé¡Į": 6439,
      "å°ıå¿ĥ": 6440,
      "éĤª": 6441,
      "èĤļ": 6442,
      "çĻĮçĹĩ": 6443,
      "åħ±è®¡": 6444,
      "åıĳæĢ§": 6445,
      "éĩįè¦ģè®²è¯Ŀ": 6446,
      "éª¨å¹²": 6447,
      "èĳĹä½ľ": 6448,
      "æĿ¡ä»¶çļĦ": 6449,
      "æĦŁåĨĴ": 6450,
      "æ·±åıĹ": 6451,
      "çłĶåĪ¶": 6452,
      "åŁºç¡Ģä¸Ĭ": 6453,
      "å¾®éĩı": 6454,
      "åĲİæľŁ": 6455,
      "é«ĺè¡Ģåİĭ": 6456,
      "è¾Ł": 6457,
      "ä»ħä»ħ": 6458,
      "éĵŃ": 6459,
      "çłĶè®¨": 6460,
      "æĴĴ": 6461,
      "æ¤ħ": 6462,
      "æĪĲåŀĭ": 6463,
      "å®ļäºĨ": 6464,
      "å¼ºåĪ¶": 6465,
      "æĪĸèĢħæĺ¯": 6466,
      "æ³Ĭ": 6467,
      "ä»¤æĪĳ": 6468,
      "èµ·çĤ¹": 6469,
      "ç¿Ĵ": 6470,
      "èĥ½åľ¨": 6471,
      "èĪĮ": 6472,
      "æ»¿": 6473,
      "çļĦç¬¬ä¸Ģ": 6474,
      "è¿Ĳä½ľ": 6475,
      "æª¢": 6476,
      "å¤ĸäº¤": 6477,
      "ç¦ıåĪ©": 6478,
      "æŃ¦åĻ¨": 6479,
      "æŀ£": 6480,
      "ä¹ĥèĩ³": 6481,
      "åľ°ä¸Ĭ": 6482,
      "éŁµ": 6483,
      "éĢ¢": 6484,
      "å°Ĩç»§ç»Ń": 6485,
      "çĶ»éĿ¢": 6486,
      "æľĢæĹ©": 6487,
      "ä¸İæŃ¤åĲĮæĹ¶": 6488,
      "å¿łè¯ļ": 6489,
      "æľ¬å±Ĭ": 6490,
      "çº¿ä¸ĭ": 6491,
      "éĶĤ": 6492,
      "éĺ³å¸Ĥ": 6493,
      "éļĬ": 6494,
      "åĲĦå¤§": 6495,
      "é«ĺåº¦éĩįè§Ĩ": 6496,
      "çĸ²åĬ³": 6497,
      "ä»ĺåĩº": 6498,
      "èĬĤæĹ¥": 6499,
      "éĢ¾": 6500,
      "åİļåº¦": 6501,
      "å®īåħ¨æĢ§": 6502,
      "éĤ£å°±æĺ¯": 6503,
      "ä¸´æĹ¶": 6504,
      "æķ²": 6505,
      "çĪ±å¿ĥ": 6506,
      "è¡¥åģ¿": 6507,
      "æĤĶ": 6508,
      "æĭĽåķĨ": 6509,
      "åħĭæľį": 6510,
      "ä¸»è¦ģæľī": 6511,
      "æĳ©æĵ¦": 6512,
      "ç¥Ŀç¦ı": 6513,
      "çĶ¨ä½ľ": 6514,
      "éķ¿æ²Ļ": 6515,
      "è¾ĥå¤§çļĦ": 6516,
      "it": 6517,
      "å°ļæľª": 6518,
      "çĶµç«Ļ": 6519,
      "éļĻ": 6520,
      "åºŀ": 6521,
      "ç»ıæµİçļĦ": 6522,
      "é»Ħæ²³": 6523,
      "ä½ĵç§¯": 6524,
      "éĥ½æ²¡æľī": 6525,
      "æ¨¡åħ·": 6526,
      "Ġ2": 6527,
      "èĪĨ": 6528,
      "çī²": 6529,
      "54": 6530,
      "ä¸ĭåĪĹ": 6531,
      "åĬłæĭ¿å¤§": 6532,
      "DP": 6533,
      "å¢ŀè¿Ľ": 6534,
      "åħĶ": 6535,
      "äººä¸İ": 6536,
      "åįĹæĸ¹": 6537,
      "æĢĿæĥ³æĶ¿æ²»": 6538,
      "è®°è½½": 6539,
      "ç¦»å©ļ": 6540,
      "åıĳçĥŃ": 6541,
      "ç»Ħç»ĩçļĦ": 6542,
      "å°ĳçļĦ": 6543,
      "é«ĺéĵģ": 6544,
      "âĢĿ;": 6545,
      "èĻļæĭŁ": 6546,
      "ç»ıéĶĢ": 6547,
      "ä¸ĬåįĬå¹´": 6548,
      "å¥³å£«": 6549,
      "åĻ¨æ¢°": 6550,
      "å¦Ĥæŀľæĺ¯": 6551,
      "åĲĦéĥ¨éĹ¨": 6552,
      "çĶµåİĭ": 6553,
      "æĢ»è£ģ": 6554,
      "æĻķ": 6555,
      "äº«æľī": 6556,
      "ç»ıæĦıéĹ´": 6557,
      "å«©": 6558,
      "é¡½": 6559,
      "ç¼ºéĻ·": 6560,
      "01": 6561,
      "æĦıå¿Ĺ": 6562,
      "å®ĩå®Ļ": 6563,
      "åį«æĺŁ": 6564,
      "éĢ¸": 6565,
      "æ½ĺ": 6566,
      "æĸ°èĥ½æºĲæ±½è½¦": 6567,
      "å°ıåŀĭ": 6568,
      "åĬĩ": 6569,
      "æ¸¯æ¾³": 6570,
      "éŁ¿": 6571,
      "çļĦåĬŁèĥ½": 6572,
      "ä¸įåĬ¨": 6573,
      "è¿Ļä¸¤": 6574,
      "å®ļä¹ī": 6575,
      "æĶ¾å¿ĥ": 6576,
      "èģļéĽĨ": 6577,
      "ä¸Ģçīĩ": 6578,
      "):": 6579,
      "æĤ£æľī": 6580,
      "çĶµæµģ": 6581,
      "å¹´è½»äºº": 6582,
      "åĽĽå·Ŀçľģ": 6583,
      "æ¢¨": 6584,
      "å¼ºçĥĪ": 6585,
      "åĪĨæķ£": 6586,
      "800": 6587,
      "èĹĿ": 6588,
      "ä¼łè¾ĵ": 6589,
      "åįģåĽĽäºĶ": 6590,
      "ä»¥æŃ¤": 6591,
      "æºĸ": 6592,
      "åĪ©çİĩ": 6593,
      "åħ¬äº¤": 6594,
      "ç§ĳåŃ¦éĻ¢": 6595,
      "âĢĿ(": 6596,
      "å¼Ģå¹ķ": 6597,
      "èŃ¦æĸ¹": 6598,
      "å¸®æī¶": 6599,
      "åħ³éĹŃ": 6600,
      "çĪ±å¥½": 6601,
      "åı¦ä¸Ģä¸ª": 6602,
      "63": 6603,
      "çļĦåŃ¦çĶŁ": 6604,
      "å¸¸æĢģ": 6605,
      "ä¸Ģæ®µæĹ¶éĹ´": 6606,
      "åħ»çĶŁ": 6607,
      "çī©ä¸ļ": 6608,
      "ä¸Ģè¾¹": 6609,
      "åĬ¡å®ŀ": 6610,
      "æĳĦåħ¥": 6611,
      "åĮħçļ®": 6612,
      "å·¾": 6613,
      "æĹ¢çĦ¶": 6614,
      "åĸ»": 6615,
      "åħīä¼ı": 6616,
      "èħĲè´¥": 6617,
      "çļĦé«ĺåº¦": 6618,
      "çļĦä¿¡æģ¯": 6619,
      "ä¸įåºĶ": 6620,
      "äºĨå¾Īå¤ļ": 6621,
      "éĢ£": 6622,
      "ä¸įä½ı": 6623,
      "ç´§æĢ¥": 6624,
      "æĿĤå¿Ĺ": 6625,
      "ä¾¿æį·": 6626,
      "æ´»åĬ¨ä¸Ń": 6627,
      "èĥļèĥİ": 6628,
      "åĨ³å¿ĥ": 6629,
      "åĨľäº§åĵģ": 6630,
      "èĴľ": 6631,
      "ä¼ļå½±åĵį": 6632,
      "ä¹Ĳè§Ĥ": 6633,
      "åľºçļĦ": 6634,
      "åīįåĪĹèħº": 6635,
      "åı¯åľ¨": 6636,
      "å¸ĤæĶ¿": 6637,
      "ä¾µæĿĥ": 6638,
      "ç²¥": 6639,
      "å¹¿éĺĶ": 6640,
      "èĦĬ": 6641,
      "æĪ·å¤ĸ": 6642,
      "çļĦåı¯èĥ½": 6643,
      "ç§»æ¤į": 6644,
      "å¼¹æĢ§": 6645,
      "ä¸įéĢĤ": 6646,
      "64": 6647,
      "ç½ļæ¬¾": 6648,
      "çĪĨçĤ¸": 6649,
      "å¤ļäºº": 6650,
      "åľºä¸Ĭ": 6651,
      "ä¹¡éķĩ": 6652,
      "äºĨä¸ŃåĽ½": 6653,
      "ç§¯æŀģå¼Ģå±ķ": 6654,
      "å¼Ģè®¾": 6655,
      "æ°Ķæ¸©": 6656,
      "çĶŁæĪĲ": 6657,
      "å¼ķåħ¥": 6658,
      "åħ¬åħĥ": 6659,
      "ä¼ģä¸ļåĴĮ": 6660,
      "ou": 6661,
      "å¾Ĺä»¥": 6662,
      "èµĦåĬ©": 6663,
      "åıįé¦Ī": 6664,
      "ç§ĺä¹¦éķ¿": 6665,
      "åıĳå±ķåĴĮ": 6666,
      "ä½İç¢³": 6667,
      "çº¿çļĦ": 6668,
      "ç¼´çº³": 6669,
      "è½¬åĮĸä¸º": 6670,
      "å¼ıçļĦ": 6671,
      "è±¡å¾ģ": 6672,
      "ä¸Ńåľĭ": 6673,
      "æĸ°å»º": 6674,
      "çŁŃæľŁ": 6675,
      "el": 6676,
      "æĽ´å®¹æĺĵ": 6677,
      "åĮĸå¦Ĩ": 6678,
      "ä¼ļå¯¹": 6679,
      "å¸ĤåľºéľĢæ±Ĥ": 6680,
      "æģ¼": 6681,
      "åĴ¸": 6682,
      "å¢ŀå¤ļ": 6683,
      "ç»Īç«¯": 6684,
      "è¿ĩæĿ¥": 6685,
      "ç»Ļä½ł": 6686,
      "åĸľçĪ±": 6687,
      "77": 6688,
      "è¯´è¯Ŀ": 6689,
      "åŃ¦åĳĺ": 6690,
      "è½¬è®©": 6691,
      "èĭį": 6692,
      "åĮĹæĸ¹": 6693,
      "2004": 6694,
      "æĪ°": 6695,
      "å¤§èĦĳ": 6696,
      "è¿ĽæĶ»": 6697,
      "ç§ĳæĬĢæľīéĻĲåħ¬åı¸": 6698,
      "æĤ£èĢħåľ¨": 6699,
      "çļĦéĤ£": 6700,
      "å¤©çĦ¶æ°Ķ": 6701,
      "æ¯«ç±³": 6702,
      "ĠC": 6703,
      "åĪ°ä½į": 6704,
      "æľĪåºķ": 6705,
      "æ¥µ": 6706,
      "åĬłåĿ¡": 6707,
      "æĺ¯åı¯ä»¥": 6708,
      "ç¡¬ä»¶": 6709,
      "çĮ´": 6710,
      "çļĦå½¢å¼ı": 6711,
      "é¦¬": 6712,
      "æŃĮæĽ²": 6713,
      "èĤ²äºº": 6714,
      "åħ¨ä¸ĸçķĮ": 6715,
      "åĪ¶æĪĲ": 6716,
      "éĶħçĤī": 6717,
      "çļĦåĽ½å®¶": 6718,
      "ä¼ģä¸ļåľ¨": 6719,
      "åĬĿ": 6720,
      "æĪ¿éĹ´": 6721,
      "åĨ¶éĩĳ": 6722,
      "çļĦé¦ĸ": 6723,
      "åıĳæī¬": 6724,
      "å®¹åĻ¨": 6725,
      "åĮĸåĲĪçī©": 6726,
      "çļĦçĹĩçĬ¶": 6727,
      "åĬ³åĬ¨èĢħ": 6728,
      "æ³ģ": 6729,
      "éĨĭ": 6730,
      "åĿĿ": 6731,
      "2003": 6732,
      "æĸ·": 6733,
      "åĲĦé¡¹å·¥ä½ľ": 6734,
      "æİ¥å¾ħ": 6735,
      "åĮĸçĸĹ": 6736,
      "æľĢå¤ļ": 6737,
      "å±ķçİ°åĩº": 6738,
      "å®ĮåĸĦçļĦ": 6739,
      "69": 6740,
      "é¾Ł": 6741,
      "èģĶåĲĪåĽ½": 6742,
      "å¹´åĪĿ": 6743,
      "åĤ¨å¤ĩ": 6744,
      "ä¸įè¶ħè¿ĩ": 6745,
      "è®©ä»ĸ": 6746,
      "çªĿ": 6747,
      "æĢ»éĩı": 6748,
      "æŁ¥è¯¢": 6749,
      "éĢĤéĩı": 6750,
      "è®¤åĲĮ": 6751,
      "ä¹ĭå¤Ħ": 6752,
      "ç©´": 6753,
      "éľŀ": 6754,
      "éĩĩéĽĨ": 6755,
      "çŃ¾çº¦": 6756,
      "åĩ½": 6757,
      "ç§°ä¹ĭä¸º": 6758,
      "é£ŀè¡Į": 6759,
      "æŃ¥ä¼Ĳ": 6760,
      "èĥ½åĲ¦": 6761,
      "çļĦèĢģ": 6762,
      "çļĦç»ĵæŀľ": 6763,
      "ä¾ł": 6764,
      "ç¾İå®¹": 6765,
      "çľŁè¯ļ": 6766,
      "æľ¨æĿĲ": 6767,
      "ä»¥ä¸ĭç®Ģç§°": 6768,
      "çīĽå¥¶": 6769,
      "ç©į": 6770,
      "çĸĳæĥĳ": 6771,
      "ä»¥ä¾¿": 6772,
      "ç¨³å®ļçļĦ": 6773,
      "çĲĨå·¥": 6774,
      "ç²īä¸Ŀ": 6775,
      "æĿ¥è®²": 6776,
      "è¾ĥå¥½çļĦ": 6777,
      "å»īæĶ¿": 6778,
      "æľīåĪ©": 6779,
      "äº§åĢ¼": 6780,
      "è¿ĻæĹ¶": 6781,
      "æľ¬æĸĩ": 6782,
      "æĲºæīĭ": 6783,
      "å¦ĩç§ĳ": 6784,
      "åĩºçİ°åľ¨": 6785,
      "Ġ3": 6786,
      "ä¸ºå®¢æĪ·æıĲä¾Ľ": 6787,
      "ç´°": 6788,
      "è¸¢": 6789,
      "çĭ®": 6790,
      "å°¼æĸ¯": 6791,
      "çħ§é¡¾": 6792,
      "æ¨¡èĮĥ": 6793,
      "éĥ½å¸Ĥ": 6794,
      "ä¸īåįģ": 6795,
      "åľ¨æĸ°": 6796,
      "åĽ½äº§": 6797,
      "æĿ¿çļĦ": 6798,
      "èĤłéģĵ": 6799,
      "é«ĺéĢŁåħ¬è·¯": 6800,
      "æ´Ĵ": 6801,
      "çļĦæķ°æį®": 6802,
      "ä¸įåĲĥ": 6803,
      "ç¦½": 6804,
      "ç²¾åĬĽ": 6805,
      "æ²¸": 6806,
      "ä¸»å¯¼": 6807,
      "å³»": 6808,
      "çļĦåħ¨": 6809,
      "é¢ĳçİĩ": 6810,
      "çĽ¸åħ³éĥ¨éĹ¨": 6811,
      "è±«": 6812,
      "æ¯Ľæ³½": 6813,
      "åľ¨ä¸įç»ıæĦıéĹ´": 6814,
      "ĠS": 6815,
      "åĪĨåĪ«ä¸º": 6816,
      "èĲ§": 6817,
      "åĽŀå¿Ĩ": 6818,
      "ä»Ģéº¼": 6819,
      "çŃīå·¥ä½ľ": 6820,
      "çĮľ": 6821,
      "ç²¾ç»Ĩ": 6822,
      "éłĺ": 6823,
      "ä»£è¡¨å¤§ä¼ļ": 6824,
      "èİİ": 6825,
      "å®ŀè´¨": 6826,
      "çİ¯å¢ĥçļĦ": 6827,
      "åįłæľī": 6828,
      "æıĲåıĸ": 6829,
      "èĥĮåĲİ": 6830,
      "é¸Ń": 6831,
      "çĦ¦èĻĳ": 6832,
      "çĶ¨åľ°": 6833,
      "è¶ĬæĿ¥è¶Ĭå¤ļ": 6834,
      "ä»¥ä¸Ĭå°±æĺ¯": 6835,
      "çİĩåħĪ": 6836,
      "èī°èĭ¦": 6837,
      "æ¯Ľæ³½ä¸ľ": 6838,
      "çľĭåĩº": 6839,
      "è®°å¾Ĺ": 6840,
      "åĮ»éĻ¢çļĦ": 6841,
      "æ¸Ľ": 6842,
      "æĪĳæĺ¯": 6843,
      "çļĦæķĻèĤ²": 6844,
      "çºłçº·": 6845,
      "æ¶²åİĭ": 6846,
      "ç³»æķ°": 6847,
      "çį²": 6848,
      "æ¯Ķäºļ": 6849,
      "æ»©": 6850,
      "çļĦçİ°è±¡": 6851,
      "è¥¿èĹı": 6852,
      "åįİä¸º": 6853,
      "æľ¬åľ°": 6854,
      "å¸¸å§Ķ": 6855,
      "æ¨¡æĭŁ": 6856,
      "è¿Ļæł·è¯´è¿ĩ": 6857,
      "éĥ½çŁ¥éģĵ": 6858,
      "å¥¥è¿Ĳä¼ļ": 6859,
      "çļĦç»ıèĲ¥": 6860,
      "è³½": 6861,
      "é©Ĺ": 6862,
      "åĬŁå¤«": 6863,
      "å¾®åįļ": 6864,
      "çİ²": 6865,
      "æī©å±ķ": 6866,
      "è¾¾åĪ°äºĨ": 6867,
      "åĴ¬": 6868,
      "éĿĻçĶµ": 6869,
      "æ§ĭ": 6870,
      "åľºåľ°": 6871,
      "åĸī": 6872,
      "å¤§å±Ģ": 6873,
      "åĿļå®Ī": 6874,
      "è¡į": 6875,
      "æĪĳå°±": 6876,
      "é¡¯": 6877,
      "åĨħèĨľ": 6878,
      "æĪ¶": 6879,
      "è§Ĩéĩİ": 6880,
      "å«ģ": 6881,
      "åıĻ": 6882,
      "è¯ĦéĢī": 6883,
      "è´Ńçī©": 6884,
      "æŀĹä¸ļ": 6885,
      "ä¾ĿæĹ§": 6886,
      "çļĦäººåĳĺ": 6887,
      "çĶ¢åĵģ": 6888,
      "æī¿è®¤": 6889,
      "æĸĮ": 6890,
      "èģ·": 6891,
      "å¤ł": 6892,
      "èī°éļ¾": 6893,
      "æ±¡æŁĵçī©": 6894,
      "ä¸Ĭçº§": 6895,
      "æĽ¼èģĶ": 6896,
      "æłĭ": 6897,
      "æıĲç¤º": 6898,
      "ç¾İå¥½çļĦ": 6899,
      "åĤ¨åŃĺ": 6900,
      "ä¸Ńåħ±ä¸Ńå¤®": 6901,
      "åįłæį®": 6902,
      "åľ¨åĮĹäº¬": 6903,
      "çī¹å®ļ": 6904,
      "åĽŀå½Ĵ": 6905,
      "å½ĵäºĭäºº": 6906,
      "å¤§è¿ŀ": 6907,
      "çĶŁæĦı": 6908,
      "åĴĮç®¡çĲĨ": 6909,
      "äº¤éĢļè¿Ĳè¾ĵ": 6910,
      "PV": 6911,
      "éļĽ": 6912,
      "éĥ½å¾Ī": 6913,
      "åĩ¶": 6914,
      "æ°ĳä¼Ĺ": 6915,
      "åģľè½¦": 6916,
      "æµĻæ±Łçľģ": 6917,
      "æĪĲåĬŁçļĦ": 6918,
      "çģµéŃĤ": 6919,
      "ji": 6920,
      "ä¸įåı¯èĥ½": 6921,
      "ä¹Łå°±æĺ¯è¯´": 6922,
      "ä¸ĭä¸ĢæŃ¥": 6923,
      "çĶ¨çĶµ": 6924,
      "æ¯ĶåĪĨ": 6925,
      "å¯¼å¸Ī": 6926,
      "åįĩé«ĺ": 6927,
      "åĿĳ": 6928,
      "éĺ²çĸ«": 6929,
      "ic": 6930,
      "å¤ļé¡¹": 6931,
      "è¯´è¿ĩä¸Ģåı¥": 6932,
      "èģ²": 6933,
      "ç¾©": 6934,
      "æŃ¥éª¤": 6935,
      "æĪĳåħ¬åı¸": 6936,
      "å¢ŀåĢ¼ç¨İ": 6937,
      "æĺ¯è¦ģ": 6938,
      "æĬĳéĥģ": 6939,
      "æİ¥çĿĢ": 6940,
      "èıĬ": 6941,
      "éľĢè¦ģçļĦ": 6942,
      "åŁİå¸ĤçļĦ": 6943,
      "åľ¨ä¸įç»ıæĦıéĹ´è¿Ļæł·è¯´è¿ĩ": 6944,
      "çļĩé©¬": 6945,
      "åħ·æľīèī¯å¥½çļĦ": 6946,
      "çĢ": 6947,
      "è¿ľç¨ĭ": 6948,
      "æĢ§å¼º": 6949,
      "åĪ¶èį¯": 6950,
      "å¢ĥå¤ĸ": 6951,
      "ä»İæĿ¥": 6952,
      "ä¿¡æģ¯æĬĢæľ¯": 6953,
      "çķĻåŃ¦": 6954,
      "å¢ĥåĨħ": 6955,
      "è¡¨çİ°ä¸º": 6956,
      "å¤ĦçļĦ": 6957,
      "é«ĵ": 6958,
      "çļĦäººæīį": 6959,
      "åħ¬ç¤º": 6960,
      "å®¶ä¸Ń": 6961,
      "éľĢè¦ģæ³¨æĦı": 6962,
      "å¦Ĭ": 6963,
      "çĶ·å¥³": 6964,
      "ä½łåı¯ä»¥": 6965,
      "çļ®èĤ¤çĹħ": 6966,
      "ä¾¦": 6967,
      "å¯¹è¯Ŀ": 6968,
      "ç§ĺå¯Ĩ": 6969,
      "èĢĲèħĲèļĢ": 6970,
      "ç»ĦæĪĲéĥ¨åĪĨ": 6971,
      "è½¦çļĦ": 6972,
      "å®³æĢķ": 6973,
      "è§ĴéĢĲ": 6974,
      "æĹłéľĢ": 6975,
      "ç»Ļäºº": 6976,
      "é»ĳé¾Ļæ±Ł": 6977,
      "æ³¡æ²«": 6978,
      "ä¸Ļçĥ¯": 6979,
      "ä¿¡èªī": 6980,
      "è½¦ç«Ļ": 6981,
      "éĽ¶éĥ¨ä»¶": 6982,
      "å®ıè§Ĥ": 6983,
      "èĥ½åĬĽçļĦ": 6984,
      "æĿĥåĬĽ": 6985,
      "æľ¬åľŁ": 6986,
      "äºĨæĪĳçļĦ": 6987,
      "è´µçļĦ": 6988,
      "æĹ¶åħī": 6989,
      "ç¿°": 6990,
      "åıĸå¾ĹçļĦ": 6991,
      "æľīä¸Ģå®ļçļĦ": 6992,
      "åĩłå¤©": 6993,
      "éĢĻæ¨£": 6994,
      "æĺ¯æĪĳåĽ½": 6995,
      "æĬ¤æłı": 6996,
      "èĢĥèĻĳåĪ°": 6997,
      "ä¸ŃçŃī": 6998,
      "ç¬¬åħ«": 6999,
      "èĨĢ": 7000,
      "æ±ĩæĬ¥": 7001,
      "çļĦæĶ¿æ²»": 7002,
      "èºģ": 7003,
      "62": 7004,
      "åĲ¬åıĸ": 7005,
      "çĥŃçĪ±": 7006,
      "è°¨æħİ": 7007,
      "å®ŀäºĭ": 7008,
      "æłĵ": 7009,
      "åıĳå¸ĥçļĦ": 7010,
      "æ³¨å°Ħ": 7011,
      "ä¼łè¾¾": 7012,
      "å¨ł": 7013,
      "ä¸ľéĥ¨": 7014,
      "ä¸įæĩĪ": 7015,
      "å°ıåº·": 7016,
      "æĪĳä»¬å°Ĩ": 7017,
      "èł": 7018,
      "åħ¨éĿ¢ä»İä¸¥": 7019,
      "äºīè®®": 7020,
      "èŃĺ": 7021,
      "æ´»è·ĥ": 7022,
      "é¦ĸæī¹": 7023,
      "éļ¨": 7024,
      "æİ¢è®¨": 7025,
      "æĹĹä¸ĭ": 7026,
      "ä¸Ńæĸĩ": 7027,
      "æ¤İ": 7028,
      "ç±»çļĦ": 7029,
      "èİī": 7030,
      "èĲ½åĲİ": 7031,
      "å¦Ĭå¨ł": 7032,
      "è§£è¯»": 7033,
      "å¹²æī°": 7034,
      "é»Ħèī²": 7035,
      "åħ¬æĸ¤": 7036,
      "ç´łåħ»": 7037,
      "åıĹä¼¤": 7038,
      "çļĦèĬ±": 7039,
      "å¢ŀå¤§": 7040,
      "æħĭ": 7041,
      "ä¸įæķ¢": 7042,
      "çĭ±": 7043,
      "åĪĨæķ°": 7044,
      "ç´§ç´§": 7045,
      "å¤ĩæ¡Ī": 7046,
      "æħĪåĸĦ": 7047,
      "æľºåĬ¨": 7048,
      "å¼ĢåĪĽ": 7049,
      "ç»Ļå¤§å®¶": 7050,
      "äºĨè§£åĪ°": 7051,
      "ong": 7052,
      "ä¸īç§į": 7053,
      "åħ»æĪĲ": 7054,
      "æĬĸ": 7055,
      "äººæ°ĳçļĦ": 7056,
      "èŃ¦å¯Ł": 7057,
      "è¡¬": 7058,
      "å¨ĥ": 7059,
      "å¤ĸç§ĳ": 7060,
      "åħ¬æŃ£": 7061,
      "åĽºä½ĵ": 7062,
      "åĽŀæĿ¥": 7063,
      "å¾ĹäºĨ": 7064,
      "çŃ¾ç½²": 7065,
      "çªĦ": 7066,
      "å®ĺåĳĺ": 7067,
      "ç¥¨æĪ¿": 7068,
      "æīĢä»¥åľ¨": 7069,
      "åı¯è¾¾": 7070,
      "è¿ĺå°Ĩ": 7071,
      "åİŁå§ĭ": 7072,
      "è¼ķ": 7073,
      "æľºçĶµ": 7074,
      "é©¬ä¸Ĭ": 7075,
      "ä¸Ńå°ıä¼ģä¸ļ": 7076,
      "ä¸Ńå±±": 7077,
      "çŃīè¡Įä¸ļ": 7078,
      "æ¸¸æ³³": 7079,
      "åĽ¾ä¹¦é¦Ĩ": 7080,
      "æ¨¡åĿĹ": 7081,
      "ä¸ĢæĶ¯": 7082,
      "è®©ä»ĸä»¬": 7083,
      "å£®å¤§": 7084,
      "é«ĺå³°": 7085,
      "æŃ²": 7086,
      "ç¿©": 7087,
      "æ³ķäºº": 7088,
      "çļĦä¼ĺåĬ¿": 7089,
      "çĽ¸åıį": 7090,
      "æ¼Ĥäº®": 7091,
      "çĶµç½ĳ": 7092,
      "èĬĤå¥ı": 7093,
      "ä¹³èħº": 7094,
      "çİ¯æ°§": 7095,
      "æĲħæĭĮ": 7096,
      "åĵªä¸ª": 7097,
      "æľŁè´§": 7098,
      "èĢģåĮĸ": 7099,
      "åıĳå°Ħ": 7100,
      "å·´é»İ": 7101,
      "èªĵ": 7102,
      "åľ¨æĪĳ": 7103,
      "æ¬§çĽŁ": 7104,
      "è¿İæĿ¥": 7105,
      "è¯·æ±Ĥ": 7106,
      "åĪ°æĿ¥": 7107,
      "å®ŀéĻħæĥħåĨµ": 7108,
      "éĻĮ": 7109,
      "æĪĳä»¬å°±": 7110,
      "ä¸ºæŃ¢": 7111,
      "éĽķå¡ĳ": 7112,
      "å¼ºåĬ²": 7113,
      "ä»ĭç»įäºĨ": 7114,
      "éĵĿåĲĪéĩĳ": 7115,
      "è¡Ģç³ĸ": 7116,
      "ãĢįãĢĤ": 7117,
      "éĢĿ": 7118,
      "æŁĲæŁĲ": 7119,
      "ä¸ºä¼ģä¸ļ": 7120,
      "ä¾¿å®ľ": 7121,
      "å°ģéĹŃ": 7122,
      "ä»ªè¡¨": 7123,
      "å¼Ģå·¥": 7124,
      "ä¼ģæ¥Ń": 7125,
      "åĲ¬åĪ°": 7126,
      "åĪ«çļĦ": 7127,
      "ç§»æ°ĳ": 7128,
      "ç¯®çĲĥ": 7129,
      "åĤ¬åĮĸ": 7130,
      "å¾®éĩıåħĥç´ł": 7131,
      "çļĦå»ºè®¾": 7132,
      "âĢĿ,âĢľ": 7133,
      "æµİåįĹ": 7134,
      "å±¡": 7135,
      "åħħçĶµ": 7136,
      "åħ±èµ¢": 7137,
      "æī©å¼ł": 7138,
      "çļĦæĢģåº¦": 7139,
      "æĹ¬": 7140,
      "è¾ĥå¤ļ": 7141,
      "åĸĬ": 7142,
      "åĩıéĢŁ": 7143,
      "äººåĿĩ": 7144,
      "å¯¹æĪĳ": 7145,
      "åİ¦éĹ¨": 7146,
      "åįĹåĮĹ": 7147,
      "åıĪæľī": 7148,
      "å¤§è§Ħæ¨¡": 7149,
      "æłĩåĩĨçļĦ": 7150,
      "åĲĪéĢĤçļĦ": 7151,
      "å¸ĪèµĦ": 7152,
      "è½½ä½ĵ": 7153,
      "æľīåħ³è§Ħå®ļ": 7154,
      "çļĦåĬŁæķĪ": 7155,
      "å»ºçŃĳéĿ¢ç§¯": 7156,
      "æĸĩçĮ®": 7157,
      "çľģå¸Ĥ": 7158,
      "åĪĹåħ¥": 7159,
      "æļ¨": 7160,
      "å¼Ģå¿ĥ": 7161,
      "å¹³çŃī": 7162,
      "è´¢è¿Ĳ": 7163,
      "æ³°åĽ½": 7164,
      "æ³¢åĬ¨": 7165,
      "çļĦéķ¿": 7166,
      "çĸĹæ³ķ": 7167,
      "æľ¬æĿ¥": 7168,
      "æĹ¨åľ¨": 7169,
      "åŃ¦ä¹łæķĻèĤ²": 7170,
      "è¡¥åĬ©": 7171,
      "æĿ¿åĿĹ": 7172,
      "éľľ": 7173,
      "æ¯Ķéĩį": 7174,
      "åĭĩäºİ": 7175,
      "æĪĳä»¬å¿ħé¡»": 7176,
      "72": 7177,
      "ä¸ĳ": 7178,
      "æĸ°åĬłåĿ¡": 7179,
      "åıĳçĶŁçļĦ": 7180,
      "èĭ¥å¹²": 7181,
      "çİĩä¸º": 7182,
      "ä¸Ĭåİ»": 7183,
      "æİĴéĻ¤": 7184,
      "åħļåĴĮåĽ½å®¶": 7185,
      "çĲĨè´¢": 7186,
      "æĹ±": 7187,
      "åľ¨ä¸Ģ": 7188,
      "ä»½é¢Ŀ": 7189,
      "éķģ": 7190,
      "ä¸¤å¤§": 7191,
      "å°½åı¯èĥ½": 7192,
      "éļ§": 7193,
      "çĶŁäº§ç»ıèĲ¥": 7194,
      "çļĦå°±æĺ¯": 7195,
      "æºĲäºİ": 7196,
      "ä½ľçī©": 7197,
      "åľ¨è¿Ļç§į": 7198,
      "éħ®": 7199,
      "ä»ĸæĺ¯": 7200,
      "åĽŀæĬ¥": 7201,
      "æīģ": 7202,
      "é«ĺæ°´å¹³": 7203,
      "ä¸įå¿ĺåĪĿå¿ĥ": 7204,
      "é¦¨": 7205,
      "æĬĢæľ¯åĪĽæĸ°": 7206,
      "éłĲ": 7207,
      "78": 7208,
      "ä»ĬæĹ¥": 7209,
      "çī¢åĽº": 7210,
      "è·¨å¢ĥ": 7211,
      "ä¸»è§Ĵ": 7212,
      "ä¸įåıĺ": 7213,
      "åĲŀ": 7214,
      "çİīç±³": 7215,
      "çĹħåıĺ": 7216,
      "åıĪæĺ¯": 7217,
      "02": 7218,
      "äºĶä¸ª": 7219,
      "åºĨç¥Ŀ": 7220,
      "æīĭè¡¨": 7221,
      "åĢŁåĬ©": 7222,
      "åħ¬åı¸åľ¨": 7223,
      "ä¹Ĵ": 7224,
      "åŀ¢": 7225,
      "é¸¡èĽĭ": 7226,
      "æ¢³": 7227,
      "åħ´å¥ĭ": 7228,
      "åĬ³åĬ¡": 7229,
      "äº§çĶŁäºĨ": 7230,
      "çļĦæĸĩåĮĸ": 7231,
      "è¾ĥå¼ºçļĦ": 7232,
      "å¤įåıĳ": 7233,
      "æľīæĹ¶åĢĻ": 7234,
      "æµĩ": 7235,
      "å°¼äºļ": 7236,
      "èĥ½èĢĹ": 7237,
      "è½¬åŀĭåįĩçº§": 7238,
      "åĩłåįģ": 7239,
      "ç»ĻæĪĳ": 7240,
      "ĠçļĦ": 7241,
      "åįłåľ°éĿ¢ç§¯": 7242,
      "æĬ¬": 7243,
      "å¢ĥçķĮ": 7244,
      "âĺ": 7245,
      "2002": 7246,
      "æľĢåĪĿ": 7247,
      "åĻªéŁ³": 7248,
      "èĢĥéªĮ": 7249,
      "è¯´è¿ĩè¿Ļæł·": 7250,
      "åģļäºĭ": 7251,
      "è¿Ĳè½¬": 7252,
      "st": 7253,
      "åīįæ²¿": 7254,
      "çķĻåľ¨": 7255,
      "çĽĪåĪ©": 7256,
      "å¸Ĩ": 7257,
      "æŀļ": 7258,
      "å¿«éĢĴ": 7259,
      "éĩĳèŀįæľºæŀĦ": 7260,
      "èĦ±è´«æĶ»åĿļ": 7261,
      "ä½ĵéĩį": 7262,
      "åºķçº¿": 7263,
      "æī¶æĮģ": 7264,
      "çĶµç£ģ": 7265,
      "ä¸įå¤ª": 7266,
      "éĻ·åħ¥": 7267,
      "é»ĥ": 7268,
      "æµģäº§": 7269,
      "éĻĢ": 7270,
      "æİĴæŁ¥": 7271,
      "æ¸¯åı£": 7272,
      "çıįæĥľ": 7273,
      "éĭ¼": 7274,
      "å¿ĺè®°": 7275,
      "å±±æ°´": 7276,
      "éĺ¿éĩĮ": 7277,
      "ä¸įåŃķ": 7278,
      "å°±ç®Ĺ": 7279,
      "ä¸»è¦ģçĶ¨äºİ": 7280,
      "çĿ¡è§ī": 7281,
      "è¡¨å½°": 7282,
      "ç»¼åĲĪæĢ§": 7283,
      "CO": 7284,
      "è®¸åı¯è¯ģ": 7285,
      "å¤ļäºĨ": 7286,
      "ç¡Ŀ": 7287,
      "åįķåħĥ": 7288,
      "éĢĻäºĽ": 7289,
      "çİ°éĩĳ": 7290,
      "æľīçĽĬ": 7291,
      "çĶ¨å¿ĥ": 7292,
      "ç»ĺçĶ»": 7293,
      "åĪ®": 7294,
      "åĩºä¸Ģ": 7295,
      "ä½Ĳ": 7296,
      "åĬłä»¥": 7297,
      "é¢ĳç¹ģ": 7298,
      "æ¶Ĥå±Ĥ": 7299,
      "è´¢ç»ı": 7300,
      "PE": 7301,
      "NA": 7302,
      "éģĤ": 7303,
      "è¦ģæ±ĤçļĦ": 7304,
      "å½±éŁ¿": 7305,
      "é¡¾éĹ®": 7306,
      "éªĮæĶ¶": 7307,
      "æł·åŃĲ": 7308,
      "ç»ĵè®º": 7309,
      "èĴ¸æ±½": 7310,
      "åĿĩè¡¡": 7311,
      "åĲĪå¹¶": 7312,
      "ä¾¿äºİ": 7313,
      "ç´ħ": 7314,
      "é¢Ĩå¯¼çıŃåŃĲ": 7315,
      "æĺĨæĺİ": 7316,
      "cm": 7317,
      "ä¸ºä½ķ": 7318,
      "åįķä¸Ģ": 7319,
      "è¿Ļä¼¼ä¹İ": 7320,
      "âĢ¢": 7321,
      "äººäºĭ": 7322,
      "æļ´éľ²": 7323,
      "æ²»æĦĪ": 7324,
      "æĺ¯ä¸ºäºĨ": 7325,
      "å½ĵä»Ĭ": 7326,
      "ä¸įä¸Ĭ": 7327,
      "ä¸¥èĤĥ": 7328,
      "éĵħ": 7329,
      "ä»Ģä¹Īæĺ¯": 7330,
      "éĹ¸": 7331,
      "ä»ħæľī": 7332,
      "åĨľèį¯": 7333,
      "æ±ª": 7334,
      "ç®¡æİ§": 7335,
      "è®¢åįķ": 7336,
      "61": 7337,
      "çº¦ä¸º": 7338,
      "ä½łä¼ļ": 7339,
      "èİŀ": 7340,
      "ä¿®è®¢": 7341,
      "ä¸ĢçĽ´åľ¨": 7342,
      "çĮİ": 7343,
      "ç´Ĭ": 7344,
      "æŃ§": 7345,
      "ä¸įæĸŃçļĦ": 7346,
      "ä¹¦çĶ»": 7347,
      "åı¯æĮģç»Ńåıĳå±ķ": 7348,
      "ä¹Łä¸įèĥ½": 7349,
      "æŃ¦è£ħ": 7350,
      "æİĴåĩº": 7351,
      "çĶŁæĢģæĸĩæĺİ": 7352,
      "ç¤¾æľĥ": 7353,
      "æĹĭè½¬": 7354,
      "æĪĲå¹´äºº": 7355,
      "çĥ¹": 7356,
      "å¹¶æľª": 7357,
      "çĽ¼": 7358,
      "ä¸įåĩº": 7359,
      "å®īåħ¨çļĦ": 7360,
      "mg": 7361,
      "åīįæľŁ": 7362,
      "æ¸¬": 7363,
      "çģ«ç®Ń": 7364,
      "éħįéĢģ": 7365,
      "ISO": 7366,
      "éļıæĦı": 7367,
      "éĿ¢ä¸Ĭ": 7368,
      "çºªæ£Ģ": 7369,
      "å«Įçĸĳ": 7370,
      "éķĢéĶĮ": 7371,
      "å¡ĳéĢł": 7372,
      "æĺı": 7373,
      "æ´½": 7374,
      "åħ¨æ°ĳ": 7375,
      "åĩºç§Ł": 7376,
      "ä¸įå½ĵ": 7377,
      "èĬ¯çīĩ": 7378,
      "éĻ¤æŃ¤": 7379,
      "è¯Ńæĸĩ": 7380,
      "ç¿ł": 7381,
      "éĺģ": 7382,
      "å¯»æ±Ĥ": 7383,
      "çŃīæĸ¹å¼ı": 7384,
      "åıĭå¥½": 7385,
      "å¿ħéľĢ": 7386,
      "ç¼©çŁŃ": 7387,
      "åİĤæĪ¿": 7388,
      "å±±åĮº": 7389,
      "æĹºçĽĽ": 7390,
      "éĴ¢æĿ¿": 7391,
      "æ¸ħåįİ": 7392,
      "ä¸ºæł¸å¿ĥçļĦ": 7393,
      "çħİ": 7394,
      "æĹ¥ä¸ĬåįĪ": 7395,
      "çĬ¬": 7396,
      "æ®ĭçĸ¾": 7397,
      "è§£åĨ³éĹ®é¢ĺ": 7398,
      "æİ©": 7399,
      "åħ¨ç¨ĭ": 7400,
      "è¾ĥå¥½": 7401,
      "æ¸ħéĻ¤": 7402,
      "æĹ¥ä¸ĭåįĪ": 7403,
      "ç»Ŀç¼ĺ": 7404,
      "ä¸ĢçŃīå¥ĸ": 7405,
      "éļª": 7406,
      "æ¶īå«Į": 7407,
      "éĢĤå½ĵçļĦ": 7408,
      "å¼Ģåħ³": 7409,
      "æ³¨æĦıäºĭé¡¹": 7410,
      "åıĬä»¥ä¸Ĭ": 7411,
      "æĸ°ä¸Ģ": 7412,
      "é¤Ĳåİħ": 7413,
      "å¤±ä¸ļ": 7414,
      "å·²ç¶ĵ": 7415,
      "ä¸ºä¸ŃåĽ½": 7416,
      "è·¨è¶Ĭ": 7417,
      "æĪĲåĵģ": 7418,
      "æĭ¿åĪ°": 7419,
      "è¯»èĢħ": 7420,
      "å®¢åľº": 7421,
      "çĲ³": 7422,
      "åħīæĺİ": 7423,
      "çĪĨåıĳ": 7424,
      "æĢģåĬ¿": 7425,
      "èģªæĺİ": 7426,
      "éĽĨåĽ¢åħ¬åı¸": 7427,
      "ä¼Łå¤§çļĦ": 7428,
      "æŃ£å¸¸çļĦ": 7429,
      "ç²¾åŃĲ": 7430,
      "å¾ĪçŁŃ": 7431,
      "è§Ĵåº¦æĿ¥çľĭ": 7432,
      "ä½ĵæ£Ģ": 7433,
      "ä¸Ńæ¯Ĵ": 7434,
      "ç¦»ä¸įå¼Ģ": 7435,
      "åĮĸåĴĮ": 7436,
      "çĸ¯": 7437,
      "æħİéĩįçļĦ": 7438,
      "çļĦä¸ĸçķĮ": 7439,
      "æ¸Ĳæ¸Ĳ": 7440,
      "çļĦæ°Ķ": 7441,
      "æ²Īéĺ³": 7442,
      "æıĲä¾ĽçļĦ": 7443,
      "åī¥": 7444,
      "çļĦæĤ£èĢħ": 7445,
      "çīº": 7446,
      "è¿Ļä¸įç¦ģ": 7447,
      "èĴĭ": 7448,
      "åĲįè¨Ģ": 7449,
      "å½°æĺ¾": 7450,
      "åı¯ä»¥æł¹æį®": 7451,
      "å·²ç»ıæĪĲä¸º": 7452,
      "è°¦": 7453,
      "äº¤å¾Ģ": 7454,
      "éĻĨç»Ń": 7455,
      "éĻĦåĬł": 7456,
      "å¤©åľ°": 7457,
      "æıĲåĩºçļĦ": 7458,
      "åħ±è¯Ĩ": 7459,
      "æĴ°": 7460,
      "åį´æĺ¯": 7461,
      "åº¦åĴĮ": 7462,
      "çļĦé£İéĻ©": 7463,
      "ç½Ĺé©¬": 7464,
      "å¤ĸèµĦ": 7465,
      "æĲºå¸¦": 7466,
      "çķ«": 7467,
      "åľ¨åĽ½åĨħ": 7468,
      "è¿½ç©¶": 7469,
      "ä¸ºåŁºç¡Ģ": 7470,
      "æº¶åīĤ": 7471,
      "åįģä¸ĥ": 7472,
      "çļĦä¸ĢåĪĩ": 7473,
      "å§ļ": 7474,
      "çļĦç»Ħç»ĩ": 7475,
      "æĿ¥çľĭçľĭ": 7476,
      "900": 7477,
      "è¿Ľåĩºåı£": 7478,
      "èµ°åĩº": 7479,
      "åįµç®¡": 7480,
      "èģĶåĬ¨": 7481,
      "ä¸Ģéĥ¨åĪĨ": 7482,
      "æłĩè¯Ĩ": 7483,
      "æĹħå®¢": 7484,
      "åĭ¾": 7485,
      "çīºçī²": 7486,
      "ä¸Ģäºº": 7487,
      "èĥĮæĻ¯ä¸ĭ": 7488,
      "II": 7489,
      "åħļçļĦäºĮåįģå¤§ç²¾ç¥ŀ": 7490,
      "çĸ®": 7491,
      "åı£ç¢ĳ": 7492,
      "åľĨå½¢": 7493,
      "03": 7494,
      "ä¸Ģåº¦": 7495,
      "è°ĭåĪĴ": 7496,
      "ç®¡çĲĨå·¥ä½ľ": 7497,
      "çīµå¤´": 7498,
      "åĵĪå°Ķ": 7499,
      "æ¬£èµı": 7500,
      "ä¼ģä¸ļå®¶": 7501,
      "æĢ»çĲĨ": 7502,
      "ç»ıéĶĢåķĨ": 7503,
      "çĶ²éĨĽ": 7504,
      "çĽ²çĽ®": 7505,
      "å·´èĲ¨": 7506,
      "æĹ¥æĬ¥": 7507,
      "ä¸ĩäº¿åħĥ": 7508,
      "ä¸»å¼ł": 7509,
      "æľ¬ç«Ļ": 7510,
      "èĢĲå¿ĥ": 7511,
      "éĻĦå±ŀ": 7512,
      "èıĩ": 7513,
      "å°ĦéĹ¨": 7514,
      "æĹłçº¿": 7515,
      "è½¦åŀĭ": 7516,
      "çĶµä¿¡": 7517,
      "æľīä¸ĢäºĽ": 7518,
      "åĨħåľ°": 7519,
      "è¿Ļå¯¹": 7520,
      "èĩ³ä¸Ĭ": 7521,
      "ç½ķ": 7522,
      "æķĻèĤ²æķĻåŃ¦": 7523,
      "å¾©": 7524,
      "å½¢æĪĲçļĦ": 7525,
      "å¥ĭè¿Ľ": 7526,
      "çĭł": 7527,
      "å°±æ²¡æľī": 7528,
      "è¿İæİ¥": 7529,
      "éĢĤå®ľ": 7530,
      "å¦ĥ": 7531,
      "æľ¬ä¹¦": 7532,
      "ç»©æķĪ": 7533,
      "çĨĻ": 7534,
      "è¾£æ¤Ĵ": 7535,
      "èĲĮ": 7536,
      "æµģåŁŁ": 7537,
      "æī¿è½½": 7538,
      "åĲİç»Ń": 7539,
      "æĥħæĢĢ": 7540,
      "èĪī": 7541,
      "ç§ĳçĽ®": 7542,
      "æĿı": 7543,
      "æĦģ": 7544,
      "ä¼łåªĴ": 7545,
      "çº§çļĦ": 7546,
      "æķ¢äºİ": 7547,
      "è¾ĵåįµç®¡": 7548,
      "å¾ĴåĪĳ": 7549,
      "è¦ģåĿļæĮģ": 7550,
      "Ġ?": 7551,
      "ä¸Ģé¡¹": 7552,
      "å¤ļåĲį": 7553,
      "è¿Ļé¡¹": 7554,
      "æĹ©åľ¨": 7555,
      "ä½ľæĪĺ": 7556,
      "éĩįç»Ħ": 7557,
      "ä»İå°ı": 7558,
      "æĹ¢æľī": 7559,
      "èĻŁ": 7560,
      "å¤±æľĽ": 7561,
      "ç¡«éħ¸": 7562,
      "åĭ¿": 7563,
      "åĨĽäºº": 7564,
      "å¥½è¯Ħ": 7565,
      "ä¸Ńè¶ħ": 7566,
      "åīĸ": 7567,
      "æĸ°ä¸ŃåĽ½": 7568,
      "åľ°æĿ¿": 7569,
      "ç¾İé£Ł": 7570,
      "ç®¡çĲĨåĴĮ": 7571,
      "åĽ½éĻħåĮĸ": 7572,
      "ai": 7573,
      "éĸĭå§ĭ": 7574,
      "æĢİä¹ĪåĬŀ": 7575,
      "æī®æ¼Ķ": 7576,
      "èĨ¨èĥĢ": 7577,
      "å¸¦æľī": 7578,
      "çļĦåĩºçİ°": 7579,
      "æ²īæ·Ģ": 7580,
      "è¦ģä»¥": 7581,
      "å¯Įè£ķ": 7582,
      "æŀģä¸º": 7583,
      "éĽĨåĽ¢æľīéĻĲåħ¬åı¸": 7584,
      "ç»ĵæĿŁåĲİ": 7585,
      "èĪ¹èĪ": 7586,
      "æĽ´é«ĺçļĦ": 7587,
      "çŃīçī¹çĤ¹": 7588,
      "åĥħ": 7589,
      "çļĦæĢĿæĥ³": 7590,
      "ç½¢": 7591,
      "åĪ«äººçļĦ": 7592,
      "æĺŃ": 7593,
      "åĨ³è®®": 7594,
      "æŃ·": 7595,
      "åįģåħ«å¤§": 7596,
      "é³ŀ": 7597,
      "åĪĽç«ĭ": 7598,
      "æĺŁæľŁ": 7599,
      "é¹¤": 7600,
      "èµĭäºĪ": 7601,
      "å¹¶åıĳ": 7602,
      "é«ĺèģĮ": 7603,
      "çľĭåĪ°äºĨ": 7604,
      "çĥŃéĩı": 7605,
      "åĮ»çĸĹæľºæŀĦ": 7606,
      "ä¸İåħ¶ä»ĸ": 7607,
      "èµ·éĩįæľº": 7608,
      "æº¶è§£": 7609,
      "åĪĨå·¥": 7610,
      "è©¦": 7611,
      "åĲĦæĸ¹éĿ¢": 7612,
      "è§Ħç«ł": 7613,
      "æ¿ĢçĥĪ": 7614,
      "çļĦé£İ": 7615,
      "åİ¨æĪ¿": 7616,
      "åĲĪä½ľä¼Ļä¼´": 7617,
      "æĺİå¤©": 7618,
      "com": 7619,
      "çĿĲ": 7620,
      "è£ģåĪ¤": 7621,
      "ä¸ºæľ¬": 7622,
      "è´¦æĪ·": 7623,
      "åĢ¡å¯¼": 7624,
      "éĿ¢è¯ķ": 7625,
      "èĬ¦": 7626,
      "åıĸåĨ³": 7627,
      "æŃ¡": 7628,
      "èĢģæĿ¿": 7629,
      "èµĮ": 7630,
      "æ¯Ķä¸Ĭå¹´": 7631,
      "å¹¶å°Ĩ": 7632,
      "åĮ»æ²»": 7633,
      "åĢºåĪ¸": 7634,
      "æĸ°æĿĲæĸĻ": 7635,
      "å±ķä¼ļ": 7636,
      "èµ°äºĨ": 7637,
      "åľ¨å¤ĸ": 7638,
      "åľ¨æĪĳåĽ½": 7639,
      "ĠA": 7640,
      "æĮ«": 7641,
      "æłĩçŃ¾": 7642,
      "å½ĵä½ł": 7643,
      "ç»ĥä¹ł": 7644,
      "æł¡åĮº": 7645,
      "æĨ¾": 7646,
      "æĹ¶æľº": 7647,
      "åĽ¾åĥı": 7648,
      "æ¶¤": 7649,
      "å¼ĢåıĳåĮº": 7650,
      "æĮģæľī": 7651,
      "å¤ªå¹³": 7652,
      "åľ°åŁŁ": 7653,
      "çļĦäºĭå®ŀ": 7654,
      "èİ·å¥ĸ": 7655,
      "ç¬¬äºĮä¸ª": 7656,
      "åĮĸè§£": 7657,
      "è¢ĸ": 7658,
      "èĮĦ": 7659,
      "æ²³åĮĹçľģ": 7660,
      "åĽºåĮĸ": 7661,
      "éļ§éģĵ": 7662,
      "å¹¶å¯¹": 7663,
      "è¿ĺåĮħæĭ¬": 7664,
      "åħĭæĸ¯": 7665,
      "çļĦåīįæıĲ": 7666,
      "ç¼ºå°ĳ": 7667,
      "æ°ĶçļĦ": 7668,
      "ç«ĭæĸ¹": 7669,
      "æ½ľåľ¨": 7670,
      "åľ°è¯´": 7671,
      "çĽ¸å¤Ħ": 7672,
      "æĦŁåĴĮ": 7673,
      "èĳĹåĲįçļĦ": 7674,
      "ä½ľäºĨ": 7675,
      "åħ¶ä¸ŃçļĦ": 7676,
      "æľªèĥ½": 7677,
      "æĭ¼æĲı": 7678,
      "çļĦç»ıæµİ": 7679,
      "ç¨³æŃ¥": 7680,
      "è¾¹ç¼ĺ": 7681,
      "å®¡è®®": 7682,
      "è¶ħå£°æ³¢": 7683,
      "çļĦä¸įåĲĮ": 7684,
      "å°ĨåĨĽ": 7685,
      "åıĹçĲĨ": 7686,
      "éĩįè¦ģçļĦæĺ¯": 7687,
      "éļĶçĥŃ": 7688,
      "è®¾è®¡å¸Ī": 7689,
      "åľĴ": 7690,
      "åĬ¨åĳĺ": 7691,
      "æ¹ĸåĮĹçľģ": 7692,
      "æĮĩå¯¼ä¸ĭ": 7693,
      "è§Ĩä¸º": 7694,
      "äº§ä¸ļåĮĸ": 7695,
      "å¤¸": 7696,
      "éĽĸ": 7697,
      "ç§ĳåŃ¦çłĶç©¶": 7698,
      "èĢĮå·²": 7699,
      "éģĹåĿĢ": 7700,
      "åıĳéħµ": 7701,
      "çĳ°": 7702,
      "é«ĺçŃīæķĻèĤ²": 7703,
      "åĨħåľ¨": 7704,
      "å¸ĪèĮĥå¤§åŃ¦": 7705,
      "éĩİçĶŁ": 7706,
      "åĩºçı¾": 7707,
      "æľŁå¾ĴåĪĳ": 7708,
      "çī¹åĪ«æĺ¯åľ¨": 7709,
      "æĹ¶ä»£çļĦ": 7710,
      "åıĸåĨ³äºİ": 7711,
      "åĲĪèĤ¥": 7712,
      "97": 7713,
      "éº»çĥ¦": 7714,
      "æĸ°å¾ģç¨ĭ": 7715,
      "æīĵç®Ĺ": 7716,
      "æĹ¥å¸¸çĶŁæ´»ä¸Ń": 7717,
      "åıĹåĪ°äºĨ": 7718,
      "é¢Ħç¤ºçĿĢ": 7719,
      "æĶ¿çŃĸçļĦ": 7720,
      "Ġ;": 7721,
      "ä»£æĽ¿": 7722,
      "çī¹æ®ĬçļĦ": 7723,
      "ä¸Ģè¡Į": 7724,
      "åĬĳ": 7725,
      "çĻ»å½ķ": 7726,
      "å¯Ĥ": 7727,
      "GDP": 7728,
      "éĴ¾": 7729,
      "å¿«æį·": 7730,
      "ä¸įåı¯éģ¿åħį": 7731,
      "ä¼ļä½¿": 7732,
      "åĿİ": 7733,
      "æĥ¨": 7734,
      "å»¶ç»Ń": 7735,
      "å®¶çĶµ": 7736,
      "éħ°": 7737,
      "åĪĽæĸ°åĪĽä¸ļ": 7738,
      "åĨ³çŃĸéĥ¨ç½²": 7739,
      "è¶³å¤ŁçļĦ": 7740,
      "è¢«åĳĬäºº": 7741,
      "åľĨæ»¡": 7742,
      "ç§¯åĪĨ": 7743,
      "çĤ¹åĩ»": 7744,
      "åľ¨ä¸Ģä¸ª": 7745,
      "å°ĨæĿ¥": 7746,
      "ç®¡çĲĨéĥ¨éĹ¨": 7747,
      "åĽ½èµĦ": 7748,
      "åŃ¦çļĦ": 7749,
      "æĪĳä»¬è¿ĺè¦ģ": 7750,
      "åħ¬å®īæľºåħ³": 7751,
      "åĽŀé¡¾": 7752,
      "çĻ¾å¹´å¥ĭæĸĹ": 7753,
      "ä¸ĸçķĮçļĦ": 7754,
      "æ·±åľ³å¸Ĥ": 7755,
      "å£°æĺİ": 7756,
      "å¯¹éĺµ": 7757,
      "åħ¬ç§¯": 7758,
      "ç¼¸": 7759,
      "çļĦåģ¥åº·": 7760,
      "äºĮçŃīå¥ĸ": 7761,
      "ĈĈ": 7762,
      "ĠM": 7763,
      "åıĽ": 7764,
      "åĪ¶çļĦ": 7765,
      "èŃ¦åĳĬ": 7766,
      "éĽĮ": 7767,
      "äºĭçī©": 7768,
      "ä»ĸä»¬åľ¨": 7769,
      "é¥®çĶ¨": 7770,
      "ä»ĩ": 7771,
      "èĦĵ": 7772,
      "ä»£çłģ": 7773,
      "åĨ¬å¤©": 7774,
      "ä¼łè¯´": 7775,
      "åĩĢæ°´": 7776,
      "åħ¨åİ¿": 7777,
      "éĢĢåĩº": 7778,
      "å¿«éĢŁåıĳå±ķ": 7779,
      "AA": 7780,
      "çģ«éĶħ": 7781,
      "èĪ¹èĪ¶": 7782,
      "èĩº": 7783,
      "èĩ´çļĦ": 7784,
      "éĺ¿å°Ķ": 7785,
      "æŀ¯": 7786,
      "çĽ¸å½ĵäºİ": 7787,
      "åĬ¨èĦī": 7788,
      "åĶ¤": 7789,
      "è¶ĬåįĹ": 7790,
      "ä¸įè®º": 7791,
      "ä½ľå®¶": 7792,
      "æ¸Ŀ": 7793,
      "çļĦè¡¨çİ°": 7794,
      "æĹłç¼Ŀ": 7795,
      "æĪĳä¹Ł": 7796,
      "ä¸»æµģ": 7797,
      "åĵĢ": 7798,
      "ä¸»äºº": 7799,
      "ç§ĳæĻ®": 7800,
      "åı¯è°ĵ": 7801,
      "æ·±æ·±": 7802,
      "ac": 7803,
      ";(": 7804,
      "é¦ĸå¸Ń": 7805,
      "å½ĵä¸ĭ": 7806,
      "åŃĲå®«åĨħèĨľ": 7807,
      "æĺ¯ä¸º": 7808,
      "ç¦ħ": 7809,
      "æ°ĳäºĭ": 7810,
      "ä¸¤ä½į": 7811,
      "èĬĴ": 7812,
      "ä¸īçº§": 7813,
      "çĭŃ": 7814,
      "åįķçĭ¬": 7815,
      "åĨĻä½ľ": 7816,
      "ä»İè¿Ļä¸ª": 7817,
      "æĻ¯çĤ¹": 7818,
      "APP": 7819,
      "æŁ´æ²¹": 7820,
      "æ¯ıä¸Ģä½į": 7821,
      "åĬĽäºī": 7822,
      "ä¿Ŀå®ī": 7823,
      "åģıæĹº": 7824,
      "åŀĭåı·": 7825,
      "ç±»åŀĭçļĦ": 7826,
      "éĤ£ç§į": 7827,
      "æ¬¡æķ°": 7828,
      "èĢĥåı¤": 7829,
      "æ¼Ķè®²": 7830,
      "åı¯åĪĨä¸º": 7831,
      "åīįè¡Į": 7832,
      "æĪĲçĤº": 7833,
      "éªĦ": 7834,
      "çĶ¨æĪ·çļĦ": 7835,
      "æ´»åĭķ": 7836,
      "éĿĴçĿĲ": 7837,
      "åĲĥé¥Ń": 7838,
      "åħ³æĢĢ": 7839,
      "åī¯ä¸»å¸Ń": 7840,
      "èįīåİŁ": 7841,
      "æ¹ĸåįĹçľģ": 7842,
      "åĲ¾": 7843,
      "æĦŁåĬ¨": 7844,
      "æİ¨è¡Į": 7845,
      "ä¸ĭä¸Ģ": 7846,
      "åķĨå®¶": 7847,
      "é¦ĸéĥ½": 7848,
      "GB": 7849,
      "å¦Ĥæľī": 7850,
      "è¿ľç¦»": 7851,
      "ä¸įæĸŃæıĲåįĩ": 7852,
      "æĪĳå¸Ĥ": 7853,
      "çĵ£": 7854,
      "ä¹ĭéĻħ": 7855,
      "PC": 7856,
      "åĤ·": 7857,
      "åį³ä¾¿": 7858,
      "çĶ·åŃ©": 7859,
      "2001": 7860,
      "å»īæ´ģ": 7861,
      "å°ıäºİ": 7862,
      "å¸ľ": 7863,
      "éĥ½éľĢè¦ģ": 7864,
      "åıĳå±ķæĪĺçķ¥": 7865,
      "åħ¨åħļ": 7866,
      "åĨįåº¦": 7867,
      "éłĪ": 7868,
      "è¿ľè¿ľ": 7869,
      "çļĦå¤©": 7870,
      "åŃ¦å®¶": 7871,
      "ä¸ľèİŀ": 7872,
      "è®¾è®¡çļĦ": 7873,
      "åħ¬ç§¯éĩĳ": 7874,
      "èĩªå¾ĭ": 7875,
      "çī¹ç§į": 7876,
      "çļĦæľĭåıĭ": 7877,
      "åľ¨ç¾İåĽ½": 7878,
      "éĻ³": 7879,
      "åħĭåħ°": 7880,
      "ä¸Ģå®ļä¼ļ": 7881,
      "å¦Ĥæŀľä¸į": 7882,
      "è§£åĨ³äºĨ": 7883,
      "ç»ĵåĲĪèµ·æĿ¥": 7884,
      "éĹ·": 7885,
      "æĮ½": 7886,
      "åĩºåĶ®": 7887,
      "èī²ç´ł": 7888,
      "èĨĿ": 7889,
      "ç¬¬ä¸īæĸ¹": 7890,
      "åĬ³åĬ¨åĲĪåĲĮ": 7891,
      "äºĶè¡Įç¼ºä»Ģä¹Ī": 7892,
      "èįĨ": 7893,
      "åºĶè¯¥æĺ¯": 7894,
      "é¢ĦèŃ¦": 7895,
      "åİ¿å§Ķ": 7896,
      "åĴĮå·¥ä½ľ": 7897,
      "ç¬¼": 7898,
      "ç½ĳç»ľå®īåħ¨": 7899,
      "ol": 7900,
      "ä¹Łä¸įæĺ¯": 7901,
      "ä¸Ľ": 7902,
      "æĮ¯åĬ¨": 7903,
      "å®ģæ³¢": 7904,
      "--------": 7905,
      "æĮĩå®ļ": 7906,
      "çĩĥæ°Ķ": 7907,
      "åĪ¶éĢłåķĨ": 7908,
      "æļĤæĹ¶": 7909,
      "çĶµè§Ĩåı°": 7910,
      "ç¥¸": 7911,
      "æ½Ń": 7912,
      "åľ°åĿĢ": 7913,
      "éĳ«": 7914,
      "çº±": 7915,
      "ç§ĳåŃ¦çļĦ": 7916,
      "åĨįåĬłä¸Ĭ": 7917,
      "éħļ": 7918,
      "è¯µ": 7919,
      "åįĥçĵ¦": 7920,
      "çļĦé¡¹çĽ®": 7921,
      "è¿Ľè¡Įæ²»çĸĹ": 7922,
      "æĹŃ": 7923,
      "éĺ¿æĭī": 7924,
      "å¿ĥçģµ": 7925,
      "æ²ª": 7926,
      "çļĦéĩįå¤§": 7927,
      "è¿ĺåı¯": 7928,
      "çŀ¬éĹ´": 7929,
      "86": 7930,
      "å·¥ä»¶": 7931,
      "çĴ°å¢ĥ": 7932,
      "åºĵåŃĺ": 7933,
      "å·¥ä¼¤": 7934,
      "åĽĽå¹´": 7935,
      "ä¸įå¤§": 7936,
      "éĤĬ": 7937,
      "æľīæ²¡æľī": 7938,
      "ç«£": 7939,
      "ä¹¦éĿ¢": 7940,
      "åĥ§": 7941,
      "åĮ»çĸĹåĻ¨æ¢°": 7942,
      "æĹ¶éĹ´çļĦ": 7943,
      "èº«ä»½è¯ģ": 7944,
      "æĭľä»ģ": 7945,
      "èĮħåı°": 7946,
      "èµ¢å¾ĹäºĨ": 7947,
      "Ġ0": 7948,
      "äºŀ": 7949,
      "çļĦéĩįè¦ģæĢ§": 7950,
      "æ¹¿åľ°": 7951,
      "è¿ĶåĽŀ": 7952,
      "æľĢåĲİä¸Ģ": 7953,
      "åĵ²çĲĨ": 7954,
      "æ¬§åħĥ": 7955,
      "am": 7956,
      "äº²èĩª": 7957,
      "æķħæĦı": 7958,
      "è¶ħå¸Ĥ": 7959,
      "åįĳ": 7960,
      "æµ·ä¸Ĭ": 7961,
      "çļĦæīĭ": 7962,
      "åĪĨåħ¬åı¸": 7963,
      "è·¯å¾Ħ": 7964,
      "ç»´çĶŁç´łC": 7965,
      "è®©èĩªå·±": 7966,
      "åľºåĲĪ": 7967,
      "ä¾Ľæ°´": 7968,
      "çĶ¨è½¦": 7969,
      "éĥ¡": 7970,
      "å¯¼ä½ĵ": 7971,
      "åħ¨è¿ĩç¨ĭ": 7972,
      "é£Łåĵģå®īåħ¨": 7973,
      "åİĤåķĨ": 7974,
      "çµĤ": 7975,
      "åħ¨éĿ¢ä»İä¸¥æ²»åħļ": 7976,
      "æľŁåĪĬ": 7977,
      "å®¶å±ŀ": 7978,
      "æł¸éħ¸": 7979,
      "âĹı": 7980,
      "åħ¥åŃ¦": 7981,
      "çļĦå¤ļ": 7982,
      "æ³¨åħ¥": 7983,
      "ç´«å¤ĸçº¿": 7984,
      "æ¿Ģæĥħ": 7985,
      "æĵĩ": 7986,
      "çļĦçĬ¶æĢģ": 7987,
      "æ´¾éģ£": 7988,
      "æĿ¿æĿĲ": 7989,
      "ä¸ŃåĽ½äºº": 7990,
      "åıĳçĶŁåľ¨": 7991,
      "éĻ¤æŃ¤ä¹ĭå¤ĸ": 7992,
      "æ¢Ĺ": 7993,
      "äºĶå¤§": 7994,
      "ç«ŁçĦ¶": 7995,
      "æĪĳä¼ļ": 7996,
      "åĸĤ": 7997,
      "æ¸ħæ°´": 7998,
      "åľ¨åĨħçļĦ": 7999,
      "åħ¨å±Ģ": 8000,
      "ä¸ĭæ»ĳ": 8001,
      "åıĬåħ¶ä»ĸ": 8002,
      "å¥½å¥½åľ°": 8003,
      "åĽ¾æ¡Ī": 8004,
      "çļĦæľī": 8005,
      "ä¼ĬæľĹ": 8006,
      "æ¼ĶåĶ±": 8007,
      "å¼Ģå±ķäºĨ": 8008,
      "éĿĴæµ·": 8009,
      "æ¯ıæľĪ": 8010,
      "æĶ¾ç½®": 8011,
      "ç£¨æįŁ": 8012,
      "ä¸įç§»": 8013,
      "çļĦåħ·ä½ĵ": 8014,
      "çĽ´å¾Ħ": 8015,
      "Ľèµ·": 8016,
      "è£ħéħį": 8017,
      "ä¹ĭæĹ¥èµ·": 8018,
      "æķ·": 8019,
      "æĵİ": 8020,
      "äº¤åıī": 8021,
      "åħħåĪĨåĪ©çĶ¨": 8022,
      "èĨ³": 8023,
      "âĢķâĢķ": 8024,
      "ä¸įè§ģ": 8025,
      "ä¼łåĬ¨": 8026,
      "åį°åıĳ": 8027,
      "åŃĲåħ¬åı¸": 8028,
      "åĳĨ": 8029,
      "å®¶ä¹¡": 8030,
      "å¤ĦåĪĨ": 8031,
      "ä¸ĬçıŃ": 8032,
      "==": 8033,
      "çĶ³è¯·äºº": 8034,
      "æ°¯åĮĸ": 8035,
      "ä¼łå¥ĩ": 8036,
      "è¿Ļæ®µ": 8037,
      "è§£éĻ¤": 8038,
      "èĭ±è¶ħ": 8039,
      "å¥ĳæľº": 8040,
      "åĲĳä¸Ĭ": 8041,
      "éħĴç²¾": 8042,
      "çļĦæłĩåĩĨ": 8043,
      "é¢Ĩä¼ļ": 8044,
      "çŃīäºº": 8045,
      "ç²īæľ«": 8046,
      "åºŁçī©": 8047,
      "å¤§éģĵ": 8048,
      "æ±ŁåįĹ": 8049,
      "æĹ¥æľŁ": 8050,
      "è´Łèį·": 8051,
      "è¿Ļåľº": 8052,
      "é«ĺå±Ĥ": 8053,
      "å°ıåŃ©": 8054,
      "ä¸Ńå¤ĸ": 8055,
      "æ´¾åĩº": 8056,
      "åı£æĦŁ": 8057,
      "å¼ºçĥĪçļĦ": 8058,
      "ä»İæŃ¤": 8059,
      "åĪ¤åĨ³": 8060,
      "çĥŃçĤ¹": 8061,
      "éĺµå®¹": 8062,
      "ç¬¬ä¹Ŀ": 8063,
      "åī§æĥħ": 8064,
      "è¾±": 8065,
      "åīįåĲİ": 8066,
      "åħĪéĶĭ": 8067,
      "çŁ³åĮĸ": 8068,
      "ä¾µçĬ¯": 8069,
      "æĢ»æķ°": 8070,
      "åİ»ä¸ĸ": 8071,
      "å¤įæĿĤçļĦ": 8072,
      "æī³": 8073,
      "æĸĩåĮĸéģĹäº§": 8074,
      "ä¸ºä¸»é¢ĺ": 8075,
      "åĳķ": 8076,
      "æľįåĬ¡ä¸Ńå¿ĥ": 8077,
      "èĴ¸åıĳ": 8078,
      "çļĦä¸Ģéĥ¨åĪĨ": 8079,
      "åĪĿä¸Ń": 8080,
      "èµļéĴ±": 8081,
      "ç«ŀæĬĢ": 8082,
      "è¯¥åħ¬åı¸": 8083,
      "å¯ĨéĽĨ": 8084,
      "å®Įæķ´çļĦ": 8085,
      "87": 8086,
      "è²¬": 8087,
      "åĮĸå¦Ĩåĵģ": 8088,
      "æįī": 8089,
      "è¶Ĭå¤§": 8090,
      "é¢Ĩå¯¼ä¸ĭ": 8091,
      "å¿«çļĦ": 8092,
      "å·¡è§Ĩ": 8093,
      "ä¹łè¿ĳå¹³åĲĮå¿Ĺ": 8094,
      "æĮĩåįĹ": 8095,
      "ç»ĦæĪĲåĳĺ": 8096,
      "çĹ°": 8097,
      "ä¸ºä¾ĭ": 8098,
      "æŁ¯": 8099,
      "åĲīåĪ©": 8100,
      "åĨįè¡Į": 8101,
      "ä¸ļçļĦ": 8102,
      "éģł": 8103,
      "è°ĥçĲĨ": 8104,
      "æ°¨éħ¸": 8105,
      "äººå¤§å¸¸å§Ķä¼ļ": 8106,
      "æĪĳä¸į": 8107,
      "åĮ»çĶŁçļĦ": 8108,
      "åŃĶåŃĲ": 8109,
      "èı©èĲ¨": 8110,
      "éĩįè¦ģä½ľçĶ¨": 8111,
      "æ°´æĢ§": 8112,
      "æĺİå¹´": 8113,
      "æĹ¶éĹ´åĨħ": 8114,
      "å²ģæľĪ": 8115,
      "å¸¸çĶ¨çļĦ": 8116,
      "ä¸¥è°¨": 8117,
      "ä¸įä»ħæĺ¯": 8118,
      "ç£Ĭ": 8119,
      "çº¦æĿŁ": 8120,
      "çīĪæľ¬": 8121,
      "æļ´åĬĽ": 8122,
      "éĿĸ": 8123,
      "ä¿¡èµĸ": 8124,
      "çĽ®çļĦæĺ¯": 8125,
      "æ·»åĬłåīĤ": 8126,
      "ä¹ĭåľ°": 8127,
      "çŃīçĽ¸åħ³": 8128,
      "äºĨå¯¹": 8129,
      "åĽĽæĺ¯": 8130,
      "èīĩ": 8131,
      "åįĶ": 8132,
      "æĦ¤": 8133,
      "å¸Ĥéķ¿": 8134,
      "çļĦä½įç½®": 8135,
      "æĬĢè¡ĵ": 8136,
      "æ°¨åŁº": 8137,
      "æ¸Ĭ": 8138,
      "è·Łè¸ª": 8139,
      "æĶ¶ç¼©": 8140,
      "è¨Ńè¨Ī": 8141,
      "ä¹ĭäºº": 8142,
      "åĲµ": 8143,
      "ç¡¬åĮĸ": 8144,
      "NBA": 8145,
      "åĮĹéĥ¨": 8146,
      "ä½Ĩä»ĸ": 8147,
      "ä¸įåıĬ": 8148,
      "æĿĥçļĦ": 8149,
      "äº¬ä¸ľ": 8150,
      "èĶĵ": 8151,
      "æĸ©": 8152,
      "çĻ¼çı¾": 8153,
      "éĺ»çĩĥ": 8154,
      "æĻ´": 8155,
      "æº¯": 8156,
      "æ»¥": 8157,
      "éļ¶": 8158,
      "å¼¦": 8159,
      "è¯ģå®ŀ": 8160,
      "å·¥ç¨ĭå»ºè®¾": 8161,
      "çªģåıĳ": 8162,
      "ç®¡çĲĨäººåĳĺ": 8163,
      "ç¼ĵæħ¢": 8164,
      "æģ¶æĢ§": 8165,
      "éĻĲäºİ": 8166,
      "è®¤è¯ĨåĪ°": 8167,
      "å¹´ä»¥æĿ¥": 8168,
      "åĵģçīĮçļĦ": 8169,
      "çĸĹæķĪ": 8170,
      "çľģæĶ¿åºľ": 8171,
      "ä¸įå®¹æĺĵ": 8172,
      "æĪĳè§īå¾Ĺ": 8173,
      "ä¸Ģå¼ł": 8174,
      "ä¸Ģæ¬¡æĢ§": 8175,
      "é¡¹çĽ®å»ºè®¾": 8176,
      "æĺ¯ä»İ": 8177,
      "å¼Ĭ": 8178,
      "åĪĽéĢłäºĨ": 8179,
      "æĤĦ": 8180,
      "åı°çģ£": 8181,
      "æĬķè¯ī": 8182,
      "åĪł": 8183,
      "æ²§": 8184,
      "ä¸ĭè·Į": 8185,
      "åħ¨éĿ¢å»ºè®¾": 8186,
      "åĽ½æľīä¼ģä¸ļ": 8187,
      "å¹³éĿ¢": 8188,
      "è´§è¿Ĳ": 8189,
      "æİ¥åĪ°": 8190,
      "åı«åģļ": 8191,
      "æ£Ģå¯ŁéĻ¢": 8192,
      "å¤§åĽ½": 8193,
      "åĲĦæĸ¹": 8194,
      "ro": 8195,
      "åº¸": 8196,
      "å¸¦çĿĢè¿Ļåı¥è¯Ŀ": 8197,
      "èħ¾è®¯": 8198,
      "æĤ£ä¸Ĭ": 8199,
      "æĪĳä»¬è¿ĺè¦ģæĽ´åĬł": 8200,
      "96": 8201,
      "æľĪåĪĿ": 8202,
      "éĴī": 8203,
      "è½¬åħ¥": 8204,
      "åĲ¸çĥŁ": 8205,
      "æĿĢèıĮ": 8206,
      "åĨĢ": 8207,
      "ä¸ĩè¾Ĩ": 8208,
      "æł·åĵģ": 8209,
      "æ¿Ł": 8210,
      "åıĺæĽ´": 8211,
      "æľīäºĽäºº": 8212,
      "å½±åĵįåĪ°": 8213,
      "åļ´": 8214,
      "çļĦè´£ä»»": 8215,
      "ä¹¦ç±į": 8216,
      "æŃ¤åĲİ": 8217,
      "æĪĳä»¬åħļ": 8218,
      "ä¼ĺè¶Ĭ": 8219,
      "å¥¢": 8220,
      "CE": 8221,
      "çĽ®å½ķ": 8222,
      "æŀģå¤§çļĦ": 8223,
      "ä¸įæĸŃåľ°": 8224,
      "èĭ±æĸĩ": 8225,
      "åįķçº¯": 8226,
      "å¸Ĥçº§": 8227,
      "å®£è®²": 8228,
      "åĪĽå§ĭ": 8229,
      "ç»ıæµİæķĪçĽĬ": 8230,
      "åħ¨æĸ°çļĦ": 8231,
      "çļĦæĪĲç»©": 8232,
      "æĹ©ä¸Ĭ": 8233,
      "æĪĳè¦ģ": 8234,
      "ç«ĭåľº": 8235,
      "éķ¿æĺ¥": 8236,
      "åī¯ä½ľçĶ¨": 8237,
      "åĲ¯åıĳäºĨæĪĳ": 8238,
      "çĶŁè¾°": 8239,
      "åĿĲåľ¨": 8240,
      "ä¹ħçļĦ": 8241,
      "æ°ĳèŃ¦": 8242,
      "æī§æĶ¿": 8243,
      "è¿ĻåĲ¯åıĳäºĨæĪĳ": 8244,
      "å®¤å¤ĸ": 8245,
      "éķ¿è¿ľ": 8246,
      "è¢«è¯Ħä¸º": 8247,
      "é¢ĺæĿĲ": 8248,
      "ä¸įå¿ħ": 8249,
      "ç§ĳå®¤": 8250,
      "åıĹçĽĬ": 8251,
      "çªĳ": 8252,
      "è¯ŀçĶŁ": 8253,
      "ç¬¬äºĮæ¬¡": 8254,
      "çĿ£ä¿ĥ": 8255,
      "è§ĴçĲĥ": 8256,
      "æĦŁæģ©": 8257,
      "ä¸İåħ¶": 8258,
      "åħ¬åħ±æľįåĬ¡": 8259,
      "ç´Ĭä¹±": 8260,
      "æ¹Ľ": 8261,
      "å¾ĹåĪĨ": 8262,
      "åĲĮæĻĤ": 8263,
      "å¤´åıĳ": 8264,
      "å¤§äºĭ": 8265,
      "ä¸Ģä¸ªæľĪ": 8266,
      "åħ³çĪ±": 8267,
      "äººæµģ": 8268,
      "æĸ¥": 8269,
      "çľŁæĺ¯": 8270,
      "æįĲèµł": 8271,
      "æ¢ħè¥¿": 8272,
      "åı¯æł¹æį®": 8273,
      "èĢħåĴĮ": 8274,
      "åıĳèµ·": 8275,
      "æĶ¿åĬ¡": 8276,
      "äº®çĤ¹": 8277,
      "é«ĺåħ´": 8278,
      "åįĹéĥ¨": 8279,
      "åĳĬçŁ¥": 8280,
      "äº§ä¸ļçļĦ": 8281,
      "è¿Ļç§įæĥħåĨµ": 8282,
      "åĩºèī²": 8283,
      "éĢĢå½¹": 8284,
      "å¾ģæĶ¶": 8285,
      "ä»ĵåĤ¨": 8286,
      "æ¸ħåįķ": 8287,
      "è²ł": 8288,
      "æľºä½ĵ": 8289,
      "éģ¸æĵĩ": 8290,
      "éį": 8291,
      "å·²å®ĮæĪĲ": 8292,
      "å¸ĺ": 8293,
      "å¯¹åºĶ": 8294,
      "çļĦæĹ¶ä»£": 8295,
      "ç®¡çĲĨå±Ģ": 8296,
      "æĢ»æĬķèµĦ": 8297,
      "æĺ¨å¤©": 8298,
      "è´£ä»¤": 8299,
      "çĻ¾åº¦": 8300,
      "ç«ĭåĪ»": 8301,
      "å¤ĸåĩº": 8302,
      "æ¸´æľĽ": 8303,
      "åĩłç§į": 8304,
      "æīĢå¾Ĺç¨İ": 8305,
      "ä¸ĵæ³¨äºİ": 8306,
      "åĬłæ²¹": 8307,
      "è£¤": 8308,
      "çŁ¿å±±": 8309,
      "ä¹Łè¢«": 8310,
      "åģļåĩºäºĨ": 8311,
      "æ´»æĢ§çĤŃ": 8312,
      "æµĳ": 8313,
      "åıªä¸įè¿ĩ": 8314,
      "æĺ¯ä»Ģä¹Īåĳ¢": 8315,
      "çĲĨæĢ§": 8316,
      "åĲĪæ³ķæĿĥçĽĬ": 8317,
      "å±¤": 8318,
      "æģĴå¤§": 8319,
      "åĸĺ": 8320,
      "å¥³çĶŁ": 8321,
      "éĺĢéĹ¨": 8322,
      "ä¾¿ç§ĺ": 8323,
      "æĢ¡": 8324,
      "çĶµè§£": 8325,
      "èĲİ": 8326,
      "æħİéĩįçļĦå®¡è§Ĩ": 8327,
      "èĹ¤": 8328,
      "ç»Łæ²»": 8329,
      "å¹³æĸ¹åħ¬éĩĮ": 8330,
      "çªĹåı£": 8331,
      "åĹ½": 8332,
      "ç©ºä¸Ń": 8333,
      "åĽºéĨĩ": 8334,
      "æħİéĩįçļĦå®¡è§Ĩè¿Ļä¸ªéĹ®é¢ĺ": 8335,
      "é«ĺåĵģè´¨": 8336,
      "æİĴåįµ": 8337,
      "æĪĳä»¬è¿ĺè¦ģæĽ´åĬłæħİéĩįçļĦå®¡è§Ĩè¿Ļä¸ªéĹ®é¢ĺ": 8338,
      "05": 8339,
      "PS": 8340,
      "å°¸": 8341,
      "éĹ¨åı£": 8342,
      "æĮĩå¼ķ": 8343,
      "ç²¾ç¥ŀåĴĮ": 8344,
      "è°ĪåĪ¤": 8345,
      "ä¸ĩç¾İåħĥ": 8346,
      "PVC": 8347,
      "åıĸä»£": 8348,
      "åľĭå®¶": 8349,
      "èĸĦèĨľ": 8350,
      "æĺĵäºİ": 8351,
      "åĴĮä¸ªäºº": 8352,
      "æ´ģåĩĢ": 8353,
      "æľīæľĽ": 8354,
      "ä½łè¦ģ": 8355,
      "å·¥ç¨ĭæĬĢæľ¯": 8356,
      "åĩ»è´¥": 8357,
      "æĪıåī§": 8358,
      "èīºæľ¯å®¶": 8359,
      "å¾ĹçŁ¥": 8360,
      "çĶŁäº§ä¼ģä¸ļ": 8361,
      "ä¸įåĲ«": 8362,
      "æĢ»ä¹ĭ": 8363,
      "è§ģè¯ģ": 8364,
      "è´Ŀå°Ķ": 8365,
      "éĹ¨è¯Ĭ": 8366,
      "ç»ıæµİå¢ŀéķ¿": 8367,
      "ä¹Įåħĭåħ°": 8368,
      "å¯ĴåĨ·": 8369,
      "äººäºº": 8370,
      "åĭ¢": 8371,
      "åħļé£İ": 8372,
      "è¿Ļæĺ¯ä¸Ģä¸ª": 8373,
      "å®°": 8374,
      "ç¾İä¸½çļĦ": 8375,
      "çŃīçĹĩçĬ¶": 8376,
      "ç¼ł": 8377,
      "çĥ·": 8378,
      "å»ºçŃĳçī©": 8379,
      "æ²»åĽ½": 8380,
      "èº«ä½ĵçļĦ": 8381,
      "ä¸ŃæīĢ": 8382,
      "åº¦åģĩ": 8383,
      "åıĪç§°": 8384,
      "ç¹ģæ®ĸ": 8385,
      "åĬ«": 8386,
      "åı·çº¿": 8387,
      "è¯Ĺäºº": 8388,
      "å¼ĢäºĨ": 8389,
      "çĶŁæĹ¥": 8390,
      "æľĢåħ·": 8391,
      "æµªæ¼«": 8392,
      "æĪĳè®¤ä¸º": 8393,
      "å®¡ç¾İ": 8394,
      "ä»Ĭå¹´çļĦ": 8395,
      "åı¯çĶ¨": 8396,
      "æĬ¤å£«": 8397,
      "æł¼åħ°": 8398,
      "æīĢè°ĵçļĦ": 8399,
      "çī¹æľĹ": 8400,
      "æŀ¢çº½": 8401,
      "åĩºåľº": 8402,
      "æ®·": 8403,
      "è®²åº§": 8404,
      "çļĦåŃ©åŃĲ": 8405,
      "åĲīç¥¥": 8406,
      "å··": 8407,
      "çľģä»½": 8408,
      "ä¸ºä¸»è¦ģ": 8409,
      "ä¸ŃåĲ«æľī": 8410,
      "å¸ĥç½®": 8411,
      "è·ŁçĿĢ": 8412,
      "å¤´çĹĽ": 8413,
      "ä¸įåģľ": 8414,
      "å¼§": 8415,
      "åĽ½å®¶éĺŁ": 8416,
      "çŁ³å¢¨": 8417,
      "åĿļå®ļä¸įç§»": 8418,
      "ä¹Łæ²¡": 8419,
      "æĬĦ": 8420,
      "ç¥ŀç§ĺ": 8421,
      "æĢ§ä»·": 8422,
      "79": 8423,
      "å°±åĮ»": 8424,
      "æĪĳçľģ": 8425,
      "re": 8426,
      "å¤´çļĦ": 8427,
      "åĢ¾åĲĳ": 8428,
      "èħ¹æ³»": 8429,
      "83": 8430,
      "æħĮ": 8431,
      "ä¸Ńçº§": 8432,
      "åľ¨å®¶": 8433,
      "éĢļè¿ĩäºĨ": 8434,
      "å¾·éĩĮ": 8435,
      "å¸¸çĶ¨": 8436,
      "æī§ä¸ļ": 8437,
      "éĽĩ": 8438,
      "æĪĳéĻ¢": 8439,
      "æµ®æĥ³": 8440,
      "ä¸ĢæĹ¥": 8441,
      "ç²ª": 8442,
      "ä¹Łèĥ½å¥½å¥½åľ°": 8443,
      "èĢĮåĩº": 8444,
      "åĲĳåīį": 8445,
      "ä¿ĥä½¿": 8446,
      "åĮ¹éħį": 8447,
      "ä¸»èĲ¥": 8448,
      "é£İéĽ¨": 8449,
      "æ¸©å®¤": 8450,
      "èĹ»": 8451,
      "åĮĹäº¬æĹ¶éĹ´": 8452,
      "ä¸ªç¯®æĿ¿": 8453,
      "åŃ¦ä¹łçļĦ": 8454,
      "æł¡ä¼ģ": 8455,
      "åĪĽåĬŀ": 8456,
      "æĳĬ": 8457,
      "èĳ¡èĲĦéħĴ": 8458,
      "ç®¡çĲĨåĪ¶åº¦": 8459,
      "åŃĲéĩĮ": 8460,
      "æľīæľŁå¾ĴåĪĳ": 8461,
      "å·®åĪ«": 8462,
      "åįģä¸īäºĶ": 8463,
      "åĭĩæ°Ķ": 8464,
      "åłµå¡ŀ": 8465,
      "ä»Ģä¹Īæł·çļĦ": 8466,
      "è§Ĥèµı": 8467,
      "å¦Ĥæŀľæ²¡æľī": 8468,
      "èªŀ": 8469,
      "åŃ¦æľŁ": 8470,
      "çĶ¸": 8471,
      "åĴ³åĹ½": 8472,
      "è¿Ľåº¦": 8473,
      "éĺ²å¾¡": 8474,
      "åĴĮçĶŁæ´»": 8475,
      "é¹°": 8476,
      "ç±³çļĦ": 8477,
      "æĽĿåħī": 8478,
      "å¸¦ç»Ļ": 8479,
      "ä¸Ģæĸ¹": 8480,
      "è´ŁéĿ¢": 8481,
      "æī¹åıĳ": 8482,
      "å¥´": 8483,
      "1500": 8484,
      "ç½ĳåĿĢ": 8485,
      "åľ¨ä¸Ĭ": 8486,
      "åĻ¨ä»¶": 8487,
      "å¹³åĩ¡": 8488,
      "åįĥå¹´": 8489,
      "ä¹Łèĥ½å¥½å¥½åľ°ä½ĵä¼ļ": 8490,
      "åĸ·æ¶Ĥ": 8491,
      "ä¸ĬæĿ¥": 8492,
      "é¦ĸåħĪè¦ģ": 8493,
      "ç°¡": 8494,
      "èģĶç¿©": 8495,
      "ç¿ħ": 8496,
      "å¯¹ä¸ŃåĽ½": 8497,
      "éģŃåıĹ": 8498,
      "æľīæ¯Ĵ": 8499,
      "æľīéĻĲè´£ä»»": 8500,
      "çĽ¸ç»§": 8501,
      "èĬĤçĤ¹": 8502,
      "ç§įç§į": 8503,
      "èĪ±": 8504,
      "æµ®æĥ³èģĶç¿©": 8505,
      "æŃ£å¦Ĥ": 8506,
      "è©¹": 8507,
      "å°±ä¸įä¼ļ": 8508,
      "73": 8509,
      "åľ¨ä¸Ń": 8510,
      "èį·åħ°": 8511,
      "æĹłæľº": 8512,
      "å£¶": 8513,
      "æľīä¸ª": 8514,
      "åĩıæİĴ": 8515,
      "è¡Įé©¶": 8516,
      "éĺŁä¼įå»ºè®¾": 8517,
      "å¾Īå¼ºçļĦ": 8518,
      "çİ«": 8519,
      "æĺ¯æ¯Ķè¾ĥ": 8520,
      "æµĭå®ļ": 8521,
      "èĪĨè®º": 8522,
      "ä¿®åħ»": 8523,
      "æ°Ķç®¡": 8524,
      "å±ıå¹ķ": 8525,
      "çļĦä¸ī": 8526,
      "æľ¬çĿĢ": 8527,
      "äºĶéĩĳ": 8528,
      "æķ°åįģ": 8529,
      "çī¹æľĹæĻ®": 8530,
      "çļĦä¸Ģæ¬¡": 8531,
      "æĮĳéĢī": 8532,
      "ä¸»è¦ģåĮħæĭ¬": 8533,
      "åĳĢ": 8534,
      "åİķ": 8535,
      "Cç½Ĺ": 8536,
      "ä¸ĵä¸ļåĮĸ": 8537,
      "çıŃçº§": 8538,
      "æĹ¥æĻļ": 8539,
      "åľ°åĽ¾": 8540,
      "åĴ±": 8541,
      "å½¢å®¹": 8542,
      "èĪĴæľį": 8543,
      "89": 8544,
      "åĲĪä¼Ļ": 8545,
      "ä¸¾æĬ¥": 8546,
      "ä¸ĭæĿ¥çļĦ": 8547,
      "æ³ķçļĦ": 8548,
      "çŃīäºİ": 8549,
      "ç®¡çĲĨåĬŀæ³ķ": 8550,
      "åŃĺæ¬¾": 8551,
      "è°ĥè§£": 8552,
      "å¤ļå½©": 8553,
      "å¥³æĢ§çļĦ": 8554,
      "åĲİèĢħ": 8555,
      "è²¡": 8556,
      "æı´åĬ©": 8557,
      "å¤ĸä¼¤": 8558,
      "å¼ķæĵİ": 8559,
      "110": 8560,
      "æŀģåħ¶": 8561,
      "éģĬ": 8562,
      "è¾ĥå°ĳ": 8563,
      "èµĦæºĲçļĦ": 8564,
      "è½°": 8565,
      "ä¹Łä¸º": 8566,
      "ä¸ªæĢ§åĮĸ": 8567,
      "ç«ĭä½ĵ": 8568,
      "è¾ĸå¸Ĥ": 8569,
      "ä¸¤èĢħ": 8570,
      "æĿī": 8571,
      "è¾ĥå°ı": 8572,
      "åĺ±": 8573,
      "åĪĨåĪ«æĺ¯": 8574,
      "åĿĩä¸º": 8575,
      "åħ³ç³»çļĦ": 8576,
      "æĢİä¹Īæł·": 8577,
      "ä»ĵåºĵ": 8578,
      "åľ¨åħ¨çĲĥ": 8579,
      "éģĵçļĦ": 8580,
      "æī¾åĪ°äºĨ": 8581,
      "åħ³èģĶ": 8582,
      "ä¸¥å³»": 8583,
      "ä¼´æľī": 8584,
      "ä¸§å¤±": 8585,
      "å®ŀéĻħè¡ĮåĬ¨": 8586,
      "åħ±åĲĮä½ĵ": 8587,
      "ä½Ĩä»¤æĪĳ": 8588,
      "ä¹³æĪ¿": 8589,
      "æŃ£å½ĵ": 8590,
      "åı¸æľº": 8591,
      "åħĳ": 8592,
      "èºº": 8593,
      "äº®çĽ¸": 8594,
      "ç¦»å¿ĥ": 8595,
      "ç¡®è¯ĬçĹħä¾ĭ": 8596,
      "äººçĶŁçļĦ": 8597,
      "ç»Īèº«": 8598,
      "çĤ¹çĲĥ": 8599,
      "ç§¯æŀģæĢ§": 8600,
      "åĢ¼å¾Ĺä¸Ģ": 8601,
      "è´¯ç©¿": 8602,
      "æĬķç¥¨": 8603,
      "äº²åŃĲ": 8604,
      "çŃīå¤ļä¸ª": 8605,
      "éĽĻ": 8606,
      "åĲĦæĹı": 8607,
      "ä¸įå®ī": 8608,
      "éĻ½": 8609,
      "æĪĲäº¤": 8610,
      "çļĦå¤§åŀĭ": 8611,
      "åħļå»ºå·¥ä½ľ": 8612,
      "éĲĺ": 8613,
      "å¾ģæ±Ĥ": 8614,
      "ç»ıåİĨäºĨ": 8615,
      "74": 8616,
      "æĸĩåĮĸåĴĮ": 8617,
      "æĬ«éľ²": 8618,
      "è¿ĻäºĽéĹ®é¢ĺ": 8619,
      "åĬ©çĲĨ": 8620,
      "èĻ½çĦ¶å¾ĪçŁŃ": 8621,
      "åĮ»ä¿Ŀ": 8622,
      "ä»·åĢ¼çļĦ": 8623,
      "åĽ½ä¼ģ": 8624,
      "æľ¬åħ¬åı¸": 8625,
      "ä¸İä¼ļ": 8626,
      "å±ĤçļĦ": 8627,
      "çłĶç©¶åĳĺ": 8628,
      "æħ¨": 8629,
      "åıĺé¢ĳ": 8630,
      "å¤§æ¡¥": 8631,
      "åĵ¦": 8632,
      "è°ĥæİ§": 8633,
      "åĺīå®¾": 8634,
      "è´«è¡Ģ": 8635,
      "çĭĲ": 8636,
      "è¿Ļåı¥è¯Ŀè¯Ń": 8637,
      "ç¼ħ": 8638,
      "åķ¤": 8639,
      "èĶ½": 8640,
      "ä½Ĩä»¤æĪĳæµ®æĥ³èģĶç¿©": 8641,
      "è¿Ļåı¥è¯Ŀè¯ŃèĻ½çĦ¶å¾ĪçŁŃ": 8642,
      "åĽŀå¤´": 8643,
      "æ²»çĸĹçļĦ": 8644,
      "çĻ¾ä¸ĩ": 8645,
      "ä¸ªäººçļĦ": 8646,
      "åħ¬ä¸»": 8647,
      "æ³¼": 8648,
      "éĩĮç¨ĭ": 8649,
      "åŃ¦éĩĳ": 8650,
      "æĮīæĳ©": 8651,
      "åī§ä¸Ń": 8652,
      "åĩºçīĪç¤¾": 8653,
      "å¯¹èĩªå·±": 8654,
      "å§ĭç»ĪåĿļæĮģ": 8655,
      "è¯Ŀé¢ĺ": 8656,
      "ä»Ĺ": 8657,
      "éĿĻèĦī": 8658,
      "åľ¨åīį": 8659,
      "æµı": 8660,
      "çľĭäºĨ": 8661,
      "åį¿": 8662,
      "åı²ä¸Ĭ": 8663,
      "æ²¡æľīä»»ä½ķ": 8664,
      "è¶Ĭé«ĺ": 8665,
      "çĶ¨éĩı": 8666,
      "å¾Ĺå¾Ī": 8667,
      "æĪĳåĴĮ": 8668,
      "çĥ¦æģ¼": 8669,
      "å¤ļåħĥåĮĸ": 8670,
      "åħīæ»ĳ": 8671,
      "éĢģåĪ°": 8672,
      "åħ³éĶ®è¯į": 8673,
      "è¡Ķæİ¥": 8674,
      "IT": 8675,
      "åĮºåĪĨ": 8676,
      "ä¹Łèĥ½å¥½å¥½åľ°ä½ĵä¼ļè¿Ļåı¥è¯Ŀ": 8677,
      "å°±éľĢè¦ģ": 8678,
      "çĽ¸éĹľ": 8679,
      "ç³Ł": 8680,
      "èĩ´è¾ŀ": 8681,
      "èĬ±åĽŃ": 8682,
      "éĩįåºĨå¸Ĥ": 8683,
      "åĩºæ¼Ķ": 8684,
      "åķ¦": 8685,
      "èĢģçĻ¾å§ĵ": 8686,
      "åľ°åĿª": 8687,
      "æĪĲåĬŁçİĩ": 8688,
      "è¤Ĳ": 8689,
      "è§£çŃĶäºĨæĪĳçļĦ": 8690,
      "ä¸įç®¡æĺ¯": 8691,
      "è§£çŃĶäºĨæĪĳçļĦçĸĳæĥĳ": 8692,
      "è´®": 8693,
      "æīĵè¿Ľ": 8694,
      "å¿ħé¡»è¦ģ": 8695,
      "èĤĿèĦı": 8696,
      "è¾Ľèĭ¦": 8697,
      "æµģå¤±": 8698,
      "åĩºçİ°çļĦ": 8699,
      "å¤´éĥ¨": 8700,
      "å¤´èĦĳ": 8701,
      "æľīä¸Ģå®ļ": 8702,
      "åĪ¶çº¦": 8703,
      "æµģæ°´": 8704,
      "èĮ«": 8705,
      "åķĨä¼ļ": 8706,
      "éģĹæĨ¾": 8707,
      "çļĦåŁİå¸Ĥ": 8708,
      "æľīèī²": 8709,
      "éĻªä¼´": 8710,
      "çĻ¼çĶŁ": 8711,
      "æĺ¥å¤©": 8712,
      "åĢŁéī´": 8713,
      "ĠB": 8714,
      "åľ¨äºĨ": 8715,
      "ä¸Ģéĥ¨": 8716,
      "ä½ıéĻ¢": 8717,
      "æĺ¯ä½¿": 8718,
      "æľīåĬĽçļĦ": 8719,
      "çŃīåĽłç´ł": 8720,
      "äºĴèģĶ": 8721,
      "åħļçļĦåįģåħ«å¤§": 8722,
      "è»į": 8723,
      "è®¾å®ļ": 8724,
      "çº½çº¦": 8725,
      "å»ºç«ĭåģ¥åħ¨": 8726,
      "éĹ¯": 8727,
      "ç»Ļä»ĸ": 8728,
      "çĥŃæ°´åĻ¨": 8729,
      "åľ¨æľ¬": 8730,
      "èªīä¸º": 8731,
      "ç¥Ľ": 8732,
      "æ²»çĻĤ": 8733,
      "èĸ¯": 8734,
      "å§Ĩæĸ¯": 8735,
      "æ¡©": 8736,
      "éĥĬ": 8737,
      "ä¹ĭäºĭ": 8738,
      "ä¸¤å²¸": 8739,
      "4000": 8740,
      "å¤±è°ĥ": 8741,
      "çļĦåĲĪä½ľ": 8742,
      "è¿Ļæ¬¾": 8743,
      "äºĮæ°§åĮĸç¢³": 8744,
      "æĹ©æĹ¥": 8745,
      "æĵħéķ¿": 8746,
      "æ°´éĩı": 8747,
      "ãĢĭãĢģ": 8748,
      "çļĦçĲĨå¿µ": 8749,
      "ä¸ľäº¬": 8750,
      "è¿Ļä¼¼ä¹İè§£çŃĶäºĨæĪĳçļĦçĸĳæĥĳ": 8751,
      "æĪªæŃ¢": 8752,
      "å°±æĺ¯è¦ģ": 8753,
      "æģĭçĪ±": 8754,
      "æľĿé²ľ": 8755,
      "è§ĦèĮĥåĮĸ": 8756,
      "åłªç§°": 8757,
      "èĢĲçĶ¨": 8758,
      "æĪĲç«ĭäºĨ": 8759,
      "æ¹¾åĮº": 8760,
      "bo": 8761,
      "ä¹¦åĨĻ": 8762,
      "è®©åŃ©åŃĲ": 8763,
      "04": 8764,
      "æį¢çĥŃ": 8765,
      "èĤ¥èĥĸ": 8766,
      "æĶ¹éĿ©çļĦ": 8767,
      "åĬĥ": 8768,
      "çº¦å®ļ": 8769,
      "å¹´å¼Ģå§ĭ": 8770,
      "åīįæıĲ": 8771,
      "éĽĦåİļ": 8772,
      "éĿŀå¸¸çļĦ": 8773,
      "çĸ¡": 8774,
      "éĢīæĭĶ": 8775,
      "æĪ²": 8776,
      "1999": 8777,
      "è°ĥåĬ¨": 8778,
      "æľīä¸Ģå¤©": 8779,
      "ä¹ĭæĦı": 8780,
      "åħļçļĦåįģä¹Ŀå¤§": 8781,
      "èĥ°": 8782,
      "éªĮè¯ģ": 8783,
      "ç¨ĭåº¦çļĦ": 8784,
      "æ¬¡äºİ": 8785,
      "æķĪåĬĽ": 8786,
      "çĪ±ä½ł": 8787,
      "äººä½ĵçļĦ": 8788,
      "è¿Ļæĺ¯ä¸Ģ": 8789,
      "ä¾£": 8790,
      "äºĭä¸ļåıĳå±ķ": 8791,
      "åŀĭæĿĲ": 8792,
      "è´¿": 8793,
      "è´¨éĩıåĴĮ": 8794,
      "æĥħçļĦ": 8795,
      "æĹĹå¸ľ": 8796,
      "å¹«": 8797,
      "æĽ¾åľ¨": 8798,
      "åĽ½å®¶å®īåħ¨": 8799,
      "æĶ¿åºľçļĦ": 8800,
      "éĻķè¥¿çľģ": 8801,
      "åŁºéĩĳä¼ļ": 8802,
      "åįī": 8803,
      "çİ°ä»£åĮĸçļĦ": 8804,
      "ä¸Ģéģĵ": 8805,
      "82": 8806,
      "é¢Ĩå¯¼å°ıç»Ħ": 8807,
      "æ¶Īè´¹èĢħçļĦ": 8808,
      "éĶĢåĶ®é¢Ŀ": 8809,
      "å·¥ä½ľä¼ļè®®": 8810,
      "é¥²æĸĻ": 8811,
      "æŃĩ": 8812,
      "åľį": 8813,
      "å»ºçŃĳå·¥ç¨ĭ": 8814,
      "åĪĴåĪĨ": 8815,
      "æİ¢æµĭ": 8816,
      "éķ¿å¤§": 8817,
      "92": 8818,
      "å«Įçĸĳäºº": 8819,
      "é¹ħ": 8820,
      "ä¸ªæķ°": 8821,
      "ç§¯æŀģåıĤä¸İ": 8822,
      "èĻķçĲĨ": 8823,
      "è®¸å¤ļäºº": 8824,
      "ä¸Ģåı¥åĲįè¨Ģ": 8825,
      "éĺ¶çº§": 8826,
      "å¤Ħå¤Ħ": 8827,
      "åĭĩæķ¢": 8828,
      "äº¤æĺĵæīĢ": 8829,
      "çļĦæķĻåŃ¦": 8830,
      "åīįæĿ¥": 8831,
      "åĩıå°ĳäºĨ": 8832,
      "èĿ¶": 8833,
      "äººæĢ§": 8834,
      "çŀ»": 8835,
      "åĲĮè¡Į": 8836,
      "å®ŀçİ°ä¸Ńåįİæ°ĳæĹıä¼Łå¤§å¤įåħ´": 8837,
      "æľĭåıĭä»¬": 8838,
      "æĹ¥åĨħ": 8839,
      "äººä¸ºæľ¬": 8840,
      "ç²¾èĭ±": 8841,
      "è½¬åĲĳ": 8842,
      "æ°´çĶµ": 8843,
      "åı¯ä»¥çĶ¨": 8844,
      "å´©": 8845,
      "71": 8846,
      "åľ¨ä»ĸ": 8847,
      "è£ľ": 8848,
      "ä½ıäºĨ": 8849,
      "ä¸Ģä»¶": 8850,
      "è¯´è¿ĩè¿Ļæł·ä¸Ģåı¥åĲįè¨Ģ": 8851,
      "ĠP": 8852,
      "åĲĮå¹´": 8853,
      "å°Ĩæĺ¯": 8854,
      "Ġ:": 8855,
      "åıĺæĪĲäºĨ": 8856,
      "éĻ¤å°ĺ": 8857,
      "åİŁåĪĽ": 8858,
      "çĤ¹çļĦ": 8859,
      "èģ½": 8860,
      "ç±³åħ°": 8861,
      "è¡°èĢģ": 8862,
      "çļĦä¸Ģå¹´": 8863,
      "éģŃåĪ°": 8864,
      "åĿ¤": 8865,
      "çĶŁäº§åĴĮ": 8866,
      "åı¯çĶ¨äºİ": 8867,
      "å¾®ç¬ĳ": 8868,
      "ç³»çµ±": 8869,
      "ä¸īæ¬¡": 8870,
      "è¿ĺåİŁ": 8871,
      "éĢīæĭ©äºĨ": 8872,
      "çĶŁè¾°åħ«åŃĹ": 8873,
      "æĹ¥åĪ¶": 8874,
      "çļĦä¸Ģé¡¹": 8875,
      "èĵ¬åĭĥ": 8876,
      "åĵĪå°Ķæ»¨": 8877,
      "æĢ§ä»·æ¯Ķ": 8878,
      "æ¸ħçĥŃ": 8879,
      "å¼ĢéĢļ": 8880,
      "çļĦæĪĺçķ¥": 8881,
      "84": 8882,
      "å»ºè®¾é¡¹çĽ®": 8883,
      "æľĢé«ĺçļĦ": 8884,
      "å¤§å®¶çļĦ": 8885,
      "ä»¿ä½Ľ": 8886,
      "æ¯«æĹł": 8887,
      "å¯¼èĩ´çļĦ": 8888,
      "ä¸İä¸ŃåĽ½": 8889,
      "åĪĩå°Ķ": 8890,
      "èĥ¡èĲĿåįľ": 8891,
      "è¡ĮæĶ¿éĥ¨éĹ¨": 8892,
      "æĢĢçĸĳ": 8893,
      "æĺ¯åĽ½å®¶": 8894,
      "éĮ¢": 8895,
      "åħĥä»¶": 8896,
      "å½±åĥı": 8897,
      "æľīè¶£": 8898,
      "åıĹæ¬¢è¿İ": 8899,
      "å¦ĤåĲĮ": 8900,
      "çĥ«": 8901,
      "åıĤå±ķ": 8902,
      "é©¬æĿ¥": 8903,
      "å¯Įæľīåĵ²çĲĨ": 8904,
      "å¸Ĳ": 8905,
      "æŁ¿": 8906,
      "æıĲèµ·": 8907,
      "å°±è¯Ĭ": 8908,
      "çľĭæ³ķ": 8909,
      "ç¤¾ä¼ļè´£ä»»": 8910,
      "çľ¼åīį": 8911,
      "èľĢ": 8912,
      "éĺ¿æł¹": 8913,
      "ä½łæĺ¯": 8914,
      "åī¯éĻ¢éķ¿": 8915,
      "éĴ¢æĿĲ": 8916,
      "çĶŁåĳ½çļĦ": 8917,
      "åħ¨æĸ°": 8918,
      "çīĽèĤī": 8919,
      "éĺ¿æł¹å»·": 8920,
      "åĳķåĲĲ": 8921,
      "âĨ": 8922,
      "åĬłåī§": 8923,
      "æĢĸ": 8924,
      "çī¹èī²çļĦ": 8925,
      "è¯¢éĹ®": 8926,
      "kg": 8927,
      "è¿Ļæł·æīįèĥ½": 8928,
      "å¹¸è¿Ĳ": 8929,
      "æħ°éĹ®": 8930,
      "åı¯éĿłæĢ§": 8931,
      "ä¸»åĬĽ": 8932,
      "ç¢³éħ¸": 8933,
      "çŃīåĪ°": 8934,
      "ä»ĸè¿ĺ": 8935,
      "æĢ§çĸ¾çĹħ": 8936,
      "å°Ĩä»¥": 8937,
      "è§ģåĪ°": 8938,
      "åĻªå£°": 8939,
      "æ·Ģç²ī": 8940,
      "åıªéľĢ": 8941,
      "åįļè§Ī": 8942,
      "åħļåĨħ": 8943,
      "åģĩå¦Ĥ": 8944,
      "è¶ĬæĿ¥è¶Ĭå¤ļçļĦ": 8945,
      "æĶĿ": 8946,
      "èĵī": 8947,
      "å°ĨæĪĲä¸º": 8948,
      "ä¸įé«ĺ": 8949,
      "æ´ĹåĩĢ": 8950,
      "åĳ³çļĦ": 8951,
      "å¢ħ": 8952,
      "æĵĶ": 8953,
      "éĽĨç¾¤": 8954,
      "è£½": 8955,
      "æĮ£": 8956,
      "éĤ£å°±": 8957,
      "æĺ¯åĲ¦æľī": 8958,
      "å®īå¾½çľģ": 8959,
      "å®¶åºĦ": 8960,
      "åįĬå¯¼ä½ĵ": 8961,
      "çįİ": 8962,
      "ä¸Ģåĳ¨": 8963,
      "ä¸Ńæĸ¹": 8964,
      "åĭī": 8965,
      "ä¸įåĪ©äºİ": 8966,
      "è¦ģåĬłå¼º": 8967,
      "08": 8968,
      "çļĦæĥħ": 8969,
      "éĴ©": 8970,
      "çļĦåĲį": 8971,
      "åħ»æĬ¤": 8972,
      "æľºåĬ¨è½¦": 8973,
      "é¾į": 8974,
      "ä¸Ģåıª": 8975,
      "çī¢çī¢": 8976,
      "ç»ĦæĪĲçļĦ": 8977,
      "éĢļéģİ": 8978,
      "æİ¥æĶ¶": 8979,
      "âĺħ": 8980,
      "åħ°å·ŀ": 8981,
      "éĿ¢éĥ¨": 8982,
      "è®©åŃ¦çĶŁ": 8983,
      "æŁĵèī²": 8984,
      "Ġ-": 8985,
      "éĻįä½İäºĨ": 8986,
      "é¢ģåıĳ": 8987,
      "åĵģçļĦ": 8988,
      "ä¿¡æģ¯çļĦ": 8989,
      "åİ»åģļ": 8990,
      "çİ«çĳ°": 8991,
      "ä½įçļĦ": 8992,
      "éĢłä»·": 8993,
      "é£Łæ¬²": 8994,
      "æĹ¥å¸¸çĶŁæ´»": 8995,
      "éĽĸçĦ¶": 8996,
      "åĢĭäºº": 8997,
      "ç»¸": 8998,
      "ä¸įåŃĺåľ¨": 8999,
      "å¹´éĹ´": 9000,
      "åįķä½įçļĦ": 9001,
      "æĢ§çĶŁæ´»": 9002,
      "å¤ĸçļĦ": 9003,
      "çĶŁäº§åİĤå®¶": 9004,
      "è¿ŀéĶģ": 9005,
      "æ¢³çĲĨ": 9006,
      "å¤±çľł": 9007,
      "æŃ£ä¹ī": 9008,
      "æ²»çĸĹçĻ½çĻľé£İ": 9009,
      "åĩĳ": 9010,
      "è¢«äºº": 9011,
      "æ°´å¤ĦçĲĨ": 9012,
      "è¾Ľè¾£": 9013,
      "å·¥å§Ķ": 9014,
      "æķ¬ä¸ļ": 9015,
      "å¾Īé«ĺçļĦ": 9016,
      "çºªæ£ĢçĽĳå¯Ł": 9017,
      "ä¸Ģåº§": 9018,
      "éķ¿å®ī": 9019,
      "åħĪè¡Į": 9020,
      "çİ»çĴĥéĴ¢": 9021,
      "ä¸įéĶĻçļĦ": 9022,
      "ä¸Ńå°ıåŃ¦": 9023,
      "çĽ´è¾ĸå¸Ĥ": 9024,
      "åĩĨåĪĻ": 9025,
      "ä½łå°±": 9026,
      "ç§ĳæĬĢæĪĲæŀľ": 9027,
      "åĿĩåı¯": 9028,
      "åħ¨åĽ½åĲĦåľ°": 9029,
      "æĺ¯æ²¡æľī": 9030,
      "æĶ¾å°Ħ": 9031,
      "å¤·": 9032,
      "å°¤ä¸º": 9033,
      "çº³ç±³": 9034,
      "åħ¬åĬ¡åĳĺ": 9035,
      "å¿ĥè¡Ģç®¡": 9036,
      "å¯Įæľīåĵ²çĲĨçļĦè¯Ŀ": 9037,
      "åķ¤éħĴ": 9038,
      "ä¸įçĦ¶": 9039,
      "æĳĨèĦ±": 9040,
      "åħļå§Ķåī¯ä¹¦è®°": 9041,
      "ä¼°è®¡": 9042,
      "ä¹ĭå¿ĥ": 9043,
      "æĭħä¿Ŀ": 9044,
      "ç±»åĪ«": 9045,
      "è¯¥é¡¹çĽ®": 9046,
      "is": 9047,
      "ä»İä¸Ń": 9048,
      "ç¯ĩç«ł": 9049,
      "å¹´åľ¨": 9050,
      "è¯´è¿ĩä¸Ģåı¥å¯Įæľīåĵ²çĲĨçļĦè¯Ŀ": 9051,
      "éĺ»æŃ¢": 9052,
      "é½¿è½®": 9053,
      "çļĦæĬĹ": 9054,
      "æ¿ĢåĬ¨": 9055,
      "å¤§åŃ¸": 9056,
      "æĪĸåħ¶ä»ĸ": 9057,
      "å¤§åŃ¦çļĦ": 9058,
      "è¿ĩåİ»çļĦ": 9059,
      "çĦ¦çĤ¹": 9060,
      "æĬĬå®ĥ": 9061,
      "ç©¿çĿĢ": 9062,
      "èŀºæĹĭ": 9063,
      "åİĨç»ı": 9064,
      "è±ĨèħĲ": 9065,
      "ä¸įå¦¨": 9066,
      "æµģæĦŁ": 9067,
      "çľĭå¾ħ": 9068,
      "æ¯ıåĳ¨": 9069,
      "å¯¹äººä½ĵ": 9070,
      "çŁ«": 9071,
      "æ°Ķæ°Ľ": 9072,
      "è¯ĪéªĹ": 9073,
      "åĨ·åĨ»": 9074,
      "å¯¹å¤ĸå¼ĢæĶ¾": 9075,
      "éĺ²å®Ī": 9076,
      "æķ°æį®åºĵ": 9077,
      "éĺ»ç¢į": 9078,
      "æºĥçĸ¡": 9079,
      ":ãĢĬ": 9080,
      "éĹ¨åºĹ": 9081,
      "å¾Īå¤ļçļĦ": 9082,
      "ç¾İåĽ½çļĦ": 9083,
      "éĴĪå¯¹æĢ§": 9084,
      "ä¹ŁéľĢè¦ģ": 9085,
      "çº³ç¨İäºº": 9086,
      "åĿĲèĲ½": 9087,
      "çı¾åľ¨": 9088,
      "æķĻå®¤": 9089,
      "åĩłçİĩ": 9090,
      "èħ¹éĥ¨": 9091,
      "éķľå¤´": 9092,
      "åĪĨä¼ļ": 9093,
      "æ²¡æĥ³åĪ°": 9094,
      "æ´Ĺæ¶¤": 9095,
      "æĸ°åįİç¤¾": 9096,
      "è¿Ļä¸ªæĹ¶åĢĻ": 9097,
      "æģĲæĢĸ": 9098,
      "ç§ĳåŃ¦ä¸İ": 9099,
      "æķĻèģĮå·¥": 9100,
      "éĩĩè®¿æĹ¶": 9101,
      "æīĭä¸Ń": 9102,
      "åı¤åħ¸": 9103,
      "ä»İæľª": 9104,
      "æĢĿæĶ¿": 9105,
      "åħ¨åĮº": 9106,
      "ä½įå±ħ": 9107,
      "åĬ³åĬ¨åĬĽ": 9108,
      "å±±å¸Ĥ": 9109,
      "çŁ¥è¯ĨåĴĮ": 9110,
      "CT": 9111,
      "çī©ä½ĵ": 9112,
      "æĸ¯åŁº": 9113,
      "çķ¸": 9114,
      "çİ©åħ·": 9115,
      "ç¶ĵæ¿Ł": 9116,
      "åĳĺå·¥çļĦ": 9117,
      "å¤§èĩªçĦ¶": 9118,
      "åıĬçĽ¸åħ³": 9119,
      "çĶµçº¿": 9120,
      "è¿ĲåĬ¿": 9121,
      "ç¿ģ": 9122,
      "ä½Ĩå¦Ĥæŀľ": 9123,
      "åħļæĶ¿": 9124,
      "è£ħç®±": 9125,
      "åĶĩ": 9126,
      "èĢĮæĿ¥": 9127,
      "éĽĨèģļ": 9128,
      "å»ºè®¾å·¥ç¨ĭ": 9129,
      "å¯¹æĬĹ": 9130,
      "å´Ķ": 9131,
      "äº§çī©": 9132,
      "æµ·æĭĶ": 9133,
      "çĥŃéĹ¨": 9134,
      "åı·åı¬": 9135,
      "ä½ĵçİ°åľ¨": 9136,
      "é«ĺçŃīåŃ¦æł¡": 9137,
      "éªĤ": 9138,
      "åıĳå±ķè§ĦåĪĴ": 9139,
      "æĿ°åĩº": 9140,
      "æĸ¹åı¯": 9141,
      "å¤§æĪĺ": 9142,
      "æĭ¾": 9143,
      "ä¼ĺç¾İ": 9144,
      "åħļçļĦé¢Ĩå¯¼": 9145,
      "è©ķ": 9146,
      "ä¸¤ä¸ªäºº": 9147,
      "å®£åĳĬ": 9148,
      "å¹ħåº¦": 9149,
      "åĨ¬å¥¥": 9150,
      "å¼ķèµ·äºĨ": 9151,
      "çĽĳä¼ļ": 9152,
      "å¤§å®¶éĥ½": 9153,
      "æļĸæ°Ķ": 9154,
      "æľīéĻĲè´£ä»»åħ¬åı¸": 9155,
      "åĨĪ": 9156,
      "åĩłçĤ¹": 9157,
      "ä¸ŃåİŁ": 9158,
      "åŀĴ": 9159,
      "å¬": 9160,
      "èĬ±çĶŁ": 9161,
      "ç¬¬ä¸ĢæĹ¶éĹ´": 9162,
      "åµĮ": 9163,
      "åĽ½å®¶æłĩåĩĨ": 9164,
      "å¸ĮèħĬ": 9165,
      "å¦ĸ": 9166,
      "äºĳè®¡ç®Ĺ": 9167,
      "è®²ç©¶": 9168,
      "ç»£": 9169,
      "èĩªè¡Įè½¦": 9170,
      "å¾Ĺå¤ļ": 9171,
      "åħ¨ç¤¾ä¼ļ": 9172,
      "çĶŁèĤĸ": 9173,
      "ä¸ļä¸»": 9174,
      "å¿½çķ¥": 9175,
      "äº§åĲİ": 9176,
      "ç»ĵç®Ĺ": 9177,
      "èĻļåģĩ": 9178,
      "æľĪèĩ³": 9179,
      "åĩĮæĻ¨": 9180,
      "æ²¿æµ·": 9181,
      "æİ§åĪ¶ç³»ç»Ł": 9182,
      "ç»Ĩèĩ´": 9183,
      "åīĤçļĦ": 9184,
      "CP": 9185,
      "æĻºåĬĽ": 9186,
      "åĽ°æī°": 9187,
      "çļĦèīºæľ¯": 9188,
      "ä¸ºæĮĩå¯¼": 9189,
      "åĩĢåĪ©æ¶¦": 9190,
      "è®¾å¤ĩåĴĮ": 9191,
      "å¯Ĩçłģ": 9192,
      "å±ł": 9193,
      "ä»»æĦıçĲĥ": 9194,
      "éļıä¹ĭ": 9195,
      "ä¸ĢçĻ¾": 9196,
      "å¹´ä»¥ä¸Ĭ": 9197,
      "èĬ±è´¹": 9198,
      "ä»Ĭå¤©çļĦ": 9199,
      "ç«£å·¥": 9200,
      "è½¨éģĵäº¤éĢļ": 9201,
      "ä¹Łæĺ¯ä¸Ģ": 9202,
      "åĲĪåĬĽ": 9203,
      "è¿Ŀæ³ķè¡Įä¸º": 9204,
      "æ¨±": 9205,
      "èĨ³é£Ł": 9206,
      "æ²»çĸĹæĸ¹æ³ķ": 9207,
      "çİ¯å¢ĥä¸Ń": 9208,
      "äºĨè§£ä¸Ģä¸ĭ": 9209,
      "å¹´èĩ³": 9210,
      "çģ¶": 9211,
      "å¯ĵæĦı": 9212,
      "ç²¾ç¥ŀçļĦ": 9213,
      "åŀĭçļĦ": 9214,
      "çį¨": 9215,
      "æı½": 9216,
      "å´ĸ": 9217,
      "éĢłæĪĲäºĨ": 9218,
      "ä¼ļäº§çĶŁ": 9219,
      "åĴĮä¸ŃåĽ½": 9220,
      "ä¸ªæ°´": 9221,
      "çŃīæĥħåĨµ": 9222,
      "éĩĳçīĮ": 9223,
      "çģŃçģ«": 9224,
      "æķĳåĬ©": 9225,
      "å¹´éĻĲ": 9226,
      "ç»Ħéķ¿": 9227,
      "çĲĨæĥ³ä¿¡å¿µ": 9228,
      "æĤ¨åħ«åŃĹä¸ŃçļĦ": 9229,
      "åıĳçĹħçİĩ": 9230,
      "ç»Ĵ": 9231,
      "ä½ľæĸĩ": 9232,
      "çļĦåħ¨éĥ¨": 9233,
      "ä¼ĺè´¨çļĦ": 9234,
      "ç²¾çĽĬ": 9235,
      "çŁŃæĿ¿": 9236,
      "ä½ĵç³»å»ºè®¾": 9237,
      "ç§¯æŀģçļĦ": 9238,
      "åĽ½å®¶åĴĮåľ°åĮº": 9239,
      "å¥ĸé¡¹": 9240,
      "åİŁåĽłæĺ¯": 9241,
      "åŃ¤çĭ¬": 9242,
      "æį§": 9243,
      "éĵ¸éĢł": 9244,
      "è¿Ľè¡ĮçļĦ": 9245,
      "è¯ķåĽ¾": 9246,
      "å¹´çº§": 9247,
      "é«ĺç§ĳæĬĢ": 9248,
      "ä¸»éĺŁ": 9249,
      "å¹¶åıĳçĹĩ": 9250,
      "åºĶæ³¨æĦı": 9251,
      "ä¸įç¬¦åĲĪ": 9252,
      "æįŀ": 9253,
      "1998": 9254,
      "åºŁå¼ĥ": 9255,
      "æĪ¿äº§": 9256,
      "åıĳç¥¨": 9257,
      "åĽ°å¢ĥ": 9258,
      "å¹´åĨħ": 9259,
      "eng": 9260,
      "çĶµéĺ»": 9261,
      "ä»ħæ¬¡äºİ": 9262,
      "è¯¦æĥħ": 9263,
      "å°Īæ¥Ń": 9264,
      "åıĳæĶ¹": 9265,
      "èº²": 9266,
      "ç§ģäºº": 9267,
      "è®Ģ": 9268,
      "ä½ĨçĶ±äºİ": 9269,
      "åĬ¿åĬĽ": 9270,
      "é«ĺåİŁ": 9271,
      "åħļçļĦå»ºè®¾": 9272,
      "çĶµæ¢¯": 9273,
      "ä¸įå°ĳäºİ": 9274,
      "ä¸Ńè¥¿": 9275,
      "å®īç½®": 9276,
      "å¤įèĭı": 9277,
      "æķĮäºº": 9278,
      "æī¿åĬŀ": 9279,
      "å®¿èĪį": 9280,
      "èķ¾": 9281,
      "æĦ§": 9282,
      "çħ§å°Ħ": 9283,
      "æĦıè¯ĨåĪ°": 9284,
      "åı£æľį": 9285,
      "éĺĲè¿°": 9286,
      "åħļåı²åŃ¦ä¹łæķĻèĤ²": 9287,
      "é¢ł": 9288,
      "åĲįåĪĹ": 9289,
      "è£ħæľº": 9290,
      "ä¸ĢåĲĮ": 9291,
      "åīįä¸ī": 9292,
      "è®ºè¿°": 9293,
      "åİŁåŃĲ": 9294,
      "éĴĽ": 9295,
      "åĪĳæ³ķ": 9296,
      "ä¸ªéĩĳ": 9297,
      "åħ¬å¯ĵ": 9298,
      "åħ¶ä½Ļ": 9299,
      "çªĥ": 9300,
      "æĻĭçº§": 9301,
      "è¿Ļä»½": 9302,
      "æķ°é¢Ŀ": 9303,
      "åıĹæįŁ": 9304,
      "ä»£ä»·": 9305,
      "ä¸ĭæ¸¸": 9306,
      "èĬĿéº»": 9307,
      "åŀĤçĽ´": 9308,
      "åħļé£İå»īæĶ¿": 9309,
      "åĪĨçļĦ": 9310,
      "å®ĥåı¯ä»¥": 9311,
      "äº¤ä»ĺ": 9312,
      "è°ĥåĳ³": 9313,
      "æ±ĩèģļ": 9314,
      "éĩįå»º": 9315,
      "éĩįçĹĩ": 9316,
      "æĤ£çĹħ": 9317,
      "çļĦèĲ¥åħ»": 9318,
      "äºĨèĩªå·±çļĦ": 9319,
      "ä¼ģä¸ļæĸĩåĮĸ": 9320,
      "å·¥ä½ľæĬ¥åĳĬ": 9321,
      "è¯´æĺ¯": 9322,
      "ä¸Ģè¾Ī": 9323,
      "ç¬ĶèĢħ": 9324,
      "æŁ¥å¤Ħ": 9325,
      "çĽ¡": 9326,
      "ä¸Ĭæĺł": 9327,
      "çĽ®åħī": 9328,
      "èĩ³åħ³": 9329,
      "93": 9330,
      "çļĦæľĢ": 9331,
      "çīĻé½¿": 9332,
      "çļĦåı¯èĥ½æĢ§": 9333,
      "æĦ¿æĻ¯": 9334,
      "æ½®æµģ": 9335,
      "åĢ¼å¾Ĺä¸ĢæıĲ": 9336,
      "å¨ģå°¼æĸ¯": 9337,
      "ä¸ºæ°ĳ": 9338,
      "çļĦæĿĲæĸĻ": 9339,
      "éĻĦä»¶": 9340,
      "åºĶåľ¨": 9341,
      "èĩŃæ°§": 9342,
      "ä»¥åħ¶": 9343,
[...]
